h e
Ġ t
Ġ a
Ġt he
Ġ w
Ġ s
i n
n d
Ġ h
r e
Ġ o
Ġ b
Ġa nd
o u
Ġ he
e d
Ġ f
Ġ m
e r
i t
Ġt o
Ġ c
a t
i s
in g
a s
l l
Ġ d
Ġt h
e n
Ġ l
o r
a n
Ġ p
Ġo f
o n
Ġ g
a r
Ġ n
Ġ in
Ġh a
l e
l d
u t
Ġb e
o w
o m
i d
o t
Ġw as
e s
Ġ y
i m
g h
Ġy ou
Ġo n
Ġh is
Ġth at
Ġ it
Ġw h
Ġs a
v e
s e
Ġ i
Ġ e
Ġs he
Ġa s
v er
Ġhe r
s t
c e
c h
l y
a y
gh t
Ġha d
Ġf or
e t
i r
Ġ k
he r
Ġ r
Ġh im
Ġs t
it h
Ġ u
o o
a d
Ġw ith
en t
Ġw e
ou ld
Ġs o
c k
i ll
Ġ re
Ġn ot
Ġthe y
Ġ "
a m
Ġa t
Ġw he
Ġb ut
Ġsa id
Ġs e
a nd
u r
t h
t er
k e
r i
re d
t he
Ġa n
Ġa ll
Ġs h
om e
a ll
a l
Ġ is
o re
a in
i ght
Ġp r
Ġu p
Ġwhe n
' s
p p
i f
t le
Ġm e
Ġo ut
Ġd o
u n
t o
oo d
Ġwh o
Ġwe re
Ġha ve
g e
am e
on g
Ġn e
ver y
Ġon e
Ġg o
Ġthe re
Ġm y
Ġm an
Ġf r
ar d
Ġthe m
. "
i l
, "
Ġthe n
Ġwh i
an t
Ġb r
es s
q u
Ġn o
in d
l f
Ġs u
as t
Ġl i
k ed
Ġw ill
Ġs p
ou nd
w e
Ġg re
Ġc h
Ġth is
on e
Ġd e
Ġfr om
ot her
r a
ow n
Ġ j
u st
Ġk ing
Ġf e
a u
it tle
Ġw ould
Ġb y
e p
Ġpr in
he d
Ġc ould
a ck
a ke
Ġa l
Ġc ame
Ġo ld
u l
s s
Ġk n
Ġin to
ou t
i on
Ġl ittle
r y
Ġr o
se lf
r o
Ġ '
Ġse e
Ġwhi ch
b le
Ġthe ir
v en
ou gh
Ġt im
es t
Ġl e
Ġw ent
Ġ Ġ
Ġ qu
n t
i e
u s
Ġwh at
Ġd ay
w ay
Ġl o
id e
Ġ very
Ġa g
Ġi f
ou r
Ġd id
Ġyou r
re e
ou ght
t her
Ġto o
Ġtim e
Ġl oo
c t
Ġw or
a k
Ġd own
Ġa f
Ġb o
ur n
! "
it e
Ġa b
Ġn ow
er s
Ġo r
f ore
Ġp l
Ġg i
if e
a ce
ar t
Ġgre at
i c
Ġl ong
a ve
a re
c ess
v ed
a g
Ġa m
Ġbe en
Ġp o
u m
Ġag ain
w h
ri ed
Ġo ver
o p
Ġg r
Ġa re
h ing
Ġ v
Ġc l
at her
e ar
, '
ad e
ou s
Ġbe fore
Ġa r
a p
Ġc om
? "
Ġth an
Ġo ther
Ġaf ter
Ġm ore
Ġb ack
n g
Ġh ow
nd er
a id
Ġc an
au ght
. '
or n
i g
Ġf o
as s
Ġprin cess
Ġha nd
is t
e ll
Ġab out
a c
Ġc ome
Ġt w
Ġf l
Ġa way
Ġwhe re
k ing
Ġc o
i ld
Ġof f
is h
Ġm ust
Ġbe g
en ed
e red
Ġli ke
Ġon ly
Ġh ome
Ġm o
Ġan y
Ġsa w
Ġc on
ou se
i ck
in e
i re
Ġs ome
u ll
w n
ou nt
Ġtoo k
u re
Ġg ood
Ġas ked
Ġhim self
Ġe very
Ġb l
Ġp e
i ed
Ġth ought
Ġprin ce
om an
or t
a ir
Ġth r
Ġsa y
Ġup on
an g
e l
Ġw at
Ġon ce
Ġw ay
Ġha pp
Ġyou ng
f ul
Ġm u
Ġp re
Ġe x
Ġwe ll
Ġm ade
at e
Ġne ver
Ġhe ad
a ch
b ut
Ġe ven
Ġkn ow
Ġs w
a ut
- -
Ġ en
Ġm other
s o
Ġtw o
Ġst r
i ce
d d
Ġsh ould
Ġs on
Ġl ast
v es
he s
Ġt r
t ing
Ġw oman
f t
y ou
e nd
' t
b e
in k
a ge
a ble
aught er
Ġmu ch
c o
p l
Ġbe aut
urn ed
Ġto ld
Ġan s
Ġp ut
Ġw ife
Ġt ake
Ġg et
m e
y es
a red
ir st
Ġhe ard
l ed
Ġso on
p t
Ġf ather
Ġu s
Ġf ar
ing s
at h
Ġh ouse
Ġgo ld
Ġh un
d s
r ow
m ed
if ul
ll ow
Ġloo ked
Ġa pp
an ce
Ġbe c
u ck
Ġm ight
Ġc as
w he
v ing
Ġh as
Ġh or
Ġwhi le
Ġw o
Ġs et
Ġe ar
w ard
Ġf ound
d e
Ġd aughter
is e
o se
Ġd re
ad y
Ġm ar
f or
Ġw ant
Ġbeg an
Ġu nder
Ġit s
Ġn ight
Ġsh all
Ġj ust
Ġh o
Ġd is
n ow
Ġl et
Ġch ild
ir l
Ġthr ough
s h
we red
Ġc all
pp ed
Ġg l
Ġbeaut iful
Ġs m
u e
a b
Ġs at
th at
Ġth ree
Ġf irst
Ġre t
Ġsu ch
Ġg ave
Ġc ar
Ġhe re
Ġt ell
n e
Ġans wered
i ly
Ġgi ve
Ġdo or
Ġwat er
Ġc ried
an c
e en
or d
Ġm aid
th ing
Ġs c
all y
Ġbr other
is hed
g et
i ve
Ġg irl
Ġcas tle
i gh
i p
Ġqu ite
Ġf ind
oo k
Ġu n
Ġp ass
f f
Ġkn e
Ġnot hing
e ct
Ġm ake
l t
Ġe at
ear s
Ġw a
Ġf ri
ĠĠ ĠĠ
Ġw ood
Ġt ill
Ġc at
Ġa c
Ġd ra
Ġst ood
Ġbo y
Ġyou th
Ġse a
Ġbe t
i ous
op le
Ġst ill
s ide
Ġm orn
i es
? '
Ġs un
c hed
le s
Ġe ver
d ge
wh at
ir d
Ġo wn
e m
Ġs il
t ed
Ġpe ople
le as
Ġt ree
Ġloo k
Ġw ind
Ġr an
Ġm ay
n o
n ot
Ġmorn ing
Ġgi ant
ar k
t y
Ġan other
Ġo p
Ġle ft
m an
c l
Ġkne w
ot h
le ep
Ġl ife
Ġpo or
s p
e ver
it y
s he
Ġhe art
as ter
re at
o y
Ġ im
Ġman y
Ġg ot
Ġy et
we ll
Ġpl ace
Ġdo g
Ġp er
Ġs l
Ġe yes
m ent
Ġcall ed
b er
x t
! '
Ġne ar
o f
Ġqu een
t ain
ac hed
Ġhand s
Ġm on
a pp
is ter
Ġfe ll
Ġal ong
Ġhor se
Ġth ink
is ed
Ġr ound
Ġs er
Ġse en
Ġthe se
om et
au se
Ġgre w
Ġl ay
Ġm ount
an s
at ter
Ġp leas
ow ed
way s
Ġf ore
Ġe ach
n ess
a w
Ġf air
Ġw al
get her
Ġfo llow
Ġ ent
Ġr i
Ġwor ld
whe n
Ġwh ite
Ġhe l
ion s
le ss
a il
Ġwho le
Ġf in
Ġeven ing
the n
an ge
u p
Ġe nd
Ġwith out
Ġf ire
Ġm en
Ġgo ing
Ġc our
Ġth ough
o ke
Ġk ind
ak ing
Ġmaid en
Ġd r
l ing
n ing
Ġher self
o s
i z
ow er
Ġs it
Ġne xt
d y
p er
Ġs omet
s ent
Ġlo dge
Ġar m
Ġa d
le w
Ġst o
p r
Ġl ight
Ġt re
Ġst re
Ġn or
Ġlo ve
Ġbe l
Ġk e
Ġb re
Ġs ent
Ġro om
the y
Ġst or
Ġm om
Ġp art
Ġhel p
se l
Ġal ways
m er
Ġt urned
d ay
Ġr ight
g ed
Ġsa me
Ġl ar
t en
Ġor d
Ġth ing
um p
Ġmo st
Ġs k
Ġw ar
Ġli ved
Ġpr o
Ġb u
Ġs ister
at ed
Ġbr ought
Ġc ount
Ġsu re
the re
b o
re n
in ce
Ġd one
Ġde l
ro ss
Ġst e
Ġu nt
Ġd es
Ġsee med
Ġc r
Ġm ag
Ġbe h
o h
p an
Ġc are
Ġre d
Ġre ached
pl ied
Ġre st
ro ll
id d
Ġo ur
Ġfri end
Ġh ill
dd en
Ġto gether
Ġwa it
Ġwor k
Ġh ard
en ce
w as
Ġg one
Ġpass ed
Ġm aster
b y
Ġb ed
b and
Ġre plied
l and
Ġst and
Ġsp e
d o
a v
i red
ill ed
Ġgold en
Ġsomet hing
is s
us band
Ġy ears
ou d
Ġsay s
f e
Ġd ist
Ġunt il
Ġh u
Ġf ace
Ġday s
Ġdra g
Ġhapp y
Ġs ide
Ġhapp ened
Ġl and
m y
i le
a f
Ġc le
Ġp al
g er
Ġmom ent
Ġbet ter
Ġen ough
Ġbec ause
Ġf ast
re ss
Ġro se
Ġbr ing
Ġfe lt
Ġke ep
m b
Ġg u
it her
Ġh igh
m on
Ġlar ge
Ġsu dden
Ġh usband
Ġfore st
Ġgr ound
Ġre m
Ġsh o
h is
Ġpr om
k s
Ġb ig
Ġmount ain
b ed
at ion
Ġcon t
ie f
e ared
Ġwant ed
g o
ull y
ak en
un g
Ġbe ing
h im
' ll
in t
Ġal so
w ith
Ġc ra
ow s
o ice
Ġsil ver
Ġs ur
u b
Ġr un
Ġf lew
Ġne w
Ġt roll
Ġbeh ind
Ġlo st
o ck
Ġs leep
Ġth ou
Ġat t
Ġb oth
i an
Ġret urned
ir it
Ġs ince
Ġf ine
Ġwh om
Ġpal ace
Ġbl ack
le t
Ġf ull
Ġa ir
Ġany thing
Ġc ou
or row
Ġmag ic
Ġw ish
Ġloo king
Ġp ie
c ome
Ġhe ar
sel ves
Ġm ind
Ġbe ar
Ġpl ay
if t
Ġbe st
Ġs n
Ġdrag on
Ġop en
Ġsudden ly
Ġgre en
Ġhun g
i er
ra ve
Ġt ry
ain ed
Ġwo nder
Ġde ad
Ġm et
Ġar ound
Ġcount ry
Ġam ong
Ġcar ried
n er
Ġl ady
Ġl au
Ġac c
Ġin st
er tain
Ġf all
ie ld
g g
oo l
Ġt able
Ġth re
Ġt al
Ġchild ren
w a
Ġv oice
Ġear th
Ġser v
f ully
Ġt urn
Ġc he
Ġe m
Ġwor ds
Ġm atter
Ġst ep
Ġsp r
Ġde ath
Ġb it
Ġf our
Ġn ame
Ġsu pp
Ġd ark
m o
Ġde ar
Ġw r
Ġs ing
Ġc ut
Ġth ings
o ld
Ġs we
ri ght
Ġdre ss
Ġre ally
n ed
Ġo b
am p
ard en
Ġsm all
oo se
Ġret urn
ot s
Ġto ward
Ġpre t
Ġe l
y ing
v il
ve red
one y
re t
Ġcom ing
Ġst ay
Ġa ble
l s
Ġb ird
Ġf ish
Ġch ar
s es
Ġle ave
Ġne ed
Ġsp irit
c he
Ġstr ange
ar y
Ġw it
Ġc ry
Ġfe el
Ġt e
ar s
de ed
Ġc ur
Ġj oy
Ġt aken
i ved
Ġevery thing
ap s
o ve
Ġb ir
ke y
um b
a ven
Ġwh y
b r
Ġfair y
Ġth ose
Ġst one
Ġstr ong
Ġs ound
Ġal one
Ġg arden
Ġbec ame
Ġto p
ant s
Ġk ep
Ġfo ot
st er
Ġli ve
Ġre p
Ġas k
nd red
et er
co nd
h ow
Ġwo lf
Ġqu ick
Ġst ra
Ġkep t
Ġb us
Ġin deed
Ġho ld
in ed
an k
ick ed
Ġother s
Ġsw ord
Ġ es
Ġpre sent
h ad
Ġcan not
m other
Ġs now
it ed
Ġt er
Ġc orn
g ood
k en
Ġs ight
ot t
Ġsit ting
i x
Ġmo on
ne y
Ġad v
Ġgi ven
Ġf ood
Ġcour t
s u
or s
Ġlong er
Ġbrother s
th is
as k
Ġbr ide
Ġf a
Ġb ar
Ġd ro
d om
i ble
Ġf ur
Ġmy self
Ġh ast
Ġj e
Ġha ir
Ġwhe ther
w er
Ġmon key
Ġb ur
f ort
am ed
en g
Ġha lf
Ġre ady
Ġhu ndred
Ġord er
ou th
Ġthem selves
Ġm ur
in s
anc ed
Ġhow ever
Ġse cond
Ġl ed
c es
Ġcar ry
on es
s ch
Ġb ad
Ġm oney
Ġsu m
Ġtr ou
Ġd on
Ġl aid
Ġh op
Ġw in
Ġf ly
Ġin v
Ġagain st
Ġdis app
Ġp ower
Ġro ck
ow ing
Ġv is
Ġw all
whe re
Ġcom pan
Ġf am
Ġc ertain
Ġl ist
a z
ce ived
Ġf ield
Ġfri ght
Ġme et
he ad
Ġfor g
wh o
Ġha re
Ġstand ing
Ġw ild
Ġth ird
l i
ot hes
Ġsay ing
in king
we en
ĠĠ Ġ
im e
p o
Ġstor y
Ġfe ar
Ġpo ss
m en
if f
Ġm us
Ġp ers
Ġthe e
Ġfe et
Ġe as
Ġt in
Ġk it
ow ers
g re
Ġbo at
Ġde ep
Ġop ened
Ġb right
Ġfe w
Ġsa d
Ġh ur
il ed
Ġt ri
Ġf is
Ġm r
Ġa w
a le
ar o
Ġre f
reat ure
ap e
Ġro ad
bo dy
Ġcl ose
Ġto wn
Ġbl ue
in ess
Ġel se
al s
Ġsw all
Ġro de
Ġp ur
Ġswe et
Ġex p
art ed
on s
o l
Ġent ered
ra id
Ġk ill
we l
p e
Ġfor th
Ġha ving
ire ct
Ġgl ad
th ough
Ġj ack
ang er
t ree
Ġac ross
iz ed
Ġf et
Ġc e
Ġm er
Ġbir ds
Ġc aught
il t
un e
ch ing
Ġdr ink
Ġri ver
Ġsur pr
a im
Ġfollow ed
Ġle g
Ġh our
Ġwor d
Ġcl othes
Ġfe llow
Ġdre w
Ġsh ore
id es
p le
Ġs qu
Ġw ished
i et
Ġc reature
Ġwind ow
c ed
Ġa dd
Ġan g
Ġbo dy
Ġt rave
a wn
Ġg ent
h ave
Ġha ll
Ġse ven
Ġbet ween
Ġar ri
Ġd u
igh b
r or
t ered
idd le
Ġsp oke
Ġaf raid
ate ly
h aps
i ch
Ġthre w
Ġth us
Ġy ear
ig n
mo st
re ady
Ġd irect
Ġch ur
ed d
Ġw and
Ġd ri
Ġl ad
Ġhun ter
Ġdel ight
Ġth y
Ġi ll
Ġc re
i a
as h
Ġc ap
Ġtre es
id ed
Ġu se
Ġre me
Ġy es
Ġhe ld
on t
Ġh um
Ġsh ow
a ct
wh y
c om
ar m
Ġr ing
Ġsu c
f l
Ġquick ly
g r
ic ed
Ġmar ry
Ġsto pped
Ġprom ised
us hed
Ġkn ight
Ġas leep
Ġpleas ed
Ġb en
Ġhe aven
Ġking dom
' m
Ġyoung est
Ġchur ch
Ġshe ep
Ġbr o
at s
u d
le nd
Ġtim es
end ed
Ġspe ak
are nt
Ġpr op
Ġt ried
Ġtrou ble
Ġso ft
c hes
eng th
Ġcour se
Ġb all
s aid
e ad
Ġmar ried
w ill
Ġhands ome
Ġvis it
he re
Ġp ast
z e
t e
Ġl ying
Ġe ld
Ġro ll
Ġc ross
ent y
n ight
Ġdo es
Ġforg ot
af ter
ask et
Ġco ld
Ġg oose
Ċ ĠĠĠ
our ney
Ġne ighb
Ġhead s
Ġfam ily
Ġes c
Ġgr ass
Ġj ump
Ġter ri
Ġp ri
ce pt
Ġwh is
Ġm il
' d
i ent
Ġl ength
st and
Ġbeg ged
Ġab ove
Ġpl ac
Ġbo x
Ġgr and
Ġt ears
Ġstra ight
Ġl ake
p s
Ġtr ue
c as
Ġfor t
Ġbel ie
Ġne ck
on ce
u se
Ġapp eared
l o
ch ant
b it
Ġcom m
Ġf illed
Ġm outh
Ġal ready
Ġsp lend
Ġb ow
edd ing
Ġch ief
Ġof ten
Ġle a
ect ed
Ġso ld
Ġm is
Ġang ry
Ġfl o
ar row
l ittle
g hed
Ġfl owers
Ġpret ty
Ġn one
ĠĠĠĠ ĠĠĠĠ
Ġwho se
Ġsa ve
Ġsh ort
Ġgent le
wh ich
h o
Ġg ate
Ġl uck
Ġfriend s
Ġans wer
Ġm a
Ġarm s
Ġwal ked
ang ed
r on
ce ed
Ġgo d
Ġb asket
Ġt ou
Ġfe ather
om en
Ġis land
Ġus ed
Ġj ourney
Ġspr ing
Ġs or
ar ing
a i
Ġyour self
Ġsp ot
the m
Ġs ix
Ġdog s
Ġth inking
Ġf ree
Ġfo x
Ġh on
Ġf ing
Ġhe av
Ġbe side
Ġl oud
us h
a h
u ed
Ġr u
Ġapp le
w or
Ġlau gh
oo f
Ġre ceived
re ad
Ġe ag
Ġarri ved
n y
Ġcl im
Ġl ord
Ġfright ened
Ġli ving
Ġpre p
Ġsoon er
Ġfet ch
Ġbr id
Ġlove ly
Ġper haps
Ġt aking
Ġqu est
Ġbre ak
u ght
Ġb ull
Ġt ired
Ġw icked
Ġf re
Ġbe at
u al
Ġk illed
arent s
or y
s ed
Ġre co
Ġtoward s
Ġm id
Ġb ag
Ġv ill
Ġsho es
Ġw ise
s er
it ion
Ġd uck
Ġp ot
y e
wh ile
ri es
Ġsh ip
ri e
Ġse c
Ġinst ead
Ġlau ghed
ck et
ic ul
Ġwit ch
os ed
Ġin side
Ġp ain
Ġwin ter
b l
Ġhard ly
s c
Ġmur m
Ġp ull
Ġco vered
ro om
air s
o nd
Ġm iddle
Ġbec ome
Ġt ail
Ġf ive
Ġfollow ing
Ġbl ood
Ġh ut
Ġp at
Ġcont in
Ġd ied
ak es
i les
Ġw edding
Ġbel ong
Ġd i
Ġne ither
Ġwait ing
Ġdisapp eared
Ġdra w
ver al
Ġgu ard
ell ow
Ġsu it
Ġh orn
Ġsc ar
Ġh ans
as p
ous and
Ġmus ic
Ġdre am
Ġcorn er
at tle
Ġwar m
Ġsk y
Ġf ight
Ġcle ar
Ġre l
Ġp ay
Ġsister s
Ġpr ay
er ing
Ġr id
in ing
Ġwonder ful
Ġsum mer
Ġw is
ri age
re nt
Ġw ide
y our
Ġapp ro
Ġle ast
m orrow
Ġsplend id
Ġgr ow
Ġst able
in ner
Ġan im
Ġcom p
as on
Ġst ick
Ġp arents
Ġw ine
l oo
Ġm in
Ġme ant
Ġb ade
se e
Ġri ch
Ġwal k
che n
Ġcon f
Ġsa fe
Ġqu iet
Ġse veral
Ġcertain ly
Ġhor ses
u red
Ġwith in
Ġfa ith
cl aim
Ġdist ance
Ġvill age
Ġat e
u ff
Ġpo cket
Ġswall ow
Ġrun ning
he red
Ġ (
in a
f r
Ġsh ook
Ġrem ained
Ġag o
Ġwe l
Ġd ie
Ġse ar
Ġlo ved
Ġwe e
Ġin d
Ġhop e
Ġsp o
ut ter
at er
et h
an y
aught ers
Ġe vil
Ġm aking
Ġde c
Ġstr uck
Ġd ance
Ġcompan y
Ġw omen
Ġcra b
Ġse ized
Ġle ar
j oy
Ġg ift
Ġal though
Ġf at
Ġsupp er
at o
k o
Ġnear ly
um ber
Ġr ather
Ġfin ished
en s
in ted
Ġth ousand
Ġwat ch
Ġdress ed
ing ly
Ġst ri
ure s
Ġin t
pp ing
as se
Ġde p
Ġprom ise
Ġk iss
t s
Ġme an
Ġg ra
Ġlist en
Ġre qu
Ġfar mer
Ġs le
Ġfort une
ent ion
Ġkn own
Ġhun ting
Ġb urn
ut e
h app
Ġd anc
Ġhe n
Ġc up
Ġmurm ur
Ġm ort
h and
Ġal most
Ġas t
ment s
Ġh id
Ġd aughters
Ġb an
Ġar row
Ġapp ear
Ġle ad
we re
t ake
f ather
c ious
Ġc ow
Ġf ir
Ġfor ward
if fe
s ing
ck ed
Ġli ves
Ġfl ower
ed ge
Ġli e
Ġno se
Ġpie ce
Ġhung ry
Ġe gg
ap er
Ġm ir
f ied
Ġco nd
Ġfr ont
Ġheav y
Ġste pped
Ġcou n
ct ed
Ġi ron
Ġc ity
u nder
Ġout side
Ġm ess
Ġri b
Ġr a
Ġmagic ian
l ight
Ġre g
med i
medi ately
Ġa ge
claim ed
Ġs ort
Ġo w
Ġst ones
Ġpie ces
Ġro b
Ġp in
Ġplac ed
idd en
Ġnot iced
Ġbeaut y
Ġfr o
r ist
Ġunder stand
Ġ ve
Ġre al
ut h
wel ve
e e
et tle
l ong
iz e
i ers
Ġle af
Ġim p
Ġe ye
as ant
Ġl ess
Ġu g
Ġtal k
Ġbr oke
Ġst ar
Ġc ott
Ġc ast
fr om
ant ly
Ġstre t
Ġm ist
Ġcom es
Ġsh out
Ġfur ther
Ġdo ing
et s
Ġm at
Ġbelie ve
Ġeat en
Ġm ouse
am b
ur ing
Ġbe ll
re r
Ġfo l
i al
Ġs ch
Ġto ng
Ġto m
Ġem per
Ġg rie
Ġcomm and
ep ing
Ġhum an
Ġkn ock
Ġim mediately
Ġp ath
Ġc row
Ġkit chen
Ġim ag
ver s
Ġsto ve
Ġd inner
Ġbe ast
in ning
Ġd ou
Ġwait ed
Ġbr ave
t ime
Ġserv ants
Ġar t
Ġjump ed
Ġc ook
ri g
i b
as ed
re st
re ed
Ġcom fort
Ġget ting
Ġs ou
Ġs orrow
Ġho le
Ġs ong
il ing
ng th
Ġman ner
Ġl atter
Ġg ar
l v
Ġall owed
Ġo c
Ġcontin ued
Ġas s
Ġt welve
ou red
Ġsl i
Ġre ach
ap ed
w ould
Ġast on
h a
Ġpl ain
wh ite
anc hes
ound ed
Ġf it
Ġh ang
Ġt all
Ġfin n
ent s
Ġesc ape
Ġfe ast
r u
Ġp ig
y ed
Ġbu y
Ġpers on
ous in
an e
Ġemper or
Ġit self
Ġch ange
Ġse nd
g ing
Ġch rist
ag es
Ġno ise
Ġnor th
Ġk ettle
Ġgre et
Ġfor get
ress ed
Ġwhat ever
Ġsurpr ised
Ġn at
m s
Ġposs ess
Ġplay ed
Ġde cl
Ġbre ad
Ġear ly
f ect
Ġadd ed
Ġt em
ra ge
m aid
Ġsu ff
un k
Ġen em
h ouse
g u
Ġwe pt
c on
Ġsee k
Ġbr anches
ust om
Ġp u
Ġstr anger
Ġco at
Ġthere fore
Ġm iss
Ġto r
ad ed
Ġsa nd
Ġy ellow
w oman
Ġr ain
Ġto ad
Ġmaid wa
us ed
c ould
Ġtin y
as e
m ing
Ġpleas ure
s ome
m ber
i ct
Ġo h
Ġl ate
is on
r at
Ġfol k
sch a
am o
Ġroll ed
eter m
Ġsing le
Ġex act
ward s
pt y
the ir
Ġsee ing
Ġcare fully
Ġag reed
Ġsp read
Ġmil k
Ġj o
Ġh at
Ġterri ble
Ġfin ally
Ġb less
l aw
Ġm ot
Ġw ings
ab bit
Ġd iffe
ott om
Ġsec ret
are well
Ġwel come
Ġord ered
Ġfre sh
Ġhapp en
Ġus ual
Ġsk in
Ġsh ining
Ġsh owed
u ally
w ood
Ġpe ace
are r
ish ment
Ġwal king
Ġp aid
Ġprop er
Ġcott age
Ġl ow
Ġstre ngth
Ġc ro
Ġp eter
aw s
po ss
Ġgl ass
Ġthr ow
Ġw on
Ġprep ared
Ġpo l
Ġreme mb
Ġro y
Ġd anced
ail ed
Ġwand ered
Ġbro ken
Ġde er
Ġth umb
Ġsure ly
al th
Ġtong ue
Ġde vil
Ġneighb or
f all
Ġbur st
Ġst arted
Ġdelight ed
Ġco ck
Ġdes ire
so l
Ġlea ves
mb led
j o
Ġen chant
Ġv an
ind e
Ġcon s
Ġpro v
Ġdou b
es e
f a
m it
Ġson s
b oy
Ġtr uth
Ġl amp
Ġa ct
Ġd sch
Ġch anged
Ġen joy
Ġug ly
Ġs im
d aughter
u c
Ġr ushed
Ġbl ow
ar p
Ġben e
Ġp aper
Ġsp arrow
-- "
Ġrib by
it ch
Ġmir ror
Ġsat is
Ġcre pt
Ġmaiden s
c le
i ence
Ġsl ow
Ġevery one
at ions
Ġch ance
Ġbe s
Ġp ear
Ġsor ry
Ġt ied
Ġwo nd
Ġleg s
Ġr ub
m ouse
Ġc ousin
Ġr abbit
Ġh ot
Ġb ottom
Ġd eterm
be fore
Ġr oof
Ġre ward
im es
ck s
in to
Ġsh one
Ġpleas e
Ġex claimed
Ġas hes
y ond
Ġst op
ent ed
j ect
Ġstre am
Ġme al
Ġf av
Ġhill s
Ġthan ked
Ġse ated
b s
Ġfis her
Ġ edge
Ġn ur
Ġre s
u g
c an
Ġbit ter
Ġgr own
ne ver
Ġm iles
Ġcat ch
Ġbe yond
Ġs ang
Ġear s
t r
Ġre ason
Ġflo or
Ġqu ar
Ġb ab
Ġd are
Ġl if
Ġu r
Ġs ign
Ġl asse
re l
at ing
Ġv ain
d own
Ġdre ad
o ver
j ust
Ġr age
Ġlist ened
Ġwor se
iff icul
ch ild
e very
Ġtal king
Ġr ide
sp ect
Ġroy al
Ġrem ain
Ġfo nd
st r
Ġp ick
ce ly
Ġg at
Ġy ard
Ġcle an
Ġin s
Ġwar ri
Ġco l
as ure
Ġfl ung
g i
is ing
Ġexact ly
Ġt ra
Ġgu est
Ġd ish
Ġn ice
Ġbut ter
Ġm ad
Ġob l
Ġobl ig
Ġp or
Ġb orn
Ġex cept
Ġsing ing
e y
Ġsuc cess
u it
Ġcou rage
Ġr at
Ġclim bed
Ġe ither
am ber
Ġd y
Ġc ave
Ġl awn
Ġg rave
Ġth ick
Ġdis p
s ence
Ġcr own
pr in
Ġp air
Ġbo ots
Ġinv ited
Ġfaith ful
ot e
Ġtou ched
Ġn umber
Ġdu ke
w ar
ak er
Ġc ows
Ġex c
pp er
Ġn est
Ġmr s
Ġdeterm ined
ad ow
Ġbre ath
c ri
Ġeas y
Ġg en
Ġpe asant
he ld
g reat
Ġtell ing
Ġh arm
Ġc or
if ic
Ġt en
Ġthan k
Ġsuc ceed
Ġd uring
Ġbene ath
Ġse ll
Ġcom r
her d
Ġha lv
Ġhalv or
Ġg az
Ġg all
Ġacc ord
ag ed
Ġmar riage
Ġbes ides
s on
Ġcon sent
Ġpr oud
Ġg ame
Ġo ught
Ġgirl s
am es
Ġw est
che ss
' ve
g n
prin cess
t w
ag ain
Ġany one
Ġreme mber
Ġan x
Ġserv ant
ab ly
Ġf le
Ġno body
s it
co vered
Ġsp ite
ou n
Ġo pp
Ġeat ing
Ġsh ape
Ġsh arp
Ġwat ched
Ġdirect ion
pl ace
m iss
Ġm ill
Ġg ro
Ġf arewell
Ġst art
Ġsil ent
ious ly
ain t
Ġrequ est
Ġpresent ly
Ġwe ar
au sed
Ġrememb ered
Ġsh ot
Ġquest ion
id er
Ġm ine
up on
Ġfr uit
a ver
Ġd ry
ar rig
Ġdiffe rent
him self
Ġmo ved
ir ty
Ġp ity
p re
Ġf ool
Ġacc om
Ġsh ut
Ġhur ried
ce nd
Ġspr ang
f o
o red
Ġd ifficul
s y
Ġoblig ed
one ly
g s
Ġpl enty
se t
k u
ch ief
Ġnew s
Ġcra ck
d er
ot aro
Ġwas s
Ġwass amo
Ġbrid ge
Ġmo ve
Ġsurpr ise
Ġfar m
Ġcl o
Ġra ised
Ġthought s
em pt
to gether
Ġw id
Ġp un
Ġd well
qu ired
Ġeld er
Ġfield s
Ġfor m
Ġgentle man
ist ed
g y
poss ible
Ġeas ily
it ten
Ġfing er
Ġme ans
f ast
h old
Ġsp ent
Ġsear ch
Ġcry ing
Ġb attle
Ġeld est
Ġw ool
oo p
Ġear l
el s
Ġmountain s
Ġsw an
Ġboy s
ad d
Ġdro ve
Ġmot i
Ġhon or
Ġgr ant
Ġgreat ly
h ood
Ġdes p
c ame
b ack
Ġpull ed
Ġimag ine
Ġher d
Ġex t
v ent
Ġde al
for med
Ġdecl ared
Ġhour s
ound s
Ġdro pped
Ġd a
Ġo be
li ke
Ġcom pl
Ċ ĠĠĠĠĠĠĠĠ
Ġw ilt
n a
c her
Ġcomr ade
Ġeag le
mon s
Ġcl ou
Ġnot scha
Ġbel ow
Ġte eth
Ġmon th
Ġsp ark
Ġbe held
happ y
Ġposs ible
m ore
Ġwhen ever
oo ked
Ġn amed
all ey
Ġpre cious
un t
Ġb on
Ġlaugh ing
b ing
Ġch amber
Ġh ar
Ġbl o
Ġi ce
Ġb ook
j am
an a
ut tered
Ġadv ice
i est
o inted
Ġsle pt
Ġli ked
not hing
Ġl onely
Ġfair ies
Ġd est
Ġkn ife
Ġsw ift
Ġh idden
Ġh ook
Ġh ig
Ġgre y
Ġdel ic
Ġwood s
Ġhun t
bo ard
i ans
ass o
ab out
th ought
Ġenem y
ic es
Ġlo se
Ġspirit s
dd le
Ġslow ly
Ġgen er
Ġre ad
Ġanim al
Ġal ive
Ġfis hing
Ġspe ed
k n
en se
ell y
Ġn ine
Ġb lew
Ġserv ice
Ġb owed
Ġbad ger
w ife
loo king
Ġfing ers
Ġche e
e x
c ur
p art
Ġcle ver
Ġprincess es
ain s
or m
be en
Ġn ut
Ġt ast
Ġv alley
at tered
Ġstep s
Ġwor th
th ur
Ġas h
Ġm ice
Ġch oose
Ġb uck
Ġbr own
a ff
Ġ er
o nder
Ġfeather s
Ġs ir
Ġk il
i v
Ġw ore
Ġdy arrig
Ġhapp ily
Ġd awn
in ary
Ġw ag
Ġstret ched
Ġfly ing
l ook
d id
w ent
Ġstra w
Ġpe ep
Ġdanc ing
Ġvan ished
Ġtry ing
n ific
i ver
Ġstor m
Ġt reat
Ġapp les
r id
Ġclou ds
ap an
Ġmount ed
Ġe ff
Ġsatis fied
Ġho llow
Ġbu ild
Ġmon ster
re w
Ġem pty
Ġhur ry
Ġent er
Ġcas e
ent ly
k ind
ip e
Ġ ide
Ġcarry ing
st airs
Ġsu b
Ġpleas ant
Ġb urned
Ġhu ge
Ċ Ġ
g ain
Ġth ief
on ly
Ġlif ted
Ġbus iness
r ing
Ġco ll
p ered
Ġsa il
Ġnur se
c er
Ġste ed
Ġsh ir
Ġj apan
Ġj elly
el ina
wa it
a x
th r
in th
Ġappro ach
t ell
Ġhe dge
Ġclo ak
Ġh ide
le br
Ġt ur
Ġbu ilt
Ġb ought
Ġc ir
Ġgr owing
Ġdoub t
Ġf ier
Ġdo ct
Ġwood en
Ġfeel ing
ven ge
Ġc al
Ġwr ong
Ġdec ided
Ġno ble
ro se
Ġsil k
or ds
Ġthr ust
Ġwal ter
Ġde v
Ġwid ow
Ġan c
Ġmom otaro
Ġknow ing
Ġgrie f
Ġc ause
Ġatt end
u el
Ġreco gn
are st
h y
Ġst ars
Ġaw oke
Ġli ps
Ġhapp iness
w ise
g l
Ġc ustom
Ġmag nific
d ra
Ġar thur
h or
Ġs ick
Ġex ch
Ġe mb
ul t
Ġwe ather
ra p
Ġth under
Ġj am
Ġsa int
u an
Ġdu chess
Ġthumb elina
Ġdid n
Ġin c
Ġpur su
s w
Ġwa ves
Ġh y
Ġb ent
Ġknock ed
Ġhast e
Ġd ust
Ġdes er
Ġstay ed
Ġexp ected
Ġdr ank
Ġcl oud
Ġsold iers
e ch
Ġsm o
Ġwe ary
Ġd anger
Ġegg s
Ġamong st
he art
war f
Ġp ar
do or
g ar
Ġa x
oh n
Ġman it
Ġnot ice
Ġgar ments
Ġmight y
Ġbitter ly
ce ive
Ġkind ness
f irst
Ġent ire
Ġear n
ig ned
Ġrep ly
ous es
o ff
s k
Ġpur p
Ġgreat est
u nd
Ġappear ance
Ġspo ken
Ġpl an
b led
Ġch o
Ġscar cely
Ġatt empt
ive red
up id
Ġf un
Ġanim als
Ġpr of
Ġlea ving
Ġgat hered
Ġbr an
Ġhang ing
Ġstre et
Ġch air
en ing
Ġsm ell
c a
. .
b en
au l
om as
go d
Ċ ĠĠĠĠ
Ġb ank
Ġsur r
Ġwall s
Ġc and
Ġfind ing
Ġdread ful
Ġide a
Ġsleep ing
Ġadv ent
it ter
Ġcur ious
Ġne arer
Ġmis er
Ġc aused
Ġenchant ed
for m
Ġdi v
re ll
Ġd ut
Ġlet ter
Ġsc re
w ed
Ġhorn s
Ġp icked
Ġsort s
Ġche st
Ġwas h
im ney
Ġthre ad
Ġbu nd
Ġwho ever
m aster
Ġb amb
Ġbamb oo
Ġgo at
Ġb ot
gre g
Ġkit ten
Ġwarri or
Ġdo ll
Ġgre the
Ġgrethe l
int aro
Ġsli pped
Ġmort al
Ġim possible
Ġdesp air
Ġshout ed
Ġun happy
be g
Ġme at
Ġa h
Ġthr own
Ġce lebr
ac es
ard s
Ġhe ed
Ġd en
Ġwond ered
Ġput ting
ash ion
Ġbur ied
Ġpo int
Ġknow s
Ġl ater
Ġsoft ly
Ġsn ake
Ġje we
as hed
Ġsomet imes
by e
Ġsp ell
Ġyoung er
Ġsk ill
Ġte a
l in
Ġarrow s
t led
k er
Ġmu ff
Ġmanit o
Ġk o
it al
Ġneighb our
am ing
d is
Ġbus hes
Ġp en
Ġexp ect
Ġf ate
be aut
i ke
' re
Ġke y
ut es
Ġbus y
Ġevery body
Ġwee k
c i
Ġcou ple
Ġco ach
Ġsa l
Ġpurp ose
Ġb ound
Ġs ought
Ġper fect
Ġr aven
Ġfe ed
Ġb ones
Ġtrave l
Ġsc rat
Ġdoct or
Ġc ab
own ed
Ġturn ing
Ġt ip
Ġforgot ten
Ġp ill
Ġsa iled
Ġmist ress
Ġfall en
no on
Ġcrow d
ort ed
Ġtw ice
co d
Ġlear ned
Ġj ohn
Ġf ig
Ġv ent
Ġo gre
Ġtim my
Ġth irst
Ġkiss ed
Ġc ent
Ġaston ished
Ġst ir
g ive
ig hed
asp ed
Ġcl osed
Ġad m
Ġe ight
m n
re ly
re mon
Ġun less
Ġwhis tle
en ger
qu een
st ep
Ġm or
Ġlook s
Ġarm or
Ġbro ad
ro ad
Ġon es
Ġst upid
Ġhor ri
Ġh ouses
Ġs outh
Ġcom b
sh ip
Ġshould er
Ġman tle
Ġch imney
s ister
Ġcro cod
ep h
eph any
Ġbot tle
Ġsilver white
jam in
ke l
c greg
cgreg or
Ġmon ed
Ġow asso
ret ched
Ġappro ached
Ġmeant ime
am ent
Ġpl um
Ġar r
ay s
st one
Ġcont ent
d ear
Ġdra wn
Ġaf f
se mbled
Ġmid st
Ġre jo
Ġsm ith
Ġplay ing
Ġwill ing
Ġrid ing
Ġwas hed
Ġc art
you ng
Ġaccom pan
z z
Ġal together
t ook
we lt
an ter
Ġmid night
Ġtou ch
Ġshould ers
Ġd warf
Ġsou l
Ġst ate
Ġan ger
Ġp anc
Ġwhis pered
Ġs en
ep er
Ġdark ness
Ġjewe ls
st ood
Ġa rose
Ġre spect
Ġgr ay
Ġrock et
Ġpo et
Ġfav or
Ġk intaro
Ġk ung
Ġb id
m ount
thr ough
Ġgi ving
ac inth
Ġth reat
Ġmin ute
c our
Ġsafe ly
Ġacc ount
Ġmer ry
Ġsho e
it ies
Ġhelp ed
Ġfe ared
Ġbe fall
Ġli es
Ġser ved
Ġwe ep
in es
Ġf al
i ves
b re
Ġatt ention
Ġt ear
ve l
Ġwe eping
Ġex pl
Ġter ror
Ġd welt
Ġpass ing
Ġst ro
Ġher o
Ġin quired
Ġp et
us hing
f ace
Ġhun ger
Ġhast ened
Ġch anced
Ġburn ing
Ġb and
Ġst uck
Ġglad ly
d u
Ġkind ly
Ġbar gain
Ġt ephany
Ġsold ier
m r
Ġli u
Ġsw am
b et
Ġw ake
f in
Ġcare ful
Ġdes cend
mb ling
ss ed
Ġref use
Ġsm iled
Ġv al
let e
Ġwr itten
Ġche er
ser ved
Ġr ag
Ġsh are
Ġtal ked
kn own
Ġmess enger
Ġcons ider
Ġ id
Ġquiet ly
loo ked
c up
Ġb un
br other
Ġwat ching
Ġpart y
Ġwat ers
Ġcreature s
Ġcat tle
Ġsw im
a gh
Ġf ailed
Ġse at
y dd
s il
Ġbund le
Ġsp ort
Ġth omas
Ġpin kel
Ġg y
st al
Ġhold ing
ad le
Ġme adow
o e
d on
Ġp ure
an other
z en
Ġcl oth
at es
Ġmar k
a ves
Ġb ore
be c
Ġt ight
a les
Ġhast ily
Ġeag er
Ġob tain
fort une
Ġsee m
Ġal oud
Ġa v
Ġwor ked
Ġa id
Ġpret ended
Ġlad ies
Ġsh r
w al
Ġman age
Ġfall ing
Ġdist ant
Ġbeh old
we e
i ko
Ġcall ing
Ġm our
Ġpower ful
um n
Ġpear ls
p ass
gr ound
Ġha m
ss om
aw ydd
awydd an
Ġen g
Ġgo bl
Ġben jamin
Ġm cgregor
Ġdsch ang
Ġgy nt
Ġtrave ll
Ġsound ed
c r
Ġmil an
beaut iful
sh all
o ved
c ount
Ġve x
f ar
Ġbelong ed
k now
Ġend ed
Ġroom s
Ġtr ust
Ġas king
c y
Ġgl o
Ġp it
ar i
Ġle an
Ġbab y
Ġf if
ess ed
Ġdis covered
b all
Ġsil ence
w ater
Ġfin est
Ġr ise
Ġbran ch
Ġstor ies
Ġt ale
g es
Ġsu sp
Ġsch ol
Ġbeg inning
miss ion
Ġle aped
Ġsw ords
Ġe ast
Ġdro p
is ie
Ġmer chant
Ġkne es
b es
ed s
Ġtw enty
Ġhy acinth
Ġsupp ose
he n
Ġcross ed
Ġro ots
Ġc ake
l er
Ġoc cas
y n
Ġanx ious
h at
Ġce remon
Ġcelebr ated
Ġfa ct
sp irit
Ġcon tain
is hing
Ġbring ing
Ġbo ld
Ġsm oke
Ġrub bed
Ġhare s
Ġco ver
ku fa
Ġr ice
Ġpre sence
s omet
ack ed
ter day
Ġw et
Ġoff ered
m ay
a way
it s
Ġy onder
o on
Ġfriend ly
Ġp ine
Ġl ump
Ġje wel
Ġpanc ake
a ac
Ġsqu ir
Ġref used
Ġg le
Ġcond ition
Ġd ared
ir t
Ġloud ly
Ġcr uel
m ust
Ġf anc
Ġclose ly
ient ly
Ġsa ke
Ġnat ur
Ġdraw ing
Ġp ale
Ġso le
d el
sh ould
Ġre sol
e ven
Ġth in
Ġpo ison
Ġarm y
l ter
Ġpr a
Ġp ort
Ġrep e
Ġmagnific ent
Ġhand ed
Ġdest ro
Ġcl ub
Ġma j
Ġall ow
Ġwhe el
Ġco ff
Ġg ather
child ren
Ġbe w
Ġst ore
Ġswall owed
n or
Ġv i
Ġob ject
Ġman awyddan
Ġblo ssom
Ġgo es
e gg
Ġg un
co al
ber ry
Ġpri ze
ack et
um ed
Ġto wer
pp et
Ġanc ient
Ġw ound
Ġsa ck
rell a
Ġkn os
t roll
Ġmuff et
Ġt ab
ith a
ow a
Ġbe ard
Ġcr adle
id ent
Ġref le
Ġfl ock
us ion
Ġs y
Ġre ceive
c cas
l en
Ġpo inted
Ġe le
Ġcoun c
c all
Ġcompan ion
int ment
Ġaston ishment
ld ed
Ġbr ook
Ġh ither
led ge
at ch
est y
Ġf ashion
Ġho st
Ġexch ange
Ġdel ivered
Ġaw ake
Ġse al
Ġhorri ble
a o
Ġafter noon
Ġpri est
Ġstr ing
Ġloo se
Ġrem ark
Ġmu d
u gg
Ġr ace
Ġcra w
Ġshe ll
Ġas ide
do g
Ġt ar
m ar
Ġcon st
Ġmonth s
Ġinst antly
Ġgaz ed
Ġa part
Ġdirect ly
h ome
t re
g room
un ning
Ġgall op
Ġgift s
Ġe qu
b ly
qu et
sh ine
Ġwonder ing
orm ous
bec ause
f ire
Ġsou p
th an
Ġpr ot
Ġbad ly
Ġsurr ounded
Ġh it
Ġyour s
Ġfir m
Ġr ough
Ġsh ake
b ai
bai k
Ġwee ks
Ġdri ve
op e
h u
Ġst ud
Ġt ig
Ġwo ke
Ġsho ot
h ill
Ġsm ile
Ġkil we
Ġkilwe h
p en
Ġshe p
Ġsor ce
Ġtre asure
Ġl im
Ġd ull
Ġhe alth
Ġfo ster
ot o
p eter
un a
Ġtab itha
Ġsqu ire
Ġis aac
Ġbo ar
m and
ate ful
Ġr ic
Ġs ank
w ind
Ġfool ish
b el
p leas
Ġpro ceed
tw o
Ġchar i
Ġentire ly
Ġce ased
Ġm akes
Ġman aged
Ġord ers
Ġsp inning
Ġdoor s
Ġfet ched
p ar
icul ar
m ake
Ġac cept
Ġam use
ort un
Ġp ict
Ġbreak fast
Ġpart ed
Ġtr u
umb led
at ched
ll y
Ġwant s
Ġpo st
he l
Ġcompan ions
Ġr ising
Ġwis hes
Ġmo or
r ance
Ġp le
Ġlear n
Ġb are
Ġint ended
il s
Ġwit hered
s we
Ġbu ff
ip attle
Ġsorce rer
m as
Ġma isie
ch ub
chub ar
Ġjam ie
im a
Ġshir o
Ġcr ane
Ġl uc
a pped
Ġgre ed
Ġdeep ly
su dden
Ġcoun sel
Ġf aint
Ġb reat
Ġtre mbling
Ġwa x
Ġbride groom
Ġprin ces
f ly
m u
u de
Ġf u
Ġto re
Ġsh ame
ow l
ty ard
Ġte ach
anc es
Ġconsent ed
Ġsmo oth
Ġmeet ing
Ġpresent ed
ren ce
Ġw retched
th ree
Ġtri ck
Ġsp l
Ġmaj esty
Ġclim b
g est
Ġe re
Ġbelie ved
ink le
Ġd ig
Ġsur face
Ġgo pan
Ġgopan i
Ġsa ved
Ġtrou bled
nd ay
he st
Ġp ump
Ġno dd
Ġsp are
Ġopen ing
Ġp ushed
Ġbre ast
Ġsp end
Ġschol ar
os ite
Ġs ize
ip ed
Ġspe aking
Ġv ict
Ġfis hes
rid ge
Ġsc rap
Ġbless ed
Ġpo nd
em ima
Ġduck ling
Ġad uan
Ġcry stal
p ut
Ġl it
b ird
fo ot
Ġset ting
Ġapproach ing
Ġpl ant
Ġin ter
ct ion
ci ally
Ġsun shine
Ġland s
h al
Ġhear ing
s m
Ġth ro
Ġg ird
Ġbow l
Ġpret t
ortun ity
Ġrepe ated
Ġhouse hold
Ġtru ly
Ġwe aring
Ġso l
hor se
Ġdel iver
Ġtre m
Ġluck y
b ar
Ġin n
Ġobe yed
Ġsto len
cas tle
Ġl ab
Ġb ite
Ġfar ther
Ġm are
somet hing
Ġbless ing
Ġyes terday
so ld
am s
au lt
Ġdri ven
Ġ utter
Ġdifficul ty
Ġper mission
no c
Ġr ap
Ġan ge
Ġhe els
Ġquar ter
Ġbuff al
Ġr asp
Ġcap tain
Ġfl ames
est iv
Ġchrist mas
Ġho pped
Ġu ne
ad i
no ck
Ġo on
Ġoon agh
t ough
Ġfa wn
c utter
Ġy am
ana be
Ġcap ital
Ġsome one
sudden ly
so on
Ġsad ly
Ġlo cked
Ġch ase
Ġdifficul t
Ġs ides
Ġbear ing
pe cially
Ġsee ms
Ġsole mn
in ting
Ġen ormous
Ġdri ving
Ġord inary
idd ing
k es
or ing
Ġgr ad
Ġfal se
itter ing
pre sent
el and
Ġmis fortune
Ġgra ce
Ġopp ortunity
al as
inde ed
Ġche ese
ous ly
f er
Ġwhere ver
Ġs igh
Ġknight s
is ible
if ully
Ġbeast s
Ġp oured
Ġs co
go ld
l ain
Ġdr owned
c ou
to ld
Ġsuff ered
Ġsum mon
Ġquest ions
Ġsu nday
a ked
ss ing
Ġwe ak
Ġpre v
Ġf ift
Ġmoon light
Ġsl ain
th ou
Ġcomfort able
Ġtreat ed
Ġspe ech
Ġtor n
Ġ ver
Ġtr unk
h un
Ġb er
w ack
Ġoff ic
Ġover come
; "
Ċ ĊĠĠĠ
Ġp aul
Ġgreat er
Ġfig ure
Ġf er
Ġgobl in
av in
ittle mouse
Ġmo ppet
Ġd sing
un z
unz h
Ġmoned owa
Ġe be
Ġgo ble
Ġcl aws
app eared
ot ion
Ġde mand
us hes
Ġr ul
pr ince
Ġste al
m ory
Ġchar ming
Ġal as
d ist
ho g
as ked
l ove
ne w
Ġli ver
Ġqu ant
Ġcond u
m ade
Ġpl uck
Ġbeat ing
Ġu nd
Ġsub ject
Ġgrad ually
he ard
Ġcomp lete
al ed
n ers
Ġnat ure
Ġbeg in
Ġe v
Ġj u
Ġc her
Ġr ate
Ġser ve
Ġinst ant
gi ant
Ġab o
Ġfle sh
Ġb ill
" ;
vers ation
per haps
n et
Ġf ix
Ġbar baik
to es
ĊĠĠĠĠĠĠĠĠ Ġ
Ġso re
Ġlong ing
Ġdrag ged
Ġhig her
o es
Ġma ie
Ġhear th
Ġlar ger
Ġf ill
Ġtem p
Ġda ily
it ude
w r
Ġbefall en
Ġgreet ed
b u
Ġin noc
Ġwis dom
it ing
Ġrock s
Ġsh op
Ġfast ened
Ġcar riage
Ġchar coal
b on
Ġpro b
Ġass ipattle
Ġpor ridge
Ġoccas ion
co at
) ,
Ġsqu ee
Ġd ung
b ush
Ġfe m
Ġr yn
Ġj in
Ġyam ato
ill wack
illwack er
Ġr ats
Ġj ose
Ġsquir rel
Ġes ben
Ġpart s
Ġcourt iers
Ġdist ress
Ġthan ks
Ġdel ay
f ish
Ġs ighed
Ġmin utes
fort un
Ġearn est
Ġgr at
te rest
Ġch ose
Ġvex ed
ur s
Ġd irty
ut ure
Ġc ooked
Ġthro at
c ar
Ġcour tyard
Ġadvent ures
gre en
Ġgird le
ber ries
Ġl ack
Ġse lf
Ġc eland
Ġceland ine
s ince
Ġdi am
al ous
Ġid le
se en
Ġtr ans
Ġpun ishment
Ġgiant s
Ġtrave led
Ġadd ressed
Ġproper ty
Ġoff er
Ġst uff
Ġpers u
Ġl in
Ġen v
Ġnut s
Ġre venge
c ut
Ġher ds
the se
b ac
Ġstand s
Ġ uttered
Ġdis hes
Ġre sc
Ġsp in
Ġcur tain
Ġlike ly
Ġlight ed
der i
ri ly
Ġstr ugg
Ġopp osite
Ġrap id
Ġshep herd
Ġtre mbled
Ġro d
y ard
p ent
you th
ustom ed
Ġy e
Ġent ertain
Ġf estiv
Ġvent ure
Ġgener al
Ġru a
Ġde mons
are n
ker chief
inde rella
d uck
Ġmo ccas
s om
Ġeff ort
Ġgro an
Ġchee ks
Ġam az
Ġro be
Ġhyacinth ia
ing u
Ġchee k
Ġnow here
Ġcand le
b urn
qu ite
Ġbel oved
Ġme mory
every thing
Ġguest s
Ġfair ly
ib ly
Ġmess age
c ont
Ġin terest
mu ch
iet y
Ġbir th
Ġpo inting
Ġinc re
Ġmatter s
side red
Ġtre as
she ll
f ur
Ġfre ed
ce ll
Ġshe lter
Ġpart icular
Ġc akes
Ġdiam ond
is es
Ġun known
id ing
Ġco st
ay ing
Ġdisapp ointed
Ġh oney
Ġwh ir
Ġfam ous
Ġm ain
Ġc ord
Ġf uture
umb ling
Ġsc r
Ġour selves
ac ed
Ġthirst y
as hing
Ġf ought
Ġmat te
Ġsc attered
bac co
sh ore
Ġgl ittering
Ġf aces
Ġheaven s
ie w
Ġhe ap
ill y
Ġoc cur
p ro
Ġmort ar
Ġfore head
Ġhur t
Ġl ap
Ġvi ol
Ġhig hest
Ġw iz
Ġunder stood
th ank
Ġpr y
aps ack
Ġchar ge
Ġgrand mother
Ġold est
Ġr am
Ġfit ted
Ġban quet
Ġcl er
r ant
Ġwe alth
Ġprob ably
Ġtroll s
z ed
Ġv o
Ġdelic ate
Ġban nock
Ġne cess
Ġk avin
Ġlight ning
Ġcon chubar
Ġha w
Ġbag s
Ġmur tough
Ġstor k
Ġk aren
Ġdragon s
Ġsent aro
Ġpers im
Ġwat anabe
Ġhas e
Ġl illwacker
oo ster
Ġt ittlemouse
lo dge
Ġmoccas ins
Ġf ail
Ġte nder
Ġl ower
z ing
Ġsa ddle
re sh
Ġbeat en
g irl
air y
Ġreco vered
om es
Ġex per
us ing
Ġas sembled
Ġwa ist
Ġpig s
Ġwr ote
Ġwhen ce
Ġl est
Ġv ar
man y
Ġc age
ive ly
Ġfor ced
u es
Ġcon sidered
Ġprot ect
Ġsto le
co ver
ind ed
i pped
Ġafter wards
Ġlo ver
Ġtem per
Ġdist ur
Ġash amed
Ġinv isible
ne xt
Ġcon versation
c oun
Ġcas k
Ġcut ting
Ġher bs
Ġhop ed
Ġn et
Ġdut y
f ield
Ġst ared
Ġh ind
Ġwor king
Ġsweet heart
Ġste ad
Ġfl ed
st re
ast ed
f ell
Ġa ut
Ġaut umn
v al
Ġsle e
Ġpeep ed
Ġd am
su ch
Ġlong ed
Ġgrand father
Ġswift ly
Ġor ch
Ġpry deri
n on
Ġfl ight
see med
Ġdream s
Ġbe ak
ad ows
Ġg own
Ġstrong er
m et
Ġle ap
Ġhand le
bo x
sil ver
Ġg ing
Ġb le
n ie
Ġimp ort
Ġcl iff
wor m
Ġme asure
Ġun kind
Ġkit t
Ġins isted
Ġcup board
Ġr adi
Ġm ac
Ġser ving
Ġbe ings
Ġstor ks
Ġwatch man
Ġfore ver
Ġpu ddle
Ġwill ie
op sy
Ġguard ian
Ġw unzh
Ġgrant ed
Ġcommand ed
Ġgoble t
Ġp ink
Ġde arest
Ġimp at
d ro
Ġpol ite
Ġpro sp
Ġaccord ingly
Ġhedge hog
li est
Ġdes ired
Ġext ra
f et
ar med
Ġceremon y
Ġkind s
Ġtreas ures
wor k
Ġo il
Ġwh ither
call ed
Ġfl owed
Ġsmall er
in ion
ure ly
Ġex am
Ġje alous
Ġsl ight
f ri
fa ith
Ġlo d
Ġknow ledge
Ġo ak
Ġlisten ing
Ġb ark
bl ack
Ġb at
Ġl id
Ġl aughter
Ġexp ress
Ġg ained
ho le
Ġf aster
Ġn arrow
b ow
Ġcal f
Ġhor ror
oop ed
Ġgo ats
Ġwa ving
ce an
Ġdelic ious
č ĠĠĠĠĠĠĠĠ
c ow
p ile
Ġcom mon
Ġgr ain
n ut
cess ion
Ġscar let
ve ll
ish op
Ġm ention
Ġl aw
Ġfl ame
pl ing
Ġco pper
st ick
i os
l ock
Ġfr ag
to p
Ġb one
Ġj on
Ġsch ool
Ġthere upon
sold ier
Ġhid ing
Ġgl ance
Ġm ed
h ab
at or
Ġsucceed ed
Ġcir cle
i k
r um
Ġbell s
Ġd an
Ġbr acket
Ġhaw k
is ions
Ġgr ind
Ġpresent s
Ġad orn
Ġro ses
fl ake
Ġc inderella
Ġtip toes
Ġluc ie
Ġmus h
Ġt s
ser v
Ġse ize
Ġcould n
ans wered
g ot
Ġr ust
wor ld
Ġwas n
op en
Ġt ap
ie ve
Ġr ow
Ġrecogn ized
Ġway s
d es
Ġm ile
Ġconf usion
Ġchari ot
ri ved
Ġposs ibly
Ġag ree
Ġnatur al
Ġchar m
Ġmark et
Ġsh own
c ertain
Ġeff ect
Ġwind ows
Ġbur nt
Ġse ve
Ġb idding
Ġse par
Ġbright ly
se ven
Ġbr u
Ġde f
pe ople
Ġmat ch
Ġold er
Ġcir c
Ġperfect ly
l ast
Ġmean while
Ġthr owing
Ġuse ful
Ġpossess ed
Ġrob es
Ġ est
aver n
Ġresol ved
Ġpr ison
Ġc unning
Ġrest ed
Ġstr ang
Ġwas te
on ed
Ġfif ty
Ġfix ed
me an
Ġprep are
Ġl az
Ġlet iko
Ġshe d
Ġsun set
Ġr ushing
Ġland ed
Ġcont ented
Ġg ull
Ġp ipe
ĠĠĠĠ ĠĠ
Ġro aring
Ġdwell ing
f ound
Ġs ly
step s
Ġer in
Ġnodd ed
Ġj ud
st ri
Ġorch ard
Ġpre ssed
Ġfor b
Ġcon cer
f ol
Ġwand er
Ġpri ce
Ġnight s
Ġb ac
Ġkn apsack
iz ing
Ġdown stairs
Ġenem ies
l ar
Ġfl ax
Ġgl en
Ġf ault
Ġpo s
Ġswim ming
Ġhands om
Ġax e
Ġroll ing
Ġpr air
Ġange l
p se
is a
l ves
Ġcab b
Ġacc ustomed
Ġw rest
Ġh ides
Ġtr out
Ġsn ail
Ġcl ad
Ġvo ices
Ġinst ru
Ġaf fect
Ġbut cher
j i
him e
Ġcent iped
k we
kwe wa
Ġc ool
a ld
Ġpursu it
ord inary
Ġper ceived
g ave
less ly
m orn
Ġdist ingu
Ġt ask
Ġsear ched
br ing
Ġlead ing
ir ation
ch ar
Ġmad am
Ġwand ering
br ought
Ġdis g
re me
Ġvar ious
eng ers
Ġday light
Ġterri fied
cl o
he arted
end ing
Ġaccompan ied
cell ent
present ly
Ġpain s
Ġc ure
Ġb ri
ra ce
Ġju dge
Ġmiser able
ne ath
en ough
g one
Ġc ries
Ġsa v
Ġglo om
Ġl anter
Ġlanter n
m or
Ġpro ve
c orn
dd ing
Ġsh aking
Ġth ie
Ġa unt
lt ed
Ġdep arted
Ġm un
cl ock
Ġor n
Ġa pr
Ġd ying
Ġsp ear
Ġw ra
Ġlo ss
Ġpill ow
Ġchrist ian
Ġo cean
Ġsong s
Ġsome what
Ġse ason
Ġoccur red
Ġsl ave
Ġattend ants
fo llow
Ġevery where
Ġpro cession
Ġvis ited
Ġstick s
Ġsusp ic
ke eper
p ath
Ġun able
po or
sh a
Ġrep ro
Ġsun g
Ġflo ating
Ġfour th
ios ity
Ġo t
Ġcr ooked
Ġcl aim
Ġjon as
Ġkeep ing
im ent
or worm
Ġthreat ened
Ġmy ster
Ġch amp
Ġmorn a
Ġes pecially
Ġwor n
Ġsc en
Ġd ick
Ġw re
Ġnecess ary
ct ions
Ġsh ine
dra g
Ġf owl
Ġl ain
Ġwag on
Ġskill ful
Ġt ai
Ġa head
Ġsuit ors
Ġbrid al
Ġdsch ou
Ġcan oe
maid wa
Ġesc aped
Ġl ament
Ġth irty
Ġgr ateful
Ġdes cri
em ent
n ear
mount ed
Ġroad s
f right
com fort
Ġch os
Ġchos en
f act
r ot
t om
r ound
able s
t al
st o
Ġob served
Ġf urn
Ġfav our
Ġwel com
Ġcon ce
Ġha un
b b
Ġin formed
ail s
Ġha bit
Ġher mit
is k
Ġwh irl
al ways
n el
Ġje gu
Ġha y
Ġlin en
Ġo ven
Ġh ated
Ġsh adow
y et
our s
el t
Ġpossess ion
ft s
l ic
Ġs i
Ġspe c
Ġf iddle
Ġaccord ing
k in
Ġcat ching
ak ened
Ġadv anced
th ings
Ġb ishop
Ġhis t
f our
fol k
Ġh ath
Ġbrid le
Ġste ep
sp add
spadd ad
spaddad en
Ġstep mother
Ġi re
Ġire land
Ġwarri ors
Ġcompl ain
sister s
Ġfor ce
Ġpass age
Ġch ain
Ġst at
Ġsn uff
Ġe ve
Ġcrocod iles
Ġcur iosity
Ġa ina
Ġrasp berry
Ġsu gar
Ġheart s
Ġwo lves
fri end
Ġbac on
Ġpra ised
ch o
Ġbear s
on y
Ġcon qu
tle ss
Ġmed ic
Ġremark able
Ġpast ure
) .
Ġs in
lf in
Ġho ly
Ġcho pped
Ġt est
Ġtar a
Ġprov isions
Ġmo le
Ġadorn ed
Ġspark s
Ġwill ow
Ġto y
Ġfor mer
ill or
Ġcrocod ile
Ġprair ie
Ġhides ato
Ġsnow flake
Ġbab a
Ġj emima
Ġpat ty
ĊĠĠĠĠ Ġ
Ġag go
Ġon wee
Ġand rew
Ġbo som
s ur
a ily
Ġfanc y
l ist
Ġsho em
Ġfro zen
ang ing
Ġdelight ful
Ġi r
Ġterri bly
Ġex er
n at
ight ed
i ar
h as
sk in
Ġtast ed
Ġbeg un
Ġr are
Ġex cellent
Ġeager ly
Ġreg ret
Ġmo ss
oun ced
Ġtast e
Ġac qu
Ġav o
Ġunder neath
ar ked
Ġpat ience
Ġapp et
qu ick
Ġgra cious
Ġabo de
Ġplac es
t ill
Ġgat es
Ġthie ves
them selves
Ġk ick
Ġcap t
Ġsl ay
ord er
Ġcoff in
Ġapr on
Ġpr ide
cl oth
Ġsupp osed
app ing
Ġch oice
Ġhe sit
Ġup per
Ġgl ist
po st
Ġb al
Ġb orrow
s ight
Ġill ness
Ġp our
Ġfift een
l ife
Ġapp ointed
Ġthrough out
Ġst aff
id ence
Ġlo sing
ad es
Ġk ai
y r
Ġt ro
Ġben ch
Ġsp un
Ġg ain
Ġsp an
gr and
Ġdre amed
Ġse as
Ġb ree
it tered
Ġobe y
Ġatt ended
Ġl isa
Ġdr unk
Ġden is
p ear
er y
Ġfort un
Ġneed le
Ġenjoy ing
Ġpos ition
i pp
Ġam id
Ġbuck et
Ġmer cy
Ġhar old
p h
Ġcomplete ly
Ġset tled
Ġsa m
Ġsp ind
Ġshe ars
um e
Ġlo an
Ġm art
Ġsu per
g us
Ġe aster
Ġforest s
Ġbo st
Ġstud ent
Ġdoll ars
Ġre igned
Ġhen ce
Ġdevil s
Ġcentiped e
Ġal i
idd ly
Ġdull head
Ġas pen
Ġtravell ed
Ġsu lt
Ġdep th
Ġch in
b ir
bet ter
Ġrefle cted
Ġdear ly
Ġdescend ed
Ġban ks
Ġre ve
Ġdo ves
Ġbest owed
er al
Ġreco ver
Ġg ay
happ ened
Ġv ast
Ġheart ily
ck ing
arm s
Ġmess engers
p ie
Ġno on
Ġsn iff
w ant
Ġow l
beg an
Ġsecret ly
Ġmar ched
l uck
Ġsim ple
Ġl u
Ġgl anced
Ġop inion
t own
Ġpict ure
ar ch
ic al
Ġo dd
Ġp ard
Ġtri cks
Ġbl ows
s l
m om
Ġbl ock
c at
Ġp aws
with out
Ġjo ined
Ġhe at
Ġru de
Ġsm iling
Ġfl ood
Ġl ang
Ġl a
ust ri
Ġsa lt
Ġto bacco
m ag
Ġp an
t urned
Ġdream ing
Ġc oo
Ġse vent
d rew
Ġgrat itude
Ġgu essed
Ġstret ch
s n
Ġf ain
Ġlo ad
Ġgr an
Ġwar ning
Ġp ounds
Ġc aut
al though
Ġwind s
al t
Ġt ide
Ġin ches
Ġr ang
Ġcom men
Ġenjoy ed
Ġwind ing
Ġking s
Ġab road
Ġbeaut ifully
le y
Ġeas e
Ġboat s
l asse
or ious
Ġber ries
Ġhon our
p ot
Ġinnoc ent
Ġt aught
stand ing
ic ing
Ġn aught
Ġg em
Ġdep art
Ġs ens
Ġmyster ious
Ġple aded
Ġprop os
ill ing
head ed
Ġfeel ings
Ġpe er
Ġk er
Ġspind le
Ġcat cher
Ġhon est
Ġscrat ch
Ġstrong est
ra ha
Ġpray er
d a
ion n
Ġblo om
Ġc ong
Ġdistingu ished
Ġgoose herd
Ġpe ach
Ġtrave ling
Ġneighbor hood
Ġv iew
Ġr ooster
clo g
Ġk ari
Ġho ar
Ġran k
ress ing
c ing
Ġmar ble
morn ing
Ġarr anged
ra ged
Ġpray ers
Ġr ays
Ġt id
Ġswe pt
ump ed
Ġgallop ed
Ġdisp os
qu ence
Ġrep ort
s at
com pan
ip es
ha ving
Ġreturn ing
f ind
Ġincre ased
Ġguard s
ra ced
Ġal armed
Ġenchant ment
m ark
Ġdress es
Ġquestion ed
am ong
Ġt u
Ġbus h
Ġfur ious
Ġneed ed
Ġab und
it ted
c ons
men se
Ġprov ided
o intment
Ġdis cover
Ġd ame
at t
Ġhand ful
Ġwhir led
Ġkingdom s
Ġfier ce
Ġdu g
s leep
h usband
Ġst om
wait ing
day s
Ġget s
b ear
Ġl ot
Ġcab in
Ġre v
Ġbo iling
Ġpot ato
Ġsc iss
Ġso b
k new
Ġwhis per
ough ly
Ġp ound
Ġlaz y
Ġle nd
Ġquant ity
p ected
Ġp ots
c ap
atter ing
anc ing
Ġan t
Ġfu lf
Ġsat ur
ustri ous
es ter
Ġbar ked
Ġan no
st e
Ġro ared
Ġmaid s
Ġlar gest
Ġgent ly
Ġdr um
mit ted
Ġru le
os ing
Ġsuff er
Ġsen ses
do gs
c red
Ġdestro yed
Ġhop ing
Ġste el
Ġpur ple
Ġdr inking
Ġgu ide
Ġcraw led
Ġcommen ced
Ġst iff
Ġscar ce
as el
e at
go ing
Ġbir ch
Ġging er
Ġm ass
Ġtem ple
Ġme adows
c ra
Ġfro st
, --
Ġtrem end
Ġsli pper
Ġfirm ly
Ġpr act
Ġdev oured
Ġchamp ion
Ġwit ches
Ġreward ed
Ġab sence
Ġscen e
Ġp age
Ġse als
Ġco ins
Ġbe ach
Ġha z
Ġhaz el
Ġe lfin
Ġde mon
Ġwre ath
Ġdanc ers
c ip
Ġcor al
ub lin
Ġreg ard
Ġn i
Ġni all
Ġsk ies
Ġf ionn
gy pt
Ġprof ess
lo red
Ġint ention
ac ter
ch n
ik oto
i o
ish o
Ġd um
Ġsen ator
Ġpick les
re my
el in
elin au
Ġbo kwewa
se o
Ġaspen clog
Ġpot ful
Ġgrie ved
in ue
Ġd ue
be h
Ġgl ided
Ġric hes
Ġadv ised
Ġmist ake
gi ven
Ġdis gu
comfort able
Ġproceed ed
Ġf ount
p ly
lv ia
Ġrequ ired
Ġent reat
Ġcon v
ru pt
ve t
Ġplain ly
Ġextra ordinary
w ing
Ġhun ted
ump h
c ul
Ġequ al
Ġfle e
whe el
Ġup stairs
Ġother wise
her self
Ġcon se
Ġfeather head
p al
Ġturn s
Ġwelcom ed
Ġimag ined
any thing
re s
m ort
Ġwould n
Ġrem arked
Ġp ears
tw enty
Ġle ather
f ine
Ġsn atched
Ġsuccess ful
Ġper form
Ġa im
Ġuse less
Ġfore ign
Ġin her
Ġlean ing
Ġpor ce
Ġporce lain
hel p
ac hes
Ġsciss ors
mean while
Ġex ceed
j e
Ġne at
ple x
l a
it ation
Ġho les
are s
ke ep
Ġfl at
Ġhe ight
ad ing
Ġgarden s
ut ed
Ġgreet ing
Ġp owers
Ġth ine
ust ed
f ight
ink led
Ġlo cks
n s
cas e
Ġs illy
add le
Ġp ack
Ġr ipe
Ġdra ught
al ong
Ġpre fer
su red
Ġb ough
c row
Ġto ken
e er
ag ger
Ġtri al
Ġfight ing
co l
Ġsh ield
Ġgood ness
Ġhist ory
ie v
Ġbuild ing
pass ed
Ġrest ore
cour se
Ġwh ist
Ġy spaddaden
h orn
sp e
y nd
Ġmar vell
Ġsh a
l ster
Ġin f
Ġscre amed
st ead
Ġcat s
Ġwe asel
Ġp i
Ġgl im
Ġbre aking
Ġcrown s
Ġbo g
Ġsh ower
Ġgarden er
Ġtig er
Ġwor m
b ers
Ġha il
Ġexc ite
Ġwin ning
Ġcabb ages
Ġwis er
Ġent ering
Ġn ames
Ġt ub
Ġkil n
Ġkill ing
Ġcheer ful
Ġaccompan y
Ġbon nie
Ġbold ly
Ġgo ver
Ġcount ess
Ġstri p
Ġdiv ided
Ġnot e
Ġco al
Ġkne el
Ġbig ger
Ġo bed
Ġem pt
Ġwas hing
Ġfestiv al
w ick
Ġt ang
Ġjo in
Ġdirect ed
Ġfer gus
Ġdist in
i or
Ġsweet ly
Ġh uck
Ġhuck ster
Ġme lted
Ġemb ro
Ġchar acter
Ġrel ated
Ġd ale
Ġslee ve
he asant
ast y
Ġkitt a
mr s
itch it
Ġmar ia
as ch
asch im
aschim at
aschimat aro
Ġfl opsy
Ġmun ca
Ġje remy
Ġgi a
Ġgia una
Ġhoar se
Ġret inue
Ġthre sh
ret urned
Ġwor ry
Ġb ul
beh ind
l ay
Ġrul er
Ġst amp
m ind
Ġknock ing
Ġaccom pl
Ġgu ess
list en
ot ed
int s
Ġtr amp
Ġd ain
Ġdain ty
count ry
Ġgener ally
Ġjoy fully
l iness
Ġaw are
Ġbeg ging
Ġme re
Ġlo aves
certain ly
Ġsa fet
Ġsafet y
Ġstable s
Ġrejo iced
Ġg or
cl othes
Ġtri umph
Ġret ired
Ġcre ep
Ġsk ins
Ġso ot
even ing
d ark
Ġclear ly
Ġl am
Ġpear l
t aken
ul ar
re g
Ġany body
um st
Ġim mense
Ġcomp ass
w is
Ġdiamond s
ser ve
Ġre sp
m ight
Ġsome how
Ġha g
Ġsil ken
Ġappet ite
Ġoc cup
m in
Ġpard on
Ġdestro y
Ġbo d
Ġro pe
de ad
for ward
Ġstrang ers
Ġw ives
Ġdanc er
Ġorn am
Ġsummon ed
Ġneighbour s
Ġcompl ained
Ġforg ive
l au
r an
Ġwe ap
Ġpl ants
pl ay
Ġmort als
Ġdeep er
Ġwra pped
ip ao
p it
Ġrag s
Ġfisher man
Ġfl ag
Ġve l
t i
f illed
f it
Ġg n
Ġpun ish
Ġsw ing
Ġcurtain s
Ġde ceived
Ġas sured
tre es
Ġqu eer
Ġkne e
Ġmo ving
Ġcounc il
Ġnoble s
Ġproper ly
Ġexc use
Ġrob ber
hu ndred
Ġwiz ard
Ġst out
Ġprosp er
Ġpe eping
Ġl ing
Ġheav ily
s aw
Ġrel ations
th ose
Ġlight s
f ellow
Ġpro ved
Ġbew ild
Ġer r
Ġerr and
Ġbr ings
h all
st ill
id s
Ġdro ps
Ġl ane
Ġo intment
Ġda is
Ġch ains
Ġshoem aker
re ls
st ones
n es
Ġgl ittered
Ġser pent
ot ted
umb ers
Ġpart ing
Ġwe aver
Ġd itch
um ble
Ġto ne
ear th
Ġimport ant
Ġmill er
hun ting
Ġtri be
Ġtremend ous
Ġlo ft
p et
Ġself ish
Ġsto orworm
Ġag ed
sel s
Ġth or
Ġsc ot
Ġhen s
Ġsn or
Ġsnor ro
Ġen ch
Ġench anter
love ly
Ġadvent ure
Ġch op
Ġeng aged
Ġcand les
ri b
Ġc ell
Ġcell ar
Ġsound s
Ġass umed
ra ct
Ġd ublin
Ġstri ke
Ġcon n
Ġaffect ion
drag on
Ġf en
il ity
Ġe gypt
Ġme rely
Ġfem ale
Ġpast or
Ġim per
Ġradi ance
co lored
Ġr oman
faith ful
Ġd aim
pl oy
Ġp heasant
Ġwood cutter
mo nd
Ġind ian
Ġbost wick
Ġgood y
k ers
Ġur aschimataro
Ġpol ar
Ġb au
Ġli ang
Ġsc al
isho sha
was ynd
swe eper
Ġj ug
Ġv es
Ġra ise
e yes
Ġreach ing
cl am
Ġcont ro
Ġhun ts
Ġstart led
Ġbr ill
Ġbrill i
Ġthr one
Ġbe e
i us
com ing
Ġgr asped
w at
w edding
cour t
il ar
Ġcon cl
Ġcont r
hal f
Ġp ars
o ft
pp ers
u ce
Ġext reme
Ġstri ct
Ġch ased
j ack
Ġcondu cted
Ġbar king
fur red
Ġst airs
Ġtur tle
Ġcond em
Ġsubject s
Ġchar med
Ġman ners
Ġcirc umst
Ġsupp ly
Ġsh owing
Ġdisapp ointment
zz led
Ġpre vent
c ure
Ġwe ight
Ġvisit or
fe et
Ġcount ed
Ġcl ot
Ġconsider ation
al so
w all
Ġgloom y
for th
Ġw ounded
Ġmiss ing
Ġfor k
Ġscrat ched
Ġpat iently
maid en
Ġsee king
Ġpossess ions
Ġt uck
Ġhapp ier
Ġre eds
s ave
Ġgather ing
Ġon ions
Ġcoll ect
Ġl ine
Ġpull ing
sit ting
Ġlang u
Ġm orrow
Ġr ush
Ġpol ished
Ġmour ning
Ġfier cely
it or
Ġs lew
s um
m a
Ġher ring
Ġgull s
b ook
Ġsatur day
Ġfin ish
Ġcra cked
Ġresc ue
Ġanno yed
se a
Ġlo aded
Ġse ed
Ġi v
sw ift
Ġb owing
Ġc ush
ent h
Ġd arted
Ġbirth day
Ġsa dd
sh oes
Ġstart ing
Ġpass ion
ion ed
Ġswall ows
Ġg wr
Ġwr ought
row s
' ;
Ġin qu
Ġth ither
Ġbo ard
ld ing
ree l
Ġsear ching
il ight
ri ce
Ġexc ited
Ġyard s
Ġsh rie
Ġcler k
Ġdoes n
c u
am a
Ġthousand s
Ġgl orious
Ġsweet est
Ġcrowd ed
lar ge
Ġg ri
Ġb ail
Ġfe e
Ġbuffal o
in ation
č ĠĠĠ
t ail
Ġsa cri
Ġsacri f
Ġgood man
Ġshout ing
ra pe
Ġcou ch
Ġin hab
Ġcl ock
Ġpeer ie
ind er
Ġempt ied
Ġune as
Ġw en
Ġlast ed
Ġtrans formed
b an
Ġsa cred
Ġmar ked
Ġthor oughly
Ġrob bed
Ġb ang
Ġhel met
Ġtri but
Ġrel at
Ġbeg ins
Ġmor raha
Ġlight ly
ic s
Ġp uff
Ġho pping
ĊĠĠĠĠĠĠĠĠ ĠĠ
Ġhand kerchief
- "
Ġcol or
Ġhu ld
Ġh omes
ote i
Ġem ploy
of u
ofu ku
p in
Ġme er
Ġbelong ing
Ġc ass
Ġtw itchit
Ġm itten
Ġmitten s
Ġmart in
Ġjohn ny
Ġtig gy
w inkle
ots ze
j ee
Ġb ah
Ġbah mond
Ġbahmond ang
Ġo s
Ġos seo
Ġeffort s
Ġdepth s
Ġthresh old
bes ide
gr own
Ġduck s
Ġplum age
Ġd et
Ġal ike
Ġamaz ement
oof s
Ġloo s
pleas e
Ġde w
Ġshort ly
t able
h ast
Ġp aw
Ġearnest ly
Ġsim ilar
as c
Ġconf ess
nat ured
Ġser ious
Ġne arest
Ġsli ppers
Ġsmith y
Ġsolemn ly
pr om
s ay
Ġre leas
Ġpluck ed
be am
Ġtight ly
Ġnight ing
Ġ z
ne ighb
Ġobtain ed
Ġprotect ion
Ġlet ting
pal ace
f ool
us ual
Ġwill ingly
Ġaccept ed
Ġho sp
ur y
Ġan n
Ġadm ire
Ġlo ving
Ġgaz ing
o b
iffe rent
r ain
Ġre sembled
Ġpen ny
Ġhelp ing
Ġsuit s
Ġcontain ed
bre ak
ad ly
Ġfur y
Ġsim ply
Ġsl ip
Ġcon sc
Ġdo zen
Ġsa uc
Ġt umbled
Ġbill et
corn er
h ur
Ġdirect ions
Ġfier y
t ic
Ġbl ind
b oth
Ġguard ed
ble s
amb led
Ġsa us
Ġwor st
Ġwh it
en ess
who le
ar ter
ide red
Ġexceed ingly
Ġfro g
Ġpl ate
t urn
s qu
Ġbar n
Ġmiser y
Ġsun ball
let s
Ġhe wed
Ġtop s
Ġaw ful
Ġdisapp ear
Ġins ato
ir on
Ġstre ets
Ġwis hing
Ġstar ve
Ġsal mon
Ġlo ck
Ġind ustrious
Ġrequ ire
Ġown er
Ġpain ted
Ġwor ship
ss y
Ġur ged
gr ass
Ġkeep s
Ġjack et
Ġd airy
want ed
Ġear ned
joy ed
r ise
t oo
Ġst aring
coun c
Ġenv ious
and er
Ġfl ies
g ment
Ġdiffe rence
Ġsorrow ful
Ġr h
Ġcr ash
Ġstraight way
whe ther
um ult
oop ing
aw l
a ving
Ġgreed y
Ġsw amp
Ġrapid ly
k aw
Ġtrouble s
sw all
Ġp ier
Ġw ed
Ġsal uted
be y
Ġab sent
Ġsec ure
Ġpar l
Ġw ages
Ġv irt
Ġtw ilight
Ġb ind
Ġbree ze
Ġtw isted
Ġang rily
Ġsto pping
th y
Ġbeg gar
Ġpray ed
Ġsparrow s
Ġship s
Ġpo ly
k i
Ġash ore
Ġdri ft
burn er
Ġsome body
Ġch airs
st ra
pl ed
Ġexcite ment
Ġd umb
Ġcl asped
it ches
om p
Ġt umbling
Ġce iling
Ġmon arch
Ġexpl ained
Ġwit s
Ġadv ance
Ġnaught y
gg est
lt s
Ġsa iling
Ġde ce
Ġmedic ine
Ġhundred s
Ġtre ad
Ġspo on
Ġl int
Ġutter ly
ac les
Ġab b
x pected
Ġwas her
Ġpoet ry
Ġno ses
Ġt we
Ġanx iously
Ġeag les
Ġstick ing
Ġw ing
Ġfl ute
Ġtribut e
it ary
Ġeaster n
Ġover take
Ġpo le
Ġfo g
Ġadd ressing
Ġstream s
Ġfaith fully
Ġcor pse
Ġpers ons
Ġbl own
Ġsp at
chn ic
Ġprofess or
s ack
bo ots
Ġfif th
rat ul
Ġanc est
Ġdaim io
Ġj ofuku
Ġreal ized
Ġhandsom er
h ark
Ġsorcerer s
Ġwhis kers
Ġgod mother
rib by
du chess
Ġla otsze
Ġw ang
Ġmind a
Ġm ike
Ġp itch
ud ed
Ġmo ck
Ġbe nd
un ged
Ġe mer
clam ation
Ġcontro l
Ġdemand ed
Ġstir red
Ġtim id
c ried
Ġgar ment
Ġrich ly
m il
Ġimpat iently
Ġmurm ured
h ard
Ġin ch
Ġim pl
Ġfor med
Ġsy lvia
Ġd az
Ġaff airs
in ter
Ġexper ience
Ġam using
Ġjoy ful
su pp
Ġper ched
Ġesc ort
Ġpl edge
Ġsp urs
co ck
cul iar
Ġbed side
Ġfor s
Ġsepar ated
Ġst em
Ġcondem ned
il st
Ġprom pt
cl ined
Ġun fortun
Ġher s
is land
Ġcircumst ances
Ġdeser ved
Ġpursu ed
Ġth orn
g ant
ld om
Ġsu ited
s urely
t ow
f ear
Ġt as
quick ly
i ving
wh om
ous ed
Ġloud er
Ġde eds
Ġc avern
Ġt ie
Ġv owed
Ġkey s
end s
p ed
p u
Ġcont rived
Ġbut t
d one
Ġswift ness
Ġsu s
Ġsus an
bet ween
tr ou
it ting
Ġcondu ct
t rave
Ġk icked
Ġg room
Ġclean ed
Ġf ed
Ġsuff ering
Ġpersu aded
Ġc ared
Ġfin er
el se
Ġbrown ie
Ġdig ging
Ġprett iest
y th
Ġfulf illed
Ġwond ers
Ġent r
Ġfl our
Ġgo ds
Ġspec ial
Ġwo e
mag ic
Ġtemp est
Ġsound ly
the less
ons ense
ri er
f arewell
Ġgro ve
Ġatt acked
Ġpump kin
Ġsevent h
o ot
ri gg
Ġsp ace
Ġr idden
Ġf an
re m
Ġsharp ly
Ġrh ian
Ġrhian non
Ġornam ents
Ġgi lded
Ġt umult
Ġd ign
Ġplac ing
sh ort
Ġstay ing
Ġforg i
Ġforgi ven
Ġhum ble
st op
Ġmar sh
Ġgaz e
Ġbe ams
Ġbewild ered
Ġblossom s
kaw r
Ġkind red
Ġcoll ar
Ġl ift
ge on
Ġt ire
Ġrepro ach
a ved
Ġby re
Ġqu iver
Ġsn oring
Ġtw ig
qu arter
sh out
Ġbit s
Ġham mer
Ġmour n
Ġbl ame
Ġpe a
h igh
Ġpe as
Ġflo ated
Ġforb idden
ip s
Ġd im
Ġsc orn
Ġis n
Ġlif ting
Ġse izing
Ġfoot steps
f air
Ġp ush
Ġrat tled
Ġfee ble
Ġsign s
Ġapp e
Ġweap ons
r ous
Ġsu ggest
Ġl ass
Ġg e
Ġge ese
Ġk en
Ġro ast
Ġhill side
Ġso rely
p ig
Ġr ash
Ġqu al
u ct
ho st
Ġp ad
it ched
Ġpropos al
r am
Ġprop osed
Ġwr iting
Ġwonder fully
Ġker chief
Ġa le
Ġfollow ers
Ġcl air
ell ed
if ted
Ġfl own
Ġsy m
oo le
Ġme l
Ġb ows
ant a
Ġm ast
Ġsh in
Ġa ug
Ġinstru ctions
st orm
Ġfro gs
Ġbl owing
Ġret ain
Ġschool master
Ġembro idered
she ep
we ight
Ġj ade
Ġbu dd
Ġd ough
Ġcong ratul
Ġm ikoto
Ġfavor ite
Ġdispos ition
Ġune xpected
Ġjapan ese
Ġre bel
Ġem p
Ġot ot
Ġotot ach
Ġototach ib
Ġototachib ana
Ġcourt ier
Ġpersim mon
Ġpersim mons
ab a
Ġhome ly
Ġli ly
Ġn ils
r ay
Ġthr all
Ġw iddly
Ġan na
Ġbell a
fl or
Ġbun ny
Ġdung ting
Ġbon ze
Ġmoned o
Ġle elinau
Ġscal p
Ġm ishosha
amp um
w ass
wass amo
Ġfright ful
b orn
Ġdawn ed
Ġconst ant
tle s
Ġfur iously
b un
Ġg aily
Ġspark ling
fin ished
Ġsmall est
d ressed
Ġbreat hed
Ġh oofs
Ġblack bird
Ġdis mounted
Ġmon k
Ġneck s
Ġimpl ored
g arden
se nd
Ġbutter fly
Ġab sol
th ink
can not
Ġhapp iest
if y
Ġinter rupt
Ġval ue
Ġp hy
wa ited
as ing
fact ion
Ġp aused
Ġwr ite
Ġextreme ly
m us
Ġgor ge
ac her
Ġpe culiar
Ġele ven
Ġrecogn ize
Ġli kes
Ġnighting ale
Ġwh ilst
Ġdisgu ise
Ġsc ales
wood s
ain ing
Ġs ar
Ġarr ange
h ung
ital ity
Ġse ldom
c are
if ied
ra it
Ġsp ied
Ġprov ide
Ġn im
Ġd ried
Ġrel ief
Ġavo id
d ep
l ier
cept ion
Ġha ught
Ġrest ored
Ġsav age
Ġback ward
str uck
Ġtrem ble
Ġbit ing
Ġsim on
n ame
Ġtrave ls
Ġtravell ing
Ġdiv ide
wal k
e ld
Ġbelong s
e ach
or ter
Ġpr oof
Ġshout s
Ġspl it
hor ses
Ġfe ars
Ġrejo ined
Ġaff air
Ġeas ier
cl ose
Ġenv y
Ġdwarf s
Ġfellow s
ch ance
y ears
s un
c re
ret urn
Ġr is
Ġpe ak
Ġlangu age
Ġstri king
Ġsleep y
ul ted
Ġli ons
l ive
br own
Ġsi xt
Ġsixt een
Ġcre am
Ġah ti
Ġt akes
Ġr hy
Ġl ame
Ġeven ings
Ġr owed
čĠĠĠĠĠĠĠĠ Ġ
čĠĠĠĠĠĠĠĠ ĠĠĠĠĠĠ
Ġsl umber
Ġf idd
w ished
he aven
Ġby e
Ġfun eral
Ġover joyed
be ing
n ies
Ġtail s
Ġrememb rance
Ġs ense
Ġa cted
Ġatt ent
Ġd agger
de ath
Ġswe ar
Ġcount ries
Ġp ub
Ġbe es
Ġhe ather
for d
Ġfashion ed
Ġcra ft
Ġmaster s
Ġfount ain
n igh
Ġdo om
Ġal arm
Ġmis chief
he ar
Ġmention ed
t ri
le ave
Ġpoison ed
Ġdef end
t aking
p ing
Ġherds man
roll ed
Ġst ump
Ġu lster
d r
Ġbo ast
Ġt un
ir ing
fe el
ac ross
bir ds
bl ue
Ġra ising
Ġacc ident
ac ing
Ġexam ined
Ġhappen ing
Ġst al
oon er
Ġdis o
Ġb ath
Ġvel vet
Ġst ooped
Ġrob bers
Ġbar rel
Ġquar rel
Ġpl ans
Ġres ist
Ġnatur ally
Ġviol ent
w omen
Ġcl apped
he m
in ced
is to
Ġsand y
Ġgl ow
Ġcl um
Ġdanger ous
m ates
Ġd ashed
Ġoffic er
Ġwe arer
ac c
Ġmot ion
Ġdead ly
Ġcont ents
Ġk een
Ġtur f
Ġinv itation
Ġro sy
Ġh ate
Ġdis miss
Ġhop es
Ġas cend
de al
c ild
cild ou
cildou ne
ar n
Ġsco lded
Ġto ll
Ġsw ung
gu ard
re ally
Ġf ared
Ġuneas y
Ġwhi che
Ġwhiche ver
Ġfun ny
Ġdut ies
Ġstrugg le
Ġper se
s ix
Ġav ail
Ġwasher woman
ad v
Ġearth ly
maid s
Ġp iled
Ġabund ance
g ory
f ro
Ġsit s
Ġs ne
ap ing
i vil
in er
Ġshir t
Ġfl ail
Ġset anta
er ness
fin n
Ġrelat ives
Ġrep orted
Ġherd ing
Ġcle ared
l ied
ant age
Ġsupp ort
Ġaug ust
Ġport ion
e g
Ġdist ri
jam ie
dd ess
ar ound
Ġvict ory
Ġfen ians
Ġact ually
il ies
Ġup ward
Ġro asted
Ġafter ward
Ġmus lin
Ġse am
Ġbail iff
Ġsult an
z u
Ġk otei
Ġve get
Ġimper ial
ix ir
ig o
ber g
Ġcol umn
Ġresc ued
pe e
t im
Ġgra u
iz z
cl ub
Ġcass im
Ġjack son
w ow
Ġres umed
Ġstat ue
Ġham per
Ġmo lo
Ġts ian
Ġfem ales
Ġbuffal os
ow asso
Ġw ampum
Ġk wasynd
Ġsqu all
Ġhome ward
Ġves sel
app ear
Ġgl owing
Ġmin ister
Ġamaz ed
Ġhunts men
Ġd ived
Ġexpect ing
Ġsurr ound
Ġreg ion
Ġsteal ing
ken ess
as es
fright ened
ent ered
Ġpolite ly
Ġb ake
g en
ute ly
Ġagree able
Ġend s
Ġinterrupt ed
Ġj est
Ġcontr ary
Ġpars on
Ġpro spect
c reature
wh ate
whate ver
Ġcomfort ed
ord ers
b ur
Ġseve rely
ut ion
w ild
ou p
beg ged
l ived
Ġspr ung
Ġbru in
c ry
Ġprett ier
m aking
Ġlu x
th inking
ra cted
Ġpu zzled
Ġadm ired
Ġ ut
pr ay
ag ree
Ġmor sel
Ġass ist
Ġsh ows
how ever
Ġb ounds
ce iving
Ġimp ro
Ġread ing
Ġlike wise
Ġst ab
Ġdistur bed
Ġw ounds
Ġn ails
Ġstom ach
in v
Ġal ighted
Ġtr ump
car ry
Ġscr ambled
le ft
Ġref resh
Ġfl ing
Ġunder take
Ġborn e
l id
u ge
d ance
Ġto es
th us
wel come
Ġc amp
Ġp ool
a ited
i vers
Ġsle nder
Ġr ings
Ġpal m
Ġs ipao
qu est
Ġfeed ing
Ġfa ire
Ġnever theless
Ġste am
Ġfl ow
Ġsun rise
Ġre ck
Ġw rigg
follow ed
sh ow
Ġun comfortable
Ġp ile
Ġcup s
er n
Ġfl ash
Ġex ha
Ġwit ness
Ġsusp ected
Ġto ssing
Ġin form
Ġpub lic
Ġo ath
Ġnew ly
al one
l ady
Ġsell ing
Ġbec om
Ġbecom ing
v is
Ġback s
Ġmu le
Ġpro du
l w
Ġwar ned
ab on
Ġthen ce
ab b
Ġo u
k night
Ġinf ant
Ġseve re
Ġrem oved
Ġcrack ing
Ġn ap
ic ious
Ġcol ours
Ġb as
d inner
Ġbo iled
Ġro ot
Ġas ks
as leep
ne ed
swe et
Ġde ck
str ange
Ġfr ying
b read
le af
oun ce
Ġfrag rant
Ġmur d
Ġsp ect
le cted
my self
Ġp ap
Ġconv inced
Ġhor rid
Ġmat ches
Ġbreat he
Ġarri val
um er
im ents
Ġvalley s
unt il
Ġwond rous
Ġb air
Ġthre s
Ġgood wife
Ġwhist led
as hes
Ġanx iety
Ġscot land
Ġbe aver
qu id
Ġmarvell ous
ir k
Ġir ish
ear l
Ġrel uct
Ġdev our
Ġp h
Ġwa ved
Ġtra ce
on b
onb ie
Ġg host
Ġc reel
Ġset tle
Ġc ard
Ġd il
ast e
h air
Ġmer rily
Ġsto ck
Ġst ately
Ġru by
o c
a e
Ġcal m
Ġinv ite
Ġgre gory
Ġscar f
Ġtra ck
an sp
Ġv ow
me al
Ġval u
Ġstro ke
Ġc ivil
Ġgl ory
Ġre c
Ġl amb
Ġem ain
Ġm ach
ul ain
l ings
Ġsw ine
Ġinst rum
Ġdistin ct
Ġlean ed
Ġwild erness
p ill
Ġsc rape
Ġrep re
Ġrepre sent
Ġsquee ze
Ġsquee zed
Ġcr ushed
sp read
Ġabb ot
Ġoff ice
Ġsh ared
Ġd amp
Ġbri cri
Ġbricri u
Ġn ets
Ġshe en
Ġgo ddess
w est
Ġrequest ed
sm all
a vers
b arrow
Ġgle amed
Ġcast ing
Ġhon ored
Ġin ner
Ġhigh ly
Ġme mber
Ġstre amed
Ġsp out
Ġcount en
Ġstro ked
Ġa ud
Ġle ct
Ġcol ors
Ġcon ven
hand kerchief
Ġbo ot
Ġf oo
ill ings
Ġcounc illor
Ġ ĊĠĠĠ
Ġsuit or
Ġsix th
Ġsp ider
Ġcher ry
Ġen cou
Ġprov ince
aker u
j ected
Ġin aba
weight s
Ġje pp
Ġjepp e
silver white
Ġel k
Ġmar ie
Ġhollow eg
Ġrabbit s
d ish
ds ch
Ġarm let
s ung
ab o
Ġind ians
at a
Ġhe ir
Ġgr asp
Ġgle aming
dis appeared
Ġlay ing
j ourney
Ġwag er
r up
sw ord
b ushes
Ġcar bun
app ro
Ġserv ices
Ġapart ment
ear ly
Ġc au
Ġli keness
ans wer
br id
Ġloos ened
se cond
Ġspark led
Ġany where
Ġr ay
m ble
Ġadm iration
Ġo rig
Ġorig in
fl ies
will ing
f airy
Ġabsol utely
Ġus ing
wh is
Ġam used
Ġas se
king dom
Ġdisg ust
Ġam i
Ġso c
Ġsoc iety
sat is
Ġde gre
Ġdegre es
Ġconst antly
g ent
com p
oft en
me ant
Ġp ipes
lo st
Ġ _
mus ic
prom ised
Ġgorge ous
Ġquant ities
Ġbed room
Ġphy s
Ġphys ic
Ġper formed
is ion
Ġre el
Ġsniff ed
k it
t u
y ellow
ie l
Ġsh ines
Ġce ase
Ġconse quence
Ġprompt ly
Ġam ount
Ġregret ted
Ġtrust ed
Ġspeed ily
ss es
Ġass ure
Ġdeser t
Ġrag ged
Ġhosp itality
Ġcontin ually
Ġaw k
Ġawk ward
p ort
Ġport rait
Ġgrace ful
ri ve
Ġreco ll
Ġdec ide
Ġsh ade
Ġslight est
g ree
Ġgr im
agree able
l ace
s aying
Ġdes ol
Ġru in
Ġrecogn ised
Ġpun ished
Ġexpl ain
Ġhaught y
Ġm ich
Ġmich a
Ġmicha el
Ġbod ies
Ġb ars
Ġsl id
Ġlod ging
Ġhast y
Ġdisp atch
Ġl ines
Ġwhirl wind
ap es
Ġest ate
Ġdr own
b ish
con sol
Ġde af
Ġbig gest
us k
s ame
gold en
Ġgood s
Ġow ed
l ord
Ġab and
Ġsh orter
Ġpoison ous
Ġparticular ly
Ġme as
Ġpet tic
Ġpettic o
Ġproud ly
rer s
Ġscre aming
oo rer
sp ring
cl im
Ġbe ans
Ġwa il
Ġg asped
Ġcl asp
Ġsw ans
Ġj aws
el ope
Ġre pt
Ġriver s
s al
Ġcons ulted
is hes
Ġmiss ed
sp r
Ġbe fell
Ġstud ents
Ġfl owing
Ġfo am
Ġf are
Ġric her
Ġa waiting
Ġspl ash
Ġcomm otion
op ened
Ġstret ching
c ast
s addle
Ġso bs
Ġbur ial
out side
k ins
Ġcoo king
Ġun luck
Ġp ant
Ġaw akened
Ġkn elt
tr ue
t em
re ached
Ġbough s
nut s
w onder
Ġtall er
str ong
Ġve il
Ġprev ailed
Ġluck ily
Ġpersu ade
Ġa venge
Ġprison er
Ġli ber
Ġdou ble
Ġexha usted
Ġbright ness
Ġjud gment
Ġre b
ch amber
ag o
Ġp ens
ch air
Ġcr im
Ġsw ore
ink ling
n one
f ashion
m aker
Ġwhe at
f ull
Ġling ered
Ġgl ove
m ered
brother s
Ġjump ing
Ġcur led
d ied
sp o
ang es
Ġfore told
Ġpen kawr
gre et
c ir
spe ak
Ġm ound
Ġw ave
Ġa ught
Ġhad n
Ġparl our
Ġkiss ing
Ġb aw
Ġsho ve
Ġob li
g ay
in stead
Ġact ive
Ġclim bing
l aid
kn ife
av est
Ġpur se
Ġbar ley
p ers
Ġa while
Ġw ig
Ġcar go
Ġb rig
ur ope
Ġfle et
Ġthink s
Ġsh ag
Ġshag gy
ĊĠĠĠĠĠĠĠĠ ĠĠĠĠĠĠ
.. .
gl ass
f old
Ġto nes
Ġlove liest
Ġdistur b
Ġbe thought
t ear
pear ls
Ġgri p
Ġs our
boy s
Ġf ully
Ġe cho
m ill
Ġscre am
os er
Ġrem inded
s ure
again st
Ġexch anged
ou ched
Ġn er
Ġfo e
Ġrejo icing
her ds
Ġr ot
ass ad
Ġb ide
Ġin fl
Ġsum mons
sp are
Ġind ign
Ġo d
Ġdist ressed
Ġpower less
Ġm al
Ġsatis faction
Ġsens ible
h on
h um
hill s
Ġarri ve
Ġinhab it
deal er
un ted
Ġfig ures
Ġper mitted
Ġfear ful
do ck
c ott
Ġy arn
Ġbew itched
Ġdil ig
Ġbur y
Ġchrist ening
Ġcl ar
g ress
Ġd ang
Ġbr ow
st ers
Ġlead s
Ġs ink
Ġun usual
swall ow
Ġent rance
Ġsum mit
Ġad mit
Ġbook s
Ġst u
Ġfright en
Ġtal is
Ġtalis man
Ġlim bs
Ġn umbers
c ousin
ill a
Ġro ar
i en
Ġdread fully
Ġgrie ve
Ġsol itary
Ġfind s
Ġball s
Ġtemp les
Ġdel ive
ar ies
am ore
u a
Ġthank ful
Ġconf idence
Ġwhe y
Ġlo g
Ġhorse men
Ġbr ink
d uring
Ġpra ise
Ġrest less
Ġt ame
st or
Ġr attle
Ġpat ient
Ġgar ret
Ġnew sp
Ġm ing
Ġmay or
id ently
r ate
Ġcl ay
Ġglist ened
Ġwith drew
Ġch ina
Ġm ild
Ġcounten ance
Ġcoun tless
Ġbuck whe
Ġbuckwhe at
Ġinv ent
Ġhigh way
Ġtoy s
Ġaud ience
Ġspo iled
Ġlect ure
Ġp acked
Ġsh illings
counc illor
Ġdi pped
Ġb aker
Ġhuld a
u h
Ġveget ables
Ġretain ers
mom otaro
Ġsplend or
Ġemploy ed
Ġgover nor
Ġdismiss ed
Ġshr ine
Ġdy n
Ġt akeru
Ġvent ured
Ġcre w
Ġhermit s
Ġdescri bed
Ġatt ached
con cer
Ġreal ize
Ġun faithful
lo ad
Ġunder ground
Ġy ield
Ġiv an
Ġqu ack
Ġbe ss
Ġbess ie
Ġdum pty
Ġst ile
Ġpo ker
j emima
Ġhun ca
dsch ou
Ġt scha
Ġtscha una
Ġpro cure
Ġmud jee
Ġwe end
Ġshe em
au pee
m anger
serv ants
fl o
ag ue
Ġr ows
Ġp ause
Ġgroan ing
ress ion
Ġleaf y
n umber
p ay
Ġag es
g ue
Ġlear nt
Ġpure st
Ġgen ius
Ġsp ed
Ġhurry ing
c ross
Ġdeser ted
Ġthr ong
Ġdo ve
j umped
Ġhapp ens
g ift
Ġequ ally
Ġtell s
Ġdaz z
Ġlo vers
Ġfre qu
Ġcur sed
Ġsho d
Ġmind ed
Ġb ay
Ġco ax
rot hed
d irect
Ġwe ave
Ġfors aken
Ġsun beam
d ress
p oured
Ġn ic
st ay
Ġj or
Ġjor inde
oring el
Ġlam ented
car ried
Ġn inth
Ġpo sit
Ġl ent
Ġt end
Ġbe ech
Ġin clined
Ġneighbour ing
Ġpo p
Ġme nd
whe never
Ġele gant
Ġd aring
wa x
t or
fe ather
Ġob serve
Ġacqu aint
Ġut most
Ġcont empt
Ġjealous y
Ġde gree
-- '
Ġs inking
Ġsk ipped
Ġmar vel
Ġdesol ate
Ġthere by
en chant
Ġste pping
b ag
Ġsol id
ven ged
Ġsk ull
Ġhusband s
l ad
mom ent
Ġfurn ished
n ay
g ate
g all
Ġf ame
c atch
Ġl ard
Ġsaus age
Ġshe er
Ġde b
Ġdwell s
Ġaband oned
Ġemb raced
Ġquar rell
Ġwo ven
Ġconf essed
Ġhard er
Ġunderstand ing
Ġre ins
Ġp oorer
Ġh ood
Ġfox es
the st
d en
Ġyouth s
Ġris en
Ġstead ily
Ġant elope
Ġsqu are
f ishing
eng i
m iz
miz i
Ġown ed
ast on
Ġrul ed
stre ngth
Ġstor my
Ġcoff ee
Ġj ar
Ġha ven
maid ens
dist ance
Ġreal m
we ather
Ġs well
Ġh ired
ash ore
s ong
Ġgn aw
Ġp ace
Ġdri pping
h ou
pass ing
Ġborrow ed
v ill
Ġr ip
al ing
Ġhelp less
fall en
Ġl itter
t ight
ig ning
p arents
Ġar ts
Ġmonkey s
Ġdis may
Ġbasket s
Ġfruit s
Ġref res
Ġpour ing
Ġst ern
Ġin j
Ġfavour ite
Ġsu spect
Ġcre eping
e enth
Ġwould st
so ever
v est
Ġdign ity
venge ance
Ġbo on
Ġprof it
Ġunfortun ate
Ġattempt ed
Ġmur der
Ġr ained
Ġhorse man
in n
Ġstrugg led
Ġinnoc ence
Ġde ed
Ġprop he
Ġlow est
w ord
Ġcom bed
do es
Ġtro d
Ġfor ged
Ġsh alt
Ġsha ft
Ġm abon
Ġan ts
Ġhost s
Ġne g
Ġw akened
ub bed
b ones
Ġdro pping
Ġhang s
Ġth rice
Ġs igned
st retched
Ġhandsom est
Ġspell s
Ġfanc ied
Ġgentle men
p ret
Ġar ch
g ged
Ġtail or
p ull
Ġmourn ful
Ġsplendid ly
ain ted
b ra
Ġfin land
Ġglim pse
Ġpar ad
Ġparad ise
Ġste ward
ck en
Ġot to
Ġf ence
Ġtr am
Ġmis ch
Ġmisch iev
cri bed
f ood
Ġbr ush
Ġrest ing
n onsense
om on
Ġneck lace
Ġrub bing
Ġless on
Ġmoment s
Ġwe ighed
Ġpor ch
Ġstre wn
Ġcar o
Ġsa bre
Ġcl oser
ie ved
Ġcon so
Ġclum sy
w ers
Ġcompl aint
Ġwis est
Ġret ire
Ġper pet
Ġrot ten
Ġl ords
Ġam b
Ġamb assad
Ġpro clamation
lau gh
Ġde cked
Ġimport ance
do ors
Ġel ves
Ġgobl ins
Ġgem del
Ġgemdel ove
Ġgemdelove ly
Ġm ester
Ġw ard
Ġre med
Ġtr oth
Ġsacrif ice
Ġhair s
Ġpr ow
Ġn ag
Ġt attered
Ġcur iously
ul s
Ġhar sh
Ġgall ant
re ason
Ġun lock
utter ing
Ġinher ited
Ġh umb
Ġper plex
Ġfol ks
Ġsad ness
Ġli quid
Ġcro ak
pen ny
Ġlass ie
Ġpad dock
ank et
Ġwar mer
Ġdist aff
Ġhide ous
Ġstr and
Ġobed ient
Ġst ack
fl owers
Ġm ut
Ġpu dding
Ġj er
Ġoff ended
r iment
Ġtr otted
o int
Ġdest ined
Ġac quired
Ġfire place
Ġst ake
Ġpo pped
Ġcapt ive
mort al
Ġwa iled
Ġkitten s
Ġc ards
Ġbrave ly
Ġpre cip
Ġsym path
Ġpay s
Ġch at
Ġmay be
c ent
Ġgi ves
pl aying
Ġwrest ling
Ġth ump
Ġoffic ers
Ġt an
Ġconce aled
Ġentertain ment
Ġhero es
Ġg aul
Ġmid na
u id
Ġdelive rer
Ġth ong
ach t
Ġadv antage
Ġforgiven ess
f am
ke pt
Ġworth y
Ġfree l
Ġpleas antly
Ġart ic
Ġc air
our n
ilt e
Ġloft y
Ġp yr
Ġfree ze
Ġresp ected
Ġthe at
Ġsupp lied
Ġev idently
com m
Ġt ick
ne wed
Ġhy mn
z es
Ġthought ful
let on
Ġte ap
Ġteap ot
Ġsp ur
Ġbus hel
Ġlab or
Ġcle aring
Ġg utter
Ġtun nel
Ġpoly te
Ġpolyte chnic
rum s
Ġlear ning
Ġman ger
Ġli on
Ġp omp
Ġam ater
Ġamater as
Ġamateras u
Ġgrand son
Ġple ading
i y
reat ed
Ġt ent
Ġatt ack
Ġcraw l
Ġwealth y
Ġhor ai
Ġrem ote
it ive
Ġel ixir
d um
dum pling
Ġdyn asty
Ġentertain ed
Ġnat ive
se ed
Ġu mb
Ġlot us
Ġunder way
st ump
k no
Ġcom ple
Ġpro claimed
Ġtor re
Ġtoad s
Ġclar ib
Ġclarib el
Ġdis course
ind a
l ily
tim my
ipp y
Ġbun nies
Ġtr it
Ġt ao
as per
i ang
abo z
aboz ho
Ġplum e
Ġfast ing
Ġpeep i
Ġsp ots
Ġmar iner
Ġsch ooner
Ġtw ine
Ġsw itches
Ġko j
Ġkoj ata
Ġbr im
Ġgreed ily
hand s
Ġm uttered
Ġtender ly
Ġre ign
for got
m iddle
Ġcent re
Ġre ared
Ġrust ling
w icked
Ġcarbun cle
nd s
gi ving
m ist
im possible
Ġpath s
Ġwr ing
ha ired
Ġplant ed
r unning
Ġmind s
Ġentreat ed
se em
Ġbec omes
Ġwear ied
t ling
Ġoccas ions
Ġexer c
Ġle is
pleas ed
Ġwant ing
Ġchrist ened
Ġdec ent
Ġin k
fore st
Ġtre acher
Ġbet rothed
Ġsk illed
st ar
kit chen
Ġf ow
ure en
Ġremain ing
Ġsplend our
del ight
mount ain
sto pped
Ġposit ively
h ook
Ġimag in
Ġimagin able
Ġ ed
av our
ad am
Ġpeace ful
Ġelse where
pt ion
Ġrecoll ect
e ches
bb ling
Ġl ace
Ġfit ting
! --
Ġsu p
Ġwhere upon
Ġtas ks
Ġwith dra
qu e
Ġchari ots
m ine
s uck
Ġspo il
Ġisland s
ic ated
Ġpre y
x en
Ġbun ch
Ġpl unged
str ous
Ġdrag ging
Ġaim ed
Ġr isk
Ġtou ching
Ġere ct
Ġlard er
Ġinher it
wal ked
Ġpay ing
Ġbel ief
Ġr ushes
fe ast
Ġput s
Ġup side
Ġpotato es
Ġend ure
Ġp ou
Ġbon net
Ġs ke
to e
Ġref uge
Ġrob in
bre ast
Ġre ceiving
Ġpettico at
Ġun seen
sc ar
sp oke
dd er
an i
Ġgr ains
Ġsa ving
f lew
Ġcons ult
p ower
Ġtra itor
b asket
sum mer
om s
m at
Ġclean ing
Ġsil very
Ġd om
Ġtr ain
Ġpu ssy
Ġexpress ion
Ġchild hood
ester n
Ġsqu e
s pl
ru ly
ex cept
row ing
Ġwhe els
Ġn aked
Ġbed s
Ġbat hed
Ġpleas es
Ġprefer red
Ġw edd
Ġsend ing
mar ry
Ġbat he
Ġback wards
Ġmer c
Ġcush ions
Ġinv ented
Ġins ist
pre p
Ġviol ently
Ġattent ively
Ġbe lt
t een
Ġdes per
col oured
Ġa ck
Ġack now
Ġcrim son
Ġch ap
f resh
g a
Ġfift eenth
Ġk iev
Ġkiev a
gre w
Ġtr ade
Ġpur ch
Ġjourney ed
at hered
Ġstr ay
Ġdo st
Ġwr ath
Ġrept ile
Ġover taken
Ġremark s
sur pr
ar r
Ġret orted
Ġd art
foot ed
Ġwhi p
wor ds
Ġst air
Ġgro ans
Ġsk ir
Ġcheer fully
Ġcaut iously
th ousand
Ġconce al
Ġh arp
m ess
Ġo lw
Ġolw en
Ġgrey h
Ġb ounded
Ġpor ter
Ġsp ake
Ġmo ist
Ġherds men
dd y
Ġbro om
Ġden y
Ġr az
Ġmo d
Ġgwr n
Ġgwrn ach
Ġinqu ire
Ġsh aken
wal king
Ġd ar
Ġso fa
le ct
s ays
ag ged
Ġp atter
Ġobli ge
out her
outher n
Ġstrange ly
trou ble
m id
Ġstro de
Ġour s
Ġcol our
d re
Ġkn ots
gre y
Ċ Ċ
ge ons
l awn
Ġshe dding
Ġcur se
Ġbr ides
t ar
Ġfor ge
Ġe urope
Ġo ars
Ġs led
Ġcost ly
ach ing
Ġdrift ed
b bing
Ġsat in
Ġrasp berries
f ing
Ġlead er
Ġpocket s
Ġmurd ered
Ġloo sed
b us
Ġa z
p ick
st able
ball s
Ġwhi pping
Ġman ly
Ġcow ard
stick s
Ġtri pped
Ġbit ten
ben e
cra ck
Ġhurried ly
Ġcur ds
Ġad o
stra ight
Ġin mates
Ġbr avest
Ġp ony
Ġar med
Ġunt ied
Ġup set
Ġhow ling
Ġrid er
oo ps
Ġpl ough
Ġvict im
Ġcott on
Ġc ri
t ry
Ġlive ly
č čĠĠĠ
con f
Ġremed y
Ġpr on
Ġbair n
Ġlad s
Ġcher ished
pp le
Ġbreat hing
Ġsadd led
Ġring ing
Ġmotion less
Ġsail s
Ġde fe
Ġtw ist
r ul
Ġfeast ing
Ġpick ing
Ġprosper ous
Ġtw inkle
Ġsh aped
Ġsuff ic
Ġprev ious
Ġkitt ler
Ġkittler ump
Ġkittlerump it
Ġen gl
Ġengl ish
Ġsl op
v oice
m inded
p ow
Ġho y
Ġperpet ual
Ġbr ass
Ġsome where
h ar
Ġfr au
Ġfrau k
Ġfrauk irk
Ġpri v
Ġt it
Ġdepart ure
Ġlight ing
Ġreck on
Ġgr in
Ġpro ver
Ġprover b
Ġ vengeance
Ġinhabit ants
Ġrhy mer
Ġtor ches
Ġres ult
b ling
Ġsauc er
anc y
cott age
Ġvi o
Ġc inder
ed ing
Ġtr oop
Ġke g
Ġover board
w o
Ġh an
Ġnodd ing
Ġpu dd
Ġfestiv ities
Ġdisp leas
Ġmer riment
ch t
Ġconqu ered
Ġslipper y
Ġmore over
Ġglass y
Ġhunter s
u ous
h ip
Ġsun ny
re y
Ġglist ening
Ġhaun ted
Ġtr ansp
Ġha lt
Ġfor ms
Ġst ark
Ġraven s
Ġsn apped
Ġprecip ice
s and
d an
bes ides
Ġg ander
ra b
Ġscrat ching
Ġpract ice
Ġn ess
an na
a ired
Ġboy ne
Ġc ulain
Ġaf ar
Ġclot hing
ter ri
Ġkiss es
Ġfo al
Ġcoll ected
Ġha llow
Ġright s
Ġdistinct ly
Ġd ense
Ġtor ch
Ġsick ness
Ġthunder bo
Ġc ough
an non
Ġmean ing
ra ch
Ġans h
Ġansh gay
Ġanshgay li
Ġanshgayli acht
ar ison
Ġday time
Ġfl utes
ke eping
Ġexp ressed
d ig
Ġc ao
Ġcao ilte
Ġover took
ut ation
Ġcur rent
cle ar
Ġwheel barrow
Ġus ually
Ġnewsp aper
Ġming led
Ġtra p
Ġinterest ing
Ġfortun ate
ĊĠĠĠĠ ĠĠĠ
Ġp ul
Ġpro gress
Ġhast en
Ġex e
Ġdis agreeable
Ġhouse keeper
Ġhat ch
Ġpo em
Ġnur ser
Ġnurser y
ro be
Ġstuff ed
Ġcan e
Ġfl uttered
Ġpu pp
Ġdirect or
Ġdoll s
Ġmusic al
Ġshoot ing
Ġwar n
Ġp ail
Ġk ids
Ġsco lding
Ġunexpected ly
Ġsec ured
Ġneighb ors
Ġhence forth
Ġsub d
Ġdis char
Ġcomp elled
Ġtri p
to ise
Ġmist aken
um o
b ons
Ġdistri ct
Ġes p
Ġumb rella
Ġtoy on
Ġtoyon ari
Ġfollow s
Ġcomple ted
cr ane
Ġco ats
Ġt avern
Ġmagnific ence
Ġfire wor
Ġfirewor ks
Ġtid y
f u
Ġbon bon
Ġcoun ter
Ġmor g
Ġmorg ian
Ġmorgian a
Ġac orn
l uc
Ġpol ice
Ġhen ny
Ġhum pty
Ġside ways
Ġcorn et
squ ir
Ġcat er
Ġcater pill
Ġch ippy
Ġsmell s
to ad
Ġlet tu
Ġlettu ces
Ġy uan
s ly
Ġts in
Ġsch i
Ġhu ang
Ġre newed
k ung
Ġlod ges
Ġweend igo
Ġser mon
Ġu dro
Ġudro st
sh illing
mar riage
Ġneighbour hood
e av
Ġqu en
Ġemer ald
Ġab sur
Ġabsur d
e xt
Ġstir rup
Ġdescri be
es y
pre sence
Ġsurround ing
Ġbr ood
Ġwork man
Ġaccompl ished
t imes
Ġpre c
Ġgra zing
p ur
su ed
Ġpursu ing
Ġtra cks
Ġw ret
Ġfear ing
Ġcontin ue
me et
Ġspe ck
Ġmid day
Ġcrow s
it ions
princess es
t in
Ġorigin al
but ter
Ġlove liness
un fortun
ab ove
cont ent
in ations
es pecially
Ġsm art
comp lete
az e
ang ry
Ġup wards
re plied
y ear
ad dy
Ġbag p
Ġbest ow
Ġe vent
Ġreleas ed
Ġ ess
Ġcounc ill
Ġcouncill ors
Ġch anging
Ġfast en
Ġswe ep
Ġfow ls
Ġpo ver
Ġpover ty
ick er
tal k
Ġconf used
bl ood
id ering
Ġcustom ers
Ġch oo
Ġtr ained
ch arm
m atter
Ġc a
r ateful
Ġex ist
Ġdifficult ies
Ġoff ering
Ġconf ir
Ġconfir med
sc ri
ex claimed
Ġspe eches
Ġre appeared
not iced
Ġsh y
satis fied
e k
ne es
Ġbl inded
Ġi cy
Ġburst ing
Ġcross ly
Ġcontain ing
Ġfo lded
Ġinterest ed
mil k
gg ing
happ iness
Ġpict ures
Ġr oused
Ġbeh av
m is
ant ic
Ġgracious ly
l ished
Ġmain land
Ġmar ch
Ġcho ked
Ġstab bed
Ġstar ved
Ġcare lessly
Ġbow ls
Ġhither to
Ġmon strous
Ġhow led
compan y
Ġper ish
Ġconcl uded
coun ter
Ġje ered
Ġd usk
ter s
Ġto ssed
Ġfeast ed
Ġc ured
see ing
Ġshore s
Ġen quired
b ro
Ġch ick
Ġsurpr ising
Ġpat ted
Ġwarm ly
Ġsob bed
near ly
Ġho lid
cle an
Ġcom plex
Ġr ye
Ġnot ed
c ity
Ġp ans
Ċ ĊĠĠĠĠĠĠĠĠĠ
Ġbar ne
ink s
a it
hand ed
Ġbun y
Ġbuny ip
Ġfl ashing
Ġch attering
wat ers
yth on
g op
gop ani
Ġund o
ut s
Ġz engi
Ġl oth
Ġbuild ings
Ġdress ing
f elt
Ġpl ot
Ġexc urs
Ġsmo ked
Ġfaire st
to bacco
un ch
we ed
Ġflo at
be ard
Ġsly ly
Ġw aken
af raid
Ġwr ung
li ked
Ġmour ned
vill age
le aves
sh oot
Ġtown s
Ġad mitted
Ġwedd ed
Ġcl ump
m ock
Ġi gn
Ġmerc iful
Ġsn akes
Ġse es
Ġcush ion
Ġcar ries
p ting
Ġjud ges
Ġwr inkled
Ġsw orn
Ġsho ck
d ifficul
Ġwand e
Ġsw if
Ġswif ter
Ġconcer ning
gl adly
Ġeng land
l ers
fashion ed
Ġprosp ered
Ġrob bing
Ġbet ide
ass ed
Ġbu ying
Ġpit ied
Ġen cl
d well
mon ed
Ġplan ned
al most
Ġforget ting
Ġab use
Ġsuit able
sl ow
re f
spo ken
the e
Ġport al
Ġcl am
ol ves
Ġforth with
Ġgwr hy
Ġgwrhy r
wh ose
he w
h ope
Ġbl ade
is her
b id
v ous
Ġspread ing
Ġcar p
Ġsh awl
Ġsh adows
Ġvirt ue
Ġf ired
Ġver se
Ġnor way
Ġs outhern
Ġhe aped
Ġbas in
j ul
jul ung
young est
s le
ag er
Ġwhere in
Ġbut ler
Ġglass es
Ġthat ched
Ġmag pie
Ġrefle ction
Ġpi geon
Ġprep ar
Ġplay things
Ġsteed s
Ġse v
Ġsev enty
m al
Ġim it
ck oned
may be
Ġw iped
Ġstal ks
fur ther
Ġpe pper
Ġbamboo s
il iar
ll en
l ament
Ġdiso bey
Ġhesit ated
Ġcraw ling
Ġj un
ip er
ina fore
inafore s
Ġsun light
Ġy awn
Ġtram pled
Ġtwig s
Ġkeep er
Ġgall ows
Ġpl at
Ġplat form
Ġgran ny
Ġp ushing
friend s
Ġd ine
Ġen able
c abb
should er
Ġmischiev ous
Ġrib bon
Ġcount ing
Ġbuck led
Ġon ese
Ġonese lf
Ġtable s
Ġavo ided
c or
Ġel b
isto l
Ġreg ained
Ġshrie ked
Ġrel ieved
r al
Ġpe ering
Ġsc ent
gr an
Ġtor ment
Ġan k
Ġc av
Ġcav al
Ġimpat ient
Ġfortun ately
Ġy ell
Ġarr ay
Ġconf ident
Ġfl ashed
Ġconqu er
Ġpast ures
Ġaw aken
Ġwal nut
Ġl air
se ct
Ġv ap
Ġso ber
Ġsatis f
Ġthres hing
Ġsent ence
Ġstill ness
ill s
bo at
d ry
br ide
Ġor k
Ġork ney
f le
Ġremain der
ou ch
go at
Ġheart y
Ġland ing
Ġreleas e
Ġl aws
Ġexpl o
d ed
ould er
Ġsp ade
Ġpre ssing
ph ir
after noon
Ġcan onbie
th omas
Ġsucceed ing
Ġcomm iss
op ed
ten s
tr uth
com mon
Ġk aily
Ġkaily ard
Ġbl anket
Ġble eding
g lo
Ġpr im
Ġpr ud
Ġbus ied
f ive
Ġsuspic ious
Ġsuspic ions
Ġde ll
Ġstock ings
Ġpudd ings
Ġf ried
Ġch uck
Ġsh im
Ġcl apping
Ġcra g
Ġsl iding
Ġexer t
Ġnor row
Ġnorrow ay
le ad
Ġc red
dra ught
ro de
Ġhesit ation
Ġl um
Ġer cildoune
Ġstu dy
f rey
Ġrep ent
Ġdown wards
Ġradi ant
Ġr in
Ġnet her
enchant ed
Ġreal ity
Ġint r
Ġapp rent
Ġvalu able
Ġsympath y
Ġchur ches
Ġstri cken
Ġou ld
Ġprep aring
Ġcl aw
Ġred head
g an
Ġmach a
ra ised
on ze
Ġsport s
Ġmet al
Ġcrow ds
Ġf il
Ġreg ular
dy arrig
Ġso d
Ġrib s
Ġto oth
ou l
Ġincre ase
Ġcomfort ably
fight er
cap tain
Ġf ians
Ġthunderbo lt
Ġyour selves
Ġsn ug
Ġapp ears
Ġaccompl ish
. ,
Ġint ell
Ġcomp arison
Ġsl aughter
Ġpap a
Ġde cht
Ġdecht ire
Ġd er
Ġblood y
Ġcomr ades
m ur
Ġcler ics
ne ch
all en
Ġplum es
Ġbe amed
Ġh om
Ġconcer ned
ĠĠĠĠĠĠĠĠ ĠĠĠ
Ġfree zing
Ġint ro
re nder
es cend
Ġre comm
Ġtall ow
Ġletter s
Ġwar med
Ġg ifted
Ġconcer n
Ġaff li
Ġman kind
Ġfrag rance
Ġdust y
Ġske leton
Ġexe cut
Ġnot es
Ġfo ld
Ġp red
Ġcall s
Ġstar ch
Ġfire wood
Ġcustom ary
Ġwarm th
Ġo ats
Ġhall oo
umb s
h ist
Ġtheat re
Ġdis cu
Ġamuse ment
b in
Ġcur ls
Ġun if
Ġatt ract
Ġacquaint ance
Ġg ames
Ġvisit s
Ġlecture r
! -
sh ot
Ġfoo led
Ġbr ushed
Ġdra ke
h ans
Ġwag g
Ġcan n
Ġcann ib
Ġcr ust
m i
Ġvirt ues
Ġobed ience
Ġo k
Ġt am
Ġhomes ick
Ġe bb
ced ing
Ġman hood
Ġpre served
Ġru ff
Ġquar re
Ġinc ense
Ġbudd ha
Ġcommand s
Ġk y
Ġky oto
Ġcar pent
Ġpl ight
Ġfu ji
Ġdisg race
Ġwrest le
Ġtor toise
Ġm ats
Ġemp ire
Ġmur ak
Ġmurak umo
Ġk um
Ġbrig and
ush i
Ġfl int
Ġexcept ion
Ġesp ied
Ġattempt s
Ġch ir
Ġnice ly
Ġgro ves
at ive
Ġstead fast
Ġrash omon
Ġogre s
Ġtro p
Ġtrop hy
Ġun cons
Ġuncons cious
Ġdam age
Ġmusic ians
Ġsepar ate
Ġlaw rence
Ġmar ks
Ġfor fe
ch rist
n u
Ġp ike
su c
Ġco lts
ar in
Ġno ises
Ġmar g
Ġdis play
Ġc ather
Ġcather ine
qu ack
Ġfor ty
Ġsar ah
Ġn asty
Ġen c
t iddly
Ġsam uel
Ġd or
Ġdor mouse
Ġre ed
Ġchamber lain
Ġhum or
Ġbutt ons
Ġcock ch
Ġcockch af
Ġdisp atched
Ġpur r
Ġrub bish
Ġha ck
Ġhack ee
Ġro ly
Ġshr unk
Ġcaterpill ar
arrow s
Ġluc inda
hun ca
Ġj asper
Ġy ang
Ġplain s
Ġconst able
d ung
Ġtrit on
Ġh ia
Ġmag ist
Ġpl ow
Ġm oose
im id
tow ard
ke wis
aw is
mor ia
Ġo la
Ġn ich
Ġnich ol
Ġnichol as
Ġa wait
b bed
Ġbend ing
Ġpo nder
; '
ex p
Ġrem ind
Ġchar ger
s mo
Ġbrilli ant
Ġbul r
Ġtimid ly
Ġcourt esy
Ġstamp ed
Ġro gue
wind ows
Ġright ly
Ġwere n
Ġbeaut ies
r ors
Ġburn s
p at
hard ly
Ġar d
Ġt ended
d ust
Ġcook s
c ake
Ġglad ness
Ġun willing
Ġdazz led
Ġall owing
Ġbutter flies
Ġel o
Ġlo ves
long er
Ġleis ure
in ated
Ġfrequ ently
o ccas
man ner
qu iet
Ġhard est
Ġind uce
Ġphysic ian
d eterm
h our
Ġswe eping
Ġdeser ve
Ġtast es
an im
Ġj oringel
Ġs ings
neighb our
Ġlack ing
Ġh ue
se ll
Ġflock ed
ab led
Ġf ug
art s
pe ace
Ġu ng
re co
Ġann ounced
Ġatt racted
Ġapp arent
in st
Ġcar ing
tow ards
cont in
she lter
hung ry
b bled
b und
Ġassist ance
w inter
s or
Ġinst ance
gent le
ick le
Ġoccup ied
Ġworth less
Ġre ception
Ġvan ishing
Ġconsc ience
Ġunder took
Ġsho vel
b ore
Ġre venged
t ied
Ċ ĊĠ
Ġt ying
l ength
j ump
who ever
Ġshr ill
m ice
Ġho lly
Ġp ounced
k illed
Ġl ust
ak ers
Ġfo lly
l atter
Ġund ressed
Ġtu ft
t on
Ġlet s
p les
Ġpou lt
Ġsn ap
Ġtuck ed
Ġmeas ured
al ive
Ġk or
Ġsh apes
Ġpart ly
Ġlab ou
Ġcomplex ion
Ġdanc es
Ġmount ing
let iko
an ed
Ġlam ia
in side
co ld
sk y
Ġcl ung
Ġfl apping
an n
Ġp ython
Ġcover ing
Ġwas p
com pl
spr ang
p ast
Ġreve aled
st aff
to la
Ġstor ms
wa ves
Ġbe er
Ġcomp ared
Ġexcurs ion
turn ing
Ġsp it
Ġshe lf
Ġw ink
Ġrag ing
ro ck
Ġha ul
st ore
Ġsteam er
Ġg ust
ble ssing
dep arted
ne ither
Ġp arent
k ill
Ġsl aves
s li
Ġtin iest
Ġign or
sh ook
will ingly
Ġacc used
every one
Ġhorri fied
ste pped
j ud
Ġliber ty
Ġfour teen
Ġdesper ate
l ow
Ġhigh ness
Ġsec urely
Ġcar ved
r ather
Ġdecl ined
Ġw ont
as ps
Ġcra fts
g athered
poss ess
Ġnim ble
Ġthy self
Ġh anged
bear ing
Ġg w
Ġa ven
Ġun loo
ne ck
Ġv ine
Ġl ately
Ġsuspic ion
b est
mount ains
Ġre nt
Ġsh ab
Ġshab by
Ġstair case
ri ch
v or
Ġlo gs
Ġwret ch
Ġdoor way
slow ly
Ġprodu ced
surpr ise
Ġrub ies
ve re
Ġle vel
w yr
Ġtong ues
fr ont
en n
un less
Ġr ud
Ġraz or
Ġc ant
w in
ent er
Ġpe cked
Ġd un
Ġj oke
Ġlamp s
Ġdar ling
sil k
Ġe y
y onder
Ġgle e
Ġtong s
Ġst rolled
Ġpatter n
Ġsob bing
Ġday break
Ġthread s
eld est
Ġhome wards
feel ing
Ġvisit ing
Ġstr ings
sp ite
er t
me at
b ad
r ue
Ġgr ows
h ig
hig her
Ġforward s
Ġleap t
z y
Ġpi geons
Ġprepar ations
Ġax le
Ġper ches
Ġhe aps
ones ome
Ġcoff ins
Ġr acing
Ġshell s
Ġsevent een
shell s
ship s
Ġas ia
Ġste ered
po ly
it self
c ro
Ġfam iliar
Ġw oo
ish ly
Ġcol oured
char coal
Ġd in
ath s
stra w
Ġjun iper
Ġp inafores
Ġlim ping
end ent
Ġgreet ings
Ġi an
f isher
Ġnest s
Ġhe aled
Ġvict or
Ġmur de
Ġd irt
p os
bus iness
claim ing
Ġbl ushing
Ġwhi pped
Ġgr oup
Ġaf ford
other s
Ġforg ave
ing ling
qu ake
Ġth urs
Ġthurs day
d ifferent
Ġsw itch
wal ter
Ġelb ows
Ġcor k
ac he
Ġtr ous
Ġper chance
Ġl ur
w olves
.. ..
Ġcow ards
bene ath
Ġpier cing
Ġd ive
Ġser ai
Ġcorn ers
Ġover heard
Ġsa le
ch ants
ac le
mark s
dark ness
Ġst all
Ġank les
Ġarm our
complete ly
Ġcare er
Ġgallop ing
Ġtr oops
Ġshep herds
ar ily
Ġunluck y
Ġambassad or
Ġcomp et
it ors
Ġlair d
Ġvisit ors
Ġin sect
Ġpe at
Ġden ied
Ġinfl u
if ying
sto orworm
Ġre nd
Ġab ide
Ġgrave ly
Ġpret ending
e ous
qu ished
Ġfo es
Ġover looking
Ġbrid led
Ġsl im
Ġout w
tr out
Ġbr ain
Ġp aced
prep ared
Ġm ull
Ġmull ioned
. )
st ory
Ġvex ation
Ġwicked ness
st y
Ġbe see
Ġl il
Ġdwarf ie
Ġqual ities
Ġmedic ines
Ġun can
Ġuncan ny
acc ord
accord ingly
Ġor phir
Ġneed s
Ġw ily
Ġkn ave
d warf
Ġsc ented
Ġv est
ag ing
Ġfear less
Ġhill ock
mer ing
r oof
Ġh in
Ġprev ented
Ġd aint
Ġknow e
Ġrel ate
Ġtr ot
Ġscrap ed
wo lf
Ġsuggest ed
Ġgu il
Ġguil ty
Ġmar y
Ġhope less
f aced
mo on
Ġw estern
iz on
Ġcl amb
b right
Ġspect acles
Ġperplex ed
hab et
Ġc aps
Ġcountry man
Ġint ent
Ġma un
Ġal ight
Ġstra it
Ġst ained
pers on
Ġcred it
Ġli king
Ġf ife
Ġexp ed
fly ing
Ġc uff
ag g
ch ange
Ġf ade
Ġrun s
Ġch ill
Ġsw oon
w ine
h unt
Ġhaun ts
Ġf ren
Ġfren ch
Ġ 1
off ic
Ġfo aming
Ġst ooping
Ġcro aking
Ġdang ers
Ġb aked
Ġtail ors
Ġk ir
sh oe
p es
Ġscrap ing
Ġspo ons
pear l
Ġen raged
pull ed
l im
Ġsa uce
in ions
Ġsupp orted
Ġl ark
ra h
Ġcabb age
c ass
Ġrespect able
Ġpol it
Ġa ch
Ġach ieve
Ġsuper int
con chubar
Ġt y
part icular
Ġken nel
serv ation
Ġf aced
Ġcomplain ing
Ġsquee zing
Ġchief s
Ġbr onze
Ġstat ure
or ation
Ġinstrum ent
Ġcaptain s
Ġstrong ly
Ġf aded
Ġim mortal
Ġc ull
Ġcull amore
.' "
meant ime
Ġgran ua
al ready
Ġpl aited
with standing
Ġfe at
Ġme lo
Ġbutcher s
Ġcur rach
your self
Ġcon ver
m ac
hand some
Ġbru gh
Ġat h
Ġhallow een
Ġfidd les
ce remon
Ġim age
ag an
Ġtr ad
Ġtrad ition
Ġteach ings
Ġp sal
Ġgem s
Ġcair nech
Ġcare less
Ġmir acles
Ġph ant
Ġvis ion
Ġdescend ants
Ġhaun ch
Ġbo il
st arted
Ġen er
Ġup right
Ġlump s
Ġeng age
Ġintro du
Ġch ips
Ġsh utter
Ġre called
Ġrust y
Ġtap ers
Ġpict ured
Ġwe ars
Ġprett ily
Ġgrow th
Ġqual ity
Ġr ail
Ġor gan
Ġchin ese
Ġsm iles
Ġfo li
Ġfoli age
Ġlux ur
am i
Ġdec re
Ġb aking
Ġst ur
Ġflee ce
Ġobject ion
Ġcl uck
Ġsack ful
Ġl acked
Ġpost ed
Ġacknow led
Ġward robe
Ġunif orm
Ġmus k
Ġon ward
Ġmove ments
Ġperform ance
Ġwe igh
Ġconsc ious
av ings
Ġbe an
man age
Ġhar ness
Ġto wel
hall o
Ġdrink s
s ue
Ġaugust ness
Ġse ashore
Ġbuck ets
or i
Ġrespect fully
Ġhold s
Ġsh iy
Ġshiy u
Ġfond ly
Ġh ana
s ak
sak a
ji ji
jiji i
bu y
Ġquarre ling
Ġdischar ged
Ġme als
somet imes
Ġpray ing
Ġheaven ly
Ġend eav
Ġwork men
je wel
Ġst ation
Ġr ai
Ġrai ko
Ġconven ient
Ġcompl iments
Ġstupid ity
Ġkum as
Ġkumas o
Ġworship ed
Ġbare foot
Ġpriest s
p iration
ter n
Ġmouth s
yes terday
Ġtwe et
Ġbox es
Ġbelong ings
Ġpin es
Ġres ign
Ġapp re
Ġter ute
Ġno stri
Ġgl owed
Ġdeliver ing
Ġhundred weights
Ġformer ly
Ġpe lt
Ġang u
Ġangu ish
it able
Ġinter ior
Ġbet ray
Ġloo p
Ġfl ask
Ġan ointed
Ġhorn ets
Ġst ing
Ġsw arm
Ġm ale
Ġinv est
Ġt ending
Ġtrump ets
Ġo xen
Ġcont est
Ġhandsome ly
Ġse lected
Ġyield ed
Ġbarne k
Ġmarg are
Ġmargare t
Ġpyr ote
Ġcou ghed
Ġb eng
Ġbeng al
Ġob jected
Ġg au
Ġvis ible
ĊĠĠĠĠ ĠĠ
Ġche es
drag ons
Ġp ian
Ġpian o
Ġstore room
Ġb umble
n est
Ġfoot men
Ġdoub ted
Ġj ane
pick les
Ġpolice man
Ġcle ve
Ġpl ates
Ġde ceive
Ġenc amp
Ġor anges
Ġle mons
Ġli z
Ġcockchaf er
Ġw oof
Ġduck lings
Ġglo ves
Ġsquir rels
Ġch ip
Ġchip m
to ps
s hed
Ġwrigg led
luc ie
Ġc reated
am mon
Ġpart ake
Ġpo les
Ġcor ds
Ġk ins
Ġoffic ial
Ġfast ed
Ġdsch u
Ġw u
li u
Ġschol ars
Ġbe avers
Ġman abozho
Ġpart ook
Ġexper t
moned owa
Ġneighbor ing
Ġmagic al
Ġgrand child
Ġw aupee
on wee
Ġgrand p
Ġgrandp a
Ġsquall ers
Ġsor ia
Ġt ipp
Ġt app
Ġhel ge
Ġmagist rate
Ġfire lock
Ġbless om
Ġwhite land
Ġsnow shoes
Ġt ents
pl unged
Ġpat ch
ext ra
w oe
Ġwild ly
d aughters
Ġhe wn
az ed
l oud
appro ached
Ġwater fall
bel ieve
e qu
Ġmir rors
Ġcau sing
brid ge
ch oose
Ġaf resh
Ġhorse back
b ade
des ire
Ġdisgu ised
dro p
Ġn ick
Ġm ate
Ġrefle ct
Ġfount ains
Ġimp ression
Ġspeak s
Ġser iously
Ġelo quence
Ġasse mb
beg in
Ġchar ms
Ġdis d
Ġexerc ise
ir able
Ġpri ck
Ġlast ly
Ġbagp ipes
key s
Ġshort est
Ġal oft
r ide
w and
new s
sm ith
Ġchar ged
Ġs ill
co ach
Ġpri cked
Ġbr is
Ġtreacher y
ro y
great ly
far mer
re jo
pie ces
Ġresol ution
determ ined
s oup
Ġnic er
mo ve
ar rived
Ġcons idering
c age
creature s
ad owed
Ġf ished
it ure
Ġsp ared
Ġpop ular
ad ine
Ġprom ising
m adam
Ġung rateful
Ġwhis ked
Ġexist ence
Ġvan ity
Ġdecl are
Ġimmense ly
Ġatt ire
reco gn
Ġlux ury
Ġcur ing
Ġpleas ures
Ġexer ted
Ġev ident
Ġin scri
i our
k nees
b idding
se arch
contin ued
bund le
Ġcontain s
Ġwas ted
Ġwithdra wn
Ġun happiness
Ġfl atter
Ġlove lier
her s
im ag
imag ine
Ġdecl aring
Ġcorn wall
Ġw ade
Ġtravel ers
g ro
u dge
am mer
m outh
Ġex amp
ac ious
Ġarri ving
l onely
Ġtrump et
Ġbattle s
Ġpit ifully
Ġreturn s
s ound
consol ate
Ġgr umbling
de cl
f ier
bar gain
Ġen counter
th ird
war ri
Ġl ance
Ġgr unt
Ġsc ore
Ġsaus ages
know ing
Ġd ies
ll ed
Ġthy me
Ġmouth ful
eld er
bro ke
Ġquarrell ing
Ġpoult ry
Ġbus ily
Ġchick ens
Ġsn ip
f ix
fix ed
any one
Ġsh iver
Ġr ises
cont ented
bar baik
Ġtrans form
land s
Ġwonder ingly
Ġholid ay
Ġear then
p ots
field s
Ġow ing
occas ion
Ġbr oth
ex c
Ġpanc akes
Ġse ats
g ather
Ġkey hole
clim b
Ġfar thest
Ġhook s
Ġwor ms
Ġr aw
min utes
p ool
Ġfling ing
Ġdisappear ing
Ġrid ge
Ġadv ancing
w ings
im age
Ġun like
un ned
Ġsun k
re ward
Ġbr ows
Ġroof s
Ġburn ished
Ġcro ps
Ġhum med
Ġdesire s
as a
Ġtrust y
Ġtu fts
mat te
Ġj unk
Ġru les
Ġswift est
Ġric hest
Ġsto red
Ġt une
reme mb
rememb ered
f ed
Ġpeace fully
Ġun to
Ġfidd ler
Ġfine ly
Ġgnaw ing
Ġpe ats
p ack
mo or
he y
ff in
pro per
s a
Ġw ip
Ġwip ing
Ġdrum s
Ġdeser ves
id ly
sn ake
Ġb order
Ġnur sed
Ġsou ls
l osing
fin est
Ġg ang
Ġo we
th irst
Ġrefres hed
Ġrest rain
Ġdisp ute
Ġins ul
gentle man
Ġs ire
Ġadd ing
in et
Ġquar ry
Ġper mit
Ġout stri
Ġoutstri pped
Ġjust ice
Ġreg ain
Ġd ow
Ġen ame
pp ings
Ġband ed
Ġshield s
Ġcl asps
Ġtid ings
Ġun wise
Ġhar vest
Ġre ap
su ff
Ġfreed om
Ġre in
Ġbes ought
be hold
g rowing
Ġo st
Ġost ler
ss ip
Ġemb arr
Ġdart ing
Ġwhist ling
Ġbeg one
wor se
Ġspend ing
Ġun just
Ġev idence
t reat
Ġlad en
co st
Ġru ined
re ceived
Ġbl ushed
app le
Ġsp ears
Ġso ds
greet ing
Ġbed wyr
ust enn
ustenn in
p hew
h arm
ob tain
Ġpier ced
Ġrud eness
Ġan vil
Ġhe ated
Ġro oted
Ġle ash
compan ion
Ġknow est
Ġst ag
Ġstump s
knight s
Ġfo lding
t welve
mon th
Ġcomplain ts
Ġadv ise
sc ot
Ġey el
set ting
l ose
Ġstuff s
Ġfoot man
Ġa we
Ġbaw led
Ġsigh ing
Ġtast ing
Ġinv iting
Ġd julung
Ġheav ier
great est
burn ing
Ġgle am
b ottom
th ick
Ġtw inkling
mar ried
Ġange red
fet ch
pret ty
Ġl atch
Ġmar ries
sweet heart
s ail
Ġcross ing
Ġli ck
Ġhand ing
hand som
quarter s
add led
Ġdis mal
h ot
Ġbo ards
cu les
Ġaf ri
Ġafri ca
Ġam er
nes ia
Ġco ast
Ġdri f
Ġdrif ting
Ġno d
Ġl onesome
Ġice ber
Ġiceber gs
Ġdr ooping
y l
Ġwag ged
zz ling
ot to
Ġwater ing
Ġremain s
Ġtw inkled
Ġa waited
Ġv ases
ser ving
Ġtire some
clim bed
Ġsand w
Ġyawn ed
Ġd ip
Ġlight er
Ġfal con
eat en
Ġsorrow fully
every body
d irty
Ġmurde rer
Ġcon vent
Ġv ig
Ġrepro ached
Ġexc us
Ġexcus es
t ong
for ced
pe asant
Ġrough ly
roll ing
Ġmo cking
oun cing
cou rage
Ġdra wer
m ush
en a
Ġsho ots
re ach
Ġug lier
l ie
Ġhow l
Ġgroan ed
Ġbr a
Ġbra very
s ons
Ġprodu ce
Ġbl ast
Ġto wers
Ġaf gh
Ġmer chants
Ġseas ons
Ġcre st
Ġsa ll
aston ishment
Ġbal ance
Ġcaval ry
Ġn umer
Ġnumer ous
Ġner vous
pl enty
th reat
Ġbus hy
Ġwhirl ing
Ġreg iment
Ġreason able
Ġp uck
Ġper for
Ġeight y
i am
it es
Ġchest nut
c ade
Ġc ald
Ġcald ron
l ies
Ġfisher men
kind ly
Ġdre aded
cer y
Ġinflu ence
Ġsatisf y
Ġj agged
u ously
Ġ ven
Ġvan quished
ers n
ersn app
ersnapp er
Ġbo lts
com r
Ġsecret s
isk ly
Ġne igh
th ro
er able
pleas ant
t ouch
Ġbelie ving
Ġn igh
Ġdece it
fing er
cra ft
Ġsuffic iently
Ġpret end
Ġpre ss
se y
Ġremember ing
e yed
str ing
pow der
Ġb oulder
Ġam bit
med ic
Ġfortun es
Ġwander ings
Ġknight ly
Ġmother s
Ġhel ga
c al
j oice
Ġreluct antly
deed s
sent ed
xt ure
Ġwe b
Ġwaist coat
Ġmal icious
cou raged
p otion
Ġh ire
aps ed
Ġread iness
Ġfat al
th read
Ġwrong ed
w are
Ġda unted
Ġcustom er
Ġrock y
beg inning
er cildoune
i ance
Ġbr and
Ġthreat ening
c akes
Ġtrou bling
Ġhin nie
Ġun common
Ġste alth
Ġstamp ing
Ġbod ily
ist s
Ġwatch ful
b ell
Ġbrilli antly
Ġur ging
Ġjo king
Ġapp ly
ir m
lf ul
Ġgr umbled
Ġn a
Ġkeen ly
Ġhan ks
Ġn un
Ġrock ed
ma isie
Ġadd ition
Ġhor izon
Ġha bet
Ġhabet rot
Ġcar pet
is ite
Ġde fect
st ress
f arm
Ġnoble man
stre am
Ġpo ster
Ġmoor land
Ġjer k
Ġsmooth ly
laugh ing
Ġve ins
all owed
li ct
Ġsho on
hold ing
Ġcr ook
Ġsw ish
Ġfl utter
Ġsw ooped
cro ak
look ers
Ġapparent ly
g in
Ġcaut ion
Ġpal frey
ll ing
Ġlead eth
b ound
Ġfr ame
Ġgood ly
Ġver ses
Ġdefe ated
Ġinter v
Ġpriv ile
Ġprivile ge
Ġbe ckoned
Ġr im
ud er
Ġlim b
Ġhair y
Ġconcl usion
Ġcapt ure
w ound
Ġreco very
Ġf ath
Ġhall s
Ġout er
Ġemer ged
Ġn ib
bu ilt
g oose
r in
Ġh ound
our ne
Ġre n
r our
rour ke
Ġrat tling
Ġtip sy
Ġre aping
Ġsm ashed
ing es
Ġpin ch
fo x
Ġcar cass
i ant
is m
Ġhe el
Ġmo at
Ġswords men
Ġbaw ling
Ġg illa
Ġste w
with in
Ġpump s
Ġche ss
Ġsu alt
Ġp up
Ġdev oted
Ġsc uff
Ġpro c
Ġthence forward
Ġt ales
Ġapp are
Ġappare l
Ġvill ages
Ġg ad
follow ing
Ġcoax ing
Ġbul k
Ġstri kes
Ġinstrum ents
i ber
Ġdr uid
Ġen jo
Ġpoint s
Ġinstru cted
Ġcl ashed
Ġob st
Ġstro ve
Ġsuccess ion
or ies
Ġhar b
Ġconsider able
Ġearth quake
Ġper ceive
Ġprop hes
supp osed
o pp
oon agh
Ġnot withstanding
Ġgu ided
Ġug liest
Ġintell ig
e ight
Ġtwe lf
Ġtwelf th
Ġcor mac
Ġclou dy
Ġar ise
Ġsing ed
Ġforget ful
Ġfan net
Ġartic les
Ġcle t
Ġclet ty
Ġpsal m
Ġdam sel
Ġcl an
Ġbat tal
Ġro bed
Ġch allen
us al
Ġtor rent
Ġrep ented
Ġener gy
stor k
Ġpl ump
Ġfam ilies
Ġins ult
ram mer
Ġsur render
ap t
Ġdistin ction
Ġprot est
p aper
or ity
Ġshutter s
Ġcond escend
Ġcor p
Ġa uth
Ġpuff ing
Ġbene fit
Ġgl ances
Ġstri ps
Ġemper ors
Ġthick ly
Ġl umber
Ġcent er
Ġstal k
atter s
Ġbu ds
Ġbloom ing
ib ility
Ġcrab s
Ġpin ched
c us
Ġbright er
Ġpri zes
Ġcomm it
te e
b one
Ġrapid ity
Ġconqu ering
Ġse wn
um ents
Ġcomm un
Ġw ipe
Ġcoach man
Ġair s
Ġparson age
book s
be ams
Ġcomp ens
Ġth umped
Ġfold s
Ġr ake
Ġwhi ps
Ġpred e
Ġprede cess
Ġcrack led
Ġj ars
Ġcrack ling
Ġcan ary
Ġpuff ed
art ered
Ġcr umbs
Ġcrack er
Ġact ing
Ġw ire
Ġcup id
c il
s ion
Ġpupp ets
Ġ" '
Ġappear ing
Ġconscious ness
Ġprom ises
Ġcho pping
Ġdraw s
Ġbuild s
Ġb ale
Ġbe f
Ġbe fool
le st
Ġkor bes
Ġpill ows
Ġcl ick
aught ered
gr inder
Ġw age
Ġpur sue
horn s
Ġsn are
Ġble ated
cup board
Ġho ho
Ġhoho de
Ġhohode mi
Ġfear fully
Ġgrace fully
Ġt ay
Ġtay ot
Ġtayot ama
Ġtam ay
Ġtamay ori
Ġceremon ial
Ġk oto
Ġenjoy ment
Ġmarvel ous
Ġcut tle
Ġcuttle fish
Ġs an
Ġsee ming
Ġfriend ship
Ġancest ors
Ġfe igned
Ġshin an
Ġshinan sha
Ġemp ress
ult iv
Ġver and
Ġverand a
Ġk im
Ġeager ness
gh old
Ġexped ition
Ġr asc
cher s
Ġrid icul
Ġkneel ing
Ġscre ens
Ġsn at
Ġdut iful
Ġind ia
os ure
Ġen count
Ġencount ered
Ġsc he
Ġsche me
Ġdev otion
Ġbal con
Ġprec aut
Ġlow ly
Ġwoodcutter s
m p
Ġsign al
Ġencou raged
o k
Ġclo gs
Ġsam ur
Ġsamur ai
Ġcannib al
Ġmiss ion
Ġsc are
Ġins ign
as ak
Ġis e
Ġunder taking
Ġk i
Ġtra ces
Ġpain fully
Ġad vers
Ġban ner
Ġas cribed
Ġwho lly
Ġso j
Ġide as
ic ally
Ġdum pling
Ġun concer
Ġpurpose ly
Ġtas sels
Ġear liest
ic ity
Ġfil ial
Ġfain ted
Ġbund les
lic ation
Ġp il
Ġpil gr
w annon
Ġbudd hist
Ġpeas ants
Ġnostri ls
Ġharm less
Ġban ners
Ġok un
Ġokun i
n ushi
m ikoto
Ġsqu ash
Ġhat ched
Ġcart s
Ġwe ld
ech o
Ġm owing
Ġhop giant
Ġaf oot
Ġforfe it
Ġadv is
Ġa ided
Ġspec ter
Ġfarm stead
wind ow
Ġan oint
Ġstark ad
suc cess
Ġabo ard
Ġbe headed
Ġinvest ig
Ġun heard
Ġtop most
che st
an es
du ke
Ġmagnific ently
in ate
Ġorn ament
Ġere cted
Ġm ish
Ġkettle s
Ġfin ery
Ġbarnek ow
Ġter race
Ġsal ary
Ġsqu ib
Ġmurmur ing
Ġcoll ie
Ġres idence
Ġsol itude
Ġt ourn
Ġtourn ament
Ċ ĊĠĠĠĠ
isk y
Ġre se
t ip
Ġchees es
Ġbon bons
Ġb ald
et le
Ġb abbit
Ġbabbit ty
Ġfe nder
Ġdri pped
Ġscr ubbed
Ġprof ound
Ġdi ver
do ll
oth y
on ge
Ġchar ity
Ġatt ach
Ġadmire r
Ġam ber
Ġtur ks
Ġsult ana
Ġl akes
b ough
bough s
Ġspo ils
Ġshir ts
Ġsniff ing
Ġind ifferent
Ġm ask
Ġexp ense
ou ry
Ġco vers
sold iers
Ġtem pt
Ġtur key
Ġswell ing
squir rels
Ġchipm unk
Ġw aded
Ġacqu ainted
sp lend
Ġmag got
Ġmaggot ty
g ammon
rab bit
Ġmin now
Ġfal cons
po les
Ġod or
Ġdece ased
me asure
Ġseam en
cl ou
clou ds
cir cle
Ġkins folk
Ġt sch
et tled
ettled rums
Ġh ou
Ġvap or
Ġancient s
Ġth und
Ġconf uc
Ġconfuc ius
master s
Ġchat ted
Ġtao ist
Ġp ago
Ġpago da
Ġd s
ad uan
Ġf ile
Ġyang dschou
Ġi ad
Ġiad illa
ce lebr
Ġd ah
Ġascend ed
le elinau
magic ian
Ġle gg
Ġlegg ings
Ġch ant
Ġjo int
ban ks
bo kwewa
Ġb ooster
Ċ ĊĠĠĠĠĠ
christ ian
hal vor
Ġ ..
Ġ.. ."
ind en
Ġre e
ld ron
suck er
Ġbreak er
c aught
Ġemerald s
Ġem otion
Ġthis tles
Ġl ime
bir th
Ġstirrup s
Ġlament ation
smo oth
Ġbulr ushes
ort ing
Ġth irt
iet h
Ġunder world
loud ly
Ġfear lessly
ch anged
Ġdet ail
gu ess
e ither
l ake
Ġspring ing
hy acinth
hyacinth ia
pr ints
Ġsh an
Ġce ases
su it
Ġard ent
gu est
guest s
Ġpaw ing
Ġp au
fl ower
s im
w ish
gen eral
Ġdep rived
unfortun ately
Ġclever ness
h ne
Ġassemb ly
Ġami able
Ġpleas ing
Ġgrat ify
de c
gen er
en joy
Ġa pt
compan ions
Ġpossess or
Ġcontent ment
Ġhear s
supp ose
Ġprick les
st ock
cle ver
Ġcheer y
Ġmind ing
Ġout h
get ting
ac count
Ġdifferent ly
rejo iced
Ġt ureen
thr own
Ġent ice
Ġw icker
Ġdream t
Ġc ages
Ġabund ant
cry stal
Ġfurn iture
Ġchoo sing
Ġen abled
cond ition
ac qu
after wards
Ġunfortun ately
charm ing
Ġsar adine
ot hing
act ually
f avour
Ġwear iness
con se
Ġthorn s
u ced
Ġcompass ion
Ġrep ast
wis hes
s ailed
Ġcor re
our ce
an x
Ġsweet ness
Ġrecollect ions
pleas ure
zz le
Ġcher ish
Ġfl attered
us p
Ġgrim ly
Ġho bbling
ce land
celand ine
Ġmock ingly
t ears
spirit s
Ġmiser ably
Ġnim bly
Ġoff ers
Ġsleep s
Ġint ending
de mon
Ġf ickle
Ġspo ilt
im p
Ġlament ations
Ġsigh s
is c
Ġbehav iour
Ġfors ake
Ġest ab
j ure
Ġhead long
Ġbl under
Ġcor mor
b ars
Ġtravel er
lo g
pu dding
Ġexamp le
Ġtim ber
decl ared
Ġmar ching
Ġcur l
Ġgrow l
w ond
cour tyard
Ġlust ily
Ġdoct ors
Ġprison ers
Ġper ch
Ġb orders
Ġdeb t
t ried
Ġto ss
pr ison
s ub
Ġquarrell ed
st upid
d ri
Ġse wing
Ġpin ned
Ġst are
ag ers
Ġfr ance
Ġmust n
forgot ten
am az
amaz ement
Ġneat ly
ne cess
Ġcher ries
thought s
Ġrude ly
Ġs owed
Ġpay ment
s ake
Ġdoub led
Ġpar ish
lau ghed
Ġur ge
ex pected
Ġb idden
pl aced
sing ing
un happy
Ġp iles
e h
Ġfl ows
Ġsand als
ak s
Ġfall s
Ġsli pping
h ares
Ġplant ing
bur st
Ġr aces
Ġbo om
Ġwill ows
dis appear
scar cely
Ġclasp ing
en ormous
Ġco iled
hu ge
Ġpit a
he av
Ġrefresh ment
pre cious
re quest
ac compl
aston ished
as asa
Ġentr usted
st ol
Ġbo lt
Ġvel ve
Ġvelve ty
Ġgar lic
ma ie
b lo
rest ed
wor king
Ġfl avour
Ġsail ors
Ġprin ted
Ġco in
ter ing
č čĠĠĠĠĠĠĠĠĠ
Ġslee k
Ġhum ming
Ġd ashing
Ġdoor step
spl ashed
Ġpit cher
Ġm es
Ġover fl
Ġhaul ed
Ġsw ed
ur ch
when ce
heaven s
Ġn onsense
Ġfanc ies
Ġspeck led
Ġhung rier
d read
dread ful
among st
sh irt
d ie
Ġd ise
Ġpump kins
Ġsl ung
Ġunluck ily
Ġnic est
Ġg our
Ġrain ing
Ġpers isted
be fallen
Ġswing ing
att end
Ġbreath less
Ġs igning
arer s
Ġfe ver
counc il
less ness
tem per
Ġdiscover ing
Ġpe ac
Ġpeac ock
Ġiv ory
Ġwrigg ling
feather s
Ġignor ant
Ġsilent ly
Ġp ang
Ġcask et
sh ining
gl ad
Ġwar s
Ġpal ms
Ġout ward
thirst y
Ġcur ly
Ġstrang est
Ġinj ury
Ġple ad
te enth
Ġn inet
vell ed
Ġcomm itted
op ted
Ġch asing
beaut y
Ġexam ine
Ġchap el
Ġapart ments
Ġwhit er
long ed
difficul t
Ġug liness
Ġdow ry
wh ither
Ġsu cked
Ġtra ppings
Ġwr oth
Ġn ar
Ġshr ank
st uck
Ġstray ed
th under
Ġfaire r
Ġgn ats
Ġcould st
Ġm edd
Ġwhere fore
Ġpurch ase
l oose
Ġse est
Ġdid st
m oney
Ġland lady
y ards
' --
Ġembarr assed
Ġcho king
Ġun finished
le aving
vis it
Ġencl osed
Ġpill ars
Ġweak ness
su pper
Ġar oused
po ison
or a
Ġacc use
lete er
Ġskir ting
Ġcr ime
Ġbri ar
y spaddaden
ar thur
Ġgreyh ounds
bel ow
Ġj an
u ary
y d
stre ls
c les
Ġk ily
Ġkily dd
Ġbr it
Ġc ustennin
Ġne phew
Ġcur ling
Ġd ower
Ġeye b
Ġeyeb rows
Ġs ow
Ġtr w
Ġtrw yth
Ġcrafts man
Ġmarvell ed
mo d
Ġab bey
Ġ ll
Ġmar ve
Ġord ained
light ed
c ries
Ġgreyh ound
Ġeyel ids
ab road
ro d
Ġto ast
Ġhu zz
Ġhuzz a
h ide
Ġbab es
s orrow
Ġst agger
Ġgrass y
sle pt
Ġt et
sing le
Ġunloo sed
t est
hur ried
Ġnight fall
Ġto iled
Ġsail or
gi ants
Ġtoo ls
k iss
Ġcra zy
Ġcan st
pr oud
Ġquar rels
op ening
Ġbed ad
Ġset s
dr inking
Ġwal ks
Ġp ounded
cur ious
Ġal tar
Ġco b
we bs
Ġco aches
l aughter
Ġcourt s
Ġher cules
Ġfle a
Ġpoly nesia
Ġo ar
Ġdiso bed
Ġn u
Ġstra its
Ġwh ales
Ġan ch
Ġmil king
Ġche ck
Ġlad le
dre am
Ġfri zzling
Ġpeople s
dist ur
t ureen
Ġshould n
h iding
u gh
Ġsupp osing
Ġb il
Ġcl osing
Ġsandw ich
Ġg ilt
Ġsn apping
Ġbet imes
hur ry
ho les
p icked
Ġdoom ed
Ġshrie k
Ġlabou rer
Ġun fold
Ġp acket
Ġlo af
cabb ages
tong ue
Ġaz il
Ġazil ie
Ġazilie z
un ting
p ock
pock et
p rice
Ġbeh ave
c ave
Ġo o
Ġfr id
Ġfrid ay
tal ked
Ġj ingling
rid ing
Ġstri ving
Ġtub s
Ġpal ings
c art
Ġpap ers
Ġforget s
Ġwrest led
Ġw ad
Ġbo asted
Ġcl ust
Ġbit es
Ġtrous ers
br anches
f ie
her o
Ġlaz ily
Ġth ugg
Ġthugg ai
Ġgu dd
h i
Ġfrost y
Ġtravell ers
sh adow
Ġpill ar
Ġafgh ans
Ġw rap
Ġmir acle
Ġsall ied
Ġcontented ly
Ġst unned
Ġa wa
Ġluck iest
Ġstall s
t ouched
Ġbare ly
ad m
Ġpl ung
b ig
fl our
Ġdest ru
appro aching
Ġarm ies
Ġval our
Ġpl a
Ġgroom s
Ġwill iam
Ġble ating
Ġho isted
ge red
Ġover hear
whis pered
Ġdis aster
Ġexpect ation
Ġin sol
Ġinsol ent
court iers
stand ers
i pping
Ġinsect s
Ġjo bs
p ents
Ġsn out
c ape
Ġfears ome
Ġcons umed
Ġcal am
Ġcalam ity
Ġcoun sell
find ing
Ġeld ers
es ome
uc ing
Ġmention ing
Ġpron ounced
Ġtheir s
Ġindign ant
ass ipattle
ag reed
em per
so oth
Ġt ough
Ġsick ersnapper
Ġbread th
Ġdown cast
Ġsacrif iced
bel ong
s ick
comr ade
vent ure
no ise
acc ustomed
Ġbr iskly
w on
de v
Ġcaut ious
Ġoutw itted
Ġint ently
Ġreg ions
fl ag
Ġtwist ing
rul er
Ġl out
trout ie
Ġrel ieve
Ġhat red
Ġspeed ing
Ġlack ey
see k
Ġact ion
Ġunlock ed
tre mbling
go ble
goble t
close ly
Ġscot ch
Ġwid owed
vel vet
Ġrock ing
Ġm uttering
Ġh ars
cl ad
Ġte ase
um pled
Ġgun powder
Ġnor ther
Ġnorther n
ur ies
be come
Ġhumb ly
Ġisland ers
he alth
Ġgover ned
Ġt ac
Ġtac it
Ġtacit urn
sp ee
spee ch
har old
morn a
hon our
dist ant
Ġn ay
Ġdeterm ination
Ġpot ion
Ġarr anging
az ing
Ġjest ing
Ġph ial
Ġwar rant
Ġbitter ness
s ill
Ġst itches
c ies
Ġpeak s
can onbie
Ġha unt
Ġen vel
an ing
Ġdef iance
Ġm ix
r un
s au
Ġlo ath
le gged
Ġst ool
Ġerrand s
Ġhouse wife
Ġvio let
f un
dis hes
bell s
glo ves
ro ses
cra w
if ool
Ġdilig ently
Ġr after
Ġtap est
Ġtapest ry
Ġli cking
Ġthres hed
trave l
Ġn our
gu ing
Ġwhe e
Ġvio lets
Ġm ood
Ġwen ch
Ġex qu
Ġexqu isite
Ġadd ress
f ling
no ble
habet rot
Ġchest s
em pty
Ġdispleas ure
Ġlil ac
Ġp ages
shout s
bo ld
m atch
add ressed
cl ing
Ġbe llow
Ġth o
Ġp ark
Ġtrot ting
Ġhind ered
Ġstret ches
t ub
Ġover came
Ġcloud ed
aw ake
ect ion
Ġhunts man
t ive
f at
Ġwar lock
re pe
repe ated
Ġw aking
Ġout stretched
Ġslop es
Ġstar ry
Ġmat ched
ir th
Ġh ounds
ter ror
Ġgl ancing
Ġperse ver
Ġe bbing
Ġforb ade
im mediately
Ġobe ying
d ancing
Ġjo ints
Ġr ouse
Ġwra pt
with al
Ġgo ssip
in ity
Ġcl over
Ġdev out
Ġwreath s
Ġmad ly
ram m
Ġgu ise
sp ell
Ġintr uder
r ained
Ġdo d
Ġc ind
Ġcind ers
sk ins
Ġar ched
Ġmourn fully
Ġfath oms
Ġpl ent
Ġdi vers
Ġd ad
Ġdist ract
Ġfr ol
Ġdist racted
Ġmel an
Ġmelan cho
Ġmelancho ly
Ġaccount s
Ġsne e
Ġcri pple
is n
e el
Ġdan iel
Ġsmo king
Ġax ed
Ġwelcom es
Ġland lord
Ġdis sol
Ġu ll
Ġsub mission
Ġfree ly
ur al
Ġb aste
Ġmight ily
Ġcan al
Ġsk il
Ġskil ful
Ġhel m
Ġhelm ets
Ġdam aged
wall s
str anger
Ġto e
id ers
Ġquarter s
Ġdive l
Ġdan es
ud ged
Ġpit iful
ien ces
im ony
Ġmart ial
Ġmil itary
Ġinstru ct
cl uded
Ġj ave
Ġres ounded
Ġsualt im
Ġun cle
Ġob sc
Ġaff ected
g ame
Ġmast iff
Ġrend ered
terri ble
tight en
Ġbo nds
Ġcomb at
in cre
Ġloos en
Ġswine herd
Ġchrist ians
Ġves sels
Ġbanquet ing
or ous
Ġwande rer
s am
Ġattend ant
Ġf ian
Ġqu ivered
Ġinn umer
Ġinnumer able
Ġto t
Ġhis sing
Ġis sued
Ġex ting
Ġexting u
Ġextingu ished
Ġdaz ed
Ġfe ats
b ted
cou l
Ġany how
Ġdisg raced
th umb
opp osite
h aw
u als
b adly
ac ity
Ġeat s
wor thy
Ġo un
squ ee
b ull
Ġca her
fight ing
mor raha
Ġbottle s
Ġall ree
should ers
Ġne ighed
Ġwa ked
d am
Ġwax ing
Ġbl iss
Ġsy c
Ġsyc amore
fam ily
Ġso les
Ġunkind ness
Ġflock s
Ġdistri but
Ġhard ened
p ence
carry ing
Ġend ing
Ġsh ivered
Ġdr ug
Ġsnow y
Ġoccasion ally
st ove
Ġim post
Ġimpost or
en em
Ġtri bes
mur tough
Ġbattal ions
s oul
Ġjoy ous
Ġspr inkle
Ġhead less
Ġchallen ge
Ġprophes ied
t ide
le aped
ban quet
Ġcon an
ic it
Ġref usal
Ġproceed ings
Ġe ire
Ġdeal t
mean ing
uan na
arm uid
Ġho g
om y
Ġshow ered
Ġdis c
Ġhom age
Ġres ume
great er
Ġsuper ior
ho sp
Ġbill s
Ġbeak s
Ġasse mble
Ġrev iew
Ġpe ck
Ġb red
Ġbab ies
Ġinst it
Ġcl ass
Ġhonor able
Ġsc ale
Ġdel iber
Ġread ily
Ġtip toe
ri c
Ġoblig ing
r ings
Ġill um
Ġauth ority
Ġsuccess or
Ġrecomm end
Ġpen et
Ġlum in
Ġlumin ous
Ġt aper
Ġarm chair
Ġele ph
Ġeleph ants
Ġbloom ed
Ġend owed
Ġdec ay
Ġmel ting
Ġrefres hing
Ġfer n
Ġfav ored
Ġcler gy
Ġclergy man
Ġneed les
in y
Ġim poss
Ġt atters
Ġecho ed
Ġlead en
Ġpet ted
Ġcommit tee
Ġeight h
Ġeng ine
Ġim me
oc co
Ġshin y
Ġb apt
Ġchurch yard
Ġsh rive
Ġhe ath
Ġcong reg
Ġdefect s
Ġbul b
Ġspr out
Ġvan ish
Ġamid st
Ġpredecess or
Ġcont em
Ġcontem pl
Ġsens ation
Ġme lt
Ġfl ashes
Ġper f
Ġst ub
ex change
ot hed
Ġparl or
Ġenglish men
Ġwool en
Ġpoem s
dra w
tr ump
Ġacknowled ged
Ġgra pes
Ġr om
Ġrom antic
Ġpass ages
Ġcom ed
ce pting
Ġbl azed
Ġhis sed
Ġt ints
Ġun ivers
Ġshould ered
Ġattract ive
Ġamuse ments
Ġmusk et
Ġdr ain
Ġpass port
hen sion
Ġst age
Ġbu zz
Ġmarry ing
Ġsm ash
Ġrain y
Ġscrap ings
n illy
Ġover head
Ġbr aid
Ġbef oo
Ġcro cks
Ġfoo ling
Ġsc amp
Ġch af
Ġharness ed
Ġpe el
Ġbefore hand
!' "
Ġsl aughtered
Ġgrind ing
Ġch oke
Ġexecut ed
Ġst ony
Ġpe b
Ġkneel ed
Ġse wed
Ġcongratul ate
Ġtip s
Ġdes cent
Ġmill ion
Ġsit u
Ġgate way
Ġinhab ited
Ġcur ved
Ġfin s
Ġe el
Ġbl amed
Ġn an
ji u
Ġfar ms
Ġflood s
Ġbree zes
Ġc ultiv
Ġkim on
Ġcraft y
se veral
ub s
Ġtransp orted
Ġhandful s
Ġspr inkled
Ġsc y
Ġscy the
Ġgrass es
Ġhind er
Ġco lt
other wise
Ġsubd ue
Ġstr on
Ġstron ghold
mon key
Ġrasc al
serv ant
nor th
Ġv oy
Ġvoy age
Ġridicul ous
st ained
" --
Ġcelebr ate
Ġin most
Ġmess ages
Ġcond itions
Ġpet ition
Ġartic le
r adi
Ġstrict ly
Ġrep aired
Ġhard ships
Ġref using
Ġslee ves
an qu
Ġbalcon y
Ġlif et
Ġlifet ime
Ġimpat ience
Ġmal ice
Ġpast ime
Ġr omp
Ġu mp
Ġump ire
k intaro
Ġentr ust
Ġda un
Ġdaun tless
Ġflo ors
Ġdilig ence
Ġdep end
Ġje er
Ġprof use
Ġprofuse ly
Ġancest or
Ġste wed
Ġinsign ia
Ġreb els
Ġche ered
Ġbow ld
Ġclever ly
in u
Ġow ari
Ġext rem
Ġextrem ity
Ġsubd ued
Ġid zu
Ġk ad
Ġkad z
Ġkadz us
Ġkadzus a
Ġun speak
Ġlow ered
Ġhor a
Ġhora iz
Ġhoraiz an
Ġpat ron
Ġsens itive
Ġgener ation
Ġre jected
Ġche mist
Ġspan ish
Ġpers piration
Ġterri f
Ġbo red
ex per
d anc
as ion
Ġun ri
Ġunri pe
ve ted
Ġconse qu
Ġme mb
Ġmemb ers
Ġsnat ching
in f
Ġoff ense
Ġe ch
Ġend less
Ġwe aker
Ġlab ored
Ġrespect s
Ġunkind ly
Ġdoub ting
ab ility
Ġdoub ts
Ġsl ime
Ġdark ened
Ġround s
Ġwr ink
e ating
Ġag ony
iz es
wat anabe
Ġpilgr image
Ġk wannon
Ġcr ouched
Ġmis fortun
Ġmisfortun es
Ġstom pe
Ġp ilt
us ive
Ġphant om
Ġtall est
Ġlad der
kno s
bar rel
Ġcolumn s
Ġconso led
Ġsur passing
Ġl ilies
Ġpre ceding
p ins
Ġbe aker
Ġm ow
Ġm owers
neighb or
Ġequ ipped
Ġp airs
Ġdec or
Ġmet als
Ġsco ld
Ġsound ing
Ġs om
Ġwh ining
Ġre igning
un ks
Ġconso le
direct ion
Ġspur ted
troll s
g ild
Ġe ll
success ful
consol able
Ġvalu ables
Ġfl uttering
Ġsk al
Ġskal und
Ġskalund a
Ġk arin
Ġthreat s
Ġinform ation
where ver
Ġstr ung
Ġast ray
dig ging
Ġtur mo
Ġturmo il
Ġout fit
Ġqu artered
cr ated
Ġs ledge
Ġre inde
Ġreinde er
Ġpyrote chn
Ġpyrotechn ist
Ġt ul
Ġcrack ers
a hem
Ġappre ci
Ġint end
Ġdep utation
Ġw addle
Ġme ats
cup s
ic y
Ġfr isky
fin ally
Ġle ag
Ġleag ues
Ġstar ving
Ġd aws
Ġsu dd
Ġsudd s
Ġl ave
Ġlave nder
Ġcho col
Ġle mon
Ġpar ce
Ġparce ls
Ġmust af
Ġmustaf a
Ġcl attering
Ġthis tle
Ġwiz z
sm ell
Ġso ap
Ġfort night
Ġsm elt
c ook
Ġbr am
Ġgoble ts
ging er
handkerchief s
os hes
c ence
Ġun pleasant
Ġsum s
Ġtim othy
sp in
me ared
Ġencou rage
Ġsa pp
Ġsapp h
Ġsapph ire
Ġattach ment
Ġclim ate
Ġdre n
Ġdren ched
Ġmast s
Ġwat ches
Ġsh illing
ign s
g own
Ġsh avings
de er
gr ay
Ġbe set
Ġsusp ended
Ġwe eds
Ġp istol
Ġphysic ians
Ġsoot hing
Ġprev ail
duck s
Ġre bec
Ġrebec c
Ġrebecc ah
Ġsav oury
Ġcarpent er
Ġpet als
Ġesc orted
Ġwed ged
Ġmad ge
Ġnur sing
j ohn
Ġcar rier
Ġcour ses
Ġprin ts
Ġdid d
Ġcare s
Ġatt ic
Ġpin ny
hand kins
Ġsniff le
Ġdust er
ah a
splend or
Ġwr it
Ġnatural ist
Ġmuff ins
cr ust
ru g
Ġjack d
fl opsy
ben jamin
m cgregor
flo or
Ġbo lster
Ġm opsy
Ġmac into
Ġmacinto sh
fl op
dist ingu
Ġsaint s
av il
avil ion
Ġe tern
mort als
ian fu
Ġdispos al
Ġadvis er
Ġm ong
Ġtsch ong
Ġunconcer ned
f ra
fra gr
fragr ance
grand father
Ġsuperint endent
Ġg int
Ġgint scha
Ġmut scha
ine w
ns i
Ġh iang
Ġclot hed
Ġflo ats
gar ments
Ġts chen
reg ard
Ġregard ed
Ġter m
Ġquick ness
p ity
celebr ated
Ġje e
Ġr umbling
w unzh
Ġgau da
Ġext ent
Ġass igned
Ġbew ailed
Ġsha fts
pl ume
Ġpropos als
Ġwa iling
jee kewis
Ġmus ing
or tle
k ettle
k ak
Ġgl iding
net awis
Ġrequest s
k wasynd
w aupee
ko or
Ġi ena
Ġo ween
Ġoween ee
p anc
panc ake
Ġloan ed
Ġw edge
Ġliz ard
Ġsw art
Ġme ad
Ġcal ves
tr unk
es ben
Ġcau ldron
Ġf jo
Ġfjo ll
Ġsal ve
b ill
bill et
Ġnorth land
Ġdrag oon
Ġwooden coat
r it
Ġre appear
Ġquen ch
l ift
ax ed
cr adle
Ġinc ident
Ġover grown
Ġshe et
we eping
ly ing
n ine
p ier
Ġcastle s
Ġgl ared
cur sed
al oud
Ġart ist
Ġartist ic
Ġbrood ing
mil an
equ ally
Ġdistingu ish
th irty
Ġbl ush
Ġso cket
Ġare n
Ġfro ze
pan e
th rew
sc re
Ġfool s
Ġpursu ers
Ġmile stone
Ġway side
Ġpass er
Ġtid ied
hast e
ap ron
Ġpau sing
happ ily
Ġchief ly
sy lvia
Ġir is
ict ion
inter rupt
Ġc yn
Ġcyn th
Ġcynth ia
Ġfeel s
Ġco quet
Ġcoquet te
f asc
in ction
Ġdisd ain
w it
Ġf asc
Ġfasc inated
Ġdes irable
len ess
Ġgrie ves
Ġfarm ers
as king
stock ings
d addy
t all
Ġpe ered
hed ge
hedge hog
wand ering
Ġouth ouses
Ġbris tles
roy al
st art
bur nt
r ushed
direct ly
en ces
re mark
Ġdec ision
Ġpo ked
cur t
Ġund id
Ġenchant ress
anim als
Ġp aces
j oringel
Ġstem s
j ug
Ġgr uff
luck y
Ġfat ig
sh adowed
dis covered
Ġfug it
Ġfugit ives
l orn
v ol
fool ish
Ġg a
reg ret
bre ath
breath less
conse quence
o king
cons ider
in al
Ġarrange ment
happ en
ve x
Ġsho cked
Ġinscri ption
ob served
ind ifferent
Ġexam ining
inst ant
Ġbeg g
Ġbegg ars
f ate
did n
Ġgrow led
Ġe con
ent ire
Ġse eds
Ġ ing
ens ive
s adly
ain ly
Ġinc ap
Ġincap able
Ġflatter y
cont empt
Ġtri als
Ġcap able
Ġun ci
Ġunci vil
Ġbeh al
Ġbehal f
Ġclot he
Ġmo ll
Ġfr antic
n amed
Ġcon jure
Ġeight een
Ġpick ax
Ġpickax e
Ġsauc y
Ġvill ain
Ġskull s
lad ies
Ġam ends
Ġunder t
Ġsharp ness
inv isible
Ġenter pr
Ġstro kes
Ġth igh
mer c
jump ing
tr ans
g ri
Ġthumb s
r ub
rub bish
de af
use less
fier ce
warri ors
Ġdark er
Ġbr ute
per fect
m akers
h are
Ġrev ive
black bird
at he
Ġwhit eness
Ġnoise lessly
Ġbat hing
Ġdet ained
Ġappro aches
Ġcapt ured
Ġfr ock
Ġsc a
Ġind uced
Ġst oop
it ching
an nel
Ġst up
Ġri ou
Ġbuck les
v y
Ġred breast
Ġearl ier
Ġornam ented
Ġun necess
Ġch urn
w et
b owl
occasion ally
Ġneed ful
Ġho e
Ġunt id
coun sel
her bs
gather ing
Ġbe mo
d ood
dood le
Ġhur l
Ġweap on
sur r
surr ounded
Ġe els
Ġb ait
Ġb aited
Ġsh u
Ġundo ing
ins ato
le ading
dro pped
heav y
Ġma ize
Ġown s
Ġz amb
Ġzamb es
Ġzambes i
Ġsh asasa
Ġbut ou
Ġh umbled
Ġmis gave
Ġah tola
Ġcre v
Ġcle ft
Ġher b
Ġco d
Ġsatur days
ah tola
Ġhabit ations
Ġa ld
m eth
meth inks
Ġwell am
Ġwellam os
Ġme wed
Ġwoe ful
her ring
Ġdeep est
Ġrhy me
Ġdwell est
Ġcomp are
Ġweather cock
Ġcre aked
h ut
Ġsu l
Ġsul k
Ġdesp ised
Ġri val
Ġt ank
Ġfe nd
Ġswed en
wor ked
store y
le ast
wh irl
see king
Ġfire s
Ġbur ying
Ġdise ase
proper ty
ves sel
id ents
mort ar
mist ress
t asted
Ġhe aling
sa fe
safe ly
Ġgour d
attend ants
Ġbe arers
trou bled
Ġminister s
Ġrep ay
kind ness
Ġfur thest
Ġgra ves
Ġto mb
rest ing
fl ung
sk ir
at ors
ister s
Ġfaint ly
g au
w ave
not ice
n is
Ġinsul ting
Ġatt em
Ġattem pting
Ġar rest
bl ow
h ours
Ġmon aster
Ġmonaster y
s ir
Ġwitness es
exc use
pl an
blo ssom
blossom s
Ġreb ell
Ġpens ion
about s
Ġsuspect ing
ad a
ch ose
des p
add ed
man awyddan
Ġwande rers
Ġdwell ings
Ġsadd les
like wise
Ġbet ook
Ġshoem akers
possess ion
Ġsuc cour
cred it
d est
Ġfor ks
soon er
suff er
h anging
b ishop
Ġwas t
Ġwise ly
Ġcoll ars
bu ild
Ġdis in
sp ent
we alth
mag nific
magnific ent
Ġwor ried
Ġev ora
Ġdeser ts
treat ment
Ġmu leteer
Ġstrugg les
e ff
Ġwear ily
Ġsteep le
hur t
mess engers
Ġprophe cy
pen kawr
gr ant
Ġd apple
Ġsp orted
Ġg lew
Ġglew lw
Ġglewlw yd
Ġmin strels
Ġgu ine
Ġcra ve
Ġbrit ain
m ai
Ġwinter s
Ġyear ned
Ġan em
Ġwhat soever
Ġwr ith
Ġwrith ing
Ġwhere on
ho ot
Ġs own
Ġbus he
w ilt
h ough
Ġmod ron
vel ry
Ġg ore
Ġgore u
abb ard
Ġou sel
Ġthere of
v re
gu ide
Ġemb ass
Ġse ver
Ġun aw
Ġunaw ares
gg le
Ġcarp ets
Ġs ash
o bl
obl ig
Ġneg lect
Ġw ain
Ġwain scot
Ġpos set
Ġhu gging
Ġsorrow s
r ubbed
Ġdais y
sun rise
Ġconce ited
Ġanno y
Ġdo ings
Ġshove ls
Ġkick ing
w itch
Ġcom bing
Ġstagger ing
Ġgo bbled
Ġwitness ed
Ġpier ce
under stand
g row
e ager
eager ly
gr ateful
Ġw ert
Ġunt ie
Ġun fast
mid st
fear ing
Ġr amp
Ġramp arts
Ġstr iding
Ġthat ch
Ġblack birds
Ġlo ch
egg s
Ġsl oe
Ġsp lin
Ġhe w
m are
Ġthank fully
Ġhad st
Ġcoo ed
p i
Ġwind l
Ġwindl ass
Ġa y
s addled
shout ed
cr own
Ġsepar ately
t ired
Ġp ence
tw ice
Ġv ault
Ġshrie ks
Ġimit ate
Ġhammer ing
shout ing
Ġp aving
Ġp ow
Ġr as
sch ooner
Ġamer ic
Ġameric a
p ainted
Ġd it
Ġnu k
Ġnuk ku
Ġmat ti
ex pl
ore r
Ġsled ges
Ġbuffal oes
Ġj et
Ġcame ls
Ġreap ers
Ġfound ered
Ġpars ley
Ġstraight ened
Ġair y
night s
Ġfrequ ent
lament ations
Ġneed less
sil ken
not s
Ġro s
con versation
Ġscorn fully
Ġp ounce
r asp
dri ft
Ġpre serve
greet ings
l isa
Ġdusk y
fing ers
app et
appet ite
ff ee
Ġgr ate
Ġdec reed
Ġtramp le
re venge
be held
Ġcross er
v an
Ġn ought
Ġsend s
Ġwin ner
Ġgrand est
Ġcr imes
ra ces
Ġb our
Ġbour his
Ġdesp ise
Ġforb id
Ġdare s
Ġpal er
Ġbar red
Ġcorn field
Ġb anged
inv ite
tre mbled
Ġgr unting
foot steps
Ġel bow
Ġgreed iness
Ġche ated
Ġfor cing
Ġob serving
t ale
Ġneg lected
Ġstir ring
Ġed ges
Ġmo lly
am bo
Ġneed n
d i
Ġfor d
quiet ly
mush a
Ġdo ck
Ġre dd
Ġrust le
pan es
friend ly
g un
p istol
stri ke
Ġlur king
Ġc aw
neighbour hood
Ġs ins
quick er
Ġtal ks
f ishes
Ġgudd hu
Ġstri pped
Ġclum s
Ġsm ashing
ser ai
sc r
ent rance
Ġclaim ed
Ġappe al
is ance
Ġp ome
Ġpome gran
Ġpomegran ate
Ġha lter
Ġinqu iring
Ġex claiming
Ġawa ked
Ġcom ical
we ap
Ġpr anced
i antly
Ġyell ing
adm iration
Ġplung ing
Ġfore most
Ġdestru ction
Ġre vil
ro ots
ol o
Ġlab our
Ġaven ue
Ġprof usion
f urn
sli pper
Ġpr ided
Ġsmall ness
poss essed
Ġby gone
mock ing
st ack
Ġri v
b are
Ġcounsell ors
wis dom
Ġdisapp ro
Ġsor cery
Ġcontempt uously
Ġsm ot
Ġsmot hered
Ġbair ns
Ġess ay
Ġright eous
father s
do ing
Ġpron ounce
Ġk emper
Ġte aches
Ġd oth
Ġappro val
Ġambassad ors
Ġod in
our ned
t ask
Ġdre ary
Ġk ist
Ġmet h
Ġmeth inks
t was
Ġcl ap
p ipe
Ġth ra
ste ed
Ġboat man
Ġmus sels
w atched
sc rape
Ġg ills
Ġconv uls
Ġkind led
Ġnear ing
ab sence
Ġfight er
o d
je alous
pass ion
hill side
c aused
Ġsuggest ion
stick ing
st ye
Ġslop ing
unfortun ate
Ġtight er
s ounded
p atter
Ġtr ough
Ġhe m
Ġme ander
Ġmend ed
Ġbesee ch
Ġk ens
Ġcr umpled
dist ress
Ġcent uries
s nor
snor ro
sm iling
Ġambit ious
Ġcollect ing
Ġnot ing
ro cks
tre asure
Ġwe ird
Ġsl oes
tem pered
rem ain
Ġpre jud
Ġpriv ate
Ġmo ves
Ġtit le
Ġy u
f estiv
Ġk irk
a unt
se par
Ġfor sooth
con sented
Ġlo om
Ġte xture
en couraged
g azing
ark en
p our
Ġpre ten
ac y
Ġseal ed
Ġcas ement
rain bow
Ġbr aw
sil ent
ri but
p owers
Ġspirit ed
s outh
Ġman aging
Ġtrans act
ild on
Ġprophe cies
Ġbar g
Ġven erable
Ġghost ly
ap art
Ġaw esome
Ġeld rich
ble w
Ġcr ashing
Ġnot ion
Ġo at
Ġbeast ie
Ġfire side
Ġstick y
Ġinf ancy
Ġgra zed
Ġindign antly
st ool
Ġr aim
Ġraim ent
scar let
Ġor ange
Ġskin ned
Ġbru ised
dd ed
Ġsm other
Ġsauc ers
Ġprim roses
w ore
Ġpeer ifool
Ġwe bs
is tless
Ġrafter s
Ġprud ent
Ġrev ived
Ġa venged
Ġcruel ty
h ang
Ġje well
Ġfore sight
Ġth inner
Ġbur den
so ft
Ġd rows
t aste
as y
ail ing
Ġfarm house
g rie
ner y
h ank
sp inning
Ġev ents
Ġclamb ered
stress es
ch imney
Ġbewild er
Ġbewilder ment
č ĠĠĠĠ
Ġe bon
Ġebon y
Ġposter n
Ġmorn ings
Ġground s
be es
Ġt ipped
Ġscore s
fair ies
Ġpant ing
Ġperse vered
Ġtriumph ant
Ġghost s
st ition
Ġreluct ance
es cape
Ġcou ches
Ġn ae
Ġcalm ly
Ġtho le
set tled
Ġus hered
Ġd ire
Ġconf lict
anim al
Ġright ful
Ġblock ed
Ġm ak
Ġso iled
Ġsing er
Ġplain tive
le ar
lear ned
Ġadmit t
Ġadmitt ance
know ledge
Ġha e
l is
Ġlaw ful
Ġre count
Ġt apped
Ġcuff ed
ke red
Ġf agg
Ġfagg ots
Ġon lookers
Ġdev ices
Ġth ir
Ġthir teenth
r ats
sk irt
Ġri pp
Ġv ir
Ġvir gin
Ġentr anced
mer cy
Ġentreat ies
Ġtight ened
Ġhe d
Ġhed ges
trave lling
Ġbr ack
Ġwh ins
Ġir ks
ra v
al together
spe aking
k est
Ġcom eth
ban nock
e re
offic ers
Ġsl umbers
Ġjo ining
Ġl one
ha unted
Ġinterv als
greg ory
e lfin
Ġstr aying
Ġpin ions
fro st
fro zen
Ġshadow y
f ig
Ġtransp arent
ak y
o bey
Ġfo amed
re sc
Ġgener ous
Ġacc ur
Ġaccur sed
Ġqu aking
Ġsh ades
Ġtre ading
Ġpre sum
pt uous
Ġret raced
ho llow
ir led
Ġban no
Ġbanno cks
Ġtr und
Ġapprent ice
Ġdod ged
Ġcl ue
Ġkir n
Ġhe ck
Ġj ock
cat ching
li ving
Ġgi gant
Ġgigant ic
Ġa gh
Ġagh ast
tal king
Ġg aping
Ġnib bling
lim bs
Ġdist ra
Ġdivers ion
bar rin
Ġsnee zed
Ġt ink
Ġtink er
Ġtri fle
Ġac res
Ġjo b
Ġrep air
h in
? --
Ġf ist
Ġfly in
k avin
Ġl ug
Ġg ap
ire land
iv id
Ġren owned
Ġd ur
part s
ind ing
Ġten ant
gg y
Ġb ally
dan iel
off er
ar rah
Ġdr un
Ġdrun ken
sl ap
nat ural
Ġdis consolate
Ġbid s
Ġhu ff
com es
fair ly
Ġhop s
Ġa rab
Ġarab ia
Ġmoon s
stre et
s na
p ike
pray er
Ġdick ens
co cks
Ġbell man
Ġhigh road
dro ve
d ies
Ġgall ery
Ġb awn
Ġli cked
omen ess
-- --"
Ġflour ish
Ġfox y
re ne
Ġwin ked
Ġv ag
Ġvag ab
Ġvagab ond
h ound
cip les
ru le
ter a
Ġness a
Ġachieve ments
Ġull a
Ġdet ain
Ġse lect
Ġhur le
Ġjave lin
Ġcl ash
Ġde ft
Ġc uc
Ġregular ly
Ġpup il
sh op
ple ments
Ġswe at
Ġl iss
Ġg ong
Ġscuff ling
Ġt ut
Ġtut or
fer gus
Ġinj ured
e aster
easter n
Ġstop s
Ġgad s
Ġf oul
Ġk id
to oth
v alley
Ġcommand ing
h ain
cept re
op y
short ly
e ks
Ġru ddy
c and
Ġpossess ing
Ġill ustrious
Ġwrong s
Ġentertain er
Ġsl ieve
Ġgull ion
Ġdescend ing
Ġinherit ance
Ġvig il
Ġresp ons
Ġecho ing
Ġup ro
Ġupro ar
Ġstring ed
Ġtot tered
de fe
over take
ul ate
Ġpal aces
Ġlead ers
Ġleaders hip
Ġcause way
Ġquiet ed
gran ua
de vil
ess es
Ġmis ca
Ġmisca un
ru a
is y
Ġvict uals
Ġsa g
Ġinv ention
pot ato
Ġcoo lly
Ġsharp ened
Ġd addy
Ġexch anging
Ġdep ended
bra cket
Ġwring ing
mo ved
Ġrid ges
Ġintellig ible
quest ions
Ġmaster y
Ġro ds
l ang
lang u
langu age
Ġha gg
Ġpard oned
Ġwr ist
wat ching
Ġj ourne
Ġjourne ying
f al
th ren
Ġwho les
Ġspread s
Ġshr oud
re covered
Ġtreacher ous
Ġking ship
Ġy o
Ġsouth ward
Ġfr inges
Ġfin cho
Ġfincho em
Ġsen ch
Ġsench a
Ġthan king
Ġop inions
Ġab l
Ġabl aze
dr ank
Ġder ry
Ġcat hed
Ġcathed ral
aw a
ceremon y
Ġp agan
Ġteach ing
s igh
Ġs ough
Ġin ward
Ġinward ly
Ġt inkling
Ġdon ned
Ġtre sses
Ġdu iv
Ġduiv se
Ġduivse ch
Ġcl ans
Ġte acher
Ġteacher s
Ġcre ate
Ġslaughter ing
Ġfer ns
Ġhorn ed
Ġm ult
Ġsm ote
g rave
Ġtim bers
Ġfl ound
Ġtal ons
Ġout spread
Ġgri ffin
Ġpl un
Ġplun ge
per ceived
Ġbless ings
Ġlu ach
Ġfen ian
Ġr on
Ġron an
le g
Ġdiv ision
l u
Ġli agan
Ġlu aim
Ġluaim ne
Ġluaimne ach
Ġprot ected
ro c
Ġsne ered
Ġcair n
Ġs ce
u ing
ong s
Ġdis cer
Ġdisc ord
Ġrespect ful
ag on
difficul ty
Ġcomp els
Ġfalse hood
c rat
Ġdr ill
Ġpyr am
Ġpyram ids
Ġyoung sters
Ġm op
Ġdaint ies
Ġb ump
Ġhelp s
ramm ers
Ġcorre ct
ip ated
Ġprofess ion
Ġengage ment
Ġdri ves
Ġmach ine
Ġintrodu ced
Ġnecess ity
out ing
-- !"
Ġsix pence
Ġcas h
Ġdescri ption
Ġbreak s
Ġillum inated
Ġrepresent ation
Ġremark ably
Ġsub ur
Ġfound ry
Ġcorp oration
pow ered
Ġrefle ctions
Ġsuffic ient
Ġn aming
Ġpenet rate
Ġf ac
Ġfac ult
Ġfacult ies
Ġprin t
Ġfurn ace
Ġsh owers
Ġwat ered
sn ip
Ġsn ur
Ġsnur re
Ġb asse
Ġlur re
Ġpain ful
Ġsho cking
Ġpul p
Ġpre servation
Ġfl amed
fl akes
Ġaffli cted
Ġimposs ibility
st em
Ġmill ions
Ġquick er
Ġcold er
ra il
Ġind ust
Ġpersever ance
Ġv oted
Ġspr ings
Ġtal ent
Ġmor occo
Ġcas es
Ġcho ir
Ġcr ut
Ġsl apping
Ġexecut ion
Ġexecution er
Ġgrand e
Ġgrande ur
Ġcongreg ation
Ġimper fect
Ġhum ility
Ġinv al
Ġinval id
Ġcompens ation
Ġaffli ction
grand mother
Ġcal mer
Ġcrack le
ver se
Ġkn ob
Ġse x
Ġch ained
Ġth aw
Ġsc ra
Ġdr oop
Ġreve rent
Ġdazz ling
Ġperf ume
Ġg able
Ġsmo othed
Ġstur d
Ġsturd ily
add ling
Ġto n
Ġf atter
Ġshrive led
Ġmain tain
Ġblossom ing
Ġpo ets
know s
trump et
Ġend ured
Ġwest ward
pl ants
Ġrip ened
fact ory
be e
Ġperfect ion
Ġat tain
Ġdraw ers
Ġfr ames
Ġche ap
Ġcomed y
Ġdiscu ss
Ġm ent
Ġimpro ve
Ġprof essed
Ġapp lau
Ġex cepting
Ġunivers ity
be ha
beha ved
Ġtin sel
Ġsh am
crack ers
fro g
Ġshould ering
Ġin de
reat ion
Ġprop ri
Ġpropri et
Ġtest ed
Ġinstit ution
r ons
Ġc open
Ġcopen h
Ġcopenh ag
Ġcopenhag en
Ġprov in
Ġpun ct
Ġpunct ually
Ġman ager
Ġconven ience
Ġexpl an
Ġglo be
Ġevery day
Ġgr umble
Ġm am
Ġmam ma
m ish
Ġsh ift
Ġwill y
Ġtick led
b uck
buck et
Ġfin ishing
ar ose
um ing
bar ley
w ide
d rums
Ġtuck er
Ġhu bb
Ġhubb ub
Ġsix ty
Ġex cess
Ġund one
Ġsuff oc
Ġbe am
Ġprosper ity
li ves
p ans
sau s
saus age
Ġlod ged
Ġorder ly
Ġsnow s
Ġhur ts
Ġfar things
Ġbur d
Ġweigh ing
Ġbar row
Ġser ves
Ġp ed
Ġker nel
br ook
Ġwagg on
adv antage
Ġstre wed
Ġpeb bles
Ġbed chamber
cry ing
Ġsh ri
Ġstrugg ling
delight ful
Ġtimid ity
Ġancest ress
ach i
sk ill
skill ful
Ġoccup ation
Ġbesee ching
Ġappe ase
Ġus ur
ch in
Ġsitu ated
Ġk ats
Ġkats ur
Ġkatsur a
au g
Ġover rul
Ġoverrul ed
Ġjewe led
Ġceremon iously
Ġa po
Ġapo log
Ġtr ays
Ġto day
Ġfeel ers
Ġgover n
Ġtalisman s
Ġpri zed
l it
Ġbattle field
k otei
Ġsw o
Ġswo llen
Ġche cked
Ġfr ug
Ġwag ging
Ġkimon o
Ġy en
Ġyen o
Ġyeno ki
Ġy el
Ġyel ping
Ġbehav ior
Ġinqu ir
Ġshr ubs
cip le
pu ssy
Ġruff led
Ċ ĠĠ
Ġrepe at
Ġpl under
Ġl unch
Ġdign ified
Ġadm iring
Ġhar mon
Ġharmon y
Ġhesit ate
pos ition
Ġtear ing
Ġpar ap
Ġparap et
Ġtriumph antly
Ġweather s
Ġemb arked
Ġendeav ored
Ġl acqu
Ġlacqu er
Ġcra pe
Ġun reason
Ġstation ed
Ġwith stand
Ġobsc ured
Ġkeeps ake
Ġwa ft
Ġsur v
Ġwarn ings
Ġv ass
Ġpro dig
Ġbe et
Ġcongratul ations
ie wed
Ġexc used
Ġk ur
Ġkur age
Ġde x
Ġdex ter
Ġreluct ant
Ġcommiss ion
Ġcomp osed
an ag
anag i
cle aving
Ġn ation
Ġd ed
Ġke iko
Ġbrigand s
Ġbowld ers
Ġpriest ess
Ġrec ently
Ġa inu
Ġall otted
Ġcom plied
Ġex tens
Ġextens ive
Ġreal izing
Ġl ured
d anger
Ġy aid
Ġyaid zu
Ġto k
Ġres ource
Ġjourney s
Ġm iy
Ġmiy ad
Ġmiyad zu
Ġunspeak able
Ġsco ff
Ġru dder
Ġviol ence
Ġprow ess
Ġrib bons
Ġshim mered
um a
! )
Ġdevour ing
Ġbu bbling
Ġv ol
el ixir
sent aro
Ġnour ishment
Ġlod g
Ġlodg ings
Ġsoj ourn
is ons
Ġmon ot
Ġmonot on
Ġmonoton ous
ful ness
Ġless ons
Ġres igned
Ġprop ort
Ġproport ion
des cribed
Ġon i
Ġblossom ed
m ate
Ġco veted
Ġcongratul ating
Ġexpress ions
Ġluxur ious
Ġst ung
p aste
z ume
Ġchir p
Ġgown s
Ġbright est
than ks
Ġe aves
Ġbro cade
ri ck
Ġm ap
Ġmap le
Ġdis k
Ġbe re
Ġr ung
Ġlight ened
Ġsim pl
Ġsimpl icity
li kes
Ġcur sing
Ġami ability
Ġact ions
Ġup b
Ġupb raid
Ġex clamation
Ġtreat ment
Ġsteadfast ly
Ġem ble
Ġemble m
Ġstore house
Ġpound ing
Ġapp lication
Ġst umbled
Ġprecaut ion
Ġsp y
Ġfuji war
Ġfujiwar a
Ġmur asak
Ġmurasak i
Ġpresent ing
h ase
Ġmo del
Ġthirt een
Ġpoet ess
Ġdis order
Ġcirc les
Ġrem ove
i als
Ġk ato
Ġkato da
Ġsc and
Ġad opted
Ġco ils
Ġban ished
Ġlantern s
Ġnot ch
Ġcentiped es
Ġpract iced
Ġhom est
Ġhomest ead
Ġmantle s
Ġun ble
s led
Ġact ual
Ġbapt ized
Ġb atch
Ġch aff
h aul
Ġc able
off ered
un able
ch urch
fe e
Ġre echo
Ġreecho ed
Ġflag s
Ġneigh ing
Ġind es
Ġindes cri
Ġindescri b
Ġr owing
Ġagree ment
Ġm owed
Ġdesp aired
Ġwo ve
arm or
del ivered
Ġsu ed
Ġhon ors
Ġlim ped
Ġsupp lies
un ited
Ġbr aver
Ġm ail
ub bing
Ġg ear
Ġcle arest
Ġhars berg
d ipped
Ġh itch
har ness
Ġdis re
girl s
swe ep
est al
de arest
as ks
b reat
thr ust
ker ik
kerik i
Ġsw arms
Ġbal bo
Ġell s
Ġhuld ra
Ġpr one
Ġserv itors
Ġm aw
Ġin wards
Ġin consolable
prom ise
b ot
Ġwarm ing
Ġspur red
fact or
Ġjoy less
Ġfug itive
Ġchamp ing
Ġbuck le
pie ce
Ġdiscu ssing
Ġobst inate
Ġind ul
ing ed
Ġun us
Ġunus ually
Ġrepro aches
Ġmish ap
Ġtw ain
Ġband ages
Ġresol ve
Ġsh ady
Ġmad ame
Ġf j
Ġplan ks
Ġconse crated
Ġsense less
Ġbright ened
Ġinvent ing
Ġdream y
Ġdu ly
Ġpens ive
Ġroman ce
r oman
roman ce
Ġa hem
Ġlo cal
Ġter ms
ote chnic
ball oon
v ial
Ġner ves
ott led
po nd
Ġar g
Ġselfish ness
Ġaccomplish ments
for ming
Ġdom est
cl ass
Ġsm ock
Ġflower y
Ġju icy
Ġshe ared
Ġbag ful
e rest
Ġste als
Ġpu ss
Ġrese mble
Ġsu pped
Ġtri es
Ġrecomm ended
Ġcur d
Ġt uff
Ġtuff et
Ġsp iders
Ġbost on
Ġpill s
Ġchocol ate
pt ured
Ġret ained
Ġmelo dy
Ġdiv ine
Ġrep utation
danc ers
Ġre ar
Ġc it
Ġent ers
Ġreve al
Ġdisplay ed
Ġover night
Ġfo ils
Ġkill s
Ġless er
Ġrev is
Ġdis co
Ġestab l
Ġperfor ms
t ittlemouse
Ġpant ry
Ġbees wax
e v
Ġsque ak
bu zz
Ġcough ing
Ġthomas ina
Ġdiver t
Ġsc ull
fe at
Ġbram bles
Ġp aved
isc uit
Ġli cence
sam uel
Ġspl uttered
Ġbe ad
Ġsa lly
Ġcleve rest
Ġmis chance
Ġbo nd
Ġtemp ting
load s
Ġret iring
Ġmu ddy
Ġhist ories
Ġme w
sp it
Ġcleve rer
he t
Ġstraw berries
Ġdep rive
Ġtw ittered
Ġconsequ ently
Ġperson al
Ġn ile
im ble
Ġp hen
Ġcat ar
Ġcatar act
ic les
Ġtur k
Ġturk ish
te a
Ġsc oured
Ġcl attered
Ġspark le
Ġgl itter
pl acing
- '
j ose
Ġmes hes
Ġe t
Ġmiss es
Ġin laid
Ġcinder w
Ġcinderw en
Ġcinderwen ch
Ġiron ed
c inderella
t rap
Ġsing ular
Ġunder go
Ġso f
Ġn ettle
Ġfl ick
Ġflick ered
Ġstep daughter
Ġte ased
Ġtorment ed
Ġp addle
mit tens
Ġrep ose
Ġmo aned
Ġreg ards
Ġuneas ily
Ġutter ing
d ull
dull head
Ġfin al
Ġac he
Ġtul ip
t ress
Ġclam my
Ġstub ble
w ool
we et
Ġsl ate
jo lt
Ġcr ashed
Ġex cl
Ġlamb s
b ang
Ġretire ment
Ġlim ited
Ġsl ates
Ġus es
ord in
ordin arily
pe ck
peck er
tip toes
Ġent iced
Ġdidd le
am use
handsom er
cabb age
Ġo me
Ġome let
Ġomelet te
on ions
pu ddle
Ġpupp ies
Ġp attering
Ġun ruly
Ġtear fully
Ġpl aster
Ġjoin er
hand kin
Ġdi pping
j acket
dra wn
tr ansp
transp arent
exper ien
experien ced
Ġwrit hed
Ġinvestig ated
let ter
Ġve al
Ġmuff in
Ġp ies
or ific
Ġle etle
Ġpain t
Ġbook case
call ing
Ġgo l
Ġgol oshes
ack le
th ief
Ġs ieve
gift s
Ġdistur bing
Ġg ait
Ġc y
Ġcy mb
Ġcymb als
thousand s
sch ol
w u
b au
ent ertain
Ġn ood
Ġnood les
Ġp avilion
Ġext ended
pre served
Ġcoll apsed
Ġetern al
Ġim mortals
Ġwhirl pool
su ing
bon ze
Ġging dschou
Ġm and
Ġser pents
Ġfrag r
Ġfragr ances
Ġk ettledrums
Ġimmortal ity
Ġcass ia
radi ance
br ain
l ot
Ġprim al
Ġthund ers
om ed
Ġsa cks
Ġkai ut
Ġkaiut sch
Ġkaiutsch ou
ic ate
Ġd iff
Ġt a
Ġta ianfu
Ġdis cl
adv ance
i cted
Ġs inew
Ġur gent
Ġty rant
Ġf leas
Ġver min
it led
Ġregard ing
Ġshe nsi
Ġexam inations
Ġsur pass
Ġp ell
Ġpell et
Ġoun ces
Ġdoctor ate
g ia
gia una
there upon
dung ting
Ġrelat ive
Ġds iang
ri ver
Ġdsch au
Ġde co
Ġdeco y
Ġste ers
Ġenjo ined
Ġperse vere
f ree
Ġcon str
Ġconstr ained
ic est
adv anced
be avers
s light
man abozho
Ġproc uring
lest ial
con st
haw k
amo red
Ġcompet itor
Ġemb ell
Ġcar ol
Ġsc aff
Ġscaff old
k a
Ġgo al
hun ter
lament ing
Ġblack ened
return ing
p osed
att ention
Ġaffect ions
un ts
Ġmanit ow
Ġmanitow ok
Ġscen es
Ġmus ed
Ġappe als
av or
cr ooked
Ġi ag
Ġiag oo
Ġpens ively
Ġdes cried
Ġam ple
Ġscal ps
Ġst ated
m ishosha
Ġsl ap
Ġstur geon
g ull
guard ian
Ġbar ren
medic ine
wr ong
Ġwh ortle
Ġk a
Ġdisp osed
Ġjee kewis
Ġc ed
Ġced ar
Ġgra pe
Ġnet awis
Ġwait s
be arer
h oke
Ġrapid s
Ġwig w
Ġwigw am
Ġwar y
Ġdecre pit
Ġmain ly
os seo
Ġgar b
Ġp edd
Ġpedd ler
Ġdam asc
Ġdamasc us
Ġbre wing
Ġbull ets
Ġbut ted
Ġanch or
Ġmel b
Ġmelb ust
Ġmelbust ad
kn apsack
Ġl inden
Ġjackd aw
Ġv a
is aac
Ġree fed
Ġber gen
Ġlend s
Ġherd ers
squir rel
brid al
Ġjer king
Ġencl osure
Ġdoll ar
whis tle
kno b
gy nt
ab ak
abak ken
Ġeld for
Ġeldfor kung
Ġeldforkung en
Ġquarter masters
quarter master
Ġwig g
Ġwigg ling
Ġwagg ling
Ġfar rier
Ġgo red
Ġsult ry
Ġbo bbed
pl ague
aw ful
Ġrel axed
Ġpr ime
Ġmeadow land
extra ordinary
b t
Ġdis mount
pier cing
Ġfright fully
po nds
Ġthreat ens
day light
ex act
exact ly
Ġdemand s
Ġon wards
app ointed
pur sued
scre amed
Ġhot ly
re nd
Ġcare ssed
ch anging
tre mble
Ġflock ing
tin y
Ġgra ces
Ġto ler
Ġbeg s
ap hne
Ġconv iction
content ment
Ġv ied
dec ided
Ġal tered
dist inction
a while
Ġphy ll
Ġphyll id
Ġphyllid a
satis faction
Ġcont act
Ġdis quiet
Ġfu ss
Ġbagp ipe
ass es
Ġdon keys
Ġas ses
Ġast ride
del ighted
cle ared
Ġblack smith
Ġbay on
Ġcoax ed
Ġliver ies
Ġsc or
remark ably
tom orrow
se yed
clo ak
Ġbound ary
s ings
Ġsc ree
wh it
Ġh ooked
Ġz ach
Ġzach iel
l am
lam ented
Ġnighting ales
Ġenchant ments
un heard
Ġfor lorn
vol ous
Ġqu itted
peace ful
iet ies
Ġal ter
matter s
island s
Ġcare sses
less on
or ig
s ar
recogn ised
neighbour ing
Ġenchant ing
tor ches
feather head
Ġmo de
fasc in
fascin ating
Ġind iffe
Ġindiffe rence
Ġresp ond
Ġrespond ed
anx ious
Ġpra ises
Ġacquaint ances
port rait
Ġun observed
Ġpu zzle
Ġcontr ad
Ġcontrad ict
f ailed
Ġcontempt ible
ek ly
s usp
Ġref rain
Ġcr u
Ġcru elly
Ġdisd ained
Ġchoo ses
Ġraven ous
Ġfing ering
Ġal ac
Ġalac r
Ġalacr ity
clam ations
Ġwid th
Ġplum s
Ġecon om
Ġeconom ical
pr ud
entire ly
u ity
Ġsleep less
break fast
Ġpenny wor
Ġpennywor th
Ġch attered
star ved
Ġexp ensive
Ġper ceiving
Ġslight ed
v ainly
fer red
exp ressed
be gging
enchant ment
Ġunder gone
Ġimpro ved
Ġvast ly
Ġpictures que
g ingly
fe ed
Ġruin ous
pl um
plum s
Ġw reat
Ġhoney suck
Ġhoneysuck le
Ġconjure r
look s
o xen
Ġblunder bore
ite ly
Ġwa les
Ġwel sh
Ġd ash
Ġbr ains
Ġst ammer
Ġbutt on
Ġleather n
sp acious
Ġthigh s
Ġexp ired
Ġdeliver ance
Ġhabit ation
Ġun merc
Ġunmerc ifully
ig ant
igant us
Ġv ile
se ized
trans formed
th row
. (
Ġm i
pat he
pathe tic
Ġinv ari
Ġinvari ably
Ġbark s
Ġtouching ly
dis consolate
trou bles
bo ar
Ġsp itting
ex cellent
Ġsco red
Ġdeb ts
st iff
Ġr ig
aw oke
Ġmun ching
Ġstr ide
dis gu
Ġsca lded
Ġs ows
ass ure
fin ish
Ġwr inkle
born e
Ġundert aker
Ġgra ved
Ġgraved ig
Ġgravedig ger
Ġfl annel
pe ep
peep ed
Ġvill agers
al m
Ġholid ays
Ġpettico ats
else where
Ġtransform ation
ic iously
Ġr ack
c ows
Ġmil ked
Ġp ails
Ġfresh ly
Ġch urned
aff airs
Ġunnecess ary
down stairs
po lished
Ġlabou rers
she lf
la ix
dress es
ou ghed
Ġre aped
wee ks
d awn
e ase
Ġuntid y
inv itation
exc ite
excite ment
brid le
de clined
Ġjo kes
Ġb ust
Ġnarrow er
aff air
Ġw ow
h ush
ia ou
iaou w
cle ve
cleve rest
ing e
r ushes
Ġbulr ush
os a
Ġsh ivers
Ġsp ines
Ġheed ing
sc ooped
Ġshu dder
ide a
Ġdef ended
Ġrept iles
Ġk ra
Ġkra al
Ġeffect s
de eper
Ġcollect ion
Ġboat ing
Ġlab ours
sal uted
z engi
b iz
Ġk u
Ġku fa
inst antly
past ure
Ġla un
Ġlaun ched
Ġcan oes
h ailed
s ipao
stol en
Ġre i
fe asted
Ġrow an
Ġflour ished
tre as
Ġcons isted
Ġshe lt
Ġshelt ered
Ġsuff iced
Ġfav ou
Ġfavou ra
Ġfavoura ble
Ġspr ay
Ġcas ks
Ġbutter milk
Ġald er
Ġste ering
sk im
Ġdom inion
Ġpossess es
Ġbew are
Ġdeal ing
Ġchange ful
Ġoff end
Ġglist en
Ġworship s
Ġwh ined
Ġjunk ets
Ġponder ing
w estern
long ing
row ed
o st
Ġsque aking
Ġoc to
Ġocto ber
Ġspin ach
Ġcro pped
Ġsea weed
ab und
abund ance
qu ant
Ġto ns
ss ian
Ġam iss
Ġfend ed
v iew
Ġwonder ment
Ġbee f
j ar
amp ed
che ek
Ġpl umped
b ub
Ġbu bbled
p uff
Ġfam ished
whirl wind
sh ut
na ked
p ump
Ġrip est
Ġtreat ing
Ġcreep ers
Ġhut s
des per
stre ams
Ġgr uel
Ġsoft en
heart s
where fore
Ġf ans
sli pped
hast ened
rap idly
b ab
bab y
swift ly
put ting
Ġcr an
w ounded
w ander
Ġco co
Ġcoco a
unk n
unkn own
c asket
Ġout skir
Ġoutskir ts
t ales
Ġcon sp
prep are
Ġd ates
count ries
rem ained
ac compan
accompan ied
Ġwiz ened
Ġninet y
ar ry
Ġoverfl owing
Ġrebell ion
or ch
orch ard
Ġacknow ledge
there fore
Ġfr owned
Ġfulf il
er ry
Ġwhere abouts
Ġlight ness
tor ch
Ġgran ada
Ġve ga
n ur
Ġhere ford
Ġsadd lers
desp ised
Ġst itch
Ġpurch ased
Ġcrafts men
p ry
pry deri
Ġnar ber
Ġnarber th
Ġunwise ly
Ġwho soever
wr ought
Ġshe af
Ġloud est
Ġn umb
st ooping
seem ly
Ġmedd le
Ġn oo
Ġpack s
Ġload s
Ġbag g
Ġbagg age
Ġdes po
Ġgw awl
Ġaven ging
g w
Ġunloo sing
Ġpe op
Ġpeop led
surpr ised
Ġf umbled
Ġm ig
Ġst am
Ġstam mered
Ġsav ings
Ġdisin her
Ġdisinher ited
Ġswall owing
wealth y
sh ame
dwell ing
tri ck
Ġorigin ally
poison ed
se izing
sn atched
che er
cheer ful
Ġbattle ments
Ġun hurt
Ġmot ioned
ref used
young er
Ġacc us
Ġaccus ation
fell ows
Ġch anges
Ġlin ked
ind led
swall ows
Ġbl ades
p orter
Ġpen n
op s
Ġclam our
Ġopen s
ra ise
Ġdri es
en cir
Ġext ends
Ġwarm s
Ġo ss
Ġoss ol
Ġbold est
path s
Ġmen w
h ree
was hes
mess enger
Ġgrandmother s
d art
Ġseek est
Ġrip en
Ġmay est
he ed
Ġbushe ls
Ġthere in
Ġdr ud
Ġdrud w
Ġdrudw yn
m abon
re velry
Ġpol ishing
sc abbard
mod ron
old er
o ak
Ġsa pling
st ag
Ġg wer
Ġgwer n
Ġll yn
Ġ lly
Ġlly w
Ġembass y
Ġgl ou
Ġglou ces
Ġglouces ter
sal mon
Ġgw yth
Ġgwyth yr
Ġgrie vous
Ġmarve ls
st ru
n ice
Ġmun ster
tell ing
e ag
eag le
oblig ed
dr ink
Ġpan el
me mory
Ġwood man
Ġtrouble some
inv ited
Ġbr agged
Ġst y
Ġsty le
Ġboast ing
Ġhuzza ing
Ġtun es
cur sing
Ġp iling
Ġthrust ing
del icious
Ġdi ving
Ġrain bow
s aved
man aged
Ġan e
Ġane w
je we
jewe ls
any way
Ġtet her
Ġtether town
Ġgl ens
Ġunfast ened
for get
wand ered
cre pt
Ġbet r
Ġbetr oth
dark ened
s ore
Ġle ant
Ġfind est
th orn
Ġle avest
Ġhood ie
Ġsh adowed
dis cover
fl ame
d ived
v able
gr inning
st ark
Ġsl ack
Ġslack ened
Ġglim mer
l ime
k il
kil n
handsom est
hun ger
Ġclose t
Ġsnuff ed
fl ask
Ġre ined
spr ung
lo vers
Ġsil ks
Ġgrave l
h ammer
Ġaccident ally
pull ing
co pper
Ġcob webs
crown s
f aint
in ches
car riage
Ġpow d
Ġpowd ered
sor ry
Ġc iv
Ġemb race
del ay
Ġcou ples
happ iest
Ġlong est
for give
Ġbrig s
oon ers
e urope
be came
Ġdisobed ient
strange ly
Ġdri fts
Ġprair ies
Ġll ama
Ġc inn
t ig
Ġgreen est
im mense
Ġblack est
l iz
liz ard
c uc
my ard
Ġwoo llen
Ġble aching
wood en
Ġdream land
Ġe there
Ġethere al
distur b
wond ered
mar ble
a we
stri cken
Ġdin ners
Ġl ined
sm iled
Ġros ier
rasp berry
Ġbil berries
! ...
Ġber ry
Ġtre ss
Ġapr ons
Ġchick en
wonder ful
co ffee
Ġfright ening
ung rateful
Ġmischiev ously
wonder ing
ro bb
robb ers
be fell
van ished
Ġsp ike
sl umber
wr itten
we aver
asse mbling
ord ered
Ġspect ators
pl aces
t any
Ġn ie
Ġnie ce
pos it
posit ively
Ġcow house
Ġpl over
Ġstup e
Ġstupe fied
Ġcomp ose
some body
Ġjest s
t ephany
Ġsl am
cl asp
d iv
Ġstre ak
Ġdim ly
Ġsoft ened
be wild
bewild ered
l ate
Ġb ouncing
Ġoo zing
Ġr ath
Ġguine as
tr am
tram pling
Ġh ull
ro aring
cor thy
Ġsc oop
pl ain
Ġredd ish
Ġas p
er ick
Ġjon ah
Ġbr av
Ġbrav o
Ġput te
Ġmur re
Ġk uck
Ġkuck el
Ġkuckel i
Ġkuckeli ku
Ġcro ck
bed s
Ġgoose berries
Ġmid summer
Ġinc red
Ġincred ible
under stood
Ġesc apes
w ants
Ġf ie
c aw
Ġcourage ous
any where
Ġa ust
Ġkind ling
Ġb ier
ug a
Ġbon y
Ġbre am
Ġsm ould
Ġsmould ering
t ruly
under neath
up setting
Ġaccom mod
inn keeper
Ġpr owl
mark et
Ġas sent
Ġobe isance
Ġconf using
your s
se c
Ġtet hered
Ġgr ou
Ġgrou ps
Ġdis bel
Ġyawn ing
Ġexpl aining
Ġch ances
weap on
Ġr ab
Ġrab ble
Ġwe ighted
Ġinfant ry
Ġbo lted
Ġr av
Ġcast or
o il
Ġpant ed
Ġr ides
Ġreg aining
Ġsqu at
Ġg asp
Ġgasp ing
Ġform id
Ġformid able
Ġcow boys
need le
Ġoften est
Ġspr ite
Ġperfor ming
she p
shep herds
Ġpla iting
h idden
Ġdon key
vis ited
Ġdress maker
pur p
purp ose
Ġcloak s
Ġmod est
Ġlim p
gall ant
th ither
Ġfet ching
h id
Ġcaval cade
Ġroad side
ipp it
cl ip
Ġbl ushes
conf usion
by standers
Ġafter no
Ġafterno ons
he ap
Ġbas king
su ited
te ase
Ġw ist
l ins
bare foot
v i
Ġice land
x ious
Ġvap our
Ġpar a
Ġpara ly
Ġdev ise
Ġbeard ed
Ġind ucing
Ġlass ies
ser pent
ign ation
Ġcl out
ag ging
Ġlit t
Ġb icker
Ġconsult ation
band s
Ġlaw man
nat ure
iss ue
; --
kingdom s
Ġgall ants
Ġunder taken
Ġkemper man
Ġnow ad
Ġnowad ays
belong ed
Ġfight s
Ġpity ing
sc ore
po inted
per ad
perad venture
ar g
t is
Ġh ir
Ġloose ly
Ġwind pipe
Ġa ye
Ġthra pple
Ġun accustomed
Ġwho a
dev our
Ġoccup ant
che t
t would
p ushed
Ġdefe at
thro at
Ġconvuls ions
to ssed
Ġd ent
Ġden mark
Ġis les
Ġch illy
Ġgird ed
Ġover looked
et est
der ision
Ġjud ged
lo ved
Ġmir ro
Ġmirro red
Ġtrout ie
cont ro
contro l
bed side
Ġt you
Ġmad ness
hel m
Ġconsider ate
Ġp ite
Ġpite ous
poss ibly
Ġdeceit ful
Ġdeb ate
Ġen list
pig s
cr owned
curt sey
Ġgent lew
Ġgentlew oman
Ġloss es
Ġg ie
li quid
Ġwhir r
Ġgu id
ppet y
st ou
stou rie
Ġsc rew
Ġscrew ed
Ġmer ci
Ġmerci less
Ġso rer
Ġlad die
Ġexplo ded
Ġle ge
no body
Ġde formed
Ġbe qu
Ġbequ eat
Ġbequeat hed
in hab
inhab ited
am bit
medic ines
Ġpri ces
Ġp ore
Ġw art
Ġo men
Ġear ls
Ġexerc ises
Ġbright en
Ġor ator
Ġto dd
Ġtodd ling
Ġskir ts
Ġcold ness
Ġsc ott
Ġscott ish
Ġglim p
Ġglimp ses
Ġmer its
Ġprejud ice
p aul
part y
Ġreal ised
Ġtur ret
cal m
hum our
Ġyu le
festiv al
Ġkirk wall
f ain
rel ation
n ep
nep hew
Ġ ...
count ess
Ġbri bed
Ġambit ion
gar ment
to ssing
bl ind
Ġlo vest
Ġel apsed
Ġpreten ce
Ġgracious ness
over joyed
Ġattent ions
ic acy
Ġfl apped
Ġm ater
Ġmater ial
ho ly
Ġse w
Ġascend ing
tr oth
Ġcountess es
aven ged
Ġpan ic
Ġinv aded
Ġoccup ants
Ġtransact ion
Ġbow den
Ġe ildon
sleep ing
Ġmy st
Ġmyst ic
Ġbarg ains
Ġdisp ose
Ġqueer ly
anc ient
Ġcommiss ioned
Ġperplex ity
d ick
Ġenvel oped
Ġglim mering
Ġcle arer
c avern
re ck
Ġw aning
Ġcle ave
Ġpar ley
Ġout come
Ġdep ends
Ġchar g
Ġcharg ers
Ġund e
ra w
Ġbake board
Ġth ud
Ġun willingly
Ġda ft
Ġmove ment
Ġhouse work
Ġdismay ed
fun ny
Ġr aged
Ġjo ists
pat ient
Ġtr ooped
Ġanem ones
Ġdaint ily
Ġglo aming
Ġcard ing
Ġwet ting
lo ft
Ġdark ening
Ġto iling
Ġl istless
Ġbreast s
Ġcoo ling
f irm
firm ly
c reel
Ġarm ful
Ġent ry
up stairs
Ġprud ence
Ġstack yards
Ġbeh ove
Ġbehove th
ee rest
n ames
a ise
) ,"
Ġble ak
Ġun covered
Ġunt rue
Ġar guing
pr ot
Ġunt r
Ġdish on
Ġwhir rum
Ġwhee ck
Ġwheeck am
Ġwhir ram
Ġground less
wr iting
Ġrest ive
Ġnot able
grie f
Ġpluck ing
Ġthought less
Ġd ally
w oo
ber ly
Ġac hed
Ġabund antly
Ġtra cery
ro sy
Ġdang led
b oulder
Ġneat est
ug ly
fol ks
sp un
some one
Ġgreen er
mo ss
Ġsl ant
thank ful
f ry
pu dd
farm house
Ġexpect ations
t apped
Ġshim mering
Ġran ge
Ġnest ing
Ġhealth y
Ġadvent ur
Ġadventur ous
know e
Ġstream ing
Ġnumber less
Ġli very
ast ing
Ġte asing
gl im
ang led
over took
Ġsand s
fore most
ced ed
Ġlab orer
sh ire
Ġmer lin
rib bon
Ġwe nd
pe ats
s up
t une
Ġpart ner
Ġwal t
sh r
crow ded
oc cup
Ġpract ices
Ġre mon
Ġremon str
so le
sole mn
Ġfore tell
Ġhappen ings
Ġbellow ing
Ġt ae
Ġmass ive
Ġdire st
s inking
aid ed
gl en
Ġgall antly
cess es
Ġland sc
Ġlandsc ape
cross ed
Ġsl ide
Ġst ains
Ġdisapp oint
n orrow
norrow ay
Ġexceed ing
Ġcon ne
Ġconne cted
Ġmay h
Ġmayh ap
Ġsuspic iously
reg ained
Ġspeak eth
man tle
adv ice
val u
valu able
m otion
motion less
rem aining
co ll
Ġr arer
Ġsp iced
Ġsweet en
Ġun certain
Ġbre wed
Ġbre wer
we ary
fat ig
Ġcock le
Ġmer maids
Ġwarlock s
Ġcar lis
Ġcarlis le
Ġl app
Ġlapp land
Ġsam pled
Ġsam ple
Ġlords hip
reward ed
Ġrecount ed
Ġsoot y
Ġs ipped
Ġbishop s
Ġsing e
b ree
Ġp ir
Ġwhisper ing
Ġcent ury
Ġhabit s
Ġburn side
Ġpo king
Ġtram pling
Ġh oo
pal frey
Ġripp ling
Ġg irth
Ġqueen ly
wor ship
Ġthink est
Ġwho so
se th
Ġtang led
Ġirks ome
Ġbr ae
Ġe lf
Ġlight en
Ġpar ched
rest ore
Ġever more
Ġun noticed
gl ance
Ġreve ls
ast ic
Ġcar ri
Ġwhom soever
Ġun ion
Ġbreath lessly
Ġh art
mo ving
offic er
Ġl airs
Ġmedd ling
Ġwe arest
Ġtr inity
do st
Ġrid eth
Ġle ague
Ġdevout ly
Ġj en
horse man
sm oke
Ġskin ny
Ġgri zzled
Ġcom est
s ang
p arted
Ġran ks
Ġregret s
Ġp all
Ġner ve
un w
f aces
resc ue
w ake
Ġt ak
Ġpre s
bl in
em er
Ġstu dded
sol id
bo g
Ġmat in
Ġpe aling
Ġmurmur s
Ġblock s
follow ers
cir c
Ġheed ed
Ġtrust ing
čĠĠĠĠ Ġ
Ġoat meal
cou ple
Ġtoast ing
Ġapprent ices
Ġtrund ling
Ġp ins
Ġt ib
Ġtib by
Ġb other
if ting
Ġjan et
h it
Ġclo ving
j ook
Ġheck le
Ġro pes
Ġas sented
Ġhand y
Ġmor al
l ifted
st ab
Ġattend ing
Ġhur led
spl ash
se al
Ġfur ry
Ġwre ak
k illing
Ġmer man
Ġhe al
itting ly
Ġcrowd ing
int ention
Ġlive li
Ġliveli hood
Ġsolemn ity
pre v
Ġbe in
Ġhunt in
Ġplent iful
or se
Ġfrol ick
Ġthink in
Ġmak in
Ġbehold en
Ġlook in
Ġcut e
ine e
e vil
hon or
v in
he els
Ġmin es
Ġlug an
Ġlugan ure
-- (
d rum
cur ra
) --
Ġflutter in
ourne en
Ġind ivid
ac re
ook a
ant ry
Ġ 2
Ġj une
Ġb ount
Ġbount y
Ġhe if
Ġheif er
Ġbally as
Ġballyas he
Ġdissol ute
Ġimpro per
de cent
horse back
Ġblack guard
dra wing
k ilt
Ġsp ilt
cur se
Ġdang ling
Ġh inges
Ġtravell er
Ġclean ly
o cean
wh ist
Ġspl ashing
Ġbot hered
Ġg and
Ġgand ers
Ġninet een
Ġbre sna
on ies
d ublin
Ġl un
Ġbu g
b ug
oy s
Ġv ul
Ġvul gar
Ġd agg
Ġdagg ers
Ġm um
le gs
un tering
Ġchop s
would n
Ġye z
Ġsho vell
Ġshovell ing
Ġk ilt
f ist
-- --
Ġhe ll
Ġd ane
Ġn udged
Ġbar ring
Ġdo se
Ġthr ashing
Ġmod esty
Ġcle fts
Ġpolit eness
Ġpat r
Ġpatr imony
Ġmu ir
cap ital
Ġmo ats
Ġsuperint end
Ġdec tera
Ġselect ing
Ġl ath
Ġplay ers
Ġtu ath
Ġtuath a
Ġcuc ulain
Ġty pe
iv al
Ġinscri bed
Ġtest imony
Ġpra ising
Ġen umer
Ġim plements
app rent
feast ing
cul ain
Ġproc ured
stand s
Ġr ood
) ?"
fright en
Ġspr is
Ġspris awn
Ġspend s
br ass
Ġhire lings
Ġbulk iest
Ġut ens
Ġutens ils
be ast
Ġshe ets
le ap
Ġsam hain
Ġcan opy
warri or
cr im
crim son
Ġbr oo
Ġbroo ch
Ġfestiv ity
Ġfoot fall
mid na
gl ory
keep ers
Ġrep el
Ġscuff le
Ġbo ars
sp ears
che eks
Ġref ined
im ate
Ġdoub ly
Ġund es
Ġrest oration
Ġaw ry
con n
Ġval iant
host s
Ġl y
Ġly re
um es
tar a
Ġt enth
Ġenjo ining
po int
er in
Ġdiv isions
gr asped
ru ctions
p ressed
Ġte ck
mid cu
midcu art
midcuart a
defe ated
gg led
Ġsleep ers
i ked
Ġfaint ness
Ġover shadowed
Ġtro ph
Ġtroph ies
Ġhero ic
per formed
Ġinst all
Ġprom ont
Ġharb our
Ġgall ey
Ġgalley s
in ers
Ġlo pping
att ened
ou bted
oubted ly
sw ore
cl ination
Ġflat ten
hum oured
Ġav ick
Ġsm ack
Ġdung annon
m iles
good ness
Ġoblig ations
e as
eas ily
w itted
Ġconf ounded
Ġaf ore
im port
Ġsu cking
Ġcomm ence
Ġr ue
des ired
th s
des cri
Ġdep ending
Ġas under
Ġlum ford
Ġsag acity
ut ton
Ġaf front
Ġgi ble
Ġgible ts
Ġawaken ing
Ġrepresent ed
Ġgr iddle
Ġun worthy
ch ap
squee zed
squee ze
Ġe yed
Ġstr aining
Ġpl ague
ive l
tw isted
step mother
stri p
Ġbell y
Ġme aring
Ġfur rows
Ġc oop
Ġcoop ers
be ating
ugg ing
Ġyouth ful
cur rach
Ġintellig ent
Ġwhere withal
Ġignor ance
dis mount
Ġsix penny
de mand
w ink
ru de
ar guing
h ounds
Ġa iled
Ġswell ed
Ġconver se
dr owned
Ġcloth s
Ġin is
Ġinis fal
Ġinisfal en
Ġmist y
bre thren
Ġbliss ful
Ġhe arken
Ġwholes ome
Ġaugust ine
Ġmon ks
i as
Ġabsol ution
Ġgreen s
sh ove
Ġsh aky
Ġslim y
fro gs
Ġro gh
Ġkind est
m ach
Ġmay fly
Ġlu gh
south ward
s id
a ire
it he
h an
Ġa ile
Ġdisp utes
Ġforgetful ness
Ġinsul ts
Ġprotect or
Ġhel per
Ġamer gin
bra very
Ġmor ann
Ġk in
s ens
Ġpass ers
Ġfl itting
Ġfool itch
Ġcl ing
n umbers
Ġthirst ing
out e
Ġgu de
et hing
Ġd iet
ste pping
sto le
Ġaccompl ishment
h op
Ġkn it
Ġso cks
sit s
Ġch or
Ġchor us
Ġsu bs
Ġsubs ided
con cluded
Ġer ca
r ines
Ġfore fathers
enem ies
fl owing
boy ne
father land
Ġc er
Ġcer b
soft ly
cl er
c attle
never theless
Ġking ly
Ġcomrades hip
Ġwork er
Ġlife less
head less
Ġphant oms
Ġow en
Ġfort ress
Ġsmell ed
Ġflound ered
Ġpro d
en vel
Ġdown ward
Ġtu il
Ġtuil en
Ġrec iting
Ġprice less
Ġrepent ance
Ġsin ned
Ġsp ouse
Ġro c
' ?"
Ġdiv iding
bon ed
Ġag ility
Ġas ser
c ru
Ġest uary
arr anged
Ġluach ar
aid h
s lain
ch an
re ception
eng us
ca o
Ġbemo an
am or
amor ph
amorph osed
Ġdruid ical
Ġtest ify
Ġby word
c uanna
Ġdi armuid
u ib
uib hne
Ġpr ongs
Ġmat ure
di armuid
glo omy
Ġdiscer n
roof ed
c oo
coo king
Ġsub miss
Ġsubmiss ive
Ġbrim ful
Ġfore part
Ġun fair
Ġcover let
Ġsl oth
Ġsign if
Ġsignif ies
Ġre nder
Ġc uanna
u il
Ġcon ceived
hosp itality
Ġsent ry
Ġsent ine
Ġsentine l
Ġar isto
Ġaristo crat
Ġaristocrat ic
Ġh ark
corn ered
Ġre aches
Ġm ire
Ġrel ating
Ġso ar
Ġstr ut
Ġtr aining
Ġpract icing
Ġeven ly
Ġp avers
Ġmeas uring
Ġnew est
anc ipated
Ġprin cip
ut ions
Ġas so
Ġasso ci
Ġp aver
Ġimp ress
?' "
Ġremind s
Ġp ave
Ġpave ment
Ġdeliber ation
Ġsh rew
Ġpract ical
Ġnewsp ap
Ġnewspap ers
po et
Ġaff irm
Ġcr it
Ġglim mered
Ġtrap door
Ġin sp
Ġrob ust
Ġcondescend ed
Ġover powered
Ġglow worm
Ġimp ortun
Ġhere in
Ġn ailed
Ġflower pots
Ġg er
Ġco lored
Ġcong ress
t ick
Ġthick ets
il ities
cand le
Ġcandle stick
ting s
Ġintell ect
Ġaw aking
Ġm oth
Ġche ers
Ġsteep ed
wh ir
Ġdest iny
red s
Ġold en
Ġbl aze
Ġde vel
incre asing
Ġid ling
Ġbur red
b road
Ġcavern s
Ġgreen house
sn akes
Ġthreat en
Ġrespons ible
Ġwretched ness
Ġa ward
Ġaward ed
Ġdistribut ion
Ġindust ry
Ġfather land
Ġal p
Ġalp habet
Ġcand id
Ġcandid ate
Ġstre ss
Ġrail way
Ġimme as
Ġimmeas ur
Ġarri ves
Ġex h
Ġdecided ly
c ial
Ġmon uments
Ġcommun ion
Ġcri pp
Ġcripp led
Ġun ce
Ġt ingling
Ġcrut ches
Ġstri ven
Ġp ious
Ġpe w
Ġsun beams
Ġimperfect ions
Ġtaste less
Ġring lets
Ġshroud ed
Ġcr umbled
Ġdelight fully
dro ps
Ġcontempl ated
Ġbr az
Ġgle ams
Ġbroom stick
Ġc uck
Ġcuck oo
Ġbend s
Ġfull er
Ġhumb ler
Ġwe ed
o ven
Ġsport ing
neighb ors
Ġtr ud
Ġtrud ging
Ġturn pike
cl uck
l ish
Ġhis s
Ġhundred weight
bus hel
p aid
Ġstudy ing
Ġstud ied
h ive
exp osed
pro du
produ ced
Ġwater y
Ġman u
Ġwhirl s
Ġwh its
Ġt ues
Ġtues day
Ġcar n
supp ort
Ġpot ter
Ġsl it
Ġexp ose
b al
Ġdiscuss ion
Ġrail ways
wh ip
Ġcharacter s
Ġtw irled
Ġroast ing
Ġper ished
Ġtrick led
Ġaston ishing
Ġastonishing ly
Ġun perceived
Ġch and
Ġchand el
Ġchandel ier
Ġpen cil
Ġbal anced
Ġsy l
Ġsyl ph
Ġelder ly
Ġinde x
Ġc reation
Ġpropriet or
Ġcheerful ness
Ġapplau ded
Ġprovin ces
Ġexper iments
Ġcomp re
Ġcompre hension
Ġacqu ire
Ġmag net
Ġmagnet ic
Ġweigh s
Ġact ors
Ġclan ked
Ġin fer
Ġinfer ior
Ġno vel
Ġround ly
ct ly
Ġgre ek
Ġble mish
Ġplay thing
pr ut
Ġswe eter
Ġje w
Ġbre w
Ġhit ched
Ġle avings
Ġcra cks
Ġa right
w atch
Ġsc ared
Ġno ont
Ġnoont ide
g ained
Ġhar ry
Ġsharp en
Ġsharp ening
Ġbefoo led
Ġbefoo ling
Ġstrip es
Ġsn ig
Ġtit mouse
Ġblunder bu
Ġpack ing
Ġw ry
Ġfan ning
Ġchaf ing
Ġbu b
Ġprud ently
Ġexcess ively
Ġcompassion ate
e le
Ġste ady
Ġmill stone
Ġh oused
Ġsim p
Ġsimp leton
f ill
Ġbl ed
Ġd oo
Ġst umbling
ge e
Ġhot ter
Ġcl ove
Ġgrind stone
Ġf ul
Ġvo id
Ġgar land
hallo a
Ġlent ils
Ġdark est
thro ats
Ġcannib als
Ġbe ats
Ġcrust s
Ġref rained
Ġg ambo
Ġgambo lled
Ġwatch men
b aker
mill er
stool s
awa iting
Ġele v
Ġmatch less
y ama
s achi
h iko
Ġrespect ive
Ġoccup ations
Ġbo bbing
Ġbu oy
Ġdark en
Ġval ued
? -
Ġusur p
Ġsh i
Ġshi wo
Ġshiwo zu
Ġshiwozu chin
Ġshiwozuchin o
Ġok ina
aug ust
august ness
Ġtra iling
mag at
magat ama
cond escend
Ġceremon ious
Ġupper most
it o
Ġsuff e
Ġsuffe rer
Ġbe aming
Ġhesit ating
Ġimme mor
Ġimmemor ial
Ġnan jiu
Ġk an
Ġkan jiu
Ġcontro ls
Ġtid al
Ġre ced
Ġreced e
Ġdrown ing
Ġper il
Ġre ceding
Ġstri fe
Ġy uh
Ġyuh i
Ġret reated
Ġpond ered
Ġres orted
Ġcultiv ating
Ġl av
Ġfrug al
Ġwound ing
Ġintent ions
Ġsmell ing
Ġbl aming
Ġwo ful
Ġsorrow ed
Ġretain er
Ġa usp
Ġsupp ress
Ġimit ated
Ġsimple st
Ġdis ciple
Ġbu d
pe as
Ġf i
Ġfi i
nor the
northe ast
Ġinv ade
Ġvict orious
Ġr aid
Ġsu ite
Ġdischar ge
expl o
explo its
Ġant ics
Ġmon sters
Ġwat chers
Ġdam sels
Ġcapt ives
Ġdaim ios
Ġbrilli ance
s af
Ġshr ines
Ġgreat ness
Ġtire less
Ġdis heart
Ġcarpent ers
Ġac cess
Ġjewel ers
Ġexp osure
Ġde ception
Ġliber ally
col or
Ġprob able
Ġpal anqu
Ġar chers
Ġprecaut ions
Ġcomfort ing
Ġheaven wards
Ġtear ful
Ġflee cy
Ġwaft ed
ar a
Ġwrest lers
Ġencou ra
Ġmarve led
Ġyam a
ub a
Ġintrodu ce
Ġsad am
Ġsadam it
Ġsadamit su
Ġvass al
Ġmin am
Ġminam oto
ra iko
Ġass uming
Ġunfold ed
Ġdis courage
Ġprodig y
Ġdest ination
Ġbr aves
s op
r ase
Ġbeet les
Ġembro ider
Ġp hosp
sc ent
Ġmass es
Ġpre scri
Ġele ment
Ġintr usted
Ġdexter ity
Ġar ouse
Ġab ility
l ub
Ġsk im
Ġrecoll ected
Ġli vers
Ġdis couraged
Ġdece iving
Ġfail ure
Ġha iled
Ġreckon ing
Ġstupid ly
Ġhum il
Ġhumil i
Ġint ends
Ġd ab
Ġcl ut
an o
Ġy asak
Ġyasak ami
ts ur
tsur ug
tsurug i
Ġk us
Ġkus anagi
Ġsym bo
Ġsymbo l
Ġinv in
Ġinvin c
Ġded icated
Ġout law
in ct
Ġcongratul ated
Ġki ushi
Ġkiushi u
Ġres ort
Ġstr at
Ġstrat age
Ġstratage m
Ġexert ion
Ġex ter
Ġren own
Ġsum ptuous
Ġapp ar
Ġappar ition
Ġdis sembled
y am
yam ato
Ġsuccess fully
Ġjam med
Ġswords man
Ġadvers ary
Ġest ee
Ġestee med
Ġv ic
Ġvic inity
is en
sp ear
Ġbar bar
Ġbarbar ians
Ġmo der
Ġreve rence
Ġcom pr
Ġroy ally
Ġfeast s
Ġcord ial
Ġret reat
Ġshe ath
Ġg ale
Ġrep aid
Ġsh aded
Ġimp osing
Ġsun burnt
Ġfr own
Ġemb ark
Ġscoff ed
Ġappe ased
Ġfaithful ness
Ġloving ly
Ġest e
Ġeste em
Ġaz uma
Ġo mi
Ġl at
Ġlat est
sh iko
Ġrul ers
Ġmountain ous
Ġir rit
Ġentreat ing
Ġexception ally
ur ance
Ġdoub tless
Ġin land
t ur
Ġpo isons
Ġwear is
Ġwearis ome
Ġslight ly
Ġannoy ance
Ġaf lo
Ġaflo at
Ġsh ark
Ġscre ams
Ġann ivers
l ump
cho pping
Ġthunder storm
Ġjo lly
fortun ately
re al
distur bed
Ġimit ating
Ġdis satisfied
Ġex hi
Ġexhi bit
at able
Ġpersu asion
Ġdet ails
Ġmed it
Ġmedit ating
ic ip
icip ate
enem y
re pent
repent ant
Ġfe athered
Ġchir ped
Ġstar ching
Ġiron ing
Ġquick ened
Ġsu zume
Ġwhit est
Ġhost ess
Ġp ac
Ġhand led
Ġtri fling
Ġres isted
Ġb ounced
Ġech igo
Ġvain ly
Ġha ze
Ġcon sol
Ġconsol ation
Ġexp osed
Ġacknowled gment
Ġhouse keeping
Ġlo ses
Ġwhere by
Ġsympath ize
Ġbere aved
Ġlone liness
Ġrecollect ion
Ġruff le
mother s
Ġmother less
Ġdis likes
Ġsuper stition
Ġmis under
Ġmisunder standing
Ġappre hension
Ġlo y
Ġloy al
Ġp iety
Ġpond s
Ġdis liked
Ġre sent
do er
Ġwrink les
Ġp es
Ġpes tle
tr ay
,' "
Ġmix ing
Ġpast ed
Ġquick est
Ġvictim s
Ġdur st
Ġo ey
Ġoey ama
Ġhealth s
Ġexplo its
Ġho jo
Ġr um
Ġbr ushes
Ġgro ped
Ġfl in
Ġflin ched
Ġpr oofs
Ġwide ly
o gre
Ġrevenge ful
Ġnar a
Ġancest ral
Ġtender ness
Ġstro king
Ġdilig ent
ic ient
Ġaccompan iment
Ġunconscious ly
Ġdis agreed
Ġmer it
Ġcultiv ated
Ġtorrent s
Ġed ict
Ġdr ought
Ġoffic ials
Ġchin jo
Ġlie ut
Ġlieut en
Ġlieuten ant
ific ation
Ġh ib
Ġhib ari
Ġwild est
Ġre as
Ġreas ons
Ġscand al
Ġf acing
Ġindign ation
Ġb i
Ġbi wa
Ġcr unch
Ġsur mounted
Ġoccur rence
Ġr arest
h ides
hides ato
v a
Ġgl are
Ġfound ation
Ġpre ser
Ġpreser ver
Ġfir ing
Ġo ki
Ġlong ingly
Ġquiver ing
Ġdesp ite
Ġspite ful
Ġpity ingly
Ġfr ank
Ġk aba
Ġb a
Ġy elled
Ġab usive
ster n
Ġh anger
Ġgrie v
Ġgriev ously
Ġr ar
Ġapprent iced
h ired
lar gest
Ġv icious
Ġthick et
tri p
Ġalong side
Ġn ail
Ġsch on
Ġschon en
Ġl und
Ġcry pt
Ġgo sp
Ġgosp el
Ġsu e
Ġwere wolf
Ġpast ured
Ġindescrib able
Ġtremend ously
Ġworry ing
Ġm own
b ite
Ġhaw ser
Ġcl icked
Ġherd ed
threat ened
Ġmarks man
Ġh its
recogn ized
sh owed
Ġjo ked
Ġdecor ated
Ġdri ver
Ġre united
Ġquestion ing
Ġgrim m
Ġgrimm est
Ġdr ubbing
Ġun afraid
Ġsc outing
Ġund ist
Ġundist ur
Ġundistur bed
Ġwe aving
Ġtank ard
Ġtrick ery
Ġfavor able
Ġast ounded
Ġj uts
Ġras val
dist ri
distri ct
Ġunble ssed
Ġho cus
po cus
gener ally
p ine
l ine
Ġring f
Ġringf els
tor re
sto ch
stoch ter
Ġwid ower
e ye
pro v
app les
Ġun be
Ġunbe known
court ier
str and
Ġtraitor ous
de alt
Ġru gs
Ġw er
Ġwer gild
h airs
Ġfl asks
Ġmoist ened
l illwacker
Ġexper iences
over night
r ooster
Ġki keriki
Ġliber al
t una
b ale
kno cked
Ġflee ing
ne arer
Ġkn ives
un faithful
Ġforfe ited
sound ing
Ġleap ing
Ġdis contented
Ġcomp el
Ġdep ressed
r ated
Ġstom men
Ġappro ved
Ġt il
amb ling
Ġcl ashing
Ġg owned
re gain
care fully
Ġexam ination
sleep y
Ġbet tered
de cor
Ġp isto
Ġpisto ls
Ġmusk ets
Ġun married
Ġde igned
Ġhur rah
Ġech oes
mar ched
Ġpar ade
Ġalarm ing
Ġcommiss ions
ch attered
Ġscr ub
Ġadvers ity
gall ows
Ġarch ite
Ġarchite ct
than ked
Ġharb or
Ġcan non
Ġne got
Ġnegot i
Ġnegoti ations
whe l
whel med
Ġdisobed ience
Ġsavage ly
Ġpro x
Ġprox y
Ġad ored
Ġest ates
Ġrepresent ative
t ies
Ġmyster y
st ation
m ad
mad ame
Ġlark s
Ġh arrow
Ġsadd er
Ġplay mates
s now
snow flake
Ġrejo ic
Ġrejoic ings
Ġgaz et
Ġgazet te
Ġfashion able
Ġsuff ers
Ġsuper cil
Ġsupercil ious
Ġob servation
Ġprom in
Ġfl attering
Ġp yl
Ġpyl otechnic
Ġpyrote chnic
Ġsquib s
Ġimag ination
Ġsu st
Ġtri vial
Ġhe aved
Ġhumb ug
Ġso ared
Ġsh attered
Ġm ottled
Ġgrat ifying
Ġarg uments
Ġgau ze
Ġappreci ated
Ġo x
Ġt ed
Ġted ious
Ġcondem ning
Ġdomest icity
Ġcompl iment
Ġf izz
Ġexplo de
Ġdecl ine
Ġthought fully
Ġsc atter
Ġbags ful
Ġterrif ic
Ġfix ing
Ġhorri bly
Ġdisre spect
Ġfit s
Ġch atter
Ġfault s
Ġflat te
Ġflatte rers
Ġcontin ual
Ġsplin ters
Ġgran ite
Ġperson age
Ġhall way
Ġtr unks
Ġsulk y
Ġgro cer
Ġgrocer ies
Ġun harness
Ġscamp ered
Ġhy ster
ten se
Ġrec ite
Ġthere after
Ġconf ection
Ġen ra
Ġenra ptured
ect ions
Ġpurch ases
Ġin fin
Ġsuper b
Ġy ale
Ġcourt e
Ġcourte ously
Ġd ining
Ġri ot
Ġriot ing
Ġdut ch
Ġpolit ical
ren ces
Ġent h
Ġenth us
Ġacc using
Ġsim sim
" .
Ġblind fold
Ġment ions
Ġmar king
Ġdisco vers
cell ars
Ġspot ty
z izz
Ġb izz
Ġb iz
Ġbiz zz
b room
Ġwiz zz
Ġpe ev
Ġacorn s
Ġbuzz ed
idd ling
-- _
jack son
cupboard s
Ġcupboard s
sle e
cell ar
Ġdust ed
ful s
Ġv ows
Ġceremon ies
Ġfurn ish
Ġjud ging
Ġhang ings
Ġexp iration
Ġdec ree
Ġun l
Ġdim in
Ġdimin ished
Ġste wards
Ġbee feat
Ġbeefeat ers
Ġpart rid
Ġpartrid ges
Ġcontin uing
Ġsp acious
glass es
Ġviol ins
luc inda
Ġmut ton
Ġterri er
tw itchit
t ab
tab itha
Ġpepper m
Ġpepperm ints
Ġb iscuit
Ġow es
Ġenvel ope
Ġ 3
con ven
Ġsp onge
fit ting
hen ny
Ġcan isters
s ally
ort ment
Ġplum ing
sh ade
Ġfl uff
Ġfluff y
Ġwiz ards
hon ored
Ġcon ve
Ġconve yed
Ġsm ear
Ġs meared
Ġcarbun cles
Ġgu it
Ġguit ars
Ġturn spit
Ġename led
Ġbl anc
Ġblanc het
Ġblanchet te
Ġmill et
Ġencourage ment
Ġar gue
Ġans wers
Ġlad d
Ġladd ers
Ġpe aches
Ġsapphire s
h ilt
p ract
Ġmat hem
Ġmathem at
Ġmathemat ical
Ġco ar
Ġcoar se
Ġembro idering
al med
Ġsp ices
Ġange ls
Ġseam stresses
Ġth imble
Ġhaul ing
Ġbead s
Ġfur s
Ġso vere
Ġsom ers
Ġsomers ault
Ġur n
com er
Ġd int
Ġsc ound
Ġscound rel
Ġs ceptre
Ġobject s
Ġthick est
Ġro e
pi geons
Ġhu gged
Ġquen ched
b inding
el ed
Ġtr im
ow ered
Ġpat ches
Ġnot ions
Ġl aced
Ġcont rive
Ġsc ooped
Ġliz ards
Ġattent ive
Ġcivil ities
Ġcit rons
Ġchar l
Ġcharl ott
Ġcharlott e
re joice
me ats
ch airs
Ġpan es
Ġgreen wood
hum pty
Ġha ms
ir re
Ġnettle s
bu ds
Ġtr um
Ġtrum per
Ġtrumper y
Ġmild ly
Ġentreat y
Ġin doors
Ġbut tered
Ġsm ears
Ġrock ery
Ġsk ip
mo ppet
Ġsm acked
Ġd ate
Ġshri velled
Ġcluck ing
Ġcr ou
Ġcrou ching
Ġsn ar
Ġunreason able
Ġsatisf ying
pin kel
Ġm oo
Ġmoo red
Ġt inkle
Ġchuck le
Ġbrand ished
Ġfire light
Ġtuck ing
Ġling er
Ġbreakfast ed
Ġmat tress
Ġcover lid
Ġu gh
Ġnib bled
Ġshove lful
stal k
Ġgl ows
thumb elina
Ġm int
Ġv ines
stor ies
Ġsof ter
Ġband aged
Ġdrows iness
Ġbrows ing
Ġtempt ed
Ġbetray ed
Ġcomfort s
Ġj ol
Ġjol ting
Ġhonest ly
Ġsal ad
Ġr acket
Ġrain s
Ġbur row
Ġdig est
Ġcirc led
Ġsoft est
Ġhar med
f itted
Ġbl ust
Ġblust er
Ġtw ittering
Ġst acked
Ġb ase
p ip
Ġp ip
Ġqu acked
Ġhas n
Ġbuff et
Ġbuffet ed
Ġt umble
Ġrust led
Ġlilac s
Ġrep uls
Ġrepuls ive
Ġperse cut
Ġpersecut ed
Ġgl ares
good y
Ġsilver tail
che ese
in noc
innoc ent
t uck
Ġstrip ed
Ġchuck led
Ġconf ined
Ġwood pecker
Ġexplan ation
stal ks
g utter
Ġgi lding
sp an
Ġhat ching
t ailed
Ġhosp itable
ient ious
Ġsa ge
Ġgrin ned
Ġburd ened
Ġab rupt
bar king
Ġhow ls
Ġme wing
Ġatt ics
est ed
comfort ably
Ġsm uts
Ġsque aked
happ ening
wh isk
whisk ers
Ġrequire s
cr umbs
w rigg
bot tles
Ġind ig
Ġindig est
Ġindigest ible
Ġpl ank
Ġpeel ed
z ens
Ġtab by
Ġfr ills
Ġsnuff le
bl anket
Ġcur rant
Ġs izes
Ġnut kin
Ġwrink ly
su ds
Ġt ies
Ġjump s
est ab
estab lished
car ries
Ġcr ush
col ors
ous ins
Ġconcer t
rem ains
concer ning
Ġspec im
Ġspecim en
e gypt
Ġin com
Ġincom par
Ġincompar able
ĠĠĠĠĠĠĠĠ ĠĠĠĠĠĠĠĠ
Ġkn o
Ġmin ced
Ġgent eel
pl ates
Ġmar mal
Ġmarmal ade
Ġdisdain ful
Ġste aming
! ....
Ġempt ying
art icles
Ġpul se
Ġlet t
Ġlett uce
Ġso p
Ġsop orific
Ġveget able
Ġmar rows
Ġapolog ized
Ġmow ings
Ġdo le
Ġspo iling
b rick
j ane
Ġlo b
Ġlob sters
p ears
Ġcar ve
dis app
Ġdress er
Ġodd s
tr ot
Ġgi g
Ġkn itting
Ġpoor ly
cott on
," --
Ġscare crow
Ġc am
Ġcam om
Ġcamom ile
Ġto pped
sh anter
Ġp itter
Ġminnow s
flo at
Ġstick le
Ġstickle back
!" --
Ġdispleas ed
swall owed
b ank
b ought
Ġblack berries
Ġtools hed
pp ity
sp oon
tre m
trem end
tremend ous
head s
n ailed
Ġhosp it
Ġhospit ably
sto pping
ming led
Ġmelo dies
distingu ished
Ġshall ow
Ġcustom s
schol ar
green coat
entertain ed
sp ot
Ġper man
Ġperman ently
Ġl ure
Ġg est
Ġreproach ful
room s
Ġappet izing
Ġt ad
Ġtad poles
Ġphen ix
Ġesc aping
Ġsp aring
Ġdissol ved
Ġse vered
Ġfu ki
Ġfuki en
Ġsce p
Ġscep ter
Ġc en
Ġl ung
Ġseam an
Ġun bound
sk ies
Ġmand arin
Ġha l
Ġhal ber
Ġhalber d
ds i
t sch
tsch un
Ġopp osed
Ġrev iewed
Ġdsch ong
Ġbro c
Ġbroc ades
Ġarm ored
Ġl ute
str ings
Ġam bush
Ġy au
Ġk un
Ġkun l
Ġkunl un
Ġfill ing
Ġto wered
Ġmu nd
Ġmund ane
Ġspout ed
Ġfisher boy
Ġhollow green
Ġfrag ments
Ġbri be
Ġann ounce
Ġyang t
Ġyangt ze
ki ang
Ġnan king
Ġmus sel
fe w
sp ots
fisher man
Ġch a
j asper
mis fortune
Ġpur ity
Ġtao ism
Ġprince ly
ad orn
adorn ed
Ġtable t
Ġsch ak
Ġschak i
Ġschaki u
smo king
for mer
former ly
l ater
breat he
Ġin come
Ġaddition al
Ġdiscl osing
char ity
Ġpur red
Ġcir cling
Ġdelic ately
Ġmis deeds
Ġblame less
Ġdisgust ing
Ġwithdra w
Ġthunder ing
Ġmist s
Ġre con
Ġrecon c
Ġreconc iled
s in
Ġno isy
Ġsurv ived
Ġput o
acc ident
ent itled
me ans
Ġorder ing
h iang
Ġsurpass ingly
month s
Ġcelebr ating
Ġin experienced
dre ams
hum med
home ly
Ġinv ol
Ġinvol ved
play ed
Ġcount s
be gg
begg ar
Ġdis owned
home ward
att ice
t ower
Ġsec uring
t ang
Ġhast ening
Ġthund ered
ran ks
Ġpl atter
Ġshim mer
Ġcont rolled
Ġwealth ier
Ġl onge
Ġlonge v
Ġlongev ity
Ġto il
tr ained
Ġds chen
gi ang
extra ordinarily
k ettledrums
sp ray
concer ted
lot us
pers piration
Ġcr ad
d ut
dut ies
Ġsc ant
Ġby standers
Ġclust ers
Ġfell ed
Ġhomesick ness
fam ilies
im per
Ġtur ban
Ġd au
Ġinquir ies
Ġcr anes
Ġswe ating
ren own
Ġch ie
Ġchie ft
Ġprompt ed
Ġver mil
request s
o bed
obed ient
sh ape
Ġcaro led
Ġinc idents
Ġact s
Ġto tal
Ġgust s
Ġrest oring
Ġun ceremon
Ġsin cer
Ġsincer ity
Ġind icated
cho icest
Ġpart ridge
Ġover taking
t ails
be aver
Ġin as
Ġinas much
Ġgra bbed
Ġcircumst ance
p ain
Ġmanito es
Ġun h
Ġunh armed
separ ate
Ġd ye
Ġh ip
Ġmot ions
bl owing
Ġce lestial
Ġmoti ves
accompl ish
ch allen
challen ged
v ict
Ġstre ng
Ġstreng then
Ġext ending
vis itor
Ġsuper natural
conf ident
Ġre ly
Ġtin ted
le aps
ag go
Ġwill ed
lo ver
const antly
ĊĠĠĠĠĠĠĠĠ ĠĠĠ
Ġdit ty
Ġunt ying
Ġglo ssy
gau da
Ġencamp ed
pl ains
ced ar
Ġis suing
Ġprov iding
Ġsuffer ings
Ġbrother ly
Ġb lend
Ġblend ed
Ġwhere with
Ġre pl
Ġrepl en
Ġen amored
Ġthin ned
Ġboast ful
Ġembell ished
Ġre cl
Ġrecl ining
Ġdest it
Ġdestit ute
Ġfurn ishing
Ġvis age
b ud
Ġrel ished
Ġen forced
Ġast ir
Ġrese mbling
Ġleis urely
Ġfore bo
ak ah
Ġsupp lication
Ġsav ory
Ġweend ig
Ġweendig oes
Ġstr ided
Ġbes meared
Ġsoj ourned
we end
weend igo
Ġro aming
Ġhum ored
v o
vo ices
fear ful
Ġdep os
Ġdepos ited
ass ured
aff ected
lar ger
count en
fore head
Ġencamp ment
Ġhalloo ing
s igns
Ġentertain ing
Ġann ouncing
Ġclub s
fore ver
Ġfr on
Ġfron tle
Ġfrontle t
Ġinv oking
Ġsol icit
Ġeng ross
Ġengross ed
ko deed
Ġpast imes
f avor
favor ite
Ġv ac
tri be
Ġmir th
Ġmirth ful
Ġro ve
pro cure
Ġspear ing
f em
fem ale
Ġri pple
Ġab ounded
Ġstri pling
Ġscr ut
Ġinter posed
Ġle er
Ġmurd ers
Ġg hast
Ġghast ly
Ġscar city
Ġfulf ill
Ġnim bl
che ma
chema un
ac company
Ġcra ggy
gull s
Ġbal my
power ful
bit ter
Ġstiff ened
Ġexcl usive
nees ia
Ġqu ivers
Ġt inged
Ġse rene
Ġmaj est
spe ed
Ġtar ry
not icing
n au
nau bes
naubes ah
Ġem itted
house keeping
is ked
grand child
Ġche at
bo died
Ġstat el
fl uttered
sc al
scal p
Ġun successful
Ġrecover ing
Ġcl own
Ġun moved
Ġupbraid ed
gr ounds
Ġabo des
Ġp ained
Ġcaut ioned
distingu ish
Ġswarm ing
Ġmu k
Ġmuk ake
Ġmukake e
Ġmind em
Ġmindem oe
Ġmindemoe a
t wee
mar ching
snake berry
n al
Ġconver sing
song s
m irth
mirth ful
ref lected
Ġslumber ing
sack s
Ġgrant ing
Ġtr anqu
Ġtranqu il
Ġlab ors
Ġ edd
Ġedd ies
Ġstealth ily
Ġappet ites
v ine
p ipes
Ġw ares
Ġop o
Ġopo ss
Ġoposs um
iv ity
Ġdom inions
Ġguard ians
Ġinfl amed
Ġsav or
Ġestabl ishment
Ġen sn
Ġder ision
own er
Ġdecre p
Ġdecrep id
Ġplain er
Ġa unts
Ġcliff s
per mission
Ġthump s
ain er
ins isted
del iver
Ġdra ft
Ġcup bearer
Ġdo vre
ae k
aek k
aekk j
aekkj en
Ġbraw ls
Ġv ald
Ġvald ers
Ġtoll ed
Ġcargo es
Ġtri ps
Ġu ri
Ġuri an
Ġcont ract
Ġgo s
Ġgos ling
Ġblue berries
Ġb om
Ġgot ten
Ġclaw ed
Ġv ice
Ġbel ab
Ġbelab ored
to ll
Ġlie u
bir ch
Ġgarb age
Ġrevil ing
Ġsilver ware
Ġbrides maids
m ike
Ġwitch craft
l inden
Ġet ned
Ġetned al
Ġpul pit
Ġj es
Ġbeggar ly
Ġcormor ants
t ackle
Ġsteers man
Ġr ower
Ġsin ister
Ġash peter
Ġsl ope
Ġcounsel or
Ġs ifted
fun eral
Ġbill y
op inion
Ġstraw berry
doll ars
Ġbu sses
Ġsting y
bore r
ar rant
terri bly
Ġmad man
Ġthr ashed
Ġbull et
Ġnear by
Ġsou ps
Ġsoups m
Ġsoupsm ell
Ġsoupsmell er
Ġv ore
Ġtr on
Ġval f
Ġvalf je
Ġvalfje ld
Ġvalfjeld et
Ġk jo
Ġkjo stol
Ġa abakken
Ġaw l
tw ine
Ġhagg ling
Ġree f
Ġcaps ize
Ġw im
Ġwim ple
Ġdu nder
Ġdunder head
Ġscull ion
spirit ed
Ġva age
Ġrun ner
Ġj ut
Ġjut uls
Ġjutuls berg
Ġsk ipping
Ġker flop
Ġrepe ating
b ished
Ġbroad er
sp ark
Ġle k
Ġlek ang
white land
Ġthick er
Ġh ous
Ġhous ings
Ġcomb land
ter rit
territ ory
flo ating
end eav
endeav oured
w retched
Ġel uded
se ize
Ġl apped
sh owing
thought fully
Ġac clamation
Ġcare w
Ġcarew orn
exp ression
we eds
de bt
hing s
Ġdismount ing
Ġdisp orting
d ressing
Ġthirt ieth
Ġsecond s
Ġstamp s
cur ses
Ġswe ars
light ing
bl azed
mind ful
Ġwaterfall s
Ġrecogn ising
Ġeas iest
Ġrecogn ise
mist ake
Ġprec ise
Ġprecise ly
burn s
Ġshoem aking
ne ighed
ro oted
en raged
pat ience
br anc
branc hed
foot prints
Ġwret ches
Ġbe lf
Ġbelf ry
Ġreve rend
mon k
pur suit
Ġbl ank
Ġtramp les
Ġdew drop
wat ered
un comfortable
d ried
apron ed
Ġthrong ing
char ger
Ġsurround ings
ac cur
accur ately
Ġdispos itions
sim ply
Ġprosp ering
re sol
resol ved
butter flies
h ates
Ġtoler able
Ġdelight s
Ġd aphne
whis ked
d aphne
exp ress
express ions
Ġset tling
interrupt ion
Ġun fe
Ġunfe igned
Ġsince re
Ġde gener
Ġdegener ated
fasc inations
Ġexerc ised
Ġvalue less
Ġdisdain fully
Ġun ab
Ġunab ated
Ġce asing
Ġco vet
occas ions
Ġconcl us
Ġconclus ions
gent leness
Ġdisquiet ude
y lvia
Ġrejo ices
Ġte aze
Ġchild less
Ġsp ons
Ġspons or
love liest
under take
clever ly
Ġha cking
Ġhe wing
Ġpor k
Ġbayon ets
dis g
disg raced
start led
con sidered
r ush
Ġscor ched
Ġess ences
Ġsal ves
Ġcomm ended
ve get
veget ables
l amp
curt seyed
f uture
c ooked
stay ed
c ages
do ve
Ġmay bushes
Ġscree ched
wh oo
skin ned
im pl
impl ored
Ġdef ending
Ġfatig ues
over shadowed
Ġb ower
gl ittering
par rot
v ast
acqu aint
acquaint ance
Ġreg aled
Ġt arts
Ġed uc
Ġeduc ating
tr aining
Ġfri volous
Ġga ieties
regret ted
Ġalter ation
w illed
so othing
soothing ly
Ġend owing
Ġcoax ings
Ġca jo
Ġcajo led
Ġquiet ness
Ġprov oking
Ġmin x
orig inal
original ity
Ġexpect s
sar adine
Ġmoss y
Ġover hung
b ower
Ġde pl
Ġdepl or
Ġdeplor ably
Ġbri ers
red uced
g race
grace fully
Ġrel ied
Ġeffect ual
Ġcorre ction
Ġh int
off ended
res ource
Ġga iety
mort ified
vex ation
Ġconce it
Ġf ick
Ġfick leness
d rive
Ġhaun ting
Ġwit ty
Ġy ore
Ġavo iding
fl atter
Ġcontradict or
Ġcontradictor iness
beh av
behav iour
Ġfat ally
re mar
remar king
Ġshy ly
me ekly
susp ense
Ġfor ces
se cure
Ġsmart ly
er v
erv ices
Ġho bbled
Ġex clamations
ain ts
Ġl ining
Ġdecl ining
un covered
Ġab sor
Ġabsor bed
prud ent
Ġing en
Ġingen uity
sim ilar
Ġun looked
Ġruin ously
Ġgra ze
demon str
demonstr ation
Ġtrans ferred
dep ri
depri ving
Ġconf ided
fri volous
contempt ible
imp ression
att ire
Ġsuit ably
some what
Ġmoll ified
faith fully
Ġgr ud
Ġgrud gingly
Ġdo led
Ġpresent able
m utter
mutter ings
re min
remin isc
reminisc ences
Ġpardon ing
be ech
Ġwreat hed
Ġj as
Ġjas mine
mis er
miser ly
Ġav ar
Ġavar ice
Ġab d
Ġabd icated
Ġestab lished
f ickle
Ġconjurer s
Ġho gs
wa ist
Ġbro il
Ġcormor an
k not
husband s
po l
pol itely
gro ped
Ġbl udge
Ġbludge on
Ġsl aps
sl ip
Ġri pped
le ather
leather n
o ds
Ġspl utter
out done
Ġhur self
Ġundert ak
Ġundertak ings
Ġenterpr ises
Ġaim ing
Ġda les
Ġgall igantus
gri ff
griff ins
Ġover throw
bl ast
sh apes
gall igantus
Ġhermit age
cat ches
Ġmi aw
Ġmiaw ed
pathetic ally
th ie
thie ves
Ġwo es
Ġi g
Ġig no
Ġigno bly
wond ers
perfect ly
Ġbones et
Ġboneset ters
Ġdesp atched
road s
Ġdeterm ining
Ġmerry makers
Ġha lted
land lord
Ġhost ages
b ah
Ġrig id
trave lled
ven us
b athe
d az
daz z
dazz ling
Ġconsent s
Ġsh ar
Ġshar per
Ġbre ton
Ġscrat ches
serv ices
prison ers
disgu ised
de ceived
cou ples
sub ject
stupid est
un like
Ġpick s
dri ving
Ġske in
Ġst itching
b ent
Ġsmo othing
Ġsm arter
Ġex claim
Ġtor t
Ġtort ures
Ġstup ider
Ġj alm
em bro
embro idered
en vy
Ġpart ners
Ġman e
Ġgor se
je gu
susp iciously
Ġkor ig
Ġkorig ans
Ġrack s
r oughly
use ful
Ġchurn s
mor laix
Ġpl oughed
s ickle
Ġlaz iness
Ġoff ices
squ inting
present s
fet e
cloth s
Ġbust ling
Ġco als
Ġtra it
Ġtrait ress
Ġmor laix
Ġbe think
Ġch inks
sun ball
Ġbemo aned
fl ows
Ġhind ers
cre aks
Ġcre aks
Ġstream lets
be ans
m iaouw
Ġm iaouw
Ġboom er
Ġboomer ang
return s
Ġthr ower
Ġpool s
Ġfr inge
b ul
bul rushes
Ġm im
Ġmim osa
Ġwall et
c ub
cap tor
cat ast
catast ro
catastro p
catastrop he
s ounds
Ġch ann
Ġchann els
Ġsh unned
Ġsen na
ant elope
p ython
Ġstab bing
Ġasse g
Ġasseg ai
ad mit
Ġbrows ed
co co
coco an
cocoan uts
accompl ishes
Ġhesit ates
pit a
sh asasa
Ġsa fer
Ġwhere as
wise ly
co ast
great ness
re i
can oes
has asa
but ou
Ġcal med
Ġfl itted
Ġflag staff
Ġcrev ices
ald er
tu fts
her b
Ġt ans
Ġtans y
treas ures
Ġthre es
blo oms
Ġb ays
c rested
Ġis lets
Ġbe spr
Ġbespr inkled
Ġch ic
Ġchic ory
c ask
gar lic
fight s
Ġjunk et
dom inion
Ġk ale
Ġkale val
Ġkaleval a
ah ti
treas ury
Ġche wed
Ġtouch y
Ġstir s
Ġdrag s
Ġfl ip
Ġrhy m
Ġrhym es
Ġstre aks
Ġal tering
Ġsl ice
Ġon to
Ġprof aned
Ġtw irl
Ġtwirl ing
Ġbo des
Ġla unch
agh ast
Ġdoor post
Ġsulk ily
l ack
Ġcas ed
Ġheav ings
Ġflour ishing
Ġbal er
s all
sall ied
Ġmes h
v isible
Ġexcept ed
Ġoverfl owed
quant ities
ru ssian
Ġover worked
Ġprov o
Ġprovo ked
Ġso il
Ġar b
Ġarb our
urch ins
Ġbeef ste
Ġbeefste aks
Ġsc ones
Ġcr amped
Ġfidd led
Ġgl inting
h row
bub bled
Ġgre ase
Ġover cast
ro cket
Ġcar case
Ġmend ing
Ġattend s
u pp
upp ose
Ġmour ners
Ġnight shirt
co ffin
Ġsill ier
Ġacc idents
ear ned
pump kin
li king
now here
hand ful
Ġtig ers
Ġpant hers
desper ately
loud er
cre eper
Ġcurtain ed
tight ly
Ġpar as
Ġparas ol
ri ches
Ġreck lessness
Ġassured ly
Ġh ush
un cover
Ġspl ashed
crow ed
Ġcran nies
Ġwrigg le
Ġham mock
wander ings
Ġtomb s
tom bs
Ġmour ns
Ġtoken s
p ause
strong er
neighb ours
d ares
dares ay
Ġconsp ir
Ġconspir ators
min isters
ann ounced
gro ve
gau ze
kind s
c ush
cush ions
Ġoutward ly
tell er
Ġli ed
th rowing
Ġten nis
jud ges
Ġass ault
Ġassault ed
Ġfour teenth
Ġre ject
Ġcr one
thank fully
prison er
mar velled
Ġtre ason
he ir
ad opted
Ġquarry man
chamber lain
Ġpublic ly
Ġforb idding
Ġequ erry
equ erry
Ġhon ours
w iz
wiz ened
wr ink
wrink les
over looks
Ġwr inkling
nur se
Ġres ulted
desp air
se ar
sear ched
Ġename l
Ġtowns folk
Ġcounsel s
Ġename lled
sh ield
sl ay
gold smith
Ġdy ved
Ġbris ling
back s
Ġsl ab
pro ceed
proceed ed
Ġpl ots
fur thest
re ap
who soever
Ġnumb ered
Ġstraw s
Ġpe g
Ġun seemly
Ġdis credit
dest roy
t attered
Ġal ms
Ġfor ked
de f
def ile
Ġnoo sed
Ġran som
Ġdespo il
Ġcl ud
wr oth
gw awl
Ġtill ed
h uts
Ġknock ers
be coming
go ssip
Ġvine yards
short est
Ġmig uel
g aily
build ing
we aker
Ġwin king
Ġwater tight
Ġmean ness
Ġsho pping
Ġport ic
Ġportic o
trick led
Ġbac hel
Ġbachel or
sum moned
e vor
evor a
Ġhill y
birth day
sp end
on ion
Ġand al
Ġandal us
Ġandalus ian
Ġt ug
app e
appe aled
bes p
besp attered
st out
mu le
eff ort
Ġfoot ing
mu leteer
tri ump
triump hed
aw aited
ver d
verd ict
Ġdam ages
pl ainly
last ly
weather s
Ġplay fellows
Ġthere on
sl ung
Ġbr indled
bre asted
Ġjan uary
porter s
Ġpenn ping
Ġpennping y
Ġpennpingy on
ped lar
Ġcoll ops
Ġpe pp
Ġpepp ered
king ly
Ġshut s
Ġun bar
Ġunbar red
bo on
p raise
Ġpro claim
Ġdis court
Ġdiscourt esy
Ġmoist ens
Ġrev olves
encir cles
Ġguine vere
loo ps
Ġcl use
r ash
swift est
Ġk ynd
Ġkynd del
Ġkynddel ig
g wal
gwal ch
gwalch mai
Ġgw y
Ġgwy ar
be fall
Ġ .'
ru ddy
Ġanem one
Ġtre fo
Ġtrefo ils
bet rothed
Ġdart s
Ġgrandfather s
le ech
Ġeye ball
Ġdesire st
Ġsee ks
pl oughed
b ake
Ġde em
fl ax
Ġgw ydd
Ġgwydd ne
Ġgwyddne u
Ġgar an
Ġgaran h
Ġgaranh ir
com b
Ġwhe l
Ġwhel p
Ġe win
Ġcan hast
Ġcanhast yr
br ings
Ġburn isher
Ġburn ish
Ġwhe t
Ġwhet stone
Ġpol ish
bed wyr
Ġsc abbard
Ġrust ed
Ġshe at
Ġsheat hed
Ġdespo iled
Ġlangu ages
an vil
Ġre dy
Ġredy n
Ġredyn vre
Ġc w
Ġcw m
Ġc awl
Ġcawl w
Ġcawlw yd
Ġwood ed
sw ooped
al mon
Ġlam ents
fier cely
Ġdun geon
an th
anth ill
Ġsever n
ra z
raz or
sw orn
stru ggle
Ġfier cer
sha ved
Ġk aw
c ustennin
nor way
jo ked
Ġsorce ress
twelve month
b eth
beth ought
Ġtwelve month
Ġd and
Ġdand ling
s ank
in clined
Ġneglect ing
Ġwake ful
re pro
repro ach
Ġsore ness
reco ll
recoll ected
imp ud
impud ence
Ġram rod
Ġsp rig
Ġgr inning
Ġswe aring
country woman
qu itting
reme mber
spl itting
Ġorch ids
hard est
Ġt iring
c ool
fl ashed
d julung
Ġport ions
gre ed
greed ily
Ġbid ing
hast ening
Ġben s
Ġmo ors
wer t
did st
Ġsaw est
Ġmeet est
Ġhere abouts
c am
cam est
un loose
forget test
low est
hurried ly
by re
dre aming
sh one
Ġsm arted
Ġcirc lets
war ned
Ġthorn wood
str iding
Ġblack thorn
hood ie
Ġsplin ter
Ġle ver
Ġcrow bar
per ched
te al
bl ad
blad der
Ġthrong ed
sh o
sho em
shoem aker
gr ains
pi geon
Ġquarrels ome
Ġlo vable
sweetheart s
beaut if
beautif ull
beautifull est
pers u
persu aded
br ides
need n
Ġlick in
Ġt ir
o ge
Ġmanner ly
Ġstat ues
t ib
tib b
spr ings
qu arry
thorn y
Ġsat ins
Ġiv y
p air
prin ces
kiss ed
Ġlawn s
l onesome
sn uff
Ġquick set
ra gged
d iet
Ġcour ting
curious ity
Ġbridegroom s
Ġr ails
Ġvault s
m ould
day break
Ġid lers
town land
be ckoned
Ġbr ushing
Ġciv ill
Ġcivill er
Ġmar ri
Ġmarri ages
Ġlar s
Ġstraight est
r as
Ġr owers
war ships
Ġlin ers
Ġfri g
Ġfrig ates
sch ooners
Ġlin er
f rig
frig ates
Ġsch ooners
poly nesia
pe a
spe cks
Ġdit sch
Ġrat sch
Ġman ned
bo ats
her cules
Ġbeh ring
p ac
pac ific
expl orer
Ġn ord
Ġnord ens
Ġnordens ki
Ġnordenski old
dre ary
Ġco con
Ġcocon uts
Ġco bra
Ġkn aps
sp ices
Ġcinn am
Ġcinnam on
s aff
saff ron
Ġhide ously
sp otted
tig er
pe pper
Ġanch ored
Ġg aped
cro cod
crocod iles
cuc umbers
Ġf yl
Ġfyl ax
Ġst ina
far myard
Ġble ached
ry e
Ġbl in
Ġblin ked
ro gu
rogu ishly
fri zzling
Ġwhis ks
Ġb atter
Ġwhen e
Ġro am
gr otto
Ġd ill
car r
carr ots
Ġpars n
Ġparsn ips
Ġexist s
Ġgr otto
Ġlust re
Ġf ades
so bbing
" ?'
Ġbath s
care ful
w re
wre aths
Ġplum per
scre am
we ren
Ġgrand children
burn ers
r amp
straw s
Ġsnow drift
rasp berries
pre serving
Ġwag ing
Ġmid ges
we ighted
Ġpick ers
p inafores
Ġl ina
ain a
Ġchimney s
Ġsandw ic
Ġsandwic hes
Ġcover lets
Ġtr ay
b as
bas in
su gar
Ġgrate fully
.. .'
Ġreign s
Ġdep endent
revenge ful
b race
brace lets
ins cribed
corn field
Ġtri g
Ġtrig ger
that ched
tr ust
ome one
mid day
w aken
Ġsore s
Ġdist anced
Ġun claimed
cur iosity
Ġgu ilt
vis iting
Ġbrit tany
f ow
fow ls
ex claiming
en is
den is
as ide
h ose
Ġvig our
Ġsa b
Ġsab ots
Ġsol omon
count ing
br it
brit tany
Ġpenn en
Ġpennen ru
Ġslam med
em bers
Ġpassion ately
fast en
div ided
Ġdet ected
pan ell
panell ing
Ġport ress
Ġdisturb ance
p el
pel ted
price less
Ġf umble
nie ce
mar vel
lo ves
sell ing
Ġcool g
Ġcoolg arrow
dis order
Ġband s
cl ay
Ġwe az
Ġweaz ened
bit ten
ra gs
Ġtemple sh
Ġtemplesh ambo
Ġdy ke
Ġcr om
Ġcrom o
Ġcromo gue
Ġgi ver
Ġcross es
Ġth u
Ġthu ar
Ġkil ach
Ġkilach di
Ġkilachdi arm
Ġkilachdiarm id
Ġbrid les
Ġball in
Ġballin ac
Ġballinac ool
Ġballinacool a
breast s
Ġj ing
Ġjing le
Ġhull ab
Ġhullab ull
Ġhullabull oo
earth quake
mind ing
Ġen nis
Ġennis corthy
hem g
hemg ard
Ġbar berry
Ġasp ens
fr ames
Ġf red
Ġfred erick
Ġl ott
Ġlott a
len a
c aro
stable man
cart whe
cartwhe els
Ġsnow balls
tr ous
trous ers
Ġcrock ery
Ġwindow panes
Ġad mon
Ġadmon itions
Ġmeet s
wonder fully
Ġk l
Ġkl as
Ġbog en
Ġbogen str
Ġbogenstr om
Ġfr ith
Ġfrith i
Ġfrithi of
Ġwad er
Ġwader felt
Ġsheep skin
Ġl ena
Ġclust er
bro ken
Ġun friendly
Ġgoose berry
black en
Ġm ou
Ġmou st
Ġmoust ache
Ġtrous er
Ġo mit
f att
fatt est
j on
jon as
Ġsusan na
Ġr ams
d itch
Ġgray er
Ġdrum sticks
stiff ened
... !
Ġd itches
Ġgr ues
Ġgrues ome
sh rie
shrie ked
r omp
... .'
Ġconso ling
Ġconsoling ly
Ġaust ral
Ġaustral ia
ex ped
exped ition
Ġch illed
Ġbier n
Ġbiern uga
Ġk umb
Ġkumb al
crack ling
Ġgudd hi
Ġsp uttered
gu dd
gudd hu
for getting
Ġclums iest
Ġcol on
Ġcolon n
Ġcolonn ade
Ġaccommod ate
ar ouse
Ġarch ways
like ly
whis per
whisper ing
Ġafgh an
Ġhor sed
Ġhorsed e
Ġhorsede al
Ġhorsedeal ers
horse market
Ġassent ing
scr ambled
af gh
afgh ans
unt ie
wh ilst
guess es
fr uit
Ġr iddle
Ġcrest fallen
str ay
stray ed
Ġtramp ed
Ġtra cking
Ġh oof
wh ack
Ġtorment or
Ġb attered
sec urely
Ġinn keeper
Ġbl inking
Ġdisbel ie
Ġdisbelie ving
Ġdelighted ly
Ġhundred fold
Ġhope ful
Ġl ag
Ġl agged
Ġjo gged
Ġsl own
Ġslown ess
Ġth wack
Ġval iantly
man e
Ġthunder ously
Ġrav ine
Ġblood thirsty
threat s
Ġre aring
tr oop
flour ishing
desper ate
flour ishes
Ġrevil ings
shout ings
gl itter
Ġab ject
sh ied
Ġreg iments
ap olo
apolo get
apologet ic
Ġconquer or
dis c
disc ret
discret ion
tri cks
Ġplough sh
Ġploughsh are
Ġpr an
Ġpran ks
Ġcow herds
Ġcows hed
Ġcowshed s
Ġunfast en
Ġcl ang
cow boys
Ġfatig ued
we arily
Ġman es
Ġamaz ingly
stag gered
Ġble at
Ġjo gging
Ġre els
m atched
Ġperpet ually
Ġfavour ites
af ar
cri ck
Ġcri ck
up set
furn iture
determ ination
Ġsummon ing
amb assad
ambassad or
coun tless
Ġcompet itors
n ippit
Ġcl ippit
Ġah int
Ġbird ie
Ġn ip
Ġp aring
cl ipping
Ġgrove ls
Ġun ke
Ġunke m
Ġunkem pt
Ġdr oned
d rows
drows ily
dear ly
Ġwist ful
Ġriv lins
Ġcow hide
fisher men
ser pents
Ġle vi
Ġlevi ath
Ġleviath an
hor ri
horri bly
Ġno xious
Ġdesol ation
Ġparaly sed
meet ing
Ġward ing
Ġsuggest ions
fe ared
Ġdisappro ving
Ġdisapproving ly
Ġprotect ors
threat ens
know eth
Ġmyster ies
aw esome
cold ly
asse mb
assemb ly
Ġmoll ifying
tw itching
ind ignation
Ġha vers
Ġbr agging
Ġpe lted
p iled
Ġsure ty
Ġlitt ler
Ġsupp ing
re med
remed y
Ġpract ising
sure ty
eld ers
seem eth
Ġven om
Ġvenom ous
Ġshr ink
pal er
pr on
pron ounced
Ġpro clamations
m ourned
mon ster
fer t
fert ile
Ġchamp ions
m ass
mass ive
Ġtreas ured
Ġno bly
whe est
sick ersnapper
Ġre de
Ġrede em
Ġsc hem
Ġschem es
arg um
argum ent
Ġbon ny
Ġha ver
Ġhaver ing
rid est
Ġhir ples
h ath
cl aps
gall op
Ġman ag
Ġmanag est
Ġthra pp
Ġthrapp les
noise lessly
light ning
hal ter
Ġcl aps
tr otted
Ġun won
Ġunwon ted
ste aling
star light
b ounded
Ġdawn ing
Ġun armed
m ester
Ġgr udge
thy self
Ġreturn est
Ġsm at
Ġsmat chet
Ġwhe en
Ġweek ly
flo ated
Ġexpl ore
Ġcon flag
Ġconflag r
Ġconflagr ation
Ġshe t
Ġshet land
is les
fle etest
Ġgro velled
Ġbr at
od in
ĠĠĠĠĠĠĠĠ ĠĠ
mis erable
dis like
Ġharsh ly
cor rid
corrid or
Ġdis like
Ġmal ady
straight forward
Ġhat eth
Ġwor sh
Ġworsh ipped
Ġo aken
dead ly
sk illed
Ġle ech
Ġleech craft
Ġflag on
lo ving
Ġcourt eous
bur ied
Ġdebate able
b order
Ġre ivers
sail or
g ang
Ġheed less
ste ep
steep ly
dry ing
wa les
Ġhir ple
h out
t out
wa ur
Ġshir ra
mu ir
c ured
Ġlady ship
Ġwas ting
p itter
Ġha ly
Ġhars her
Ġmeander ings
Ġhu g
f ir
p ure
Ġlil ting
ro ot
Ġha me
Ġwhi ppety
Ġcold ly
Ġpropos est
Ġdow dy
wh i
whi ppety
bra e
Ġshrie king
Ġnat ives
Ġlege nd
mar vell
marvell ous
Ġden iz
Ġdeniz en
ambit ion
Ġsim ples
Ġhills ides
Ġdist illed
Ġpot ions
wond rous
find er
Ġdist illing
s ought
cons ult
Ġperplex ities
pot ions
Ġgu ile
ri val
marry ing
Ġme ag
Ġmeag re
p ard
pard on
conf essed
Ġre joice
. ]
Ġch annel
separ ates
Ġp omon
Ġpomon a
Ġgo eth
Ġweight y
Ġyu let
Ġyulet ide
pl ighted
by gone
Ġplac idly
Ġbring eth
or ator
Ġneed eth
Ġro ving
he arken
Ġsa ith
un welcome
eff icacy
p acket
und id
t will
un holy
Ġfan ned
Ġclaim ing
Ġreck less
Ġ" _
be ware
_ ,
Ġb aul
Ġbaul ked
Ġret ribut
Ġretribut ion
nor se
norse men
per ished
island ers
Ġlong town
Ġre cked
Ġbree ches
Ġun ic
Ġunic orn
Ġunicorn s
every day
Ġtransact ions
Ġlo ser
Ġst ip
Ġstip ul
Ġstipul ation
Ġfail ing
Ġh inted
bes h
besh rew
luck en
Ġconduct or
Ġutter most
je ering
Ġsh ru
Ġshru gged
cle arer
Ġfl aming
sc on
scon ces
Ġin tens
Ġintens ify
apart ment
Ġfr ay
Ġm ailed
un earth
unearth ly
Ġbrood ed
reck less
Ġworkman ship
Ġso oth
Ġsooth say
Ġsoothsay er
Ġlay est
Ġver sed
Ġimp ul
Ġimpul se
Ġapp al
Ġstout est
Ġpe als
Ġbrand ishing
sn orted
Ġunde c
Ġundec ided
Ġluck less
sh ale
Ġgirdle ful
Ġbasin ful
Ġsquat ted
th ud
t ut
sau cer
saucer ful
Ġsaucer ful
s lew
Ġloath some
Ġr ous
Ġrous ay
w rap
Ġstealth y
p ressing
Ġstool s
Ġclust ered
Ġoutw it
no dded
Ġpor ring
Ġporring ers
your selves
Ġtr ooping
Ġfox gloves
Ġspoon ful
spo ons
craw l
Ġte as
Ġteas ens
Ġc arden
Ġcarden s
Ġspin n
Ġspinn ens
go ings
Ġris ked
Ġhay loft
pe er
peer ifool
Ġman n
Ġmann ik
Ġmannik in
Ġslam ming
Ġdist orted
Ġstrand s
w ins
wins ome
Ġapply ing
Ġbind ing
hang ings
Ġc ree
Ġcree lful
Ġn aper
Ġnaper y
arm ful
Ġjewell ery
Ġsly ness
Ġdece mber
Ġwre ck
Ġwreck age
m arrow
marrow bones
Ġtrot ters
Ġreproach fully
Ġfar my
Ġfarmy ards
Ġsto cked
Ġdo zing
Ġdrows ily
Ġqu eerest
bl aise
blaise an
Ġin head
Ġinhead non
s gri
sgri ot
Ġst aves
Ġinv it
Ġinvit ations
Ġchrist en
Ġchristen ings
Ġsleek ness
Ġnour ished
decl aring
prot est
protest ing
Ġfate ful
sle ek
Ġuntr uth
Ġuntruth ful
Ġdishon est
Ġper jure
Ġfalse ly
swe ar
Ġoo ze
Ġh ott
Ġhott est
Ġdis comfort
Ġun pleas
Ġunpleas antly
Ġgre asy
f ailing
fet lock
n ail
Ġbye gone
Ġa ub
Ġaub urn
house w
housew ives
Ġspin ster
Ġwoo er
Ġdally ing
woo er
n un
nun nery
so berly
pro gress
sc ented
Ġwag tail
sun shine
qu eer
moon struck
Ġc ore
qu eerest
Ġmut ch
fr ill
Ġsk irt
Ġfr ill
che cked
Ġnun nery
Ġfoot prints
Ġn ook
Ġcran ny
Ġte les
Ġteles c
Ġtelesc ope
bright er
Ġcarpet ed
Ġspin stresses
Ġslant lie
Ġm ab
fling ing
fry ing
care less
Ġabb ess
ind ustrious
pudd ings
čĠĠĠĠ ĠĠĠ
noble man
Ġlo nd
Ġlond on
favour ite
groom s
natured ly
Ġging h
Ġgingh am
au burn
Ġde ferred
une xpected
Ġspin stress
su ggest
suggest ed
moon light
Ġspin sters
Ġchuck y
Ġmut ches
Ġdistaff s
Ġbend ed
b umble
war ning
m ile
r isk
luck less
Ġw ight
Ġgn omes
be ings
Ġem bo
Ġembo ssed
Ġb ided
bold ness
t asting
glim mering
sp angled
p age
my ster
myster ious
Ġg asps
re ceded
light ly
wit ness
Ġl an
Ġlan ark
Ġlanark shire
or ra
Ġma pped
quant ity
appear ance
Ġun cover
Ġun thinking
div ot
Ġwend ed
bel ief
sup er
super stition
Ġstead ing
Ġor ra
f ists
wh ic
whic he
whiche ver
Ġen cir
Ġencir cling
pret t
prett iest
Ġdaint iest
t read
shame faced
Ġwalt zing
whirl ing
shr ill
Ġfar myard
crow ing
Ġre velry
Ġexert ions
occup ations
Ġremonstr ated
Ġdiv ots
solemn ity
yes ter
yester night
Ġunde ceived
Ġair ts
Ġneed st
awe el
Ġawe el
Ġhum our
Ġal ack
greet ed
he ch
Ġtho cht
Ġlook it
flag on
grand er
Ġsu nd
Ġsund own
p ark
Ġl eng
Ġleng then
Ġawait s
un aided
Ġwork eth
anx iously
van quished
re cesses
Ġaz ure
sh oon
could st
Ġsill er
Ġmak est
was h
y est
yest re
yestre en
Ġle e
Ġmight est
w edd
wedd ed
need less
Ġl ink
Ġhelp meet
Ġthought est
Ġeffect ually
all ow
coll ection
pu zzled
sing eth
sing er
Ġdream less
Ġearnest ness
de ce
dece it
deceit ful
Ġdou ce
light some
Ġflight y
Ġask ance
disappear ing
Ġuncertain ty
Ġexped itions
Ġcant ri
Ġcantri ps
hem lock
r idden
we as
weas els
Ġow ls
Ġl om
Ġlom ond
Ġbrewer y
mo ssy
p iped
Ġtrout s
Ġsto ats
Ġcor by
Ġher ons
fatig ue
Ġgl ac
Ġglac iers
l app
lapp s
Ġbrown ies
Ġp ix
Ġpix ies
ph ant
phant om
Ġso ever
contempt uous
cr ook
Ġwh iff
Ġwhiff s
Ġwreat hes
Ġtell ed
up side
d aint
daint ies
t ones
Ġchuck les
Ġhe y
Ġpre sto
be ho
beho ved
Ġd row
Ġdrow sy
st ammer
war lock
Ġhan kered
č č
bree ches
Ġpir nie
Ġaw est
Ġawest r
Ġawestr uck
Ġde bon
Ġdebon air
Ġlear mon
Ġlearmon t
Ġber wick
Ġberwick shire
Ġhunt ly
e ildon
Ġshe aths
Ġthro ats
Ġhoo ves
loose ly
Ġdi ade
Ġdiade m
Ġgirth s
Ġcord ed
Ġscent ing
Ġlil ted
prud ence
s ense
Ġw an
Ġk is
Ġkis seth
gall oped
Ġlout ed
Ġpersever ing
bon nie
Ġbrack ens
Ġham pered
Ġbri ars
Ġrighteous ness
Ġend eth
fer ns
Ġhop est
open eth
Ġrash ly
Ġfer ny
rav ine
Ġd ank
Ġfig s
Ġeat eth
Ġgain eth
dwell eth
se es
Ġthr ones
Ġan tle
Ġantle red
Ġf ant
Ġfant astic
Ġspo kest
Ġp asse
Ġpasse th
Ġcarri eth
Ġchance th
hunt ly
Ġpo es
Ġpoes ie
fore tell
Ġbannock burn
Ġbre id
Ġf ou
Ġre id
bannock burn
Ġredd ened
Ġbru ce
Ġbear re
Ġson ne
Ġbritain ne
Ġne ere
Ġ1 6
Ġ16 0
Ġ160 3
Ġj ames
sc ots
Ġtwe ed
Ġbar ons
Ġse er
Ġslop ed
lead er
h art
Ġthr ill
cer t
cert es
beard ed
Ġun ch
Ġunch ancy
Ġm air
Ġsay est
Ġchoo s
Ġchoos est
id le
who so
Ġaff right
Ġaffright ed
go eth
Ġshould st
can st
Ġfl ieth
Ġseem eth
Ġcr ar
Ġcrar ied
l acked
Ġhold en
Ġvest ure
Ġjen net
cl air
b rave
shr ink
Ġl ush
fig ures
Ġwearer s
Ġsn aky
app arent
apparent ly
Ġjoin est
und one
lead eth
Ġnether most
Ġcompan ies
n umb
numb ness
Ġpall or
Ġnerve less
unw ary
Ġtriumph s
Ġunt ramm
Ġuntramm elled
unt ouched
Ġhold est
Ġbeaut eous
Ġli eth
bo nd
bond age
Ġtak eth
Ġcapt or
Ġpres seth
go blin
Ġfa ile
Ġfaile st
Ġmat ins
emer ald
Ġdwell eth
Ġrest eth
Ġgr is
Ġgris ly
Ġshiver ing
Ġd wind
Ġdwind le
Ġhe ave
int r
intr uder
Ġp acing
sh ared
Ġhoarse ly
circ led
might y
Ġpresum ptuous
rest rained
Ġfo iled
on wards
Ġv ague
Ġvague ly
Ġcour sed
ve ins
Ġwh in
Ġwhin stone
Ġcrev ice
hollow ed
Ġsweetheart s
Ġt irled
Ġwin nock
Ġcant y
Ġhard en
Ġbl azing
Ġtrund led
d in
din na
Ġshut tle
Ġtar red
Ġkir ning
Ġs ifting
Ġhimself up
to asted
clo ving
Ġheck ling
Ġclo ven
Ġhist ie
fire side
s neck
Ġsne ck
Ġsneck it
b air
bair ns
Ġr aking
Ġbr ose
Ġstack yard
wh in
Ġup lifted
gro at
scot land
ro ane
mer men
Ġmer women
stab bed
Ġclums iness
craft y
Ġharm ful
gu ise
sand y
f ins
sub ter
subter r
subterr ane
subterrane an
no ses
Ġforb ear
Ġforbear ance
unw ittingly
Ġdead en
Ġrel ish
pro spect
light er
prev ious
re par
repar ation
Ġsee in
birth right
Ġris in
co orse
Ġdivers ions
Ġdiv in
Ġdis ct
Ġdisct ract
Ġdisctract ing
Ġlaugh in
Ġfrolick some
Ġdistra ctions
Ġbl ume
wal kin
Ġmorn in
Ġlament in
Ġdrown in
Ġturn in
Ġcom in
Ġpl en
Ġplen ny
Ġplenny penny
Ġplennypenny tin
Ġplennypennytin cher
Ġplennypennytincher y
bl ur
Ġm ather
ay be
Ġco iner
Ġthr ade
Ġag in
Ġw add
Ġwadd lin
Ġjam inee
Ġpar ishes
not hin
' .
Ġhold in
sp ort
sport in
cr iss
Ġmark in
Ġthrow in
whe w
gi vin
Ġcut tin
cap ers
Ġlug d
Ġlugd uff
Ġstu ddy
Ġrath drum
curra gh
Ġk ild
Ġkild are
Ġpou l
Ġpoul an
Ġpoulan ass
af ther
Ġpl aze
dom inions
Ġstand in
l ark
pat ted
Ġv ourneen
d ar
dar ling
Ġnot hin
Ġbar rin
Ġac re
Ġrec ieve
Ġjo e
Ġindivid ual
Ġdo at
Ġdoat in
Ġ ,
Ġaf ther
catch in
Ġthr out
Ġthie vin
Ġkill in
Ġper ils
Ġp ooka
b antry
Ġ2 5
Ġ1 8
Ġ18 1
Ġ181 3
Ġpo pl
Ġpopl ar
Ġc aves
Ġdur sey
gl eng
gleng ar
glengar iff
Ġsp ain
bu on
buon apart
buonapart e
Ġlo s
Ġlos ers
gr inding
Ġpe ggy
Ġbar ry
Ġbo here
Ġbohere en
Ġcr on
Ġcron oh
Ġcronoh an
Ġballyashe no
Ġballyasheno gh
Ġs ouse
Ġber rin
Ġull ag
Ġullag one
Ġker ry
Ġt ends
Ġpersu ad
Ġpersuad ance
Ġcivil ity
Ġciv illy
j oke
b other
inter f
interf ering
Ġdece iver
re aping
Ġn icked
cock throw
Ġun natural
Ġbre ed
black guard
Ġcre aking
Ġgre asing
over taken
Ġli qu
Ġliqu or
bu dge
Ġhuff ed
Ġcle aver
Ġbang s
Ġwh ap
spite ful
Ġpick le
Ġwhi z
Ġballyashe en
Ġballyasheen agh
Ġbed ivil
Ġbedivil ment
Ġc ape
Ġany way
Ġcar ber
Ġcarber y
Ġho ve
pl ump
Ġwh ale
Ġju dy
Ġsar ve
c arrig
carrig ap
carrigap ooka
bo gs
enn is
ennis corthy
jo iant
Ġclo d
Ġbris he
k ipp
kipp een
bre sna
Ġbeg onies
Ġf ag
Ġfag got
c ate
cate ch
catech ism
Ġlun acy
Ġproud er
Ġpay cocks
Ġjack een
Ġjackeen s
tong ues
Ġbug le
bug le
bugle man
pro claimed
Ġy all
Ġyall a
bag net
Ġscr uff
Ġwaist band
Ġcord ur
Ġcordur oys
Ġvulgar ian
gall ery
r ink
rink a
f ad
fad has
Ġmum ming
could n
Ġraz h
Ġrazh urs
Ġbas th
Ġbasth ard
sn app
snapp ishly
Ġag g
Ġagg rav
Ġaggrav ated
Ġbil in
Ġmet tle
bo dies
Ġdis abled
Ġh ips
year ling
Ġse ren
Ġseren ading
sa untering
jack een
Ġbeh aves
Ġbir red
Ġbirred h
Ġpad row
Ġpadrow ling
Ġch reck
Ġt at
Ġtat ther
wal sh
Ġout s
Ġouts iders
t ire
tire s
tires omeness
Ġdiv arted
Ġall s
fl ute
Ġsit tin
curra bing
currabing o
Ġmort ial
l aying
Ġmo id
Ġmoid her
Ġmoidher ing
Ġl usk
Ġhang in
coll ar
rene ague
red head
Ġsh ib
Ġshib been
he ll
Ġgreen ish
Ġim ps
Ġthr une
Ġscrap es
thr ashing
Ġhand staff
b ool
bool the
boolthe en
dick ens
than ke
thanke e
t ool
Ġwe lt
ra cing
scr uff
Ġcom ic
Ġcomic ale
Ġcomicale st
Ġmix er
Ġmixer um
gather um
hal ves
Ġris ers
mar a
Ġto men
Ġtomen ine
Ġlar n
prin ciples
Ġfl u
Ġflu x
Ġflux ions
gun nery
Ġfort ific
Ġfortific ations
Ġdec im
Ġdecim al
Ġfr act
Ġfract ions
Ġlar ning
sc iences
dec tera
Ġmuir n
Ġmuirn ict
Ġd al
Ġdal gan
Ġev inced
Ġpre mat
Ġpremat ure
Ġsever ally
Ġcl anna
Ġr ury
Ġbrid ges
stre ets
Ġdun s
Ġr aths
br an
bran ching
Ġtribut es
Ġwend ing
ex er
exer c
exerc ises
Ġsuperintend ence
Ġinstruct or
Ġtan ist
Ġimp aired
conf ined
Ġse cluded
sch ool
Ġnarrow ly
Ġpart ings
Ġe man
Ġeman ia
set anta
Ġfront ier
Ġstra pped
br onze
Ġchess board
Ġhur les
no bles
mock ery
com men
commen ced
m ace
Ġdeft ly
w rist
Ġdil ated
m alt
malt reat
Ġins ulted
Ġdishon oured
Ġde but
Ġexplo it
Ġch ival
Ġchival ry
Ġb ard
Ġbard ic
Ġfirm ament
Ġtrans ient
Ġobsc ur
Ġobscur ation
Ġext inction
temper ate
Ġt ier
Ġtier na
ann als
cuc ulain
Ġfil ius
Ġsualt am
fort iss
fortiss im
fortissim us
Ġher os
Ġscot or
Ġscotor um
Ġtu ition
ext ending
Ġh usk
Ġhusk y
Ġbellow s
part ake
Ġarm ou
Ġarmou rer
Ġfl ushed
Ġenumer ated
em ain
Ġwork shop
apprent ices
fo ss
Ġdraw bridge
Ġca ree
Ġcaree red
b aying
guard ing
grow l
Ġfo ss
pre servation
Ġenumer ate
d irt
ling ered
wel com
welcom ed
straight way
s words
Ġbar rels
Ġrood s
per ches
dis mounted
wit hes
Ġguard ing
Ġfow ling
Ġwall op
wall oped
n inet
ninet y
g ird
gird le
incre ase
bur ial
Ġty ings
all otted
Ġsh ave
h aven
Ġoff ence
wel comes
Ġimp ud
Ġimpud ent
Ġdistur ber
Ġtight en
Ġhallow s
s ceptre
del iber
deliber ate
Ġfootfall s
d ru
dru id
Ġdoor keepers
cont ention
Ġt usk
cand les
Ġson orous
mus ical
Ġfe lim
Ġfelim y
Ġt uth
Ġtuth al
Ġleg it
Ġlegit imate
out law
Ġwilderness es
Ġclaim s
sam hain
Ġundes er
Ġundeser ved
Ġspeed y
Ġall en
Ġen m
Ġenm ity
Ġstand eth
Ġann ual
ann ually
Ġen com
Ġencom pass
Ġplay s
Ġdruid ic
fall s
Ġsub side
Ġcons umes
pill ars
Ġsec ur
Ġsecur ities
g aul
Ġfian na
Ġring ed
reg al
Ġvigil ance
Ġdiv ination
ar ab
arab ia
Ġha ft
t un
tun es
Ġdan an
f ians
serpent ine
Ġal ert
me ad
Ġrespons ive
Ġobst ructions
re ver
rever ber
reverber ated
th ir
thir ds
Ġwave red
Ġreel ed
fl ames
con qu
conqu er
conquer or
stru ggled
Ġpo ising
Ġdep ression
br at
sp iked
re called
Ġatt ribut
Ġattribut es
Ġcirc ulate
he aring
Ġhu es
col ours
Ġdisbel ieved
wax en
imp aled
bel ieved
compl iments
Ġinc ons
Ġincons ider
Ġinconsider able
Ġtre n
Ġtren mor
Ġbas na
Ġfulfil ment
solemn ly
Ġinstall ed
Ġpromont ories
Ġharb ours
Ġest u
Ġestu aries
du es
mer chants
Ġmar iners
Ġper tain
Ġpertain ed
Ġknock many
r ises
scot ch
tar ger
Ġfl attened
Ġund oubtedly
Ġdisin clination
Ġdod ging
Ġtro j
Ġtroj an
humoured ly
Ġdar lin
b ully
Ġbil berry
Ġmer rier
yr one
Ġav ourneen
Ġfer re
Ġferre ting
Ġwhe ed
Ġwheed ling
Ġtrou blin
Ġtown land
mis d
misd ou
misdou bt
Ġprophes y
dep end
gl ove
Ġgran l
Ġgranl iss
Ġgranliss es
Ġal th
Ġalth ad
Ġalthad haw
Ġalthadhaw an
com in
Ġfir kins
Ġgiant esses
Ġeven in
Ġmill stones
Ġaug her
Ġinj ure
Ġim pr
Ġimpr inted
Ġpan ada
b ark
Ġout do
Ġwhistle s
Ġafore said
fl attened
Ġearth qu
Ġearthqu akes
Ġthunderbo lts
inv ention
Ġsk ivered
---- ?"
Ġa isy
thunder bo
thunderbo lts
qu and
quand ary
import ance
Ġpla its
Ġank le
b orrow
borrow ed
Ġgr idd
Ġgridd les
Ġkne aded
cur ds
Ġlog ic
Ġsu ck
not withstanding
Ġop er
Ġoper ations
Ġworm wood
Ġcoward ly
Ġrue ful
bra vest
Ġbost ho
Ġbostho on
Ġpast e
Ġmin ths
Ġstart ler
descri ption
Ġmoist ure
Ġname less
oblig ing
some where
bo iled
potato es
Ġgl utton
Ġwh ack
think s
y ell
ro ared
Ġsk irl
young ster
Ġthunder struck
Ġmun ch
nut riment
Ġac ush
Ġacush la
Ġoun ze
j udge
Ġoo zed
Ġcat ches
Ġfl um
Ġflum mer
Ġflummer y
d ivel
Ġgrind ers
Ġbit terest
spe ck
speck led
dr unk
Ġmelo d
Ġmelod ious
dy ing
fle sh
tw ist
bel t
Ġdepart ing
le ver
lever age
th ong
tight ening
ug lier
fur rows
o ch
och one
ves sels
Ġrid ers
Ġfr othing
Ġsick ened
Ġsor ra
Ġscree ching
arm our
fier y
Ġhumb ugging
Ġlake let
pray ers
ch amp
champ ion
Ġhur ly
Ġfast ening
for bid
Ġp int
six penny
Ġto asted
lo af
Ġbottle ful
Ġapp lied
demand ed
app lied
ro ds
pro claiming
Ġfour penny
Ġhagg ard
Ġstack s
dam age
Ġcou pling
dis liked
Ġoff spring
Ġbel ike
Ġdew y
Ġs ass
Ġsass en
Ġsassen ach
Ġmat th
Ġmatth ias
Ġgreens ward
Ġcar ven
Ġkill ar
Ġkillar ney
Ġspade ful
shove lful
am used
was n
Ġd ouse
pre vent
ay e
hor rors
Ġyell s
v ap
vap ours
de ep
w oke
Ġsp ades
Ġquiet est
Ġjud g
Ġjudg ments
mach a
Ġro ig
Ġbo in
Ġboin ne
sid he
bl ade
Ġdestro ying
Ġyo ked
Ġla eg
Ġlaeg aire
Ġbu ad
Ġbuad ach
w inner
ce l
cel th
celth air
Ġu ithe
Ġuithe car
sl ieve
Ġfu ad
Ġlet han
Ġgar ach
Ġma gh
Ġgo ss
Ġgoss a
ro is
Ġar da
Ġarda e
lin ked
Ġun y
Ġuny oke
Ġcover ings
Ġchild birth
Ġaile ll
ul ster
Ġbl ai
Ġdistribut or
mess ages
Ġdri vers
Ġfight ers
Ġfor ds
sens ible
Ġmuir them
Ġmuirthem ne
unt ir
untir ingly
Ġdut ifully
Ġhalf pence
Ġex to
Ġexto lled
ra rely
Ġe ves
Ġhalloween s
Ġpassers by
Ġint rude
Ġdin na
Ġvent ures
Ġventures ome
Ġg ae
r us
rus set
Ġcling ing
hal ting
per ceiving
Ġl ough
Ġsw ill
Ġswill ey
town s
Ġcott ages
Ġsp ire
der ry
r oute
Ġhon oured
Ġstep hen
pill ow
r ath
rath m
rathm ull
rathmull an
mil ford
t am
tam ney
Ġb aff
Ġbaff led
Ġfr ae
d umb
na ething
ble ss
Ġwould na
Ġcr ath
Ġcrath ur
Ġqu are
Ġdrug get
Ġtr ist
Ġtrist e
cre ep
creep ie
hop es
Ġad ap
Ġadap ted
mo de
m ash
Ġworst ed
step hen
Ġsu ll
Ġsull iv
Ġsulliv an
Ġeng ra
Ġengra ved
Ġre new
Ġremind ing
lo ss
Ġgra c
Ġgrac ie
Ġthe ft
Ġcompl ic
Ġcomplic ation
go es
un told
Ġbelief s
Ġpagan ism
do ct
doct rines
Ġcre ed
Ġw ider
w ider
Ġabb ots
Ġlaw less
Ġdoct r
Ġdoctr ine
Ġtra g
Ġtrag ic
Ġang us
dep art
where in
Ġhood ed
sil very
ir is
Ġburn ishing
fine ly
Ġtor que
Ġturf y
d all
dall iance
Ġer c
Ġconver sed
cler ics
cler ic
spell s
gro an
hearted ly
Ġlight some
cl an
min strels
c let
clet ty
le in
lein ster
ow en
good ly
hel per
Ġun aided
Ġthere out
Ġsp iked
encir cling
Ġwind ings
Ġbe ards
Ġmult it
Ġmultit ud
Ġmultitud es
Ġbattal ion
Ġimp et
Ġimpet uously
Ġhelp lessly
char ging
Ġsc attering
c air
cair nech
r ang
down fall
s ign
Ġjave lins
in wards
wed nes
wednes day
Ġbrand s
Ġsough ing
Ġun w
Ġunw ittingly
Ġsnow storm
Ġblock ing
Ġch illing
Ġun resting
gri ffin
cover ing
Ġey rie
Ġouth anging
pier ce
envel oped
Ġse ething
don ned
Ġv at
banquet ing
Ġha ils
Ġemb ers
Ġug ain
Ġugain e
s igned
Ġwitch dom
Ġwitchdom s
Ġbew ailing
m ourn
mourn ful
Ġa en
Ġaen ech
Ġre il
Ġgrie ving
Ġsw ard
Ġkir tle
Ġsi ge
Ġd ian
Ġs ig
Ġsig i
s i
si ge
Ġdistra ught
Ġfer vent
Ġpen it
Ġpenit ence
dig ged
Ġlength ways
re v
rev ised
e ire
f ionn
Ġte am
Ġteam hair
Ġluach ra
chief s
go b
gob ha
Ġg ao
Ġgao ithe
Ġob no
Ġobno xious
Ġmass y
d etest
detest able
Ġsal utation
li ber
liber al
Ġbest owing
sol icit
Ġli ars
Ġasser ted
ref usal
ha unch
Ġstock ades
out strip
Ġha b
Ġhab il
Ġhabil iments
Ġlo in
Ġhind most
sli ab
sliab h
Ġr igh
Ġlim erick
lu ain
ath l
athl one
Ġr inn
rua igh
cru ach
cruach an
Ġconn acht
j ave
jave lin
ro e
Ġbally sh
Ġballysh annon
Ġmod hu
Ġmodhu ir
Ġmodhuir n
Ġb inn
ed air
Ġcirc uit
fl ight
Ġpro str
Ġprostr ate
un just
unjust ly
Ġde agh
Ġdeagh aidh
f en
fen ians
Ġcou ched
att ack
attack s
en quired
Ġer ic
Ġbe ag
bu ad
buad h
buadh chan
Ġdi o
Ġdio can
Ġleg is
Ġlegis l
Ġlegisl ator
Ġa engus
s gi
sgi ath
Ġbre ac
Ġd ath
Ġdath cao
Ġdathcao in
a engus
Ġmet amorphosed
Ġinf li
Ġinfli cted
Ġindign ity
p row
prow ess
Ġam ity
con an
o is
ois in
Ġlugh aidh
Ġfear gall
Ġname ly
Ġsce ol
Ġsceol uing
Ġd ub
Ġdub h
lu ath
Ġan ua
Ġanua ill
Ġac cost
br ink
Ġho ary
Ġj amb
ger ms
Ġbru ig
Ġbruig he
Ġbruighe an
h om
hom age
Ġc um
Ġcum ha
Ġcumha ill
obtain ing
cao ilte
c ause
h oney
Ġsym pt
Ġsympt oms
agon ising
Ġpang s
Ġunder went
hard ship
Ġboil er
h ind
hind quarter
Ġhind quarter
Ġch ine
Ġr ump
pl edge
Ġver acity
Ġtame ly
vi ol
viol ent
Ġash y
met amorphosed
cover let
arr ange
arrange ments
Ġrender ing
Ġw ither
Ġwither ing
Ġwell s
Ġdraught s
Ġinn ist
Ġinnist uil
Ġre side
Ġsuperior ity
Ġcelebr ity
Ġfear ga
Ġfearga ill
Ġconcl ude
Ġl ull
Ġoverfl ows
Ġmop ing
Ġc ower
Ġcower ing
Ġnest lings
Ġcl atter
Ġswamp s
Ġf ens
Ġtot ter
Ġho ver
Ġup borne
stor ks
Ġfl ap
Ġfled gl
Ġfledgl ings
Ġacqu it
Ġg irt
c arts
Ġwheelbarrow s
t apes
Ġdes ignation
Ġindivid uals
em ancipated
Ġprincip als
Ġinstit utions
Ġprofession ally
Ġmill iners
nur ses
Ġem ancipated
Ġassoci ated
Ġapp ell
Ġappell ation
Ġmis called
Ġsub mit
st am
stam per
Ġc ate
Ġcate gory
Ġimpress es
Ġpres ume
europe an
Ġt ape
Ġad apt
Ġp outing
miss y
Ġb umped
Ġpron ouncing
Ġsy ll
Ġsyll able
Ġdish ful
Ġshrew d
Ġhousehold er
poet ry
Ġmaj ority
Ġcrit ic
Ġcritic is
Ġcriticis ms
Ġtheat ric
Ġtheatric als
Ġc ables
Ġvast ness
Ġear rings
Ġthe ater
Ġinsp ected
Ġsubur bs
Ġfact ory
Ġpurp os
Ġpurpos es
Ġgar lands
Ġh ints
Ġrespect ing
Ġem it
Ġcompet e
Ġw ane
Ġimportun ities
Ġcr umble
Ġperson ages
Ġtru est
Ġsent iment
Ġind ies
Ġch ives
Ġle eks
Ġger ani
Ġgerani um
Ġrepresent ing
Ġvi en
Ġvien na
Ġweight s
Ġsnow stor
Ġsnowstor ms
Ġent w
Ġentw ined
Ġneg ro
Ġnegro es
Ġcap ab
Ġcapab ilities
Ġillum ination
Ġnose gay
Ġpain tings
Ġstrut ting
Ġover powers
Ġkn ot
Ġknot ty
Ġexper ien
Ġexperien cing
Ġ ĊĠĠĠĠĠĠĠ
Ġimposs ib
Ġimpossib ilities
Ġsh reds
Ġbl ot
Ġprom oted
Ġprin ter
Ġder ive
Ġwash house
Ġpro g
Ġprog ressed
Ġbu dding
Ġdevel op
Ġdevelop ment
Ġdef ence
Ġinv ig
Ġinvig or
Ġinvigor ating
re newed
Ġnat ures
Ġaston ishes
Ġsou ven
Ġsouven ir
Ġsnail s
Ġresp iration
Ġsign ify
Ġm ute
Ġthorn bush
Ġp uls
Ġpuls ations
Ġhyacinth s
stem med
Ġpe onies
Ġoak s
Ġplant ains
Ġflower ing
Ġgreen land
Ġst unted
Ġm ould
Ġcro cus
Ġsick ly
just ice
Ġpraise worthy
Ġso aring
Ġun settled
Ġcommen ces
Ġc ert
Ġcert ific
Ġcertific ate
Ġcoward ice
Ġcal cul
Ġcalcul ation
Ġv ote
Ġdou bles
bu z
Ġimmeasur able
Ġaw akes
Ġexh ale
Ġworship ful
Ġout live
Ġearth worm
Ġover slept
Ġad mission
Ġes pe
Ġespe cial
com mit
commit tee
Ġbare footed
Ġinst ep
k aren
Ġbapt ism
Ġco ven
Ġcoven ant
Ġpe aled
Ġgl or
Ġglor iously
Ġfoot path
Ġcrut ch
Ġpau per
Ġshrive ls
Ġhigh ways
Ġby ways
Ġunce as
Ġunceas ingly
Ġdam ned
Ġsin ners
Ġb ible
Ġpast ors
Ġr ive
Ġrive ted
Ġoften er
Ġimperfect ion
Ġcompens ations
Ġpul sed
Ġsprout s
Ġpots herd
Ġrust les
Ġread s
Ġrev ives
Ġfill s
Ġsaint ly
Ġqu i
Ġqui eter
Ġpsal ms
Ġtri ang
Ġtriang ular
Ġt ile
Ġsle igh
Ġsl ashing
Ġin door
Ġpat ched
Ġpri cks
Ġstab s
Ġluxur iant
Ġdef ined
Ġwond r
Ġwondr ously
Ġcl ank
Ġre verse
Ġspur ts
Ġbraz en
Ġstore y
Ġsto ves
Ġdecre ased
Ġscra per
Ġblack berry
Ġtend ri
Ġtendri ls
ne cked
Ġsight ly
Ġsm ite
Ġhaught iness
Ġble st
Ġstub born
Ġmoss es
Ġpal ing
Ġcom ers
high road
render ing
Ġneck er
Ġnecker chief
b artered
val ue
Ġprofit able
p addling
str ut
strut ting
f owl
c unning
fin er
rot ten
grass pl
grasspl ot
deal ers
dro vers
eng lish
english men
Ġbul ged
h iss
Ġenglish man
Ġco ined
em b
emb raced
Ġe we
jack ets
bac on
Ġschool mistress
Ġmaintain s
Ġcons ists
Ġt ax
Ġpoetry less
gr ain
wr ite
Ġstomach s
hist ory
Ġmis re
Ġmisre present
Ġmisrepresent ation
Ġdistribut ed
h ouses
Ġnorth men
s lo
slo e
gro en
groen land
lo eland
Ġmanu factory
Ġsort ed
Ġmanu fact
Ġmanufact ured
crow d
Ġwhits unt
Ġwhitsunt ide
in vent
Ġsh ro
Ġshro ve
wr it
writ ings
Ġcarn ival
bold ly
Ġen lar
Ġenlar ged
Ġeng rav
Ġengrav ings
Ġco ars
Ġcoars er
Ġnoble men
Ġver bal
Ġment al
Ġimprove ment
Ġprofess ions
Ġpolit ics
Ġcorrect ly
Ġfer rule
Ġapplau d
Ġgrat ified
Ġwire s
Ġdar ned
Ġintellect ual
Ġpen nies
Ġfar thing
Ġwet ted
Ġver ily
Ġheart ache
Ġlect ures
Ġthrust s
Ġro ves
Ġb ounce
Ġbayon et
Ġflag stones
Ġgn ash
Ġstiff ly
Ġeyel id
Ġpu ppet
Ġin born
Ġexper iment
: --
Ġpost ing
Ġsl age
Ġslage l
Ġslagel se
Ġju ven
Ġjuven ile
Ġmat rons
Ġspect ator
Ġexplan ations
Ġmo ses
Ġprophe ts
Ġsa ges
Ġmood s
Ġact or
Ġaud itor
Ġcomed ies
Ġsc ience
Ġc yl
Ġcyl inder
Ġsp her
Ġspher ical
Ġele ct
Ġelect ric
Ġnap o
Ġnapo le
Ġnapole on
Ġl ut
Ġlut her
Ġser ies
Ġtrou pe
Ġde ities
Ġdeser ving
Ġapp l
Ġappl ause
pr ima
Ġdon na
cor re
corre ctly
pl ays
woo ing
Ġspe cked
Ġsto cking
Ġw addling
Ġup shot
Ġgo ggle
Ġbuzz ing
Ġtr udged
tr amp
hal t
Ġmat tered
Ġsp illed
Ġthere at
f ared
Ġsc ow
Ġscow led
st ables
com bed
l ent
draw s
Ġm alt
bre aking
Ġmoon beam
Ġbraid s
st om
stom ach
stor ming
Ġf uming
?" -
Ġbar ns
li very
Ġd aw
Ġdaw d
Ġdawd ling
Ġsnig gered
Ġearthen ware
hu i
Ġhem med
Ġha wed
Ġblunderbu sses
Ġcheap ly
Ġfour score
Ġsill iest
hear th
Ġbub ble
comr ades
Ġfellow ship
trave ls
r ushing
tail or
Ġst itched
ele gant
Ġsuffoc ated
start ing
Ġhoused o
Ġhousedo or
Ġsauce pans
Ġen rich
Ġsatis factory
Ġl ots
Ġflag rant
Ġdr udge
Ġstart s
Ġthr ows
Ġjo g
Ġawkward ly
Ġwheel ing
Ġburd ens
Ġexch anges
Ġfat ten
Ġfatten ing
Ġwhir ring
Ġhand i
Ġhandi work
Ġgrind er
Ġped lar
Ġful ness
t umbled
Ġdig ged
Ġdis advantage
Ġstre w
Ġun home
Ġunhome like
Ġmurde rers
Ġbudd ed
Ġmoon shine
Ġkick s
Ġf ares
Ġsne aked
Ġbrook s
Ġfrolick ing
Ġlust y
Ġt ally
Ġbound ing
Ġsuffoc ate
disgu ises
Ġch al
Ġchal k
Ġpl ast
Ġplast ered
st rew
Ġshri ft
Ġqu ilt
dev oured
k id
we ighed
d anced
Ġsne aking
fl ail
app oint
s ult
sult an
Ġant agon
Ġantagon ists
Ġelev ated
te eth
Ġc ul
Ġcul pr
Ġculpr it
Ġsur passed
Ġriv als
um i
Ġtem pered
p ri
pri zed
Ġclums ily
Ġb ung
Ġbung ling
Ġun fam
Ġunfam iliar
Ġscorn ful
Ġdesper ation
Ġg ables
Ġgate ways
Ġover hanging
Ġun knowing
Ġquen ching
Ġthirst ily
Ġsal ut
Ġsalut ing
Ġapolog ize
Ġdelic ac
Ġdelicac ies
Ġoc top
Ġoctop us
Ġbon ito
Ġo xt
Ġoxt ail
Ġshr imp
Ġpla ice
Ġheed lessly
Ġheed lessness
Ġung ra
Ġungra cious
Ġfleet ing
Ġrep ress
Ġwill s
Ġsteam boat
Ġusur ped
Ġimp ressed
Ġall e
Ġalle gi
Ġallegi ance
Ġex alt
Ġcongratul at
Ġcongratulat ory
Ġwheel ed
Ġmy th
Ġmyth olo
Ġmytholo g
Ġmytholog ical
Ġv ivid
Ġtak ur
Ġtakur o
Ġtakuro ku
Ġcompass es
Ġfo gs
Ġconf ound
Ġpit ched
Ġpleasant est
Ġafford ed
Ġhead quarters
Ġinvent ions
Ġrel ics
Ġlav ished
Ġattack ing
Ġind ustri
Ġindustri ously
Ġtorment ing
Ġthreaten ingly
Ġnotice able
Ġborrow er
Ġinquir y
Ġhaught ily
Ġausp iciously
Ġspr inkling
Ġdis ciples
Ġim prison
Ġimprison ment
peas ants
Ġgreen ness
t as
tas sels
wave lets
Ġbump ing
pe ach
st ron
stron ghold
Ġdis l
Ġdisl oy
Ġdisloy al
dis obey
Ġh ateful
f ift
fift een
fear less
Ġje al
Ġjeal ously
f an
al ighted
Ġcombat ants
Ġhind ering
Ġsur rend
Ġsurrend ered
p heasant
Ġsurrender ing
inter rup
interrup ting
h umph
me mber
hor izon
Ġab ack
Ġre pr
Ġrepr oof
Ġin hum
Ġinhum an
Ġprecip it
Ġprecipit ous
Ġenterpr ise
eng age
sur render
sh ock
shock s
ce ase
cease lessly
strong ly
Ġfort ified
l ords
Ġon sl
Ġonsl aught
d ashed
Ġme ekly
t ort
tort ured
char ge
cap tive
h omes
Ġlit he
Ġspl itting
Ġlength wise
Ġflood ed
Ġexquisite ly
Ġsafe guard
Ġposs ibility
Ġlife long
Ġexp ended
Ġnot ches
Ġkimon os
Ġben ign
gi ver
Ġsacrif icing
Ġard or
Ġobst acles
Ġsnat ches
Ġv ouch
Ġvouch saf
Ġvouchsaf ed
Ġscor ching
Ġros aries
Ġroof less
Ġreverent ly
Ġden ying
Ġinterv iew
comp osed
Ġradi ating
Ġdisheart ened
Ġdisg usted
Ġwra pping
Ġf able
p arent
Ġart ific
Ġartific ial
Ġexpect ant
Ġscr up
Ġscrup le
hundred th
: "
Ġimportun ate
Ġwra pper
Ġenterpr ising
radi ating
Ġunreason ab
Ġunreasonab leness
Ġab ated
Ġn av
Ġnav ig
Ġnavig ation
Ġprim itive
Ġpers ist
Ġpersist ence
Ġout ride
Ġpalanqu ins
Ġcomp osing
Ġde ject
Ġdeject ion
Ġenv oys
Ġentr ances
Ġmeas ures
Ġflood ing
Ġearth wards
Ġpo ised
Ġreve aling
Ġchari ote
Ġchariote ers
ch ari
chari ot
Ġem iss
Ġemiss aries
Ġk into
Ġkinto ki
Ġpre yed
Ġsurv ive
Ġdismiss al
Ġash ig
Ġashig ara
Ġwild s
Ġc ubs
Ġw ins
y o
yo isho
Ġyo isho
Ġencoura gingly
Ġgr unted
Ġlun che
Ġlunche on
Ġconsent ing
Ġsure st
Ġsp raw
Ġspraw ling
mer i
Ġmer i
cr ash
Ġfor ming
Ġmatch box
ok k
okk as
okkas an
Ġkim bo
Ġdes isted
Ġpro ves
Ġbef its
Ġun ed
Ġuned uc
Ġuneduc ated
Ġinflu ent
Ġinfluent ial
Ġgener als
Ġt amed
k im
kim bo
Ġvass als
Ġj ad
Ġjad est
Ġjadest one
Ġch ry
Ġchry sop
Ġchrysop rase
spread ing
Ġdisp uted
Ġembroider y
Ġshr im
Ġshrim ps
Ġsho als
Ġassemb l
Ġassembl age
Ġphosp h
Ġphosph ore
Ġphosphore scent
Ġphosp hor
Ġphosphor us
Ġbrilli ancy
Ġnur ses
Ġass id
Ġassid uous
Ġprescri bed
Ġinterv iewed
Ġdec ides
j elly
Ġv iv
Ġviv idly
Ġqu er
Ġquer ied
Ġdescri bing
Ġsight s
lub ber
Ġskim ming
Ġan at
Ġanat omy
Ġappe aling
Ġhe arer
mon keys
Ġremed ied
Ġcap ers
Ġlaugh ingly
Ġpersu ading
Ġpreten ses
Ġqu aked
Ġhalf way
Ġhumili ated
Ġbone lessness
Ġbone less
Ġshin sh
Ġshinsh in
bar bar
barbar ous
has n
does n
Ġcro on
Ġcroon ing
Ġdab bing
Ġclut ch
Ġpluck y
Ġsag acious
Ġy at
Ġyat ano
k ag
kag ami
Ġy ata
ts ru
tsru gu
tsrugu gi
Ġinvinc ibility
Ġan ces
Ġit e
Ġexpl ains
Ġk as
Ġkas anagi
Ġj im
Ġjim mu
Ġfound er
Ġoutlaw s
Ġrebell ing
Ġdef ying
Ġprec inct
Ġprecinct s
Ġimp ass
Ġimpass able
Ġto ile
Ġtoile t
Ġexter min
Ġextermin ate
Ġshy ness
Ġdistra ction
t akeru
Ġclut ched
: -"
Ġaven ger
Ġrobber y
Ġbe que
Ġbeque ath
Ġid um
Ġid z
Ġidz umo
Ġpurp osed
Ġpurposed ly
Ġhin o
Ġhino kaw
Ġhinokaw a
Ġfen cer
Ġun she
Ġunshe athe
Ġres orting
Ġcraft iness
Ġab orig
Ġaborig ines
Ġnorth wards
Ġreb elled
Ġar isen
Ġsubject ion
Ġsub jug
Ġsubjug ate
Ġstand ard
Ġmoder n
Ġfl ints
Ġcompr ise
Ġausp icious
Ġsur uga
Ġcordial ity
danger ous
Ġsitu ation
Ġprophe tic
Ġdiv ined
Ġfier c
Ġfierc est
Ġele ments
Ġins ures
Ġtok aid
Ġtokaid o
Ġthr illing
Ġeast ward
Ġconqu est
Ġwar path
Ġreb uff
Ġrebuff s
Ġus her
Ġal mond
Ġscoff ing
Ġout raged
Ġbo ister
Ġboister ous
Ġmat ting
Ġus u
Ġusu i
Ġto ge
Ġelev ation
Ġpan or
Ġpanor ama
Ġscorn ed
Ġfaith lessness
az uma
Ġy a
Ġtok io
Ġcom me
Ġcomme mor
Ġcommemor ates
Ġun self
Ġunself ish
Ġunselfish ness
Ġr oute
Ġraid s
Ġyez o
Ġi bu
Ġibu ki
Ġstrang le
Ġprodig ious
Ġgro ping
Ġmin eral
Ġvol can
Ġvolcan ic
Ġmarvel ously
Ġs urn
Ġsurn ame
mill ion
million aire
Ġfrug ally
Ġpro long
Ġrec ord
Ġcouncil ors
Ġjun ks
j ofuku
Ġf abled
Ġnot orious
Ġirrit ated
Ġinner most
Ġend urance
Ġhot els
Ġres ident
Ġtop sy
Ġtopsy tur
Ġtopsytur vy
Ġtopsyturvy dom
Ġshort en
Ġshop s
Ġdis orders
Ġrest a
Ġresta ur
Ġrestaur ants
Ġde lect
Ġdelect able
Ġhawk ers
Ġsa u
Ġsau ces
Ġprof ane
Ġund am
Ġundam aged
Ġwill fulness
Ġparaly zed
Ġaust ere
Ġpat ern
Ġpatern al
Ġannivers aries
Ġpre cept
Ġprecept s
ten nis
dis fig
disfig ure
disfigure ment
Ġinter n
Ġintern ally
Ġex tern
Ġextern ally
home wards
Ġterrif ically
Ġag low
r ays
Ġabsurd ly
Ġforehead s
back ground
ref uge
exper t
real izing
danc er
Ġadm ir
Ġadmir ably
Ġun skillful
appro ving
Ġdis fig
Ġdisfig ured
cre scent
dis agreeable
gest ures
Ġposit ions
Ġexhibit ion
Ġnight mare
Ġune atable
Ġpropos ition
Ġsciss or
Ġme llow
Ġmellow ed
Ġrip ening
Ġd ile
Ġdile m
Ġdilem ma
Ġplay mate
Ġpath ways
Ġdev ised
Ġmiss ile
Ġdef ense
Ġdefense less
Ġban ish
Ġconsequ ences
Ġshut ting
Ġsettle ment
Ġunconcer n
Ġannivers ary
Ġpart icipate
Ġmour ner
Ġcond ol
Ġcondol ence
Ġtear o
Ġtearo om
Ġbroken ly
f ault
Ġun repentant
mer ited
p atch
Ġcross ness
bit s
Ġtruth ful
Ġquarre led
Ġun feeling
Ġchir ping
Ġruff ling
Ġtemp ers
Ġpet ting
Ġinsist ing
Ġspe cially
Ġnoo nday
Ġex agger
Ġexagger ate
Ġtok on
Ġtokon om
Ġtokonom a
Ġfood s
su zume
od ori
sp arrow
Ġpac ify
Ġprefer ring
inf lict
Ġbold ness
Ġvent uring
Ġglo at
Ġnight m
Ġnightm ares
co veted
Ġcro aked
Ġsour ce
Ġbaby hood
Ġpatron age
Ġmin i
Ġmini at
Ġminiat ure
Ġob i
Ġgirl hood
Ġjin rick
Ġjinrick sh
Ġjinricksh as
Ġmo des
Ġmat su
Ġmatsu yama
Ġar du
Ġardu ous
Ġimper ative
Ġresol utely
Ġqu aint
Ġpe aked
Ġlife like
Ġr ural
Ġrequ isite
Ġrepresent s
Ġfond est
Ġunce asing
Ġlast s
Ġround ness
Ġresign ation
Ġfulf illing
Ġa ching
Ġdull ed
Ġdo c
Ġdoc ile
Ġreg ime
Ġpet ty
Ġproverb ial
Ġless ening
Ġgr umb
Ġgrumb lings
Ġsudden ness
Ġgrad ual
Ġass uring
Ġgood will
Ġmoll ify
Ġmis inter
Ġmisinter pret
Ġcomp aring
Ġf us
Ġfus ama
Ġsever ity
Ġshame faced
appear ances
Ġdep re
Ġdepre cat
Ġdeprecat ingly
Ġconfess ing
Ġmel on
Ġad verse
Ġre ars
Ġun s
Ġuns ull
Ġunsull ied
Ġscre en
Ġhat ing
Ġre cip
Ġrecip roc
Ġreciproc ated
Ġmis jud
Ġmisjud ging
Ġresent ment
Ġr uth
Ġruth less
Ġtra ps
Ġse amed
Ġdestru ct
Ġdestruct ive
Ġder is
Ġderis ively
Ġmurd ering
Ġsc ald
Ġscald s
Ġshore wards
Ġun avenged
Ġr out
Ġrout ed
Ġval or
Ġqu aff
Ġquaff ing
Ġbro iled
Ġrum or
Ġse izes
Ġdis believe
Ġterrif y
Ġsl ashed
Ġno ised
Ġplead ingly
ogre s
Ġtower ing
Ġrecogn izing
Ġgn ashed
v io
vio let
Ġglad den
Ġr ites
k wannon
go ddess
Ġrel ig
Ġrelig ion
Ġun satisfied
Ġdanger ously
Ġsuper i
Ġsuperi ors
Ġatt itude
Ġstud ies
Ġprof icient
j apan
japan ese
sl iced
Ġmusic ian
Ġmoment ous
Ġt ats
Ġtats ut
Ġtatsut a
Ġcontin uous
poet ess
Ġb io
Ġbio g
Ġbiog rap
Ġbiograp hers
Ġon o
k om
kom achi
Ġleaf let
Ġfle cked
Ġmort ification
Ġpalanqu in
Ġprotest ing
Ġout rage
Ġoutrage ous
Ġhim e
Ġscen ery
Ġread er
Ġsc ri
Ġscri pt
Ġscript ures
Ġbere ft
Ġprom otion
Ġki oto
Ġsilk y
Ġt aw
Ġtaw ara
Ġto da
Ġsl ing
Ġsling ing
Ġset a
k ar
kar ash
karash i
Ġspan ning
Ġdauntless ly
Ġpatter ned
Ġm ik
Ġmik ami
Ġgold fishes
Ġcry st
Ġcryst all
Ġcrystall ized
Ġchop sticks
Ġgold fish
c arp
Ġsam isen
Ġstar lit
Ġpenet rat
Ġpenetrat ing
Ġinv ul
Ġinvul ner
Ġinvulner able
Ġfire balls
Ġsa li
Ġsali va
Ġharm lessly
Ġconvuls ive
Ġserpent ine
Ġblack ness
Ġover spread
Ġd yed
four th
f if
fif th
Ġin ex
Ġinex ha
Ġinexha ust
Ġinexhaust ible
Ġdelic iously
Ġsauce pan
Ġdoubt ful
Ġfrank ly
Ġpo llen
Ġy ak
Ġyak ami
Ġgood by
Ġba als
Ġbaals berg
Ġfil kest
Ġfilkest ad
Ġwill and
Ġwilland sh
Ġwillandsh ar
Ġwillandshar ad
Ġhun k
Ġab using
Ġou ch
Ġab used
Ġv ad
Ġvad er
Ġvader as
Ġv id
Ġvid o
Ġvido stern
Ġcan on
Ġcanon ic
Ġcanonic als
Ġgod father
Ġunble ached
Ġspec ters
Ġing as
Ġmo sled
Ġworship ing
Ġkind lings
Ġrar ity
Ġcommission ers
Ġauth or
Ġauthor ities
hundred weights
ch op
dec ently
Ġprov is
Ġprovis ioned
ho isted
Ġfl itch
sl aughtered
Ġrin se
f reed
s ad
se at
Ġarch bishop
Ġarchbishop ric
Ġscand in
Ġscandin av
Ġscandinav ia
Ġroman ic
min ster
Ġunivers al
Ġmin ster
Ġstr uct
Ġstruct ure
Ġpre ach
Ġc udge
Ġcudge lling
Ġrue fully
Ġprospect s
rel ish
Ġeng aging
Ġpl i
Ġpli able
Ġmach inations
Ġf als
Ġfals eness
Ġful some
Ġcease less
; .
Ġwoo ers
Ġpl ighted
Ġthere for
Ġwinning ly
Ġen fee
Ġenfee bled
Ġmother kin
Ġconf iding
Ġvex ing
Ġsteep ness
Ġev aded
Ġheart felt
Ġwith held
Ġag le
Ġagle am
Ġkerchief s
Ġwere wolves
Ġemb races
m ound
Ġver itable
Ġnot ably
Ġaff ir
Ġaffir mat
Ġaffirmat ive
! ."
Ġmarvell ously
grie ve
beg ins
Ġfe wer
farm hands
Ġsw ath
Ġmo cked
hop giant
Ġscythe s
fle a
Ġcross bow
bra zen
pret ended
high way
Ġnag s
Ġclick ing
aw akened
me er
fl ock
Ġdelive rers
aim ed
Ġblunderbu ss
Ġbag ged
Ġri bands
Ġenjoy able
Ġman sion
Ġdiscu ssed
Ġver iest
Ġbeg r
Ġbegr ud
Ġbegrud ges
Ġpr ying
Ġcoun se
Ġcounse led
Ġrem orse
Ġremorse ful
Ġtrans gress
Ġfruit less
Ġwhit tled
Ġcock les
Ġfriend liest
Ġsom bre
Ġbetter s
Ġwind le
Ġun invited
Ġadvis able
Ġbeg u
Ġbegu iled
Ġbub bles
Ġstay s
!' ,
Ġto yed
Ġjourney men
Ġstrang led
Ġrare ly
Ġign om
Ġignom in
Ġignomin ously
Ġself same
Ġhead land
north western
Ġl inde
m ining
need ed
tr unks
Ġexact ing
Ġpre occup
Ġpreoccup ied
Ġaf l
Ġafl ame
Ġspr uce
Ġsl unk
st ro
stro kes
Ġhead line
Ġk all
Ġkall ern
Ġkallern as
w agon
p aying
Ġloo ps
Ġabo da
Ġhead ing
Ġv ip
Ġvip a
pee wee
Ġstrip a
h ars
hars berg
Ġhark all
Ġharkall arn
n ave
tail ors
tim idly
per stochter
Ġper stochter
add ition
prov ided
Ġdisre p
Ġdisrep ute
s ingly
Ġro iled
Ġrun es
Ġdeep s
old est
Ġac claimed
terri f
terrif ic
seem s
Ġaccord ed
Ġbrave y
hast ily
wer gild
f estal
Ġcompens ate
Ġmoist en
Ġtou ches
breat hed
fl asks
Ġdo orn
Ġdoorn ail
Ġrecount ing
re paid
resc ued
hon ors
Ġun ity
Ġover bid
ki keriki
pur ch
purch ased
sw arm
horn ets
stark ad
Ġlege nds
Ġnor land
Ġald ers
Ġk le
Ġkle f
Ġklef berg
Ġt una
Ġb or
Ġbor gs
Ġborgs jo
dest ru
destru ction
Ġcountry side
Ġv att
Ġvatt j
Ġvattj om
me as
meas uring
Ġdis sens
Ġdissens ion
Ġgr ants
Ġsha ving
Ġtr ash
kit t
kitt a
Ġp act
Ġdis robe
Ġcott agers
christ ened
Ġhence forward
adm ired
nu zzled
Ġmort ally
Ġfo dder
bo asting
power fully
fet tered
cour te
courte ous
compl ained
Ġasser t
Ġassert ions
Ġunt amed
tri fle
l ions
f iddle
Ġtick lish
sur face
do ves
bot tle
Ġem ig
Ġemig rated
Ġwre cked
Ġswed ish
Ġmo lt
Ġmolt en
Ġhall en
Ġhallen berg
Ġhun ne
Ġhunne berg
Ġcamp ed
Ġpeep hole
Ġmale factor
Ġinvestig ation
Ġbut che
Ġbutche red
Ġplough ing
Ġimmeasur ably
Ġtil ting
Ġr aced
Ġpro cess
Ġr ambling
Ġas cent
Ġbold er
Ġmult itude
Ġab ashed
Ġho b
Ġhob no
Ġhobno bbed
Ġsnout s
Ġflee ced
Ġsn ivel
sc attered
Ġjourney man
Ġmo ld
Ġmold y
dep ressed
loft y
Ġaccommod ations
Ġluxur ies
Ġconven iences
Ġce il
Ġceil ings
decor ations
gl anced
Ġvar iety
Ġlackey s
Ġcourt seyed
ac res
Ġweather cocks
Ġtramp ing
drum m
drumm ers
Ġtrumpet ers
Ġsa bers
can non
pro pos
propos al
wor st
Ġst owed
jo inted
char ged
v anes
Ġbuild er
Ġd izz
Ġdizz y
trump ets
att ired
Ġstair way
Ġsatis factor
Ġsatisfactor ily
obtain ed
j un
jun iper
p ines
sn ive
snive ling
Ġami ably
Ġpurp orted
Ġhang man
Ġgrat uity
ref lect
Ġcontent ing
fool ishly
?" --
Ġcart ing
s illy
Ġindul ging
Ġdec amped
weather cocks
serv itors
in quired
Ġkeen ness
sc rap
scrap ed
Ġcr inged
best owed
we ar
Ġdisp ense
Ġrul ing
Ġall ied
Ġembass ies
Ġnoble st
Ġs ite
Ġcompr ising
Ġpain ters
Ġsum pt
Ġsumpt uously
Ġreg al
Ġforb ore
Ġover whelmed
Ġpl ag
Ġplag ued
Ġsim mered
Ġdiso be
Ġdisobe yed
Ġun in
Ġunin j
Ġuninj ured
Ġsign ified
Ġtruth fulness
Ġsa lv
Ġsalv ation
Ġbless es
Ġarray ed
Ġun cl
Ġuncl asped
Ġadorn ing
Ġcost liness
ren owned
Ġeight eenth
Ġr ut
Ġrut ger
Ġas chen
Ġaschen berg
Ġcol one
Ġcolone l
Ġk j
Ġkj ell
Ġk r
Ġkr isto
Ġkristo fer
Ġmanage ment
proper ties
Ġinvinc ible
end less
Ġcap acity
Ġdepend ents
Ġfj el
Ġfjel king
Ġfjelking e
Ġpresum ably
Ġcon ting
Ġconting en
Ġcontingen cies
g aping
mur de
murde rer
Ġshe ri
Ġsheri ff
trave ler
cas es
Ġbarnek ows
Ġgay er
Ġnose g
Ġnoseg ays
Ġru ssian
Ġer mine
Ġt issue
Ġbalcon ies
Ġpub lished
Ġit em
Ġpro gr
Ġprogr am
Ġprogram me
Ġfire work
Ġattend ance
Ġa ur
Ġaur ora
Ġbore al
Ġboreal is
Ġtul ips
Ġimpro ves
Ġprejud ices
Ġcart ridge
Ġpolit ic
Ġpolitic ian
Ġpromin ent
Ġele ctions
Ġpar li
Ġparli ament
Ġparliament ary
Ġdi ct
Ġdict ating
Ġme mo
Ġmemo ir
Ġmemoir s
Ġdiam eter
Ġextra ction
p yr
pyr otechnic
Ġcan ister
Ġb ully
Ġcorn s
Ġtread s
Ġappreci ate
Ġemotion al
Ġsust ains
Ġinferior ity
Ġrud est
Ġweep s
h umb
humb ug
Ġpo pp
Ġpopp ies
wh izz
Ġwhi zz
Ġsne er
Ġre serving
Ġrec ru
Ġrecru it
Ġjewell ed
Ġcloud less
Ġentr ancing
Ġbreakfast ing
Ġsa ves
Ġprev ents
Ġcompl ac
Ġcomplac ently
arg uments
Ġirrit ating
b red
Ġdet est
Ġdetest able
Ġtemper ament
Ġsym pathetic
Ġprovin cial
Ġcon vers
Ġconvers ations
Ġph il
Ġphil os
Ġphilos op
Ġphilosop hy
Ġimpro ving
Ġwe bbed
Ġindust ries
Ġpeace able
Ġess ent
Ġessent i
Ġessenti ally
Ġsubur ban
Ġre forming
Ġresol utions
Ġhumble st
Ġdistract s
" :
Ġsmock s
Ġcompliment ary
Ġmist akes
Ġdign it
Ġdignit aries
f izz
Ġbe spoken
Ġbrilli ants
Ġbeh aved
Ġapp oint
Ġexceed ed
Ġsam ite
name ly
Ġcl ipped
Ġselfish ly
Ġgi ggle
Ġflee ces
Ġheav iest
Ġsun n
Ġsunn iest
Ġtend erest
sor rel
Ġshe ar
Ġscra gg
Ġscragg ly
Ġpow der
Ġar ching
Ġquick silver
Ġconven iently
Ġtw ent
Ġtwent ieth
Ġport ra
Ġportra its
Ġembarr ass
Ġembarrass ment
Ġdisrespect fully
Ġman us
Ġmanus cri
Ġmanuscri pt
Ġmanuscript s
Ġcle op
Ġcleop at
Ġcleopat ra
t il
til ted
Ġun consolable
Ġchat te
Ġchatte rer
Ġlack s
Ġchatter pie
Ġmoder ate
Ġtalk er
Ġnot icing
Ġcast s
Ġpart ies
Ġtheat res
Ġprom en
Ġpromen ades
Ġjourney ings
Ġinterest s
Ġbank er
Ġsho est
Ġshoest rings
Ġun lady
Ġunlady like
Ġassoci ates
Ġsu llen
Ġir r
Ġirr itable
Ġdy sp
Ġdysp ep
Ġdyspep s
Ġdyspeps ia
Ġche que
Ġhot el
sar ah
Ġglee fully
Ġbreath s
, -
Ġcurd ling
p ress
Ġsp illing
Ġaw fu
Ġawfu lest
Ġhyster ics
Ġadv ising
Ġro amed
Ġexha ust
Ġexhaust ion
Ġs ie
Ġsie ge
Ġdab bled
Ġin tense
Ġac ro
Ġacro b
Ġacrob at
Ġle aper
Ġkick er
Ġche m
Ġchem ical
Ġcomp ounds
Ġprogress ive
Ġcons ume
Ġelo cut
Ġelocut ion
Ġelocution ist
Ġrub en
Ġruben ste
Ġrubenste in
Ġcomp ound
Ġcompound er
Ġconsider ately
Ġconf ections
b ess
bess ie
Ġcand y
Ġmis laid
Ġd umped
Ġchocol ates
Ġexp end
Ġstore s
Ġover power
Ġoverpower ing
Ġinfin ite
Ġjerk y
Ġdisc ords
Ġprod ucing
Ġpre l
Ġprel ude
Ġbeet ho
Ġbeetho ven
Ġson ata
Ġdivine ly
Ġpal p
Ġpalp itation
Ġunt iring
Ġkey board
tw ilight
Ġdeep ened
Ġover coat
Ġca es
Ġcaes ar
Ġtr ance
be ats
Ġscholar ly
Ġattain ments
jo ined
Ġhu dd
Ġhudd led
Ġch ancing
Ġpre co
Ġpreco cious
Ġtre mo
Ġtremo lo
Ġso pr
Ġsopr ano
will iam
Ġendeav oring
Ġem ulate
Ġchrist ine
Ġn ill
Ġnill son
Ġenc ore
Ġhe arers
Ġwitness ing
Ġund ign
Ġundign ified
Ġa ri
Ġari a
Ġat ro
Ġatro cious
Ġbrig ade
Ġforce ful
Ġshu dd
Ġshudd ered
Ġdisgrace ful
Ġs ane
Ġhyster ically
Ġglo bes
Ġsw itched
Ġrec itation
Ġover t
Ġovert ure
Ġdutch man
Ġf ane
Ġfane uil
Ġbostwick s
Ġun ner
Ġunner ved
Ġobli v
Ġobliv ion
Ġsn ub
Ġoccur rences
Ġfeat ure
Ġdis s
Ġdiss ipated
Ġintro d
Ġintrod ucing
Ġf id
Ġfid get
Ġfidget ing
Ġenthus i
Ġenthusi astic
Ġpl au
Ġplau d
Ġplaud its
Ġimpress ive
Ġball et
Ġlangu ishing
Ġus hers
Ġins ane
Ġener get
Ġenerget ically
Ġcit iz
Ġcitiz ens
Ġhumili ation
Ġesc ap
Ġescap ade
Ġconsider ably
Ġv au
Ġvau de
Ġvaude vill
Ġvaudevill e
Ġact ress
Ġb agh
Ġbagh d
Ġbaghd ad
Ġabb as
Ġabbas id
Ġer a
Ġ -
Ġset tles
" ,
Ġborrow s
Ġunbeknown st
Ġblo b
Ġim po
Ġimpo ver
Ġimpover ished
Ġpress ure
Ġentrust s
Ġa pot
Ġapot he
Ġapothe c
Ġapothec ary
Ġblindfold s
Ġcassim s
Ġblindfold ed
Ġret race
Ġ 4
Ġ4 0
Ġid ent
Ġident ify
Ġrevis its
Ġch unk
Ġch ipped
Ġdoor steps
Ġme mor
Ġmemor izes
Ġexter ior
Ġpret ends
Ġjars mu
Ġjarsmu les
Ġestabl ishes
Ġbe friends
Ġdin ers
Ġplung es
Ġstoreroom s
Ġdust ing
Ġbe etle
sh uh
Ġsh uh
Ġlady bird
Ġcob we
Ġcobwe b
Ġbund led
cher ry
Ġcows l
Ġcowsl ips
Ġz izz
Ġpeev ish
sid led
Ġintr usion
buzz z
!" --"
b izz
Ġw ipes
Ġtw iddling
Ġdear y
Ġunnecess arily
Ġpou ff
p ou
pou ff
Ġponder ously
foot marks
Ġcreep y
craw ly
ra ck
Ġlittle st
vis itors
slee ve
Ġst ings
Ġuntid iness
sm ears
Ġthis tled
Ġthistled own
Ġscr ubbing
store room
l asted
cup fuls
de w
Ġpilgr im
Ġpilgrim ages
Ġperfect ions
Ġspind les
Ġun hand
Ġunhand y
Ġunl aced
Ġhung ary
Ġpred iction
Ġnecess arily
Ġswoon ing
Ġcarn ation
Ġmat ak
Ġmatak in
) -
go ver
gover ness
governess es
Ġunder cook
Ġundercook s
Ġscull ions
Ġpad s
Ġmop sey
Ġspan iel
Ġsp its
Ġp he
Ġphe as
Ġpheas ants
Ġtw ining
Ġsa bb
Ġsabb ath
Ġre served
Ġam orous
Ġp im
Ġpim pled
Ġresp lend
Ġresplend ent
Ġha ut
Ġhaut boys
Ġal mon
Ġalmon er
Ġogre ish
Ġin cl
Ġincl inations
Ġopen ly
Ġg al
Ġgal oshes
Ġboot l
Ġbootl aces
Ġpatron ized
Ġgloom ily
Ġun lim
Ġunlim ited
Ġbuy s
Ġto ffee
Ġsa les
Ġbiscuit s
Ġhad dock
Ġpolice men
Ġ2 2
Ġseal ing
envel ope
Ġger man
Ġnote book
Ġtre acle
Ġrat es
t ax
tax es
Ġ1 9
Ġ1 1
Ġwar ren
Ġpursu es
Ġgame keeper
Ġin conven
Ġinconven ience
Ġtr ades
tim othy
Ġwig s
bun s
Ġsix es
Ġret ail
op er
oper ative
Ġj umble
Ġt icing
Ġcr am
Ġcram med
c ustom
custom ers
Ġfl ust
Ġflust ered
Ġinsist s
Ġass ortment
Ġof t
Ġbrow se
Ġcool ness
Ġtar n
Ġtarn ished
cra a
Ġcra a
Ġmuff led
Ġenchanter s
Ġnight shade
Ġspan ned
spin ners
Ġbond age
Ġthr ush
Ġheed s
Ġmo aning
Ġgre ets
Ġcap arison
Ġcaparison ed
Ġfit test
Ġraz ed
Ġgovern ment
Ġwe lf
Ġwelf are
Ġagree ing
Ġmastiff s
Ġspan ie
Ġspanie ls
Ġlap dogs
Ġlap is
l az
laz ul
lazul i
Ġdread s
Ġside board
Ġroll s
Ġfri cas
Ġfricas see
Ġbr ace
Ġbrace let
Ġdispleas ing
Ġcost ume
Ġeag lets
Ġpleas anter
Ġdog star
Ġfrag ile
Ġab re
Ġabre ast
Ġunif or
Ġunifor ms
Ġchuck ling
Ġnut shell
Ġpatter ns
Ġwilling ness
Ġbraz iers
Ġperf umed
Ġgener os
Ġgeneros ity
Ġdesper ately
Ġspeech less
Ġexpl oring
ap ric
apric ots
Ġne ct
Ġnect ar
Ġnectar ines
Ġmel ons
Ġmu les
Ġpar rot
Ġdefe rence
Ġpro longed
Ġcross est
Ġfeat ures
Ġmew s
Ġcrown ed
s ire
Ġworth ily
Ġun pract
Ġunpract ical
Ġappro ve
Ġripp les
Ġcourt ship
Ġfl ir
Ġflir ting
Ġcur t
Ġcurt sey
Ġcurtsey s
Ġdomest ic
Ġs ans
s ou
sou ci
Ġseam stress
Ġped estal
Ġemb almed
Ġsc ul
Ġscul ptured
Ġg het
Ġghet to
Ġjew s
Ġbargain ing
Ġfever ishly
Ġphen omen
Ġphenomen on
Ġorn ith
Ġornith olo
Ġornitholo gy
Ġqu oted
Ġchir rup
Ġchirrup ed
Ġme mn
Ġmemn on
Ġutter s
Ġber y
Ġbery ls
Ġdes k
Ġt umb
Ġtumb ler
Ġcr is
Ġcris p
Ġjewell er
he ave
h oy
" !
Ġba al
Ġbaal bec
Ġcoo ing
Ġre dder
Ġi b
Ġib ises
Ġsp hin
Ġsphin x
Ġp y
Ġpy g
Ġpyg m
Ġpygm ies
Ġl anes
Ġlistless ly
Ġarch way
Ġi c
Ġic icles
Ġsk ated
Ġlitt tle
Ġis sue
Ġover se
Ġoverse er
Ġfl or
Ġflor in
Ġkit es
p ound
Ġdra kes
Ġsovere igns
Ġcre ak
fl own
Ġinstruct ive
Ġt inder
Ġbal tic
Ġdan ish
Ġqu ill
Ġmo nday
b iscuit
biscuit s
Ġginger bread
Ġgingerbread s
Ġhurrah s
Ġrock ets
whir r
Ġf iz
Ġfiz zed
Ġborrow ing
Ġhat chet
Ġdeb tor
Ġcred itor
Ġsp ying
Ġkey holes
Ġcra ved
Ġun certainly
Ġme chan
Ġmechan ically
cr umble
Ġsk ips
Ġhandkerchief s
Ġbehold ing
Ġj ac
Ġjac ob
Ġv aul
Ġvaul ting
Ġband it
Ġlangu ish
Ġweak est
Ġmarvell ing
Ġsl ander
Ġharp ed
Ġun binding
Ġproud est
Ġun par
Ġunpar all
Ġunparall eled
Ġod ious
Ġmean est
Ġet c
Ġcommon ly
Ġruff les
Ġtrim ming
Ġ č
fl owered
Ġman te
Ġmante au
Ġstom acher
Ġad just
Ġpin ners
Ġmade mo
Ġmademo is
Ġmademois ell
Ġmademoisell e
Ġpo che
Ġl aces
- ";
Ġr ind
Ġsmart est
Ġbed au
Ġbedau bed
Ġequ ip
Ġequip age
Ġcontempl ate
Ġhead dress
Ġcoll ation
Ġwhere of
Ġhast ed
Ġin clination
Ġjest ingly
Ġmean ly
Ġdiver ted
Ġduchess es
Ġban ter
Ġfir s
Ġbasket ful
Ġun recogn
Ġunrecogn is
Ġunrecognis able
Ġwagg ons
Ġexcited ly
Ġgrand er
Ġp ining
Ġp ith
Ġlid s
Ġarm chairs
Ġsof as
Ġgreen ery
Ġsugar plums
Ġsober ly
Ġover thrown
Ġbab el
que ak
Ġinqu is
Ġinquis itive
Ġshe lves
Ġreal ise
Ġtre ll
Ġtrell is
qu irre
[...]
