{"!": 0, "\"": 1, "#": 2, "$": 3, "%": 4, "&": 5, "'": 6, "(": 7, ")": 8, "*": 9, "+": 10, ",": 11, "-": 12, ".": 13, "/": 14, "0": 15, "1": 16, "2": 17, "3": 18, "4": 19, "5": 20, "6": 21, "7": 22, "8": 23, "9": 24, ":": 25, ";": 26, "<": 27, "=": 28, ">": 29, "?": 30, "@": 31, "A": 32, "B": 33, "C": 34, "D": 35, "E": 36, "F": 37, "G": 38, "H": 39, "I": 40, "J": 41, "K": 42, "L": 43, "M": 44, "N": 45, "O": 46, "P": 47, "Q": 48, "R": 49, "S": 50, "T": 51, "U": 52, "V": 53, "W": 54, "X": 55, "Y": 56, "Z": 57, "[": 58, "\\": 59, "]": 60, "^": 61, "_": 62, "`": 63, "a": 64, "b": 65, "c": 66, "d": 67, "e": 68, "f": 69, "g": 70, "h": 71, "i": 72, "j": 73, "k": 74, "l": 75, "m": 76, "n": 77, "o": 78, "p": 79, "q": 80, "r": 81, "s": 82, "t": 83, "u": 84, "v": 85, "w": 86, "x": 87, "y": 88, "z": 89, "{": 90, "|": 91, "}": 92, "~": 93, "\u00a1": 94, "\u00a2": 95, "\u00a3": 96, "\u00a4": 97, "\u00a5": 98, "\u00a6": 99, "\u00a7": 100, "\u00a8": 101, "\u00a9": 102, "\u00aa": 103, "\u00ab": 104, "\u00ac": 105, "\u00ae": 106, "\u00af": 107, "\u00b0": 108, "\u00b1": 109, "\u00b2": 110, "\u00b3": 111, "\u00b4": 112, "\u00b5": 113, "\u00b6": 114, "\u00b7": 115, "\u00b8": 116, "\u00b9": 117, "\u00ba": 118, "\u00bb": 119, "\u00bc": 120, "\u00bd": 121, "\u00be": 122, "\u00bf": 123, "\u00c0": 124, "\u00c1": 125, "\u00c2": 126, "\u00c3": 127, "\u00c4": 128, "\u00c5": 129, "\u00c6": 130, "\u00c7": 131, "\u00c8": 132, "\u00c9": 133, "\u00ca": 134, "\u00cb": 135, "\u00cc": 136, "\u00cd": 137, "\u00ce": 138, "\u00cf": 139, "\u00d0": 140, "\u00d1": 141, "\u00d2": 142, "\u00d3": 143, "\u00d4": 144, "\u00d5": 145, "\u00d6": 146, "\u00d7": 147, "\u00d8": 148, "\u00d9": 149, "\u00da": 150, "\u00db": 151, "\u00dc": 152, "\u00dd": 153, "\u00de": 154, "\u00df": 155, "\u00e0": 156, "\u00e1": 157, "\u00e2": 158, "\u00e3": 159, "\u00e4": 160, "\u00e5": 161, "\u00e6": 162, "\u00e7": 163, "\u00e8": 164, "\u00e9": 165, "\u00ea": 166, "\u00eb": 167, "\u00ec": 168, "\u00ed": 169, "\u00ee": 170, "\u00ef": 171, "\u00f0": 172, "\u00f1": 173, "\u00f2": 174, "\u00f3": 175, "\u00f4": 176, "\u00f5": 177, "\u00f6": 178, "\u00f7": 179, "\u00f8": 180, "\u00f9": 181, "\u00fa": 182, "\u00fb": 183, "\u00fc": 184, "\u00fd": 185, "\u00fe": 186, "\u00ff": 187, "\u0100": 188, "\u0101": 189, "\u0102": 190, "\u0103": 191, "\u0104": 192, "\u0105": 193, "\u0106": 194, "\u0107": 195, "\u0108": 196, "\u0109": 197, "\u010a": 198, "\u010b": 199, "\u010c": 200, "\u010d": 201, "\u010e": 202, "\u010f": 203, "\u0110": 204, "\u0111": 205, "\u0112": 206, "\u0113": 207, "\u0114": 208, "\u0115": 209, "\u0116": 210, "\u0117": 211, "\u0118": 212, "\u0119": 213, "\u011a": 214, "\u011b": 215, "\u011c": 216, "\u011d": 217, "\u011e": 218, "\u011f": 219, "\u0120": 220, "\u0121": 221, "\u0122": 222, "\u0123": 223, "\u0124": 224, "\u0125": 225, "\u0126": 226, "\u0127": 227, "\u0128": 228, "\u0129": 229, "\u012a": 230, "\u012b": 231, "\u012c": 232, "\u012d": 233, "\u012e": 234, "\u012f": 235, "\u0130": 236, "\u0131": 237, "\u0132": 238, "\u0133": 239, "\u0134": 240, "\u0135": 241, "\u0136": 242, "\u0137": 243, "\u0138": 244, "\u0139": 245, "\u013a": 246, "\u013b": 247, "\u013c": 248, "\u013d": 249, "\u013e": 250, "\u013f": 251, "\u0140": 252, "\u0141": 253, "\u0142": 254, "\u0143": 255, "he": 256, "\u0120t": 257, "\u0120a": 258, "\u0120the": 259, "\u0120w": 260, "\u0120s": 261, "in": 262, "nd": 263, "\u0120h": 264, "re": 265, "\u0120o": 266, "\u0120b": 267, "\u0120and": 268, "ou": 269, "\u0120he": 270, "ed": 271, "\u0120f": 272, "\u0120m": 273, "er": 274, "it": 275, "\u0120to": 276, "\u0120c": 277, "at": 278, "is": 279, "ing": 280, "as": 281, "ll": 282, "\u0120d": 283, "\u0120th": 284, "en": 285, "\u0120l": 286, "or": 287, "an": 288, "\u0120p": 289, "\u0120of": 290, "on": 291, "\u0120g": 292, "ar": 293, "\u0120n": 294, "\u0120in": 295, "\u0120ha": 296, "le": 297, "ld": 298, "ut": 299, "\u0120be": 300, "ow": 301, "om": 302, "id": 303, "ot": 304, "\u0120was": 305, "es": 306, "\u0120y": 307, "im": 308, "gh": 309, "\u0120you": 310, "\u0120on": 311, "\u0120his": 312, "\u0120that": 313, "\u0120it": 314, "\u0120wh": 315, "\u0120sa": 316, "ve": 317, "se": 318, "\u0120i": 319, "\u0120e": 320, "\u0120she": 321, "\u0120as": 322, "ver": 323, "\u0120her": 324, "st": 325, "ce": 326, "ch": 327, "ly": 328, "ay": 329, "ght": 330, "\u0120had": 331, "\u0120for": 332, "et": 333, "ir": 334, "\u0120k": 335, "her": 336, "\u0120r": 337, "\u0120him": 338, "\u0120st": 339, "ith": 340, "\u0120u": 341, "oo": 342, "ad": 343, "\u0120with": 344, "ent": 345, "\u0120we": 346, "ould": 347, "\u0120so": 348, "ck": 349, "ill": 350, "\u0120re": 351, "\u0120not": 352, "\u0120they": 353, "\u0120\"": 354, "am": 355, "\u0120at": 356, "\u0120whe": 357, "\u0120but": 358, "\u0120said": 359, "\u0120se": 360, "and": 361, "ur": 362, "th": 363, "ter": 364, "ke": 365, "ri": 366, "red": 367, "the": 368, "\u0120an": 369, "\u0120all": 370, "\u0120sh": 371, "ome": 372, "all": 373, "al": 374, "\u0120is": 375, "ore": 376, "ain": 377, "ight": 378, "\u0120pr": 379, "\u0120up": 380, "\u0120when": 381, "'s": 382, "pp": 383, "if": 384, "tle": 385, "\u0120me": 386, "\u0120out": 387, "\u0120do": 388, "un": 389, "to": 390, "ood": 391, "\u0120who": 392, "\u0120were": 393, "\u0120have": 394, "ge": 395, "ame": 396, "ong": 397, "\u0120ne": 398, "very": 399, "\u0120one": 400, "\u0120go": 401, "\u0120there": 402, "\u0120my": 403, "\u0120man": 404, "\u0120fr": 405, "ard": 406, "\u0120them": 407, ".\"": 408, "il": 409, ",\"": 410, "\u0120then": 411, "\u0120whi": 412, "ant": 413, "\u0120br": 414, "ess": 415, "qu": 416, "\u0120no": 417, "ind": 418, "lf": 419, "\u0120su": 420, "ast": 421, "\u0120li": 422, "ked": 423, "\u0120will": 424, "\u0120sp": 425, "ound": 426, "we": 427, "\u0120gre": 428, "\u0120ch": 429, "\u0120this": 430, "one": 431, "\u0120de": 432, "\u0120from": 433, "other": 434, "ra": 435, "own": 436, "\u0120j": 437, "ust": 438, "\u0120king": 439, "\u0120fe": 440, "au": 441, "ittle": 442, "\u0120would": 443, "\u0120by": 444, "ep": 445, "\u0120prin": 446, "hed": 447, "\u0120could": 448, "ack": 449, "ake": 450, "\u0120al": 451, "\u0120came": 452, "\u0120old": 453, "ul": 454, "ss": 455, "\u0120kn": 456, "\u0120into": 457, "out": 458, "ion": 459, "\u0120little": 460, "ry": 461, "\u0120ro": 462, "self": 463, "ro": 464, "\u0120'": 465, "\u0120see": 466, "\u0120which": 467, "ble": 468, "\u0120their": 469, "ven": 470, "ough": 471, "\u0120tim": 472, "est": 473, "\u0120le": 474, "\u0120went": 475, "\u0120\u0120": 476, "\u0120qu": 477, "nt": 478, "ie": 479, "us": 480, "\u0120what": 481, "\u0120day": 482, "way": 483, "\u0120lo": 484, "ide": 485, "\u0120very": 486, "\u0120ag": 487, "\u0120if": 488, "our": 489, "\u0120did": 490, "\u0120your": 491, "ree": 492, "ought": 493, "ther": 494, "\u0120too": 495, "\u0120time": 496, "\u0120loo": 497, "ct": 498, "\u0120wor": 499, "ak": 500, "\u0120down": 501, "\u0120af": 502, "\u0120bo": 503, "urn": 504, "!\"": 505, "ite": 506, "\u0120ab": 507, "\u0120now": 508, "ers": 509, "\u0120or": 510, "fore": 511, "\u0120pl": 512, "\u0120gi": 513, "ife": 514, "ace": 515, "art": 516, "\u0120great": 517, "ic": 518, "\u0120long": 519, "ave": 520, "are": 521, "cess": 522, "ved": 523, "ag": 524, "\u0120am": 525, "\u0120been": 526, "\u0120po": 527, "um": 528, "\u0120again": 529, "wh": 530, "ried": 531, "\u0120over": 532, "op": 533, "\u0120gr": 534, "\u0120are": 535, "hing": 536, "\u0120v": 537, "\u0120cl": 538, "ather": 539, "ear": 540, ",'": 541, "ade": 542, "ous": 543, "\u0120before": 544, "\u0120ar": 545, "ap": 546, "\u0120com": 547, "?\"": 548, "\u0120than": 549, "\u0120other": 550, "\u0120after": 551, "\u0120more": 552, "\u0120back": 553, "ng": 554, "\u0120how": 555, "nder": 556, "aid": 557, "\u0120can": 558, "aught": 559, ".'": 560, "orn": 561, "ig": 562, "\u0120fo": 563, "ass": 564, "\u0120princess": 565, "\u0120hand": 566, "ist": 567, "ell": 568, "\u0120about": 569, "ac": 570, "\u0120come": 571, "\u0120tw": 572, "\u0120fl": 573, "\u0120away": 574, "\u0120where": 575, "king": 576, "\u0120co": 577, "ild": 578, "\u0120off": 579, "ish": 580, "\u0120must": 581, "\u0120beg": 582, "ened": 583, "ered": 584, "\u0120like": 585, "\u0120only": 586, "\u0120home": 587, "\u0120mo": 588, "\u0120any": 589, "\u0120saw": 590, "\u0120con": 591, "ouse": 592, "ick": 593, "ine": 594, "ire": 595, "\u0120some": 596, "ull": 597, "wn": 598, "ount": 599, "\u0120took": 600, "ure": 601, "\u0120good": 602, "\u0120asked": 603, "\u0120himself": 604, "\u0120every": 605, "\u0120bl": 606, "\u0120pe": 607, "ied": 608, "\u0120thought": 609, "\u0120prince": 610, "oman": 611, "ort": 612, "air": 613, "\u0120thr": 614, "\u0120say": 615, "\u0120upon": 616, "ang": 617, "el": 618, "\u0120wat": 619, "\u0120once": 620, "\u0120way": 621, "\u0120happ": 622, "\u0120young": 623, "ful": 624, "\u0120mu": 625, "\u0120pre": 626, "\u0120ex": 627, "\u0120well": 628, "\u0120made": 629, "ate": 630, "\u0120never": 631, "\u0120head": 632, "ach": 633, "but": 634, "\u0120even": 635, "\u0120know": 636, "\u0120sw": 637, "aut": 638, "--": 639, "\u0120en": 640, "\u0120mother": 641, "so": 642, "\u0120two": 643, "\u0120str": 644, "ice": 645, "dd": 646, "\u0120should": 647, "\u0120son": 648, "\u0120last": 649, "ves": 650, "hes": 651, "\u0120tr": 652, "ting": 653, "\u0120woman": 654, "ft": 655, "you": 656, "end": 657, "'t": 658, "be": 659, "ink": 660, "age": 661, "able": 662, "aughter": 663, "\u0120much": 664, "co": 665, "pl": 666, "\u0120beaut": 667, "urned": 668, "\u0120told": 669, "\u0120ans": 670, "\u0120put": 671, "\u0120wife": 672, "\u0120take": 673, "\u0120get": 674, "me": 675, "yes": 676, "ared": 677, "irst": 678, "\u0120heard": 679, "led": 680, "\u0120soon": 681, "pt": 682, "\u0120father": 683, "\u0120us": 684, "\u0120far": 685, "ings": 686, "ath": 687, "\u0120house": 688, "\u0120gold": 689, "\u0120hun": 690, "ds": 691, "row": 692, "med": 693, "iful": 694, "llow": 695, "\u0120looked": 696, "\u0120app": 697, "ance": 698, "\u0120bec": 699, "uck": 700, "\u0120might": 701, "\u0120cas": 702, "whe": 703, "ving": 704, "\u0120has": 705, "\u0120hor": 706, "\u0120while": 707, "\u0120wo": 708, "\u0120set": 709, "\u0120ear": 710, "ward": 711, "\u0120found": 712, "de": 713, "\u0120daughter": 714, "ise": 715, "ose": 716, "\u0120dre": 717, "ady": 718, "\u0120mar": 719, "for": 720, "\u0120want": 721, "\u0120began": 722, "\u0120under": 723, "\u0120its": 724, "\u0120night": 725, "\u0120shall": 726, "\u0120just": 727, "\u0120ho": 728, "\u0120dis": 729, "now": 730, "\u0120let": 731, "\u0120child": 732, "irl": 733, "\u0120through": 734, "sh": 735, "wered": 736, "\u0120call": 737, "pped": 738, "\u0120gl": 739, "\u0120beautiful": 740, "\u0120sm": 741, "ue": 742, "ab": 743, "\u0120sat": 744, "that": 745, "\u0120three": 746, "\u0120first": 747, "\u0120ret": 748, "\u0120such": 749, "\u0120gave": 750, "\u0120car": 751, "\u0120here": 752, "\u0120tell": 753, "ne": 754, "\u0120answered": 755, "ily": 756, "\u0120give": 757, "\u0120door": 758, "\u0120water": 759, "\u0120cried": 760, "anc": 761, "een": 762, "ord": 763, "\u0120maid": 764, "thing": 765, "\u0120sc": 766, "ally": 767, "\u0120brother": 768, "ished": 769, "get": 770, "ive": 771, "\u0120girl": 772, "\u0120castle": 773, "igh": 774, "ip": 775, "\u0120quite": 776, "\u0120find": 777, "ook": 778, "\u0120un": 779, "\u0120pass": 780, "ff": 781, "\u0120kne": 782, "\u0120nothing": 783, "ect": 784, "\u0120make": 785, "lt": 786, "\u0120eat": 787, "ears": 788, "\u0120wa": 789, "\u0120fri": 790, "\u0120\u0120\u0120\u0120": 791, "\u0120wood": 792, "\u0120till": 793, "\u0120cat": 794, "\u0120ac": 795, "\u0120dra": 796, "\u0120stood": 797, "\u0120boy": 798, "\u0120youth": 799, "\u0120sea": 800, "\u0120bet": 801, "ious": 802, "ople": 803, "\u0120still": 804, "side": 805, "\u0120morn": 806, "ies": 807, "?'": 808, "\u0120sun": 809, "ched": 810, "les": 811, "\u0120ever": 812, "dge": 813, "what": 814, "ird": 815, "\u0120own": 816, "em": 817, "\u0120sil": 818, "ted": 819, "\u0120people": 820, "leas": 821, "\u0120tree": 822, "\u0120look": 823, "\u0120wind": 824, "\u0120ran": 825, "\u0120may": 826, "no": 827, "not": 828, "\u0120morning": 829, "\u0120giant": 830, "ark": 831, "ty": 832, "\u0120another": 833, "\u0120op": 834, "\u0120left": 835, "man": 836, "cl": 837, "\u0120knew": 838, "oth": 839, "leep": 840, "\u0120life": 841, "\u0120poor": 842, "sp": 843, "ever": 844, "ity": 845, "she": 846, "\u0120heart": 847, "aster": 848, "reat": 849, "oy": 850, "\u0120im": 851, "\u0120many": 852, "\u0120got": 853, "\u0120yet": 854, "well": 855, "\u0120place": 856, "\u0120dog": 857, "\u0120per": 858, "\u0120sl": 859, "\u0120eyes": 860, "ment": 861, "\u0120called": 862, "ber": 863, "xt": 864, "!'": 865, "\u0120near": 866, "of": 867, "\u0120queen": 868, "tain": 869, "ached": 870, "\u0120hands": 871, "\u0120mon": 872, "app": 873, "ister": 874, "\u0120fell": 875, "\u0120along": 876, "\u0120horse": 877, "\u0120think": 878, "ised": 879, "\u0120round": 880, "\u0120ser": 881, "\u0120seen": 882, "\u0120these": 883, "omet": 884, "ause": 885, "\u0120grew": 886, "\u0120lay": 887, "\u0120mount": 888, "ans": 889, "atter": 890, "\u0120pleas": 891, "owed": 892, "ways": 893, "\u0120fore": 894, "\u0120each": 895, "ness": 896, "aw": 897, "\u0120fair": 898, "\u0120wal": 899, "gether": 900, "\u0120follow": 901, "\u0120ent": 902, "\u0120ri": 903, "\u0120world": 904, "when": 905, "\u0120white": 906, "\u0120hel": 907, "ions": 908, "less": 909, "ail": 910, "\u0120whole": 911, "\u0120fin": 912, "\u0120evening": 913, "then": 914, "ange": 915, "up": 916, "\u0120end": 917, "\u0120without": 918, "\u0120fire": 919, "\u0120men": 920, "\u0120going": 921, "\u0120cour": 922, "\u0120though": 923, "oke": 924, "\u0120kind": 925, "aking": 926, "\u0120maiden": 927, "\u0120dr": 928, "ling": 929, "ning": 930, "\u0120herself": 931, "os": 932, "iz": 933, "ower": 934, "\u0120sit": 935, "\u0120next": 936, "dy": 937, "per": 938, "\u0120somet": 939, "sent": 940, "\u0120lodge": 941, "\u0120arm": 942, "\u0120ad": 943, "lew": 944, "\u0120sto": 945, "pr": 946, "\u0120light": 947, "\u0120tre": 948, "\u0120stre": 949, "\u0120nor": 950, "\u0120love": 951, "\u0120bel": 952, "\u0120ke": 953, "\u0120bre": 954, "\u0120sent": 955, "\u0120room": 956, "they": 957, "\u0120stor": 958, "\u0120mom": 959, "\u0120part": 960, "\u0120help": 961, "sel": 962, "\u0120always": 963, "mer": 964, "\u0120turned": 965, "day": 966, "\u0120right": 967, "ged": 968, "\u0120same": 969, "\u0120lar": 970, "ten": 971, "\u0120ord": 972, "\u0120thing": 973, "ump": 974, "\u0120most": 975, "\u0120sk": 976, "\u0120war": 977, "\u0120lived": 978, "\u0120pro": 979, "\u0120bu": 980, "\u0120sister": 981, "ated": 982, "\u0120brought": 983, "\u0120count": 984, "\u0120sure": 985, "there": 986, "bo": 987, "ren": 988, "ince": 989, "\u0120done": 990, "\u0120del": 991, "ross": 992, "\u0120ste": 993, "\u0120unt": 994, "\u0120des": 995, "\u0120seemed": 996, "\u0120cr": 997, "\u0120mag": 998, "\u0120beh": 999, "oh": 1000, "pan": 1001, "\u0120care": 1002, "\u0120red": 1003, "\u0120reached": 1004, "plied": 1005, "\u0120rest": 1006, "roll": 1007, "idd": 1008, "\u0120our": 1009, "\u0120friend": 1010, "\u0120hill": 1011, "dden": 1012, "\u0120together": 1013, "\u0120wait": 1014, "\u0120work": 1015, "\u0120hard": 1016, "ence": 1017, "was": 1018, "\u0120gone": 1019, "\u0120passed": 1020, "\u0120master": 1021, "by": 1022, "\u0120bed": 1023, "band": 1024, "\u0120replied": 1025, "land": 1026, "\u0120stand": 1027, "\u0120spe": 1028, "do": 1029, "av": 1030, "ired": 1031, "illed": 1032, "\u0120golden": 1033, "\u0120something": 1034, "iss": 1035, "usband": 1036, "\u0120years": 1037, "oud": 1038, "\u0120says": 1039, "fe": 1040, "\u0120dist": 1041, "\u0120until": 1042, "\u0120hu": 1043, "\u0120face": 1044, "\u0120days": 1045, "\u0120drag": 1046, "\u0120happy": 1047, "\u0120side": 1048, "\u0120happened": 1049, "\u0120land": 1050, "my": 1051, "ile": 1052, "af": 1053, "\u0120cle": 1054, "\u0120pal": 1055, "ger": 1056, "\u0120moment": 1057, "\u0120better": 1058, "\u0120enough": 1059, "\u0120because": 1060, "\u0120fast": 1061, "ress": 1062, "\u0120rose": 1063, "\u0120bring": 1064, "\u0120felt": 1065, "\u0120keep": 1066, "mb": 1067, "\u0120gu": 1068, "ither": 1069, "\u0120high": 1070, "mon": 1071, "\u0120large": 1072, "\u0120sudden": 1073, "\u0120husband": 1074, "\u0120forest": 1075, "\u0120ground": 1076, "\u0120rem": 1077, "\u0120sho": 1078, "his": 1079, "\u0120prom": 1080, "ks": 1081, "\u0120big": 1082, "\u0120mountain": 1083, "bed": 1084, "ation": 1085, "\u0120cont": 1086, "ief": 1087, "eared": 1088, "\u0120wanted": 1089, "go": 1090, "ully": 1091, "aken": 1092, "ung": 1093, "\u0120being": 1094, "him": 1095, "'ll": 1096, "int": 1097, "\u0120also": 1098, "with": 1099, "\u0120cra": 1100, "ows": 1101, "oice": 1102, "\u0120silver": 1103, "\u0120sur": 1104, "ub": 1105, "\u0120run": 1106, "\u0120flew": 1107, "\u0120new": 1108, "\u0120troll": 1109, "\u0120behind": 1110, "\u0120lost": 1111, "ock": 1112, "\u0120sleep": 1113, "\u0120thou": 1114, "\u0120att": 1115, "\u0120both": 1116, "ian": 1117, "\u0120returned": 1118, "irit": 1119, "\u0120since": 1120, "\u0120fine": 1121, "\u0120whom": 1122, "\u0120palace": 1123, "\u0120black": 1124, "let": 1125, "\u0120full": 1126, "\u0120air": 1127, "\u0120anything": 1128, "\u0120cou": 1129, "orrow": 1130, "\u0120magic": 1131, "\u0120wish": 1132, "\u0120looking": 1133, "\u0120pie": 1134, "come": 1135, "\u0120hear": 1136, "selves": 1137, "\u0120mind": 1138, "\u0120bear": 1139, "\u0120play": 1140, "ift": 1141, "\u0120best": 1142, "\u0120sn": 1143, "\u0120dragon": 1144, "\u0120open": 1145, "\u0120suddenly": 1146, "\u0120green": 1147, "\u0120hung": 1148, "ier": 1149, "rave": 1150, "\u0120try": 1151, "ained": 1152, "\u0120wonder": 1153, "\u0120dead": 1154, "\u0120met": 1155, "\u0120around": 1156, "\u0120country": 1157, "\u0120among": 1158, "\u0120carried": 1159, "ner": 1160, "\u0120lady": 1161, "\u0120lau": 1162, "\u0120acc": 1163, "\u0120inst": 1164, "ertain": 1165, "\u0120fall": 1166, "ield": 1167, "gg": 1168, "ool": 1169, "\u0120table": 1170, "\u0120thre": 1171, "\u0120tal": 1172, "\u0120children": 1173, "wa": 1174, "\u0120voice": 1175, "\u0120earth": 1176, "\u0120serv": 1177, "fully": 1178, "\u0120turn": 1179, "\u0120che": 1180, "\u0120em": 1181, "\u0120words": 1182, "\u0120matter": 1183, "\u0120step": 1184, "\u0120spr": 1185, "\u0120death": 1186, "\u0120bit": 1187, "\u0120four": 1188, "\u0120name": 1189, "\u0120supp": 1190, "\u0120dark": 1191, "mo": 1192, "\u0120dear": 1193, "\u0120wr": 1194, "\u0120sing": 1195, "\u0120cut": 1196, "\u0120things": 1197, "old": 1198, "\u0120swe": 1199, "right": 1200, "\u0120dress": 1201, "\u0120really": 1202, "ned": 1203, "\u0120ob": 1204, "amp": 1205, "arden": 1206, "\u0120small": 1207, "oose": 1208, "\u0120return": 1209, "ots": 1210, "\u0120toward": 1211, "\u0120pret": 1212, "\u0120el": 1213, "ying": 1214, "vil": 1215, "vered": 1216, "oney": 1217, "ret": 1218, "\u0120coming": 1219, "\u0120stay": 1220, "\u0120able": 1221, "ls": 1222, "\u0120bird": 1223, "\u0120fish": 1224, "\u0120char": 1225, "ses": 1226, "\u0120leave": 1227, "\u0120need": 1228, "\u0120spirit": 1229, "che": 1230, "\u0120strange": 1231, "ary": 1232, "\u0120wit": 1233, "\u0120cry": 1234, "\u0120feel": 1235, "\u0120te": 1236, "ars": 1237, "deed": 1238, "\u0120cur": 1239, "\u0120joy": 1240, "\u0120taken": 1241, "ived": 1242, "\u0120everything": 1243, "aps": 1244, "ove": 1245, "\u0120bir": 1246, "key": 1247, "umb": 1248, "aven": 1249, "\u0120why": 1250, "br": 1251, "\u0120fairy": 1252, "\u0120those": 1253, "\u0120stone": 1254, "\u0120strong": 1255, "\u0120sound": 1256, "\u0120alone": 1257, "\u0120garden": 1258, "\u0120became": 1259, "\u0120top": 1260, "ants": 1261, "\u0120kep": 1262, "\u0120foot": 1263, "ster": 1264, "\u0120live": 1265, "\u0120rep": 1266, "\u0120ask": 1267, "ndred": 1268, "eter": 1269, "cond": 1270, "how": 1271, "\u0120wolf": 1272, "\u0120quick": 1273, "\u0120stra": 1274, "\u0120kept": 1275, "\u0120bus": 1276, "\u0120indeed": 1277, "\u0120hold": 1278, "ined": 1279, "ank": 1280, "icked": 1281, "\u0120others": 1282, "\u0120sword": 1283, "\u0120es": 1284, "\u0120present": 1285, "had": 1286, "\u0120cannot": 1287, "mother": 1288, "\u0120snow": 1289, "ited": 1290, "\u0120ter": 1291, "\u0120corn": 1292, "good": 1293, "ken": 1294, "\u0120sight": 1295, "ott": 1296, "\u0120sitting": 1297, "ix": 1298, "\u0120moon": 1299, "ney": 1300, "\u0120adv": 1301, "\u0120given": 1302, "\u0120food": 1303, "\u0120court": 1304, "su": 1305, "ors": 1306, "\u0120longer": 1307, "\u0120brothers": 1308, "this": 1309, "ask": 1310, "\u0120bride": 1311, "\u0120fa": 1312, "\u0120bar": 1313, "\u0120dro": 1314, "dom": 1315, "ible": 1316, "\u0120fur": 1317, "\u0120myself": 1318, "\u0120hast": 1319, "\u0120je": 1320, "\u0120hair": 1321, "\u0120whether": 1322, "wer": 1323, "\u0120monkey": 1324, "\u0120bur": 1325, "fort": 1326, "amed": 1327, "eng": 1328, "\u0120half": 1329, "\u0120ready": 1330, "\u0120hundred": 1331, "\u0120order": 1332, "outh": 1333, "\u0120themselves": 1334, "\u0120mur": 1335, "ins": 1336, "anced": 1337, "\u0120however": 1338, "\u0120second": 1339, "\u0120led": 1340, "ces": 1341, "\u0120carry": 1342, "ones": 1343, "sch": 1344, "\u0120bad": 1345, "\u0120money": 1346, "\u0120sum": 1347, "\u0120trou": 1348, "\u0120don": 1349, "\u0120laid": 1350, "\u0120hop": 1351, "\u0120win": 1352, "\u0120fly": 1353, "\u0120inv": 1354, "\u0120against": 1355, "\u0120disapp": 1356, "\u0120power": 1357, "\u0120rock": 1358, "owing": 1359, "\u0120vis": 1360, "\u0120wall": 1361, "where": 1362, "\u0120compan": 1363, "\u0120fam": 1364, "\u0120certain": 1365, "\u0120list": 1366, "az": 1367, "ceived": 1368, "\u0120field": 1369, "\u0120fright": 1370, "\u0120meet": 1371, "head": 1372, "\u0120forg": 1373, "who": 1374, "\u0120hare": 1375, "\u0120standing": 1376, "\u0120wild": 1377, "\u0120third": 1378, "li": 1379, "othes": 1380, "\u0120saying": 1381, "inking": 1382, "ween": 1383, "\u0120\u0120\u0120": 1384, "ime": 1385, "po": 1386, "\u0120story": 1387, "\u0120fear": 1388, "\u0120poss": 1389, "men": 1390, "iff": 1391, "\u0120mus": 1392, "\u0120pers": 1393, "\u0120thee": 1394, "\u0120feet": 1395, "\u0120eas": 1396, "\u0120tin": 1397, "\u0120kit": 1398, "owers": 1399, "gre": 1400, "\u0120boat": 1401, "\u0120deep": 1402, "\u0120opened": 1403, "\u0120bright": 1404, "\u0120few": 1405, "\u0120sad": 1406, "\u0120hur": 1407, "iled": 1408, "\u0120tri": 1409, "\u0120fis": 1410, "\u0120mr": 1411, "\u0120aw": 1412, "ale": 1413, "aro": 1414, "\u0120ref": 1415, "reature": 1416, "ape": 1417, "\u0120road": 1418, "body": 1419, "\u0120close": 1420, "\u0120town": 1421, "\u0120blue": 1422, "iness": 1423, "\u0120else": 1424, "als": 1425, "\u0120swall": 1426, "\u0120rode": 1427, "\u0120pur": 1428, "\u0120sweet": 1429, "\u0120exp": 1430, "arted": 1431, "ons": 1432, "ol": 1433, "\u0120entered": 1434, "raid": 1435, "\u0120kill": 1436, "wel": 1437, "pe": 1438, "\u0120forth": 1439, "\u0120having": 1440, "irect": 1441, "\u0120glad": 1442, "though": 1443, "\u0120jack": 1444, "anger": 1445, "tree": 1446, "\u0120across": 1447, "ized": 1448, "\u0120fet": 1449, "\u0120ce": 1450, "\u0120mer": 1451, "\u0120birds": 1452, "\u0120caught": 1453, "ilt": 1454, "une": 1455, "ching": 1456, "\u0120drink": 1457, "\u0120river": 1458, "\u0120surpr": 1459, "aim": 1460, "\u0120followed": 1461, "\u0120leg": 1462, "\u0120hour": 1463, "\u0120word": 1464, "\u0120clothes": 1465, "\u0120fellow": 1466, "\u0120drew": 1467, "\u0120shore": 1468, "ides": 1469, "ple": 1470, "\u0120squ": 1471, "\u0120wished": 1472, "iet": 1473, "\u0120creature": 1474, "\u0120window": 1475, "ced": 1476, "\u0120add": 1477, "\u0120ang": 1478, "\u0120body": 1479, "\u0120trave": 1480, "awn": 1481, "\u0120gent": 1482, "have": 1483, "\u0120hall": 1484, "\u0120seven": 1485, "\u0120between": 1486, "\u0120arri": 1487, "\u0120du": 1488, "ighb": 1489, "ror": 1490, "tered": 1491, "iddle": 1492, "\u0120spoke": 1493, "\u0120afraid": 1494, "ately": 1495, "haps": 1496, "ich": 1497, "\u0120threw": 1498, "\u0120thus": 1499, "\u0120year": 1500, "ign": 1501, "most": 1502, "ready": 1503, "\u0120direct": 1504, "\u0120chur": 1505, "edd": 1506, "\u0120wand": 1507, "\u0120dri": 1508, "\u0120lad": 1509, "\u0120hunter": 1510, "\u0120delight": 1511, "\u0120thy": 1512, "\u0120ill": 1513, "\u0120cre": 1514, "ia": 1515, "ash": 1516, "\u0120cap": 1517, "\u0120trees": 1518, "ided": 1519, "\u0120use": 1520, "\u0120reme": 1521, "\u0120yes": 1522, "\u0120held": 1523, "ont": 1524, "\u0120hum": 1525, "\u0120show": 1526, "act": 1527, "why": 1528, "com": 1529, "arm": 1530, "\u0120ring": 1531, "\u0120suc": 1532, "fl": 1533, "\u0120quickly": 1534, "gr": 1535, "iced": 1536, "\u0120marry": 1537, "\u0120stopped": 1538, "\u0120promised": 1539, "ushed": 1540, "\u0120knight": 1541, "\u0120asleep": 1542, "\u0120pleased": 1543, "\u0120ben": 1544, "\u0120heaven": 1545, "\u0120kingdom": 1546, "'m": 1547, "\u0120youngest": 1548, "\u0120church": 1549, "\u0120sheep": 1550, "\u0120bro": 1551, "ats": 1552, "ud": 1553, "lend": 1554, "\u0120times": 1555, "ended": 1556, "\u0120speak": 1557, "arent": 1558, "\u0120prop": 1559, "\u0120tried": 1560, "\u0120trouble": 1561, "\u0120soft": 1562, "ches": 1563, "ength": 1564, "\u0120course": 1565, "\u0120ball": 1566, "said": 1567, "ead": 1568, "\u0120married": 1569, "will": 1570, "\u0120handsome": 1571, "\u0120visit": 1572, "here": 1573, "\u0120past": 1574, "ze": 1575, "te": 1576, "\u0120lying": 1577, "\u0120eld": 1578, "\u0120roll": 1579, "\u0120cross": 1580, "enty": 1581, "night": 1582, "\u0120does": 1583, "\u0120forgot": 1584, "after": 1585, "asket": 1586, "\u0120cold": 1587, "\u0120goose": 1588, "\u010a\u0120\u0120\u0120": 1589, "ourney": 1590, "\u0120neighb": 1591, "\u0120heads": 1592, "\u0120family": 1593, "\u0120esc": 1594, "\u0120grass": 1595, "\u0120jump": 1596, "\u0120terri": 1597, "\u0120pri": 1598, "cept": 1599, "\u0120whis": 1600, "\u0120mil": 1601, "'d": 1602, "ient": 1603, "\u0120length": 1604, "stand": 1605, "\u0120begged": 1606, "\u0120above": 1607, "\u0120plac": 1608, "\u0120box": 1609, "\u0120grand": 1610, "\u0120tears": 1611, "\u0120straight": 1612, "\u0120lake": 1613, "ps": 1614, "\u0120true": 1615, "cas": 1616, "\u0120fort": 1617, "\u0120belie": 1618, "\u0120neck": 1619, "once": 1620, "use": 1621, "\u0120appeared": 1622, "lo": 1623, "chant": 1624, "bit": 1625, "\u0120comm": 1626, "\u0120filled": 1627, "\u0120mouth": 1628, "\u0120already": 1629, "\u0120splend": 1630, "\u0120bow": 1631, "edding": 1632, "\u0120chief": 1633, "\u0120often": 1634, "\u0120lea": 1635, "ected": 1636, "\u0120sold": 1637, "\u0120mis": 1638, "\u0120angry": 1639, "\u0120flo": 1640, "arrow": 1641, "little": 1642, "ghed": 1643, "\u0120flowers": 1644, "\u0120pretty": 1645, "\u0120none": 1646, "\u0120\u0120\u0120\u0120\u0120\u0120\u0120\u0120": 1647, "\u0120whose": 1648, "\u0120save": 1649, "\u0120short": 1650, "\u0120gentle": 1651, "which": 1652, "ho": 1653, "\u0120gate": 1654, "\u0120luck": 1655, "\u0120friends": 1656, "\u0120answer": 1657, "\u0120ma": 1658, "\u0120arms": 1659, "\u0120walked": 1660, "anged": 1661, "ron": 1662, "ceed": 1663, "\u0120god": 1664, "\u0120basket": 1665, "\u0120tou": 1666, "\u0120feather": 1667, "omen": 1668, "\u0120island": 1669, "\u0120used": 1670, "\u0120journey": 1671, "\u0120spring": 1672, "\u0120sor": 1673, "aring": 1674, "ai": 1675, "\u0120yourself": 1676, "\u0120spot": 1677, "them": 1678, "\u0120six": 1679, "\u0120dogs": 1680, "\u0120thinking": 1681, "\u0120free": 1682, "\u0120fox": 1683, "\u0120hon": 1684, "\u0120fing": 1685, "\u0120heav": 1686, "\u0120beside": 1687, "\u0120loud": 1688, "ush": 1689, "ah": 1690, "ued": 1691, "\u0120ru": 1692, "\u0120apple": 1693, "wor": 1694, "\u0120laugh": 1695, "oof": 1696, "\u0120received": 1697, "read": 1698, "\u0120eag": 1699, "\u0120arrived": 1700, "ny": 1701, "\u0120clim": 1702, "\u0120lord": 1703, "\u0120frightened": 1704, "\u0120living": 1705, "\u0120prep": 1706, "\u0120sooner": 1707, "\u0120fetch": 1708, "\u0120brid": 1709, "\u0120lovely": 1710, "\u0120perhaps": 1711, "\u0120taking": 1712, "\u0120quest": 1713, "\u0120break": 1714, "ught": 1715, "\u0120bull": 1716, "\u0120tired": 1717, "\u0120wicked": 1718, "\u0120fre": 1719, "\u0120beat": 1720, "ual": 1721, "\u0120killed": 1722, "arents": 1723, "ory": 1724, "sed": 1725, "\u0120reco": 1726, "\u0120towards": 1727, "\u0120mid": 1728, "\u0120bag": 1729, "\u0120vill": 1730, "\u0120shoes": 1731, "\u0120wise": 1732, "ser": 1733, "ition": 1734, "\u0120duck": 1735, "\u0120pot": 1736, "ye": 1737, "while": 1738, "ries": 1739, "\u0120ship": 1740, "rie": 1741, "\u0120sec": 1742, "\u0120instead": 1743, "\u0120laughed": 1744, "cket": 1745, "icul": 1746, "\u0120witch": 1747, "osed": 1748, "\u0120inside": 1749, "\u0120pain": 1750, "\u0120winter": 1751, "bl": 1752, "\u0120hardly": 1753, "sc": 1754, "\u0120murm": 1755, "\u0120pull": 1756, "\u0120covered": 1757, "room": 1758, "airs": 1759, "ond": 1760, "\u0120middle": 1761, "\u0120become": 1762, "\u0120tail": 1763, "\u0120five": 1764, "\u0120following": 1765, "\u0120blood": 1766, "\u0120hut": 1767, "\u0120pat": 1768, "\u0120contin": 1769, "\u0120died": 1770, "akes": 1771, "iles": 1772, "\u0120wedding": 1773, "\u0120belong": 1774, "\u0120di": 1775, "\u0120neither": 1776, "\u0120waiting": 1777, "\u0120disappeared": 1778, "\u0120draw": 1779, "veral": 1780, "\u0120guard": 1781, "ellow": 1782, "\u0120suit": 1783, "\u0120horn": 1784, "\u0120scar": 1785, "\u0120hans": 1786, "asp": 1787, "ousand": 1788, "\u0120music": 1789, "\u0120dream": 1790, "\u0120corner": 1791, "attle": 1792, "\u0120warm": 1793, "\u0120sky": 1794, "\u0120fight": 1795, "\u0120clear": 1796, "\u0120rel": 1797, "\u0120pay": 1798, "\u0120sisters": 1799, "\u0120pray": 1800, "ering": 1801, "\u0120rid": 1802, "ining": 1803, "\u0120wonderful": 1804, "\u0120summer": 1805, "\u0120wis": 1806, "riage": 1807, "rent": 1808, "\u0120wide": 1809, "your": 1810, "\u0120appro": 1811, "\u0120least": 1812, "morrow": 1813, "\u0120splendid": 1814, "\u0120grow": 1815, "\u0120stable": 1816, "inner": 1817, "\u0120anim": 1818, "\u0120comp": 1819, "ason": 1820, "\u0120stick": 1821, "\u0120parents": 1822, "\u0120wine": 1823, "loo": 1824, "\u0120min": 1825, "\u0120meant": 1826, "\u0120bade": 1827, "see": 1828, "\u0120rich": 1829, "\u0120walk": 1830, "chen": 1831, "\u0120conf": 1832, "\u0120safe": 1833, "\u0120quiet": 1834, "\u0120several": 1835, "\u0120certainly": 1836, "\u0120horses": 1837, "ured": 1838, "\u0120within": 1839, "\u0120faith": 1840, "claim": 1841, "\u0120distance": 1842, "\u0120village": 1843, "\u0120ate": 1844, "uff": 1845, "\u0120pocket": 1846, "\u0120swallow": 1847, "\u0120running": 1848, "hered": 1849, "\u0120(": 1850, "ina": 1851, "fr": 1852, "\u0120shook": 1853, "\u0120remained": 1854, "\u0120ago": 1855, "\u0120wel": 1856, "\u0120die": 1857, "\u0120sear": 1858, "\u0120loved": 1859, "\u0120wee": 1860, "\u0120ind": 1861, "\u0120hope": 1862, "\u0120spo": 1863, "utter": 1864, "ater": 1865, "eth": 1866, "any": 1867, "aughters": 1868, "\u0120evil": 1869, "\u0120making": 1870, "\u0120dec": 1871, "\u0120struck": 1872, "\u0120dance": 1873, "\u0120company": 1874, "\u0120women": 1875, "\u0120crab": 1876, "\u0120seized": 1877, "\u0120lear": 1878, "joy": 1879, "\u0120gift": 1880, "\u0120although": 1881, "\u0120fat": 1882, "\u0120supper": 1883, "ato": 1884, "ko": 1885, "\u0120nearly": 1886, "umber": 1887, "\u0120rather": 1888, "\u0120finished": 1889, "ens": 1890, "inted": 1891, "\u0120thousand": 1892, "\u0120watch": 1893, "\u0120dressed": 1894, "ingly": 1895, "\u0120stri": 1896, "ures": 1897, "\u0120int": 1898, "pping": 1899, "asse": 1900, "\u0120dep": 1901, "\u0120promise": 1902, "\u0120kiss": 1903, "ts": 1904, "\u0120mean": 1905, "\u0120gra": 1906, "\u0120listen": 1907, "\u0120requ": 1908, "\u0120farmer": 1909, "\u0120sle": 1910, "\u0120fortune": 1911, "ention": 1912, "\u0120known": 1913, "\u0120hunting": 1914, "\u0120burn": 1915, "ute": 1916, "happ": 1917, "\u0120danc": 1918, "\u0120hen": 1919, "\u0120cup": 1920, "\u0120murmur": 1921, "\u0120mort": 1922, "hand": 1923, "\u0120almost": 1924, "\u0120ast": 1925, "ments": 1926, "\u0120hid": 1927, "\u0120daughters": 1928, "\u0120ban": 1929, "\u0120arrow": 1930, "\u0120appear": 1931, "\u0120lead": 1932, "were": 1933, "take": 1934, "father": 1935, "cious": 1936, "\u0120cow": 1937, "\u0120fir": 1938, "\u0120forward": 1939, "iffe": 1940, "sing": 1941, "cked": 1942, "\u0120lives": 1943, "\u0120flower": 1944, "edge": 1945, "\u0120lie": 1946, "\u0120nose": 1947, "\u0120piece": 1948, "\u0120hungry": 1949, "\u0120egg": 1950, "aper": 1951, "\u0120mir": 1952, "fied": 1953, "\u0120cond": 1954, "\u0120front": 1955, "\u0120heavy": 1956, "\u0120stepped": 1957, "\u0120coun": 1958, "cted": 1959, "\u0120iron": 1960, "\u0120city": 1961, "under": 1962, "\u0120outside": 1963, "\u0120mess": 1964, "\u0120rib": 1965, "\u0120ra": 1966, "\u0120magician": 1967, "light": 1968, "\u0120reg": 1969, "medi": 1970, "mediately": 1971, "\u0120age": 1972, "claimed": 1973, "\u0120sort": 1974, "\u0120ow": 1975, "\u0120stones": 1976, "\u0120pieces": 1977, "\u0120rob": 1978, "\u0120pin": 1979, "\u0120placed": 1980, "idden": 1981, "\u0120noticed": 1982, "\u0120beauty": 1983, "\u0120fro": 1984, "rist": 1985, "\u0120understand": 1986, "\u0120ve": 1987, "\u0120real": 1988, "uth": 1989, "welve": 1990, "ee": 1991, "ettle": 1992, "long": 1993, "ize": 1994, "iers": 1995, "\u0120leaf": 1996, "\u0120imp": 1997, "\u0120eye": 1998, "asant": 1999, "\u0120less": 2000, "\u0120ug": 2001, "\u0120talk": 2002, "\u0120broke": 2003, "\u0120star": 2004, "\u0120cott": 2005, "\u0120cast": 2006, "from": 2007, "antly": 2008, "\u0120stret": 2009, "\u0120mist": 2010, "\u0120comes": 2011, "\u0120shout": 2012, "\u0120further": 2013, "\u0120doing": 2014, "ets": 2015, "\u0120mat": 2016, "\u0120believe": 2017, "\u0120eaten": 2018, "\u0120mouse": 2019, "amb": 2020, "uring": 2021, "\u0120bell": 2022, "rer": 2023, "\u0120fol": 2024, "ial": 2025, "\u0120sch": 2026, "\u0120tong": 2027, "\u0120tom": 2028, "\u0120emper": 2029, "\u0120grie": 2030, "\u0120command": 2031, "eping": 2032, "\u0120human": 2033, "\u0120knock": 2034, "\u0120immediately": 2035, "\u0120path": 2036, "\u0120crow": 2037, "\u0120kitchen": 2038, "\u0120imag": 2039, "vers": 2040, "\u0120stove": 2041, "\u0120dinner": 2042, "\u0120beast": 2043, "inning": 2044, "\u0120dou": 2045, "\u0120waited": 2046, "\u0120brave": 2047, "time": 2048, "\u0120servants": 2049, "\u0120art": 2050, "\u0120jumped": 2051, "\u0120cook": 2052, "rig": 2053, "ib": 2054, "ased": 2055, "rest": 2056, "reed": 2057, "\u0120comfort": 2058, "\u0120getting": 2059, "\u0120sou": 2060, "\u0120sorrow": 2061, "\u0120hole": 2062, "\u0120song": 2063, "iling": 2064, "ngth": 2065, "\u0120manner": 2066, "\u0120latter": 2067, "\u0120gar": 2068, "lv": 2069, "\u0120allowed": 2070, "\u0120oc": 2071, "\u0120continued": 2072, "\u0120ass": 2073, "\u0120twelve": 2074, "oured": 2075, "\u0120sli": 2076, "\u0120reach": 2077, "aped": 2078, "would": 2079, "\u0120aston": 2080, "ha": 2081, "\u0120plain": 2082, "white": 2083, "anches": 2084, "ounded": 2085, "\u0120fit": 2086, "\u0120hang": 2087, "\u0120tall": 2088, "\u0120finn": 2089, "ents": 2090, "\u0120escape": 2091, "\u0120feast": 2092, "ru": 2093, "\u0120pig": 2094, "yed": 2095, "\u0120buy": 2096, "\u0120person": 2097, "ousin": 2098, "ane": 2099, "\u0120emperor": 2100, "\u0120itself": 2101, "\u0120change": 2102, "\u0120send": 2103, "ging": 2104, "\u0120christ": 2105, "ages": 2106, "\u0120noise": 2107, "\u0120north": 2108, "\u0120kettle": 2109, "\u0120greet": 2110, "\u0120forget": 2111, "ressed": 2112, "\u0120whatever": 2113, "\u0120surprised": 2114, "\u0120nat": 2115, "ms": 2116, "\u0120possess": 2117, "\u0120played": 2118, "\u0120decl": 2119, "\u0120bread": 2120, "\u0120early": 2121, "fect": 2122, "\u0120added": 2123, "\u0120tem": 2124, "rage": 2125, "maid": 2126, "\u0120suff": 2127, "unk": 2128, "\u0120enem": 2129, "house": 2130, "gu": 2131, "\u0120wept": 2132, "con": 2133, "\u0120seek": 2134, "\u0120branches": 2135, "ustom": 2136, "\u0120pu": 2137, "\u0120stranger": 2138, "\u0120coat": 2139, "\u0120therefore": 2140, "\u0120miss": 2141, "\u0120tor": 2142, "aded": 2143, "\u0120sand": 2144, "\u0120yellow": 2145, "woman": 2146, "\u0120rain": 2147, "\u0120toad": 2148, "\u0120maidwa": 2149, "used": 2150, "could": 2151, "\u0120tiny": 2152, "ase": 2153, "ming": 2154, "\u0120pleasure": 2155, "some": 2156, "mber": 2157, "ict": 2158, "\u0120oh": 2159, "\u0120late": 2160, "ison": 2161, "rat": 2162, "\u0120folk": 2163, "scha": 2164, "amo": 2165, "\u0120rolled": 2166, "eterm": 2167, "\u0120single": 2168, "\u0120exact": 2169, "wards": 2170, "pty": 2171, "their": 2172, "\u0120seeing": 2173, "\u0120carefully": 2174, "\u0120agreed": 2175, "\u0120spread": 2176, "\u0120milk": 2177, "\u0120jo": 2178, "\u0120hat": 2179, "\u0120terrible": 2180, "\u0120finally": 2181, "\u0120bless": 2182, "law": 2183, "\u0120mot": 2184, "\u0120wings": 2185, "abbit": 2186, "\u0120diffe": 2187, "ottom": 2188, "\u0120secret": 2189, "arewell": 2190, "\u0120welcome": 2191, "\u0120ordered": 2192, "\u0120fresh": 2193, "\u0120happen": 2194, "\u0120usual": 2195, "\u0120skin": 2196, "\u0120shining": 2197, "\u0120showed": 2198, "ually": 2199, "wood": 2200, "\u0120peace": 2201, "arer": 2202, "ishment": 2203, "\u0120walking": 2204, "\u0120paid": 2205, "\u0120proper": 2206, "\u0120cottage": 2207, "\u0120low": 2208, "\u0120strength": 2209, "\u0120cro": 2210, "\u0120peter": 2211, "aws": 2212, "poss": 2213, "\u0120glass": 2214, "\u0120throw": 2215, "\u0120won": 2216, "\u0120prepared": 2217, "\u0120pol": 2218, "\u0120rememb": 2219, "\u0120roy": 2220, "\u0120danced": 2221, "ailed": 2222, "\u0120wandered": 2223, "\u0120broken": 2224, "\u0120deer": 2225, "\u0120thumb": 2226, "\u0120surely": 2227, "alth": 2228, "\u0120tongue": 2229, "\u0120devil": 2230, "\u0120neighbor": 2231, "fall": 2232, "\u0120burst": 2233, "\u0120started": 2234, "\u0120delighted": 2235, "\u0120cock": 2236, "\u0120desire": 2237, "sol": 2238, "\u0120leaves": 2239, "mbled": 2240, "jo": 2241, "\u0120enchant": 2242, "\u0120van": 2243, "inde": 2244, "\u0120cons": 2245, "\u0120prov": 2246, "\u0120doub": 2247, "ese": 2248, "fa": 2249, "mit": 2250, "\u0120sons": 2251, "boy": 2252, "\u0120truth": 2253, "\u0120lamp": 2254, "\u0120act": 2255, "\u0120dsch": 2256, "\u0120changed": 2257, "\u0120enjoy": 2258, "\u0120ugly": 2259, "\u0120sim": 2260, "daughter": 2261, "uc": 2262, "\u0120rushed": 2263, "\u0120blow": 2264, "arp": 2265, "\u0120bene": 2266, "\u0120paper": 2267, "\u0120sparrow": 2268, "--\"": 2269, "\u0120ribby": 2270, "itch": 2271, "\u0120mirror": 2272, "\u0120satis": 2273, "\u0120crept": 2274, "\u0120maidens": 2275, "cle": 2276, "ience": 2277, "\u0120slow": 2278, "\u0120everyone": 2279, "ations": 2280, "\u0120chance": 2281, "\u0120bes": 2282, "\u0120pear": 2283, "\u0120sorry": 2284, "\u0120tied": 2285, "\u0120wond": 2286, "\u0120legs": 2287, "\u0120rub": 2288, "mouse": 2289, "\u0120cousin": 2290, "\u0120rabbit": 2291, "\u0120hot": 2292, "\u0120bottom": 2293, "\u0120determ": 2294, "before": 2295, "\u0120roof": 2296, "\u0120reward": 2297, "imes": 2298, "cks": 2299, "into": 2300, "\u0120shone": 2301, "\u0120please": 2302, "\u0120exclaimed": 2303, "\u0120ashes": 2304, "yond": 2305, "\u0120stop": 2306, "ented": 2307, "ject": 2308, "\u0120stream": 2309, "\u0120meal": 2310, "\u0120fav": 2311, "\u0120hills": 2312, "\u0120thanked": 2313, "\u0120seated": 2314, "bs": 2315, "\u0120fisher": 2316, "\u0120edge": 2317, "\u0120nur": 2318, "\u0120res": 2319, "ug": 2320, "can": 2321, "\u0120bitter": 2322, "\u0120grown": 2323, "never": 2324, "\u0120miles": 2325, "\u0120catch": 2326, "\u0120beyond": 2327, "\u0120sang": 2328, "\u0120ears": 2329, "tr": 2330, "\u0120reason": 2331, "\u0120floor": 2332, "\u0120quar": 2333, "\u0120bab": 2334, "\u0120dare": 2335, "\u0120lif": 2336, "\u0120ur": 2337, "\u0120sign": 2338, "\u0120lasse": 2339, "rel": 2340, "ating": 2341, "\u0120vain": 2342, "down": 2343, "\u0120dread": 2344, "over": 2345, "just": 2346, "\u0120rage": 2347, "\u0120listened": 2348, "\u0120worse": 2349, "ifficul": 2350, "child": 2351, "every": 2352, "\u0120talking": 2353, "\u0120ride": 2354, "spect": 2355, "\u0120royal": 2356, "\u0120remain": 2357, "\u0120fond": 2358, "str": 2359, "\u0120pick": 2360, "cely": 2361, "\u0120gat": 2362, "\u0120yard": 2363, "\u0120clean": 2364, "\u0120ins": 2365, "\u0120warri": 2366, "\u0120col": 2367, "asure": 2368, "\u0120flung": 2369, "gi": 2370, "ising": 2371, "\u0120exactly": 2372, "\u0120tra": 2373, "\u0120guest": 2374, "\u0120dish": 2375, "\u0120nice": 2376, "\u0120butter": 2377, "\u0120mad": 2378, "\u0120obl": 2379, "\u0120oblig": 2380, "\u0120por": 2381, "\u0120born": 2382, "\u0120except": 2383, "\u0120singing": 2384, "ey": 2385, "\u0120success": 2386, "uit": 2387, "\u0120courage": 2388, "\u0120rat": 2389, "\u0120climbed": 2390, "\u0120either": 2391, "amber": 2392, "\u0120dy": 2393, "\u0120cave": 2394, "\u0120lawn": 2395, "\u0120grave": 2396, "\u0120thick": 2397, "\u0120disp": 2398, "sence": 2399, "\u0120crown": 2400, "prin": 2401, "\u0120pair": 2402, "\u0120boots": 2403, "\u0120invited": 2404, "\u0120faithful": 2405, "ote": 2406, "\u0120touched": 2407, "\u0120number": 2408, "\u0120duke": 2409, "war": 2410, "aker": 2411, "\u0120cows": 2412, "\u0120exc": 2413, "pper": 2414, "\u0120nest": 2415, "\u0120mrs": 2416, "\u0120determined": 2417, "adow": 2418, "\u0120breath": 2419, "cri": 2420, "\u0120easy": 2421, "\u0120gen": 2422, "\u0120peasant": 2423, "held": 2424, "great": 2425, "\u0120telling": 2426, "\u0120harm": 2427, "\u0120cor": 2428, "ific": 2429, "\u0120ten": 2430, "\u0120thank": 2431, "\u0120succeed": 2432, "\u0120during": 2433, "\u0120beneath": 2434, "\u0120sell": 2435, "\u0120comr": 2436, "herd": 2437, "\u0120halv": 2438, "\u0120halvor": 2439, "\u0120gaz": 2440, "\u0120gall": 2441, "\u0120accord": 2442, "aged": 2443, "\u0120marriage": 2444, "\u0120besides": 2445, "son": 2446, "\u0120consent": 2447, "\u0120proud": 2448, "\u0120game": 2449, "\u0120ought": 2450, "\u0120girls": 2451, "ames": 2452, "\u0120west": 2453, "chess": 2454, "'ve": 2455, "gn": 2456, "princess": 2457, "tw": 2458, "again": 2459, "\u0120anyone": 2460, "\u0120remember": 2461, "\u0120anx": 2462, "\u0120servant": 2463, "ably": 2464, "\u0120fle": 2465, "\u0120nobody": 2466, "sit": 2467, "covered": 2468, "\u0120spite": 2469, "oun": 2470, "\u0120opp": 2471, "\u0120eating": 2472, "\u0120shape": 2473, "\u0120sharp": 2474, "\u0120watched": 2475, "\u0120direction": 2476, "place": 2477, "miss": 2478, "\u0120mill": 2479, "\u0120gro": 2480, "\u0120farewell": 2481, "\u0120start": 2482, "\u0120silent": 2483, "iously": 2484, "aint": 2485, "\u0120request": 2486, "\u0120presently": 2487, "\u0120wear": 2488, "aused": 2489, "\u0120remembered": 2490, "\u0120shot": 2491, "\u0120question": 2492, "ider": 2493, "\u0120mine": 2494, "upon": 2495, "\u0120fruit": 2496, "aver": 2497, "\u0120dry": 2498, "arrig": 2499, "\u0120different": 2500, "himself": 2501, "\u0120moved": 2502, "irty": 2503, "\u0120pity": 2504, "pre": 2505, "\u0120fool": 2506, "\u0120accom": 2507, "\u0120shut": 2508, "\u0120hurried": 2509, "cend": 2510, "\u0120sprang": 2511, "fo": 2512, "ored": 2513, "\u0120difficul": 2514, "sy": 2515, "\u0120obliged": 2516, "onely": 2517, "gs": 2518, "\u0120plenty": 2519, "set": 2520, "ku": 2521, "chief": 2522, "\u0120news": 2523, "\u0120crack": 2524, "der": 2525, "otaro": 2526, "\u0120wass": 2527, "\u0120wassamo": 2528, "\u0120bridge": 2529, "\u0120move": 2530, "\u0120surprise": 2531, "\u0120farm": 2532, "\u0120clo": 2533, "\u0120raised": 2534, "\u0120thoughts": 2535, "empt": 2536, "together": 2537, "\u0120wid": 2538, "\u0120pun": 2539, "\u0120dwell": 2540, "quired": 2541, "\u0120elder": 2542, "\u0120fields": 2543, "\u0120form": 2544, "\u0120gentleman": 2545, "isted": 2546, "gy": 2547, "possible": 2548, "\u0120easily": 2549, "itten": 2550, "\u0120finger": 2551, "\u0120means": 2552, "fast": 2553, "hold": 2554, "\u0120spent": 2555, "\u0120search": 2556, "\u0120crying": 2557, "\u0120battle": 2558, "\u0120eldest": 2559, "\u0120wool": 2560, "oop": 2561, "\u0120earl": 2562, "els": 2563, "\u0120mountains": 2564, "\u0120swan": 2565, "\u0120boys": 2566, "add": 2567, "\u0120drove": 2568, "\u0120moti": 2569, "\u0120honor": 2570, "\u0120grant": 2571, "\u0120greatly": 2572, "hood": 2573, "\u0120desp": 2574, "came": 2575, "back": 2576, "\u0120pulled": 2577, "\u0120imagine": 2578, "\u0120herd": 2579, "\u0120ext": 2580, "vent": 2581, "\u0120deal": 2582, "formed": 2583, "\u0120declared": 2584, "\u0120hours": 2585, "ounds": 2586, "\u0120dropped": 2587, "\u0120da": 2588, "\u0120obe": 2589, "like": 2590, "\u0120compl": 2591, "\u010a\u0120\u0120\u0120\u0120\u0120\u0120\u0120\u0120": 2592, "\u0120wilt": 2593, "na": 2594, "cher": 2595, "\u0120comrade": 2596, "\u0120eagle": 2597, "mons": 2598, "\u0120clou": 2599, "\u0120notscha": 2600, "\u0120below": 2601, "\u0120teeth": 2602, "\u0120month": 2603, "\u0120spark": 2604, "\u0120beheld": 2605, "happy": 2606, "\u0120possible": 2607, "more": 2608, "\u0120whenever": 2609, "ooked": 2610, "\u0120named": 2611, "alley": 2612, "\u0120precious": 2613, "unt": 2614, "\u0120bon": 2615, "\u0120laughing": 2616, "bing": 2617, "\u0120chamber": 2618, "\u0120har": 2619, "\u0120blo": 2620, "\u0120ice": 2621, "\u0120book": 2622, "jam": 2623, "ana": 2624, "uttered": 2625, "\u0120advice": 2626, "iest": 2627, "ointed": 2628, "\u0120slept": 2629, "\u0120liked": 2630, "nothing": 2631, "\u0120lonely": 2632, "\u0120fairies": 2633, "\u0120dest": 2634, "\u0120knife": 2635, "\u0120swift": 2636, "\u0120hidden": 2637, "\u0120hook": 2638, "\u0120hig": 2639, "\u0120grey": 2640, "\u0120delic": 2641, "\u0120woods": 2642, "\u0120hunt": 2643, "board": 2644, "ians": 2645, "asso": 2646, "about": 2647, "thought": 2648, "\u0120enemy": 2649, "ices": 2650, "\u0120lose": 2651, "\u0120spirits": 2652, "ddle": 2653, "\u0120slowly": 2654, "\u0120gener": 2655, "\u0120read": 2656, "\u0120animal": 2657, "\u0120alive": 2658, "\u0120fishing": 2659, "\u0120speed": 2660, "kn": 2661, "ense": 2662, "elly": 2663, "\u0120nine": 2664, "\u0120blew": 2665, "\u0120service": 2666, "\u0120bowed": 2667, "\u0120badger": 2668, "wife": 2669, "looking": 2670, "\u0120fingers": 2671, "\u0120chee": 2672, "ex": 2673, "cur": 2674, "part": 2675, "\u0120clever": 2676, "\u0120princesses": 2677, "ains": 2678, "orm": 2679, "been": 2680, "\u0120nut": 2681, "\u0120tast": 2682, "\u0120valley": 2683, "attered": 2684, "\u0120steps": 2685, "\u0120worth": 2686, "thur": 2687, "\u0120ash": 2688, "\u0120mice": 2689, "\u0120choose": 2690, "\u0120buck": 2691, "\u0120brown": 2692, "aff": 2693, "\u0120er": 2694, "onder": 2695, "\u0120feathers": 2696, "\u0120sir": 2697, "\u0120kil": 2698, "iv": 2699, "\u0120wore": 2700, "\u0120dyarrig": 2701, "\u0120happily": 2702, "\u0120dawn": 2703, "inary": 2704, "\u0120wag": 2705, "\u0120stretched": 2706, "\u0120flying": 2707, "look": 2708, "did": 2709, "went": 2710, "\u0120straw": 2711, "\u0120peep": 2712, "\u0120dancing": 2713, "\u0120vanished": 2714, "\u0120trying": 2715, "nific": 2716, "iver": 2717, "\u0120storm": 2718, "\u0120treat": 2719, "\u0120apples": 2720, "rid": 2721, "\u0120clouds": 2722, "apan": 2723, "\u0120mounted": 2724, "\u0120eff": 2725, "\u0120satisfied": 2726, "\u0120hollow": 2727, "\u0120build": 2728, "\u0120monster": 2729, "rew": 2730, "\u0120empty": 2731, "\u0120hurry": 2732, "\u0120enter": 2733, "\u0120case": 2734, "ently": 2735, "kind": 2736, "ipe": 2737, "\u0120ide": 2738, "\u0120carrying": 2739, "stairs": 2740, "\u0120sub": 2741, "\u0120pleasant": 2742, "\u0120burned": 2743, "\u0120huge": 2744, "\u010a\u0120": 2745, "gain": 2746, "\u0120thief": 2747, "only": 2748, "\u0120lifted": 2749, "\u0120business": 2750, "ring": 2751, "\u0120coll": 2752, "pered": 2753, "\u0120sail": 2754, "\u0120nurse": 2755, "cer": 2756, "\u0120steed": 2757, "\u0120shir": 2758, "\u0120japan": 2759, "\u0120jelly": 2760, "elina": 2761, "wait": 2762, "ax": 2763, "thr": 2764, "inth": 2765, "\u0120approach": 2766, "tell": 2767, "\u0120hedge": 2768, "\u0120cloak": 2769, "\u0120hide": 2770, "lebr": 2771, "\u0120tur": 2772, "\u0120built": 2773, "\u0120bought": 2774, "\u0120cir": 2775, "\u0120growing": 2776, "\u0120doubt": 2777, "\u0120fier": 2778, "\u0120doct": 2779, "\u0120wooden": 2780, "\u0120feeling": 2781, "venge": 2782, "\u0120cal": 2783, "\u0120wrong": 2784, "\u0120decided": 2785, "\u0120noble": 2786, "rose": 2787, "\u0120silk": 2788, "ords": 2789, "\u0120thrust": 2790, "\u0120walter": 2791, "\u0120dev": 2792, "\u0120widow": 2793, "\u0120anc": 2794, "\u0120momotaro": 2795, "\u0120knowing": 2796, "\u0120grief": 2797, "\u0120cause": 2798, "\u0120attend": 2799, "uel": 2800, "\u0120recogn": 2801, "arest": 2802, "hy": 2803, "\u0120stars": 2804, "\u0120awoke": 2805, "\u0120lips": 2806, "\u0120happiness": 2807, "wise": 2808, "gl": 2809, "\u0120custom": 2810, "\u0120magnific": 2811, "dra": 2812, "\u0120arthur": 2813, "hor": 2814, "\u0120sick": 2815, "\u0120exch": 2816, "\u0120emb": 2817, "ult": 2818, "\u0120weather": 2819, "rap": 2820, "\u0120thunder": 2821, "\u0120jam": 2822, "\u0120saint": 2823, "uan": 2824, "\u0120duchess": 2825, "\u0120thumbelina": 2826, "\u0120didn": 2827, "\u0120inc": 2828, "\u0120pursu": 2829, "sw": 2830, "\u0120waves": 2831, "\u0120hy": 2832, "\u0120bent": 2833, "\u0120knocked": 2834, "\u0120haste": 2835, "\u0120dust": 2836, "\u0120deser": 2837, "\u0120stayed": 2838, "\u0120expected": 2839, "\u0120drank": 2840, "\u0120cloud": 2841, "\u0120soldiers": 2842, "ech": 2843, "\u0120smo": 2844, "\u0120weary": 2845, "\u0120danger": 2846, "\u0120eggs": 2847, "\u0120amongst": 2848, "heart": 2849, "warf": 2850, "\u0120par": 2851, "door": 2852, "gar": 2853, "\u0120ax": 2854, "ohn": 2855, "\u0120manit": 2856, "\u0120notice": 2857, "\u0120garments": 2858, "\u0120mighty": 2859, "\u0120bitterly": 2860, "ceive": 2861, "\u0120kindness": 2862, "first": 2863, "\u0120entire": 2864, "\u0120earn": 2865, "igned": 2866, "\u0120reply": 2867, "ouses": 2868, "off": 2869, "sk": 2870, "\u0120purp": 2871, "\u0120greatest": 2872, "und": 2873, "\u0120appearance": 2874, "\u0120spoken": 2875, "\u0120plan": 2876, "bled": 2877, "\u0120cho": 2878, "\u0120scarcely": 2879, "\u0120attempt": 2880, "ivered": 2881, "upid": 2882, "\u0120fun": 2883, "\u0120animals": 2884, "\u0120prof": 2885, "\u0120leaving": 2886, "\u0120gathered": 2887, "\u0120bran": 2888, "\u0120hanging": 2889, "\u0120street": 2890, "\u0120chair": 2891, "ening": 2892, "\u0120smell": 2893, "ca": 2894, "..": 2895, "ben": 2896, "aul": 2897, "omas": 2898, "god": 2899, "\u010a\u0120\u0120\u0120\u0120": 2900, "\u0120bank": 2901, "\u0120surr": 2902, "\u0120walls": 2903, "\u0120cand": 2904, "\u0120finding": 2905, "\u0120dreadful": 2906, "\u0120idea": 2907, "\u0120sleeping": 2908, "\u0120advent": 2909, "itter": 2910, "\u0120curious": 2911, "\u0120nearer": 2912, "\u0120miser": 2913, "\u0120caused": 2914, "\u0120enchanted": 2915, "form": 2916, "\u0120div": 2917, "rell": 2918, "\u0120dut": 2919, "\u0120letter": 2920, "\u0120scre": 2921, "wed": 2922, "\u0120horns": 2923, "\u0120picked": 2924, "\u0120sorts": 2925, "\u0120chest": 2926, "\u0120wash": 2927, "imney": 2928, "\u0120thread": 2929, "\u0120bund": 2930, "\u0120whoever": 2931, "master": 2932, "\u0120bamb": 2933, "\u0120bamboo": 2934, "\u0120goat": 2935, "\u0120bot": 2936, "greg": 2937, "\u0120kitten": 2938, "\u0120warrior": 2939, "\u0120doll": 2940, "\u0120grethe": 2941, "\u0120grethel": 2942, "intaro": 2943, "\u0120slipped": 2944, "\u0120mortal": 2945, "\u0120impossible": 2946, "\u0120despair": 2947, "\u0120shouted": 2948, "\u0120unhappy": 2949, "beg": 2950, "\u0120meat": 2951, "\u0120ah": 2952, "\u0120thrown": 2953, "\u0120celebr": 2954, "aces": 2955, "ards": 2956, "\u0120heed": 2957, "\u0120den": 2958, "\u0120wondered": 2959, "\u0120putting": 2960, "ashion": 2961, "\u0120buried": 2962, "\u0120point": 2963, "\u0120knows": 2964, "\u0120later": 2965, "\u0120softly": 2966, "\u0120snake": 2967, "\u0120jewe": 2968, "ashed": 2969, "\u0120sometimes": 2970, "bye": 2971, "\u0120spell": 2972, "\u0120younger": 2973, "\u0120skill": 2974, "\u0120tea": 2975, "lin": 2976, "\u0120arrows": 2977, "tled": 2978, "ker": 2979, "\u0120muff": 2980, "\u0120manito": 2981, "\u0120ko": 2982, "ital": 2983, "\u0120neighbour": 2984, "aming": 2985, "dis": 2986, "\u0120bushes": 2987, "\u0120pen": 2988, "\u0120expect": 2989, "\u0120fate": 2990, "beaut": 2991, "ike": 2992, "'re": 2993, "\u0120key": 2994, "utes": 2995, "\u0120busy": 2996, "\u0120everybody": 2997, "\u0120week": 2998, "ci": 2999, "\u0120couple": 3000, "\u0120coach": 3001, "\u0120sal": 3002, "\u0120purpose": 3003, "\u0120bound": 3004, "\u0120sought": 3005, "\u0120perfect": 3006, "\u0120raven": 3007, "\u0120feed": 3008, "\u0120bones": 3009, "\u0120travel": 3010, "\u0120scrat": 3011, "\u0120doctor": 3012, "\u0120cab": 3013, "owned": 3014, "\u0120turning": 3015, "\u0120tip": 3016, "\u0120forgotten": 3017, "\u0120pill": 3018, "\u0120sailed": 3019, "\u0120mistress": 3020, "\u0120fallen": 3021, "noon": 3022, "\u0120crowd": 3023, "orted": 3024, "\u0120twice": 3025, "cod": 3026, "\u0120learned": 3027, "\u0120john": 3028, "\u0120fig": 3029, "\u0120vent": 3030, "\u0120ogre": 3031, "\u0120timmy": 3032, "\u0120thirst": 3033, "\u0120kissed": 3034, "\u0120cent": 3035, "\u0120astonished": 3036, "\u0120stir": 3037, "give": 3038, "ighed": 3039, "asped": 3040, "\u0120closed": 3041, "\u0120adm": 3042, "\u0120eight": 3043, "mn": 3044, "rely": 3045, "remon": 3046, "\u0120unless": 3047, "\u0120whistle": 3048, "enger": 3049, "queen": 3050, "step": 3051, "\u0120mor": 3052, "\u0120looks": 3053, "\u0120armor": 3054, "\u0120broad": 3055, "road": 3056, "\u0120ones": 3057, "\u0120stupid": 3058, "\u0120horri": 3059, "\u0120houses": 3060, "\u0120south": 3061, "\u0120comb": 3062, "ship": 3063, "\u0120shoulder": 3064, "\u0120mantle": 3065, "\u0120chimney": 3066, "sister": 3067, "\u0120crocod": 3068, "eph": 3069, "ephany": 3070, "\u0120bottle": 3071, "\u0120silverwhite": 3072, "jamin": 3073, "kel": 3074, "cgreg": 3075, "cgregor": 3076, "\u0120moned": 3077, "\u0120owasso": 3078, "retched": 3079, "\u0120approached": 3080, "\u0120meantime": 3081, "ament": 3082, "\u0120plum": 3083, "\u0120arr": 3084, "ays": 3085, "stone": 3086, "\u0120content": 3087, "dear": 3088, "\u0120drawn": 3089, "\u0120aff": 3090, "sembled": 3091, "\u0120midst": 3092, "\u0120rejo": 3093, "\u0120smith": 3094, "\u0120playing": 3095, "\u0120willing": 3096, "\u0120riding": 3097, "\u0120washed": 3098, "\u0120cart": 3099, "young": 3100, "\u0120accompan": 3101, "zz": 3102, "\u0120altogether": 3103, "took": 3104, "welt": 3105, "anter": 3106, "\u0120midnight": 3107, "\u0120touch": 3108, "\u0120shoulders": 3109, "\u0120dwarf": 3110, "\u0120soul": 3111, "\u0120state": 3112, "\u0120anger": 3113, "\u0120panc": 3114, "\u0120whispered": 3115, "\u0120sen": 3116, "eper": 3117, "\u0120darkness": 3118, "\u0120jewels": 3119, "stood": 3120, "\u0120arose": 3121, "\u0120respect": 3122, "\u0120gray": 3123, "\u0120rocket": 3124, "\u0120poet": 3125, "\u0120favor": 3126, "\u0120kintaro": 3127, "\u0120kung": 3128, "\u0120bid": 3129, "mount": 3130, "through": 3131, "\u0120giving": 3132, "acinth": 3133, "\u0120threat": 3134, "\u0120minute": 3135, "cour": 3136, "\u0120safely": 3137, "\u0120account": 3138, "\u0120merry": 3139, "\u0120shoe": 3140, "ities": 3141, "\u0120helped": 3142, "\u0120feared": 3143, "\u0120befall": 3144, "\u0120lies": 3145, "\u0120served": 3146, "\u0120weep": 3147, "ines": 3148, "\u0120fal": 3149, "ives": 3150, "bre": 3151, "\u0120attention": 3152, "\u0120tear": 3153, "vel": 3154, "\u0120weeping": 3155, "\u0120expl": 3156, "\u0120terror": 3157, "\u0120dwelt": 3158, "\u0120passing": 3159, "\u0120stro": 3160, "\u0120hero": 3161, "\u0120inquired": 3162, "\u0120pet": 3163, "ushing": 3164, "face": 3165, "\u0120hunger": 3166, "\u0120hastened": 3167, "\u0120chanced": 3168, "\u0120burning": 3169, "\u0120band": 3170, "\u0120stuck": 3171, "\u0120gladly": 3172, "du": 3173, "\u0120kindly": 3174, "\u0120bargain": 3175, "\u0120tephany": 3176, "\u0120soldier": 3177, "mr": 3178, "\u0120liu": 3179, "\u0120swam": 3180, "bet": 3181, "\u0120wake": 3182, "fin": 3183, "\u0120careful": 3184, "\u0120descend": 3185, "mbling": 3186, "ssed": 3187, "\u0120refuse": 3188, "\u0120smiled": 3189, "\u0120val": 3190, "lete": 3191, "\u0120written": 3192, "\u0120cheer": 3193, "served": 3194, "\u0120rag": 3195, "\u0120share": 3196, "\u0120talked": 3197, "known": 3198, "\u0120messenger": 3199, "\u0120consider": 3200, "\u0120id": 3201, "\u0120quietly": 3202, "looked": 3203, "cup": 3204, "\u0120bun": 3205, "brother": 3206, "\u0120watching": 3207, "\u0120party": 3208, "\u0120waters": 3209, "\u0120creatures": 3210, "\u0120cattle": 3211, "\u0120swim": 3212, "agh": 3213, "\u0120failed": 3214, "\u0120seat": 3215, "ydd": 3216, "sil": 3217, "\u0120bundle": 3218, "\u0120sport": 3219, "\u0120thomas": 3220, "\u0120pinkel": 3221, "\u0120gy": 3222, "stal": 3223, "\u0120holding": 3224, "adle": 3225, "\u0120meadow": 3226, "oe": 3227, "don": 3228, "\u0120pure": 3229, "another": 3230, "zen": 3231, "\u0120cloth": 3232, "ates": 3233, "\u0120mark": 3234, "aves": 3235, "\u0120bore": 3236, "bec": 3237, "\u0120tight": 3238, "ales": 3239, "\u0120hastily": 3240, "\u0120eager": 3241, "\u0120obtain": 3242, "fortune": 3243, "\u0120seem": 3244, "\u0120aloud": 3245, "\u0120av": 3246, "\u0120worked": 3247, "\u0120aid": 3248, "\u0120pretended": 3249, "\u0120ladies": 3250, "\u0120shr": 3251, "wal": 3252, "\u0120manage": 3253, "\u0120falling": 3254, "\u0120distant": 3255, "\u0120behold": 3256, "wee": 3257, "iko": 3258, "\u0120calling": 3259, "\u0120mour": 3260, "\u0120powerful": 3261, "umn": 3262, "\u0120pearls": 3263, "pass": 3264, "ground": 3265, "\u0120ham": 3266, "ssom": 3267, "awydd": 3268, "awyddan": 3269, "\u0120eng": 3270, "\u0120gobl": 3271, "\u0120benjamin": 3272, "\u0120mcgregor": 3273, "\u0120dschang": 3274, "\u0120gynt": 3275, "\u0120travell": 3276, "\u0120sounded": 3277, "cr": 3278, "\u0120milan": 3279, "beautiful": 3280, "shall": 3281, "oved": 3282, "count": 3283, "\u0120vex": 3284, "far": 3285, "\u0120belonged": 3286, "know": 3287, "\u0120ended": 3288, "\u0120rooms": 3289, "\u0120trust": 3290, "\u0120asking": 3291, "cy": 3292, "\u0120glo": 3293, "\u0120pit": 3294, "ari": 3295, "\u0120lean": 3296, "\u0120baby": 3297, "\u0120fif": 3298, "essed": 3299, "\u0120discovered": 3300, "ball": 3301, "\u0120silence": 3302, "water": 3303, "\u0120finest": 3304, "\u0120rise": 3305, "\u0120branch": 3306, "\u0120stories": 3307, "\u0120tale": 3308, "ges": 3309, "\u0120susp": 3310, "\u0120schol": 3311, "\u0120beginning": 3312, "mission": 3313, "\u0120leaped": 3314, "\u0120swords": 3315, "\u0120east": 3316, "\u0120drop": 3317, "isie": 3318, "\u0120merchant": 3319, "\u0120knees": 3320, "bes": 3321, "eds": 3322, "\u0120twenty": 3323, "\u0120hyacinth": 3324, "\u0120suppose": 3325, "hen": 3326, "\u0120crossed": 3327, "\u0120roots": 3328, "\u0120cake": 3329, "ler": 3330, "\u0120occas": 3331, "yn": 3332, "\u0120anxious": 3333, "hat": 3334, "\u0120ceremon": 3335, "\u0120celebrated": 3336, "\u0120fact": 3337, "spirit": 3338, "\u0120contain": 3339, "ishing": 3340, "\u0120bringing": 3341, "\u0120bold": 3342, "\u0120smoke": 3343, "\u0120rubbed": 3344, "\u0120hares": 3345, "\u0120cover": 3346, "kufa": 3347, "\u0120rice": 3348, "\u0120presence": 3349, "somet": 3350, "acked": 3351, "terday": 3352, "\u0120wet": 3353, "\u0120offered": 3354, "may": 3355, "away": 3356, "its": 3357, "\u0120yonder": 3358, "oon": 3359, "\u0120friendly": 3360, "\u0120pine": 3361, "\u0120lump": 3362, "\u0120jewel": 3363, "\u0120pancake": 3364, "aac": 3365, "\u0120squir": 3366, "\u0120refused": 3367, "\u0120gle": 3368, "\u0120condition": 3369, "\u0120dared": 3370, "irt": 3371, "\u0120loudly": 3372, "\u0120cruel": 3373, "must": 3374, "\u0120fanc": 3375, "\u0120closely": 3376, "iently": 3377, "\u0120sake": 3378, "\u0120natur": 3379, "\u0120drawing": 3380, "\u0120pale": 3381, "\u0120sole": 3382, "del": 3383, "should": 3384, "\u0120resol": 3385, "even": 3386, "\u0120thin": 3387, "\u0120poison": 3388, "\u0120army": 3389, "lter": 3390, "\u0120pra": 3391, "\u0120port": 3392, "\u0120repe": 3393, "\u0120magnificent": 3394, "\u0120handed": 3395, "\u0120destro": 3396, "\u0120club": 3397, "\u0120maj": 3398, "\u0120allow": 3399, "\u0120wheel": 3400, "\u0120coff": 3401, "\u0120gather": 3402, "children": 3403, "\u0120bew": 3404, "\u0120store": 3405, "\u0120swallowed": 3406, "nor": 3407, "\u0120vi": 3408, "\u0120object": 3409, "\u0120manawyddan": 3410, "\u0120blossom": 3411, "\u0120goes": 3412, "egg": 3413, "\u0120gun": 3414, "coal": 3415, "berry": 3416, "\u0120prize": 3417, "acket": 3418, "umed": 3419, "\u0120tower": 3420, "ppet": 3421, "\u0120ancient": 3422, "\u0120wound": 3423, "\u0120sack": 3424, "rella": 3425, "\u0120knos": 3426, "troll": 3427, "\u0120muffet": 3428, "\u0120tab": 3429, "itha": 3430, "owa": 3431, "\u0120beard": 3432, "\u0120cradle": 3433, "ident": 3434, "\u0120refle": 3435, "\u0120flock": 3436, "usion": 3437, "\u0120sy": 3438, "\u0120receive": 3439, "ccas": 3440, "len": 3441, "\u0120pointed": 3442, "\u0120ele": 3443, "\u0120counc": 3444, "call": 3445, "\u0120companion": 3446, "intment": 3447, "\u0120astonishment": 3448, "lded": 3449, "\u0120brook": 3450, "\u0120hither": 3451, "ledge": 3452, "atch": 3453, "esty": 3454, "\u0120fashion": 3455, "\u0120host": 3456, "\u0120exchange": 3457, "\u0120delivered": 3458, "\u0120awake": 3459, "\u0120seal": 3460, "\u0120horrible": 3461, "ao": 3462, "\u0120afternoon": 3463, "\u0120priest": 3464, "\u0120string": 3465, "\u0120loose": 3466, "\u0120remark": 3467, "\u0120mud": 3468, "ugg": 3469, "\u0120race": 3470, "\u0120craw": 3471, "\u0120shell": 3472, "\u0120aside": 3473, "dog": 3474, "\u0120tar": 3475, "mar": 3476, "\u0120const": 3477, "\u0120months": 3478, "\u0120instantly": 3479, "\u0120gazed": 3480, "\u0120apart": 3481, "\u0120directly": 3482, "home": 3483, "tre": 3484, "groom": 3485, "unning": 3486, "\u0120gallop": 3487, "\u0120gifts": 3488, "\u0120equ": 3489, "bly": 3490, "quet": 3491, "shine": 3492, "\u0120wondering": 3493, "ormous": 3494, "because": 3495, "fire": 3496, "\u0120soup": 3497, "than": 3498, "\u0120prot": 3499, "\u0120badly": 3500, "\u0120surrounded": 3501, "\u0120hit": 3502, "\u0120yours": 3503, "\u0120firm": 3504, "\u0120rough": 3505, "\u0120shake": 3506, "bai": 3507, "baik": 3508, "\u0120weeks": 3509, "\u0120drive": 3510, "ope": 3511, "hu": 3512, "\u0120stud": 3513, "\u0120tig": 3514, "\u0120woke": 3515, "\u0120shoot": 3516, "hill": 3517, "\u0120smile": 3518, "\u0120kilwe": 3519, "\u0120kilweh": 3520, "pen": 3521, "\u0120shep": 3522, "\u0120sorce": 3523, "\u0120treasure": 3524, "\u0120lim": 3525, "\u0120dull": 3526, "\u0120health": 3527, "\u0120foster": 3528, "oto": 3529, "peter": 3530, "una": 3531, "\u0120tabitha": 3532, "\u0120squire": 3533, "\u0120isaac": 3534, "\u0120boar": 3535, "mand": 3536, "ateful": 3537, "\u0120ric": 3538, "\u0120sank": 3539, "wind": 3540, "\u0120foolish": 3541, "bel": 3542, "pleas": 3543, "\u0120proceed": 3544, "two": 3545, "\u0120chari": 3546, "\u0120entirely": 3547, "\u0120ceased": 3548, "\u0120makes": 3549, "\u0120managed": 3550, "\u0120orders": 3551, "\u0120spinning": 3552, "\u0120doors": 3553, "\u0120fetched": 3554, "par": 3555, "icular": 3556, "make": 3557, "\u0120accept": 3558, "\u0120amuse": 3559, "ortun": 3560, "\u0120pict": 3561, "\u0120breakfast": 3562, "\u0120parted": 3563, "\u0120tru": 3564, "umbled": 3565, "atched": 3566, "lly": 3567, "\u0120wants": 3568, "\u0120post": 3569, "hel": 3570, "\u0120companions": 3571, "\u0120rising": 3572, "\u0120wishes": 3573, "\u0120moor": 3574, "rance": 3575, "\u0120ple": 3576, "\u0120learn": 3577, "\u0120bare": 3578, "\u0120intended": 3579, "ils": 3580, "\u0120withered": 3581, "swe": 3582, "\u0120buff": 3583, "ipattle": 3584, "\u0120sorcerer": 3585, "mas": 3586, "\u0120maisie": 3587, "chub": 3588, "chubar": 3589, "\u0120jamie": 3590, "ima": 3591, "\u0120shiro": 3592, "\u0120crane": 3593, "\u0120luc": 3594, "apped": 3595, "\u0120greed": 3596, "\u0120deeply": 3597, "sudden": 3598, "\u0120counsel": 3599, "\u0120faint": 3600, "\u0120breat": 3601, "\u0120trembling": 3602, "\u0120wax": 3603, "\u0120bridegroom": 3604, "\u0120princes": 3605, "fly": 3606, "mu": 3607, "ude": 3608, "\u0120fu": 3609, "\u0120tore": 3610, "\u0120shame": 3611, "owl": 3612, "tyard": 3613, "\u0120teach": 3614, "ances": 3615, "\u0120consented": 3616, "\u0120smooth": 3617, "\u0120meeting": 3618, "\u0120presented": 3619, "rence": 3620, "\u0120wretched": 3621, "three": 3622, "\u0120trick": 3623, "\u0120spl": 3624, "\u0120majesty": 3625, "\u0120climb": 3626, "gest": 3627, "\u0120ere": 3628, "\u0120believed": 3629, "inkle": 3630, "\u0120dig": 3631, "\u0120surface": 3632, "\u0120gopan": 3633, "\u0120gopani": 3634, "\u0120saved": 3635, "\u0120troubled": 3636, "nday": 3637, "hest": 3638, "\u0120pump": 3639, "\u0120nodd": 3640, "\u0120spare": 3641, "\u0120opening": 3642, "\u0120pushed": 3643, "\u0120breast": 3644, "\u0120spend": 3645, "\u0120scholar": 3646, "osite": 3647, "\u0120size": 3648, "iped": 3649, "\u0120speaking": 3650, "\u0120vict": 3651, "\u0120fishes": 3652, "ridge": 3653, "\u0120scrap": 3654, "\u0120blessed": 3655, "\u0120pond": 3656, "emima": 3657, "\u0120duckling": 3658, "\u0120aduan": 3659, "\u0120crystal": 3660, "put": 3661, "\u0120lit": 3662, "bird": 3663, "foot": 3664, "\u0120setting": 3665, "\u0120approaching": 3666, "\u0120plant": 3667, "\u0120inter": 3668, "ction": 3669, "cially": 3670, "\u0120sunshine": 3671, "\u0120lands": 3672, "hal": 3673, "\u0120hearing": 3674, "sm": 3675, "\u0120thro": 3676, "\u0120gird": 3677, "\u0120bowl": 3678, "\u0120prett": 3679, "ortunity": 3680, "\u0120repeated": 3681, "\u0120household": 3682, "\u0120truly": 3683, "\u0120wearing": 3684, "\u0120sol": 3685, "horse": 3686, "\u0120deliver": 3687, "\u0120trem": 3688, "\u0120lucky": 3689, "bar": 3690, "\u0120inn": 3691, "\u0120obeyed": 3692, "\u0120stolen": 3693, "castle": 3694, "\u0120lab": 3695, "\u0120bite": 3696, "\u0120farther": 3697, "\u0120mare": 3698, "something": 3699, "\u0120blessing": 3700, "\u0120yesterday": 3701, "sold": 3702, "ams": 3703, "ault": 3704, "\u0120driven": 3705, "\u0120utter": 3706, "\u0120difficulty": 3707, "\u0120permission": 3708, "noc": 3709, "\u0120rap": 3710, "\u0120ange": 3711, "\u0120heels": 3712, "\u0120quarter": 3713, "\u0120buffal": 3714, "\u0120rasp": 3715, "\u0120captain": 3716, "\u0120flames": 3717, "estiv": 3718, "\u0120christmas": 3719, "\u0120hopped": 3720, "\u0120une": 3721, "adi": 3722, "nock": 3723, "\u0120oon": 3724, "\u0120oonagh": 3725, "tough": 3726, "\u0120fawn": 3727, "cutter": 3728, "\u0120yam": 3729, "anabe": 3730, "\u0120capital": 3731, "\u0120someone": 3732, "suddenly": 3733, "soon": 3734, "\u0120sadly": 3735, "\u0120locked": 3736, "\u0120chase": 3737, "\u0120difficult": 3738, "\u0120sides": 3739, "\u0120bearing": 3740, "pecially": 3741, "\u0120seems": 3742, "\u0120solemn": 3743, "inting": 3744, "\u0120enormous": 3745, "\u0120driving": 3746, "\u0120ordinary": 3747, "idding": 3748, "kes": 3749, "oring": 3750, "\u0120grad": 3751, "\u0120false": 3752, "ittering": 3753, "present": 3754, "eland": 3755, "\u0120misfortune": 3756, "\u0120grace": 3757, "\u0120opportunity": 3758, "alas": 3759, "indeed": 3760, "\u0120cheese": 3761, "ously": 3762, "fer": 3763, "\u0120wherever": 3764, "\u0120sigh": 3765, "\u0120knights": 3766, "isible": 3767, "ifully": 3768, "\u0120beasts": 3769, "\u0120poured": 3770, "\u0120sco": 3771, "gold": 3772, "lain": 3773, "\u0120drowned": 3774, "cou": 3775, "told": 3776, "\u0120suffered": 3777, "\u0120summon": 3778, "\u0120questions": 3779, "\u0120sunday": 3780, "aked": 3781, "ssing": 3782, "\u0120weak": 3783, "\u0120prev": 3784, "\u0120fift": 3785, "\u0120moonlight": 3786, "\u0120slain": 3787, "thou": 3788, "\u0120comfortable": 3789, "\u0120treated": 3790, "\u0120speech": 3791, "\u0120torn": 3792, "\u0120ver": 3793, "\u0120trunk": 3794, "hun": 3795, "\u0120ber": 3796, "wack": 3797, "\u0120offic": 3798, "\u0120overcome": 3799, ";\"": 3800, "\u010a\u010a\u0120\u0120\u0120": 3801, "\u0120paul": 3802, "\u0120greater": 3803, "\u0120figure": 3804, "\u0120fer": 3805, "\u0120goblin": 3806, "avin": 3807, "ittlemouse": 3808, "\u0120moppet": 3809, "\u0120dsing": 3810, "unz": 3811, "unzh": 3812, "\u0120monedowa": 3813, "\u0120ebe": 3814, "\u0120goble": 3815, "\u0120claws": 3816, "appeared": 3817, "otion": 3818, "\u0120demand": 3819, "ushes": 3820, "\u0120rul": 3821, "prince": 3822, "\u0120steal": 3823, "mory": 3824, "\u0120charming": 3825, "\u0120alas": 3826, "dist": 3827, "hog": 3828, "asked": 3829, "love": 3830, "new": 3831, "\u0120liver": 3832, "\u0120quant": 3833, "\u0120condu": 3834, "made": 3835, "\u0120pluck": 3836, "\u0120beating": 3837, "\u0120und": 3838, "\u0120subject": 3839, "\u0120gradually": 3840, "heard": 3841, "\u0120complete": 3842, "aled": 3843, "ners": 3844, "\u0120nature": 3845, "\u0120begin": 3846, "\u0120ev": 3847, "\u0120ju": 3848, "\u0120cher": 3849, "\u0120rate": 3850, "\u0120serve": 3851, "\u0120instant": 3852, "giant": 3853, "\u0120abo": 3854, "\u0120flesh": 3855, "\u0120bill": 3856, "\";": 3857, "versation": 3858, "perhaps": 3859, "net": 3860, "\u0120fix": 3861, "\u0120barbaik": 3862, "toes": 3863, "\u010a\u0120\u0120\u0120\u0120\u0120\u0120\u0120\u0120\u0120": 3864, "\u0120sore": 3865, "\u0120longing": 3866, "\u0120dragged": 3867, "\u0120higher": 3868, "oes": 3869, "\u0120maie": 3870, "\u0120hearth": 3871, "\u0120larger": 3872, "\u0120fill": 3873, "\u0120temp": 3874, "\u0120daily": 3875, "itude": 3876, "wr": 3877, "\u0120befallen": 3878, "\u0120greeted": 3879, "bu": 3880, "\u0120innoc": 3881, "\u0120wisdom": 3882, "iting": 3883, "\u0120rocks": 3884, "\u0120shop": 3885, "\u0120fastened": 3886, "\u0120carriage": 3887, "\u0120charcoal": 3888, "bon": 3889, "\u0120prob": 3890, "\u0120assipattle": 3891, "\u0120porridge": 3892, "\u0120occasion": 3893, "coat": 3894, "),": 3895, "\u0120squee": 3896, "\u0120dung": 3897, "bush": 3898, "\u0120fem": 3899, "\u0120ryn": 3900, "\u0120jin": 3901, "\u0120yamato": 3902, "illwack": 3903, "illwacker": 3904, "\u0120rats": 3905, "\u0120jose": 3906, "\u0120squirrel": 3907, "\u0120esben": 3908, "\u0120parts": 3909, "\u0120courtiers": 3910, "\u0120distress": 3911, "\u0120thanks": 3912, "\u0120delay": 3913, "fish": 3914, "\u0120sighed": 3915, "\u0120minutes": 3916, "fortun": 3917, "\u0120earnest": 3918, "\u0120grat": 3919, "terest": 3920, "\u0120chose": 3921, "\u0120vexed": 3922, "urs": 3923, "\u0120dirty": 3924, "uture": 3925, "\u0120cooked": 3926, "\u0120throat": 3927, "car": 3928, "\u0120courtyard": 3929, "\u0120adventures": 3930, "green": 3931, "\u0120girdle": 3932, "berries": 3933, "\u0120lack": 3934, "\u0120self": 3935, "\u0120celand": 3936, "\u0120celandine": 3937, "since": 3938, "\u0120diam": 3939, "alous": 3940, "\u0120idle": 3941, "seen": 3942, "\u0120trans": 3943, "\u0120punishment": 3944, "\u0120giants": 3945, "\u0120traveled": 3946, "\u0120addressed": 3947, "\u0120property": 3948, "\u0120offer": 3949, "\u0120stuff": 3950, "\u0120persu": 3951, "\u0120lin": 3952, "\u0120env": 3953, "\u0120nuts": 3954, "\u0120revenge": 3955, "cut": 3956, "\u0120herds": 3957, "these": 3958, "bac": 3959, "\u0120stands": 3960, "\u0120uttered": 3961, "\u0120dishes": 3962, "\u0120resc": 3963, "\u0120spin": 3964, "\u0120curtain": 3965, "\u0120likely": 3966, "\u0120lighted": 3967, "deri": 3968, "rily": 3969, "\u0120strugg": 3970, "\u0120opposite": 3971, "\u0120rapid": 3972, "\u0120shepherd": 3973, "\u0120trembled": 3974, "\u0120rod": 3975, "yard": 3976, "pent": 3977, "youth": 3978, "ustomed": 3979, "\u0120ye": 3980, "\u0120entertain": 3981, "\u0120festiv": 3982, "\u0120venture": 3983, "\u0120general": 3984, "\u0120rua": 3985, "\u0120demons": 3986, "aren": 3987, "kerchief": 3988, "inderella": 3989, "duck": 3990, "\u0120moccas": 3991, "som": 3992, "\u0120effort": 3993, "\u0120groan": 3994, "\u0120cheeks": 3995, "\u0120amaz": 3996, "\u0120robe": 3997, "\u0120hyacinthia": 3998, "ingu": 3999, "\u0120cheek": 4000, "\u0120nowhere": 4001, "\u0120candle": 4002, "burn": 4003, "quite": 4004, "\u0120beloved": 4005, "\u0120memory": 4006, "everything": 4007, "\u0120guests": 4008, "\u0120fairly": 4009, "ibly": 4010, "\u0120message": 4011, "cont": 4012, "\u0120interest": 4013, "much": 4014, "iety": 4015, "\u0120birth": 4016, "\u0120pointing": 4017, "\u0120incre": 4018, "\u0120matters": 4019, "sidered": 4020, "\u0120treas": 4021, "shell": 4022, "fur": 4023, "\u0120freed": 4024, "cell": 4025, "\u0120shelter": 4026, "\u0120particular": 4027, "\u0120cakes": 4028, "\u0120diamond": 4029, "ises": 4030, "\u0120unknown": 4031, "iding": 4032, "\u0120cost": 4033, "aying": 4034, "\u0120disappointed": 4035, "\u0120honey": 4036, "\u0120whir": 4037, "\u0120famous": 4038, "\u0120main": 4039, "\u0120cord": 4040, "\u0120future": 4041, "umbling": 4042, "\u0120scr": 4043, "\u0120ourselves": 4044, "aced": 4045, "\u0120thirsty": 4046, "ashing": 4047, "\u0120fought": 4048, "\u0120matte": 4049, "\u0120scattered": 4050, "bacco": 4051, "shore": 4052, "\u0120glittering": 4053, "\u0120faces": 4054, "\u0120heavens": 4055, "iew": 4056, "\u0120heap": 4057, "illy": 4058, "\u0120occur": 4059, "pro": 4060, "\u0120mortar": 4061, "\u0120forehead": 4062, "\u0120hurt": 4063, "\u0120lap": 4064, "\u0120viol": 4065, "\u0120highest": 4066, "\u0120wiz": 4067, "\u0120understood": 4068, "thank": 4069, "\u0120pry": 4070, "apsack": 4071, "\u0120charge": 4072, "\u0120grandmother": 4073, "\u0120oldest": 4074, "\u0120ram": 4075, "\u0120fitted": 4076, "\u0120banquet": 4077, "\u0120cler": 4078, "rant": 4079, "\u0120wealth": 4080, "\u0120probably": 4081, "\u0120trolls": 4082, "zed": 4083, "\u0120vo": 4084, "\u0120delicate": 4085, "\u0120bannock": 4086, "\u0120necess": 4087, "\u0120kavin": 4088, "\u0120lightning": 4089, "\u0120conchubar": 4090, "\u0120haw": 4091, "\u0120bags": 4092, "\u0120murtough": 4093, "\u0120stork": 4094, "\u0120karen": 4095, "\u0120dragons": 4096, "\u0120sentaro": 4097, "\u0120persim": 4098, "\u0120watanabe": 4099, "\u0120hase": 4100, "\u0120lillwacker": 4101, "ooster": 4102, "\u0120tittlemouse": 4103, "lodge": 4104, "\u0120moccasins": 4105, "\u0120fail": 4106, "\u0120tender": 4107, "\u0120lower": 4108, "zing": 4109, "\u0120saddle": 4110, "resh": 4111, "\u0120beaten": 4112, "girl": 4113, "airy": 4114, "\u0120recovered": 4115, "omes": 4116, "\u0120exper": 4117, "using": 4118, "\u0120assembled": 4119, "\u0120waist": 4120, "\u0120pigs": 4121, "\u0120wrote": 4122, "\u0120whence": 4123, "\u0120lest": 4124, "\u0120var": 4125, "many": 4126, "\u0120cage": 4127, "ively": 4128, "\u0120forced": 4129, "ues": 4130, "\u0120considered": 4131, "\u0120protect": 4132, "\u0120stole": 4133, "cover": 4134, "inded": 4135, "ipped": 4136, "\u0120afterwards": 4137, "\u0120lover": 4138, "\u0120temper": 4139, "\u0120distur": 4140, "\u0120ashamed": 4141, "\u0120invisible": 4142, "next": 4143, "\u0120conversation": 4144, "coun": 4145, "\u0120cask": 4146, "\u0120cutting": 4147, "\u0120herbs": 4148, "\u0120hoped": 4149, "\u0120net": 4150, "\u0120duty": 4151, "field": 4152, "\u0120stared": 4153, "\u0120hind": 4154, "\u0120working": 4155, "\u0120sweetheart": 4156, "\u0120stead": 4157, "\u0120fled": 4158, "stre": 4159, "asted": 4160, "fell": 4161, "\u0120aut": 4162, "\u0120autumn": 4163, "val": 4164, "\u0120slee": 4165, "\u0120peeped": 4166, "\u0120dam": 4167, "such": 4168, "\u0120longed": 4169, "\u0120grandfather": 4170, "\u0120swiftly": 4171, "\u0120orch": 4172, "\u0120pryderi": 4173, "non": 4174, "\u0120flight": 4175, "seemed": 4176, "\u0120dreams": 4177, "\u0120beak": 4178, "adows": 4179, "\u0120gown": 4180, "\u0120stronger": 4181, "met": 4182, "\u0120leap": 4183, "\u0120handle": 4184, "box": 4185, "silver": 4186, "\u0120ging": 4187, "\u0120ble": 4188, "nie": 4189, "\u0120import": 4190, "\u0120cliff": 4191, "worm": 4192, "\u0120measure": 4193, "\u0120unkind": 4194, "\u0120kitt": 4195, "\u0120insisted": 4196, "\u0120cupboard": 4197, "\u0120radi": 4198, "\u0120mac": 4199, "\u0120serving": 4200, "\u0120beings": 4201, "\u0120storks": 4202, "\u0120watchman": 4203, "\u0120forever": 4204, "\u0120puddle": 4205, "\u0120willie": 4206, "opsy": 4207, "\u0120guardian": 4208, "\u0120wunzh": 4209, "\u0120granted": 4210, "\u0120commanded": 4211, "\u0120goblet": 4212, "\u0120pink": 4213, "\u0120dearest": 4214, "\u0120impat": 4215, "dro": 4216, "\u0120polite": 4217, "\u0120prosp": 4218, "\u0120accordingly": 4219, "\u0120hedgehog": 4220, "liest": 4221, "\u0120desired": 4222, "\u0120extra": 4223, "fet": 4224, "armed": 4225, "\u0120ceremony": 4226, "\u0120kinds": 4227, "\u0120treasures": 4228, "work": 4229, "\u0120oil": 4230, "\u0120whither": 4231, "called": 4232, "\u0120flowed": 4233, "\u0120smaller": 4234, "inion": 4235, "urely": 4236, "\u0120exam": 4237, "\u0120jealous": 4238, "\u0120slight": 4239, "fri": 4240, "faith": 4241, "\u0120lod": 4242, "\u0120knowledge": 4243, "\u0120oak": 4244, "\u0120listening": 4245, "\u0120bark": 4246, "black": 4247, "\u0120bat": 4248, "\u0120lid": 4249, "\u0120laughter": 4250, "\u0120express": 4251, "\u0120gained": 4252, "hole": 4253, "\u0120faster": 4254, "\u0120narrow": 4255, "bow": 4256, "\u0120calf": 4257, "\u0120horror": 4258, "ooped": 4259, "\u0120goats": 4260, "\u0120waving": 4261, "cean": 4262, "\u0120delicious": 4263, "\u010d\u0120\u0120\u0120\u0120\u0120\u0120\u0120\u0120": 4264, "cow": 4265, "pile": 4266, "\u0120common": 4267, "\u0120grain": 4268, "nut": 4269, "cession": 4270, "\u0120scarlet": 4271, "vell": 4272, "ishop": 4273, "\u0120mention": 4274, "\u0120law": 4275, "\u0120flame": 4276, "pling": 4277, "\u0120copper": 4278, "stick": 4279, "ios": 4280, "lock": 4281, "\u0120frag": 4282, "top": 4283, "\u0120bone": 4284, "\u0120jon": 4285, "\u0120school": 4286, "\u0120thereupon": 4287, "soldier": 4288, "\u0120hiding": 4289, "\u0120glance": 4290, "\u0120med": 4291, "hab": 4292, "ator": 4293, "\u0120succeeded": 4294, "\u0120circle": 4295, "ik": 4296, "rum": 4297, "\u0120bells": 4298, "\u0120dan": 4299, "\u0120bracket": 4300, "\u0120hawk": 4301, "isions": 4302, "\u0120grind": 4303, "\u0120presents": 4304, "\u0120adorn": 4305, "\u0120roses": 4306, "flake": 4307, "\u0120cinderella": 4308, "\u0120tiptoes": 4309, "\u0120lucie": 4310, "\u0120mush": 4311, "\u0120ts": 4312, "serv": 4313, "\u0120seize": 4314, "\u0120couldn": 4315, "answered": 4316, "got": 4317, "\u0120rust": 4318, "world": 4319, "\u0120wasn": 4320, "open": 4321, "\u0120tap": 4322, "ieve": 4323, "\u0120row": 4324, "\u0120recognized": 4325, "\u0120ways": 4326, "des": 4327, "\u0120mile": 4328, "\u0120confusion": 4329, "\u0120chariot": 4330, "rived": 4331, "\u0120possibly": 4332, "\u0120agree": 4333, "\u0120natural": 4334, "\u0120charm": 4335, "\u0120market": 4336, "\u0120shown": 4337, "certain": 4338, "\u0120effect": 4339, "\u0120windows": 4340, "\u0120burnt": 4341, "\u0120seve": 4342, "\u0120bidding": 4343, "\u0120separ": 4344, "\u0120brightly": 4345, "seven": 4346, "\u0120bru": 4347, "\u0120def": 4348, "people": 4349, "\u0120match": 4350, "\u0120older": 4351, "\u0120circ": 4352, "\u0120perfectly": 4353, "last": 4354, "\u0120meanwhile": 4355, "\u0120throwing": 4356, "\u0120useful": 4357, "\u0120possessed": 4358, "\u0120robes": 4359, "\u0120est": 4360, "avern": 4361, "\u0120resolved": 4362, "\u0120prison": 4363, "\u0120cunning": 4364, "\u0120rested": 4365, "\u0120strang": 4366, "\u0120waste": 4367, "oned": 4368, "\u0120fifty": 4369, "\u0120fixed": 4370, "mean": 4371, "\u0120prepare": 4372, "\u0120laz": 4373, "\u0120letiko": 4374, "\u0120shed": 4375, "\u0120sunset": 4376, "\u0120rushing": 4377, "\u0120landed": 4378, "\u0120contented": 4379, "\u0120gull": 4380, "\u0120pipe": 4381, "\u0120\u0120\u0120\u0120\u0120\u0120": 4382, "\u0120roaring": 4383, "\u0120dwelling": 4384, "found": 4385, "\u0120sly": 4386, "steps": 4387, "\u0120erin": 4388, "\u0120nodded": 4389, "\u0120jud": 4390, "stri": 4391, "\u0120orchard": 4392, "\u0120pressed": 4393, "\u0120forb": 4394, "\u0120concer": 4395, "fol": 4396, "\u0120wander": 4397, "\u0120price": 4398, "\u0120nights": 4399, "\u0120bac": 4400, "\u0120knapsack": 4401, "izing": 4402, "\u0120downstairs": 4403, "\u0120enemies": 4404, "lar": 4405, "\u0120flax": 4406, "\u0120glen": 4407, "\u0120fault": 4408, "\u0120pos": 4409, "\u0120swimming": 4410, "\u0120handsom": 4411, "\u0120axe": 4412, "\u0120rolling": 4413, "\u0120prair": 4414, "\u0120angel": 4415, "pse": 4416, "isa": 4417, "lves": 4418, "\u0120cabb": 4419, "\u0120accustomed": 4420, "\u0120wrest": 4421, "\u0120hides": 4422, "\u0120trout": 4423, "\u0120snail": 4424, "\u0120clad": 4425, "\u0120voices": 4426, "\u0120instru": 4427, "\u0120affect": 4428, "\u0120butcher": 4429, "ji": 4430, "hime": 4431, "\u0120centiped": 4432, "kwe": 4433, "kwewa": 4434, "\u0120cool": 4435, "ald": 4436, "\u0120pursuit": 4437, "ordinary": 4438, "\u0120perceived": 4439, "gave": 4440, "lessly": 4441, "morn": 4442, "\u0120distingu": 4443, "\u0120task": 4444, "\u0120searched": 4445, "bring": 4446, "\u0120leading": 4447, "iration": 4448, "char": 4449, "\u0120madam": 4450, "\u0120wandering": 4451, "brought": 4452, "\u0120disg": 4453, "reme": 4454, "\u0120various": 4455, "engers": 4456, "\u0120daylight": 4457, "\u0120terrified": 4458, "clo": 4459, "hearted": 4460, "ending": 4461, "\u0120accompanied": 4462, "cellent": 4463, "presently": 4464, "\u0120pains": 4465, "\u0120cure": 4466, "\u0120bri": 4467, "race": 4468, "\u0120judge": 4469, "\u0120miserable": 4470, "neath": 4471, "enough": 4472, "gone": 4473, "\u0120cries": 4474, "\u0120sav": 4475, "\u0120gloom": 4476, "\u0120lanter": 4477, "\u0120lantern": 4478, "mor": 4479, "\u0120prove": 4480, "corn": 4481, "dding": 4482, "\u0120shaking": 4483, "\u0120thie": 4484, "\u0120aunt": 4485, "lted": 4486, "\u0120departed": 4487, "\u0120mun": 4488, "clock": 4489, "\u0120orn": 4490, "\u0120apr": 4491, "\u0120dying": 4492, "\u0120spear": 4493, "\u0120wra": 4494, "\u0120loss": 4495, "\u0120pillow": 4496, "\u0120christian": 4497, "\u0120ocean": 4498, "\u0120songs": 4499, "\u0120somewhat": 4500, "\u0120season": 4501, "\u0120occurred": 4502, "\u0120slave": 4503, "\u0120attendants": 4504, "follow": 4505, "\u0120everywhere": 4506, "\u0120procession": 4507, "\u0120visited": 4508, "\u0120sticks": 4509, "\u0120suspic": 4510, "keeper": 4511, "path": 4512, "\u0120unable": 4513, "poor": 4514, "sha": 4515, "\u0120repro": 4516, "\u0120sung": 4517, "\u0120floating": 4518, "\u0120fourth": 4519, "iosity": 4520, "\u0120ot": 4521, "\u0120crooked": 4522, "\u0120claim": 4523, "\u0120jonas": 4524, "\u0120keeping": 4525, "iment": 4526, "orworm": 4527, "\u0120threatened": 4528, "\u0120myster": 4529, "\u0120champ": 4530, "\u0120morna": 4531, "\u0120especially": 4532, "\u0120worn": 4533, "\u0120scen": 4534, "\u0120dick": 4535, "\u0120wre": 4536, "\u0120necessary": 4537, "ctions": 4538, "\u0120shine": 4539, "drag": 4540, "\u0120fowl": 4541, "\u0120lain": 4542, "\u0120wagon": 4543, "\u0120skillful": 4544, "\u0120tai": 4545, "\u0120ahead": 4546, "\u0120suitors": 4547, "\u0120bridal": 4548, "\u0120dschou": 4549, "\u0120canoe": 4550, "maidwa": 4551, "\u0120escaped": 4552, "\u0120lament": 4553, "\u0120thirty": 4554, "\u0120grateful": 4555, "\u0120descri": 4556, "ement": 4557, "near": 4558, "mounted": 4559, "\u0120roads": 4560, "fright": 4561, "comfort": 4562, "\u0120chos": 4563, "\u0120chosen": 4564, "fact": 4565, "rot": 4566, "tom": 4567, "round": 4568, "ables": 4569, "tal": 4570, "sto": 4571, "\u0120observed": 4572, "\u0120furn": 4573, "\u0120favour": 4574, "\u0120welcom": 4575, "\u0120conce": 4576, "\u0120haun": 4577, "bb": 4578, "\u0120informed": 4579, "ails": 4580, "\u0120habit": 4581, "\u0120hermit": 4582, "isk": 4583, "\u0120whirl": 4584, "always": 4585, "nel": 4586, "\u0120jegu": 4587, "\u0120hay": 4588, "\u0120linen": 4589, "\u0120oven": 4590, "\u0120hated": 4591, "\u0120shadow": 4592, "yet": 4593, "ours": 4594, "elt": 4595, "\u0120possession": 4596, "fts": 4597, "lic": 4598, "\u0120si": 4599, "\u0120spec": 4600, "\u0120fiddle": 4601, "\u0120according": 4602, "kin": 4603, "\u0120catching": 4604, "akened": 4605, "\u0120advanced": 4606, "things": 4607, "\u0120bishop": 4608, "\u0120hist": 4609, "four": 4610, "folk": 4611, "\u0120hath": 4612, "\u0120bridle": 4613, "\u0120steep": 4614, "spadd": 4615, "spaddad": 4616, "spaddaden": 4617, "\u0120stepmother": 4618, "\u0120ire": 4619, "\u0120ireland": 4620, "\u0120warriors": 4621, "\u0120complain": 4622, "sisters": 4623, "\u0120force": 4624, "\u0120passage": 4625, "\u0120chain": 4626, "\u0120stat": 4627, "\u0120snuff": 4628, "\u0120eve": 4629, "\u0120crocodiles": 4630, "\u0120curiosity": 4631, "\u0120aina": 4632, "\u0120raspberry": 4633, "\u0120sugar": 4634, "\u0120hearts": 4635, "\u0120wolves": 4636, "friend": 4637, "\u0120bacon": 4638, "\u0120praised": 4639, "cho": 4640, "\u0120bears": 4641, "ony": 4642, "\u0120conqu": 4643, "tless": 4644, "\u0120medic": 4645, "\u0120remarkable": 4646, "\u0120pasture": 4647, ").": 4648, "\u0120sin": 4649, "lfin": 4650, "\u0120holy": 4651, "\u0120chopped": 4652, "\u0120test": 4653, "\u0120tara": 4654, "\u0120provisions": 4655, "\u0120mole": 4656, "\u0120adorned": 4657, "\u0120sparks": 4658, "\u0120willow": 4659, "\u0120toy": 4660, "\u0120former": 4661, "illor": 4662, "\u0120crocodile": 4663, "\u0120prairie": 4664, "\u0120hidesato": 4665, "\u0120snowflake": 4666, "\u0120baba": 4667, "\u0120jemima": 4668, "\u0120patty": 4669, "\u010a\u0120\u0120\u0120\u0120\u0120": 4670, "\u0120aggo": 4671, "\u0120onwee": 4672, "\u0120andrew": 4673, "\u0120bosom": 4674, "sur": 4675, "aily": 4676, "\u0120fancy": 4677, "list": 4678, "\u0120shoem": 4679, "\u0120frozen": 4680, "anging": 4681, "\u0120delightful": 4682, "\u0120ir": 4683, "\u0120terribly": 4684, "\u0120exer": 4685, "nat": 4686, "ighted": 4687, "iar": 4688, "has": 4689, "skin": 4690, "\u0120tasted": 4691, "\u0120begun": 4692, "\u0120rare": 4693, "\u0120excellent": 4694, "\u0120eagerly": 4695, "\u0120regret": 4696, "\u0120moss": 4697, "ounced": 4698, "\u0120taste": 4699, "\u0120acqu": 4700, "\u0120avo": 4701, "\u0120underneath": 4702, "arked": 4703, "\u0120patience": 4704, "\u0120appet": 4705, "quick": 4706, "\u0120gracious": 4707, "\u0120abode": 4708, "\u0120places": 4709, "till": 4710, "\u0120gates": 4711, "\u0120thieves": 4712, "themselves": 4713, "\u0120kick": 4714, "\u0120capt": 4715, "\u0120slay": 4716, "order": 4717, "\u0120coffin": 4718, "\u0120apron": 4719, "\u0120pride": 4720, "cloth": 4721, "\u0120supposed": 4722, "apping": 4723, "\u0120choice": 4724, "\u0120hesit": 4725, "\u0120upper": 4726, "\u0120glist": 4727, "post": 4728, "\u0120bal": 4729, "\u0120borrow": 4730, "sight": 4731, "\u0120illness": 4732, "\u0120pour": 4733, "\u0120fifteen": 4734, "life": 4735, "\u0120appointed": 4736, "\u0120throughout": 4737, "\u0120staff": 4738, "idence": 4739, "\u0120losing": 4740, "ades": 4741, "\u0120kai": 4742, "yr": 4743, "\u0120tro": 4744, "\u0120bench": 4745, "\u0120spun": 4746, "\u0120gain": 4747, "\u0120span": 4748, "grand": 4749, "\u0120dreamed": 4750, "\u0120seas": 4751, "\u0120bree": 4752, "ittered": 4753, "\u0120obey": 4754, "\u0120attended": 4755, "\u0120lisa": 4756, "\u0120drunk": 4757, "\u0120denis": 4758, "pear": 4759, "ery": 4760, "\u0120fortun": 4761, "\u0120needle": 4762, "\u0120enjoying": 4763, "\u0120position": 4764, "ipp": 4765, "\u0120amid": 4766, "\u0120bucket": 4767, "\u0120mercy": 4768, "\u0120harold": 4769, "ph": 4770, "\u0120completely": 4771, "\u0120settled": 4772, "\u0120sam": 4773, "\u0120spind": 4774, "\u0120shears": 4775, "ume": 4776, "\u0120loan": 4777, "\u0120mart": 4778, "\u0120super": 4779, "gus": 4780, "\u0120easter": 4781, "\u0120forests": 4782, "\u0120bost": 4783, "\u0120student": 4784, "\u0120dollars": 4785, "\u0120reigned": 4786, "\u0120hence": 4787, "\u0120devils": 4788, "\u0120centipede": 4789, "\u0120ali": 4790, "iddly": 4791, "\u0120dullhead": 4792, "\u0120aspen": 4793, "\u0120travelled": 4794, "\u0120sult": 4795, "\u0120depth": 4796, "\u0120chin": 4797, "bir": 4798, "better": 4799, "\u0120reflected": 4800, "\u0120dearly": 4801, "\u0120descended": 4802, "\u0120banks": 4803, "\u0120reve": 4804, "\u0120doves": 4805, "\u0120bestowed": 4806, "eral": 4807, "\u0120recover": 4808, "\u0120gay": 4809, "happened": 4810, "\u0120vast": 4811, "\u0120heartily": 4812, "cking": 4813, "arms": 4814, "\u0120messengers": 4815, "pie": 4816, "\u0120noon": 4817, "\u0120sniff": 4818, "want": 4819, "\u0120owl": 4820, "began": 4821, "\u0120secretly": 4822, "\u0120marched": 4823, "luck": 4824, "\u0120simple": 4825, "\u0120lu": 4826, "\u0120glanced": 4827, "\u0120opinion": 4828, "town": 4829, "\u0120picture": 4830, "arch": 4831, "ical": 4832, "\u0120odd": 4833, "\u0120pard": 4834, "\u0120tricks": 4835, "\u0120blows": 4836, "sl": 4837, "mom": 4838, "\u0120block": 4839, "cat": 4840, "\u0120paws": 4841, "without": 4842, "\u0120joined": 4843, "\u0120heat": 4844, "\u0120rude": 4845, "\u0120smiling": 4846, "\u0120flood": 4847, "\u0120lang": 4848, "\u0120la": 4849, "ustri": 4850, "\u0120salt": 4851, "\u0120tobacco": 4852, "mag": 4853, "\u0120pan": 4854, "turned": 4855, "\u0120dreaming": 4856, "\u0120coo": 4857, "\u0120sevent": 4858, "drew": 4859, "\u0120gratitude": 4860, "\u0120guessed": 4861, "\u0120stretch": 4862, "sn": 4863, "\u0120fain": 4864, "\u0120load": 4865, "\u0120gran": 4866, "\u0120warning": 4867, "\u0120pounds": 4868, "\u0120caut": 4869, "although": 4870, "\u0120winds": 4871, "alt": 4872, "\u0120tide": 4873, "\u0120inches": 4874, "\u0120rang": 4875, "\u0120commen": 4876, "\u0120enjoyed": 4877, "\u0120winding": 4878, "\u0120kings": 4879, "\u0120abroad": 4880, "\u0120beautifully": 4881, "ley": 4882, "\u0120ease": 4883, "\u0120boats": 4884, "lasse": 4885, "orious": 4886, "\u0120berries": 4887, "\u0120honour": 4888, "pot": 4889, "\u0120innocent": 4890, "\u0120taught": 4891, "standing": 4892, "icing": 4893, "\u0120naught": 4894, "\u0120gem": 4895, "\u0120depart": 4896, "\u0120sens": 4897, "\u0120mysterious": 4898, "\u0120pleaded": 4899, "\u0120propos": 4900, "illing": 4901, "headed": 4902, "\u0120feelings": 4903, "\u0120peer": 4904, "\u0120ker": 4905, "\u0120spindle": 4906, "\u0120catcher": 4907, "\u0120honest": 4908, "\u0120scratch": 4909, "\u0120strongest": 4910, "raha": 4911, "\u0120prayer": 4912, "da": 4913, "ionn": 4914, "\u0120bloom": 4915, "\u0120cong": 4916, "\u0120distinguished": 4917, "\u0120gooseherd": 4918, "\u0120peach": 4919, "\u0120traveling": 4920, "\u0120neighborhood": 4921, "\u0120view": 4922, "\u0120rooster": 4923, "clog": 4924, "\u0120kari": 4925, "\u0120hoar": 4926, "\u0120rank": 4927, "ressing": 4928, "cing": 4929, "\u0120marble": 4930, "morning": 4931, "\u0120arranged": 4932, "raged": 4933, "\u0120prayers": 4934, "\u0120rays": 4935, "\u0120tid": 4936, "\u0120swept": 4937, "umped": 4938, "\u0120galloped": 4939, "\u0120dispos": 4940, "quence": 4941, "\u0120report": 4942, "sat": 4943, "compan": 4944, "ipes": 4945, "having": 4946, "\u0120returning": 4947, "find": 4948, "\u0120increased": 4949, "\u0120guards": 4950, "raced": 4951, "\u0120alarmed": 4952, "\u0120enchantment": 4953, "mark": 4954, "\u0120dresses": 4955, "\u0120questioned": 4956, "among": 4957, "\u0120tu": 4958, "\u0120bush": 4959, "\u0120furious": 4960, "\u0120needed": 4961, "\u0120abund": 4962, "itted": 4963, "cons": 4964, "mense": 4965, "\u0120provided": 4966, "ointment": 4967, "\u0120discover": 4968, "\u0120dame": 4969, "att": 4970, "\u0120handful": 4971, "\u0120whirled": 4972, "\u0120kingdoms": 4973, "\u0120fierce": 4974, "\u0120dug": 4975, "sleep": 4976, "husband": 4977, "\u0120stom": 4978, "waiting": 4979, "days": 4980, "\u0120gets": 4981, "bear": 4982, "\u0120lot": 4983, "\u0120cabin": 4984, "\u0120rev": 4985, "\u0120boiling": 4986, "\u0120potato": 4987, "\u0120sciss": 4988, "\u0120sob": 4989, "knew": 4990, "\u0120whisper": 4991, "oughly": 4992, "\u0120pound": 4993, "\u0120lazy": 4994, "\u0120lend": 4995, "\u0120quantity": 4996, "pected": 4997, "\u0120pots": 4998, "cap": 4999, "attering": 5000, "ancing": 5001, "\u0120ant": 5002, "\u0120fulf": 5003, "\u0120satur": 5004, "ustrious": 5005, "ester": 5006, "\u0120barked": 5007, "\u0120anno": 5008, "ste": 5009, "\u0120roared": 5010, "\u0120maids": 5011, "\u0120largest": 5012, "\u0120gently": 5013, "\u0120drum": 5014, "mitted": 5015, "\u0120rule": 5016, "osing": 5017, "\u0120suffer": 5018, "\u0120senses": 5019, "dogs": 5020, "cred": 5021, "\u0120destroyed": 5022, "\u0120hoping": 5023, "\u0120steel": 5024, "\u0120purple": 5025, "\u0120drinking": 5026, "\u0120guide": 5027, "\u0120crawled": 5028, "\u0120commenced": 5029, "\u0120stiff": 5030, "\u0120scarce": 5031, "asel": 5032, "eat": 5033, "going": 5034, "\u0120birch": 5035, "\u0120ginger": 5036, "\u0120mass": 5037, "\u0120temple": 5038, "\u0120meadows": 5039, "cra": 5040, "\u0120frost": 5041, ",--": 5042, "\u0120tremend": 5043, "\u0120slipper": 5044, "\u0120firmly": 5045, "\u0120pract": 5046, "\u0120devoured": 5047, "\u0120champion": 5048, "\u0120witches": 5049, "\u0120rewarded": 5050, "\u0120absence": 5051, "\u0120scene": 5052, "\u0120page": 5053, "\u0120seals": 5054, "\u0120coins": 5055, "\u0120beach": 5056, "\u0120haz": 5057, "\u0120hazel": 5058, "\u0120elfin": 5059, "\u0120demon": 5060, "\u0120wreath": 5061, "\u0120dancers": 5062, "cip": 5063, "\u0120coral": 5064, "ublin": 5065, "\u0120regard": 5066, "\u0120ni": 5067, "\u0120niall": 5068, "\u0120skies": 5069, "\u0120fionn": 5070, "gypt": 5071, "\u0120profess": 5072, "lored": 5073, "\u0120intention": 5074, "acter": 5075, "chn": 5076, "ikoto": 5077, "io": 5078, "isho": 5079, "\u0120dum": 5080, "\u0120senator": 5081, "\u0120pickles": 5082, "remy": 5083, "elin": 5084, "elinau": 5085, "\u0120bokwewa": 5086, "seo": 5087, "\u0120aspenclog": 5088, "\u0120potful": 5089, "\u0120grieved": 5090, "inue": 5091, "\u0120due": 5092, "beh": 5093, "\u0120glided": 5094, "\u0120riches": 5095, "\u0120advised": 5096, "\u0120mistake": 5097, "given": 5098, "\u0120disgu": 5099, "comfortable": 5100, "\u0120proceeded": 5101, "\u0120fount": 5102, "ply": 5103, "lvia": 5104, "\u0120required": 5105, "\u0120entreat": 5106, "\u0120conv": 5107, "rupt": 5108, "vet": 5109, "\u0120plainly": 5110, "\u0120extraordinary": 5111, "wing": 5112, "\u0120hunted": 5113, "umph": 5114, "cul": 5115, "\u0120equal": 5116, "\u0120flee": 5117, "wheel": 5118, "\u0120upstairs": 5119, "\u0120otherwise": 5120, "herself": 5121, "\u0120conse": 5122, "\u0120featherhead": 5123, "pal": 5124, "\u0120turns": 5125, "\u0120welcomed": 5126, "\u0120imagined": 5127, "anything": 5128, "res": 5129, "mort": 5130, "\u0120wouldn": 5131, "\u0120remarked": 5132, "\u0120pears": 5133, "twenty": 5134, "\u0120leather": 5135, "fine": 5136, "\u0120snatched": 5137, "\u0120successful": 5138, "\u0120perform": 5139, "\u0120aim": 5140, "\u0120useless": 5141, "\u0120foreign": 5142, "\u0120inher": 5143, "\u0120leaning": 5144, "\u0120porce": 5145, "\u0120porcelain": 5146, "help": 5147, "aches": 5148, "\u0120scissors": 5149, "meanwhile": 5150, "\u0120exceed": 5151, "je": 5152, "\u0120neat": 5153, "plex": 5154, "la": 5155, "itation": 5156, "\u0120holes": 5157, "ares": 5158, "keep": 5159, "\u0120flat": 5160, "\u0120height": 5161, "ading": 5162, "\u0120gardens": 5163, "uted": 5164, "\u0120greeting": 5165, "\u0120powers": 5166, "\u0120thine": 5167, "usted": 5168, "fight": 5169, "inkled": 5170, "\u0120locks": 5171, "ns": 5172, "case": 5173, "\u0120silly": 5174, "addle": 5175, "\u0120pack": 5176, "\u0120ripe": 5177, "\u0120draught": 5178, "along": 5179, "\u0120prefer": 5180, "sured": 5181, "\u0120bough": 5182, "crow": 5183, "\u0120token": 5184, "eer": 5185, "agger": 5186, "\u0120trial": 5187, "\u0120fighting": 5188, "col": 5189, "\u0120shield": 5190, "\u0120goodness": 5191, "\u0120history": 5192, "iev": 5193, "\u0120building": 5194, "passed": 5195, "\u0120restore": 5196, "course": 5197, "\u0120whist": 5198, "\u0120yspaddaden": 5199, "horn": 5200, "spe": 5201, "ynd": 5202, "\u0120marvell": 5203, "\u0120sha": 5204, "lster": 5205, "\u0120inf": 5206, "\u0120screamed": 5207, "stead": 5208, "\u0120cats": 5209, "\u0120weasel": 5210, "\u0120pi": 5211, "\u0120glim": 5212, "\u0120breaking": 5213, "\u0120crowns": 5214, "\u0120bog": 5215, "\u0120shower": 5216, "\u0120gardener": 5217, "\u0120tiger": 5218, "\u0120worm": 5219, "bers": 5220, "\u0120hail": 5221, "\u0120excite": 5222, "\u0120winning": 5223, "\u0120cabbages": 5224, "\u0120wiser": 5225, "\u0120entering": 5226, "\u0120names": 5227, "\u0120tub": 5228, "\u0120kiln": 5229, "\u0120killing": 5230, "\u0120cheerful": 5231, "\u0120accompany": 5232, "\u0120bonnie": 5233, "\u0120boldly": 5234, "\u0120gover": 5235, "\u0120countess": 5236, "\u0120strip": 5237, "\u0120divided": 5238, "\u0120note": 5239, "\u0120coal": 5240, "\u0120kneel": 5241, "\u0120bigger": 5242, "\u0120obed": 5243, "\u0120empt": 5244, "\u0120washing": 5245, "\u0120festival": 5246, "wick": 5247, "\u0120tang": 5248, "\u0120join": 5249, "\u0120directed": 5250, "\u0120fergus": 5251, "\u0120distin": 5252, "ior": 5253, "\u0120sweetly": 5254, "\u0120huck": 5255, "\u0120huckster": 5256, "\u0120melted": 5257, "\u0120embro": 5258, "\u0120character": 5259, "\u0120related": 5260, "\u0120dale": 5261, "\u0120sleeve": 5262, "heasant": 5263, "asty": 5264, "\u0120kitta": 5265, "mrs": 5266, "itchit": 5267, "\u0120maria": 5268, "asch": 5269, "aschim": 5270, "aschimat": 5271, "aschimataro": 5272, "\u0120flopsy": 5273, "\u0120munca": 5274, "\u0120jeremy": 5275, "\u0120gia": 5276, "\u0120giauna": 5277, "\u0120hoarse": 5278, "\u0120retinue": 5279, "\u0120thresh": 5280, "returned": 5281, "\u0120worry": 5282, "\u0120bul": 5283, "behind": 5284, "lay": 5285, "\u0120ruler": 5286, "\u0120stamp": 5287, "mind": 5288, "\u0120knocking": 5289, "\u0120accompl": 5290, "\u0120guess": 5291, "listen": 5292, "oted": 5293, "ints": 5294, "\u0120tramp": 5295, "\u0120dain": 5296, "\u0120dainty": 5297, "country": 5298, "\u0120generally": 5299, "\u0120joyfully": 5300, "liness": 5301, "\u0120aware": 5302, "\u0120begging": 5303, "\u0120mere": 5304, "\u0120loaves": 5305, "certainly": 5306, "\u0120safet": 5307, "\u0120safety": 5308, "\u0120stables": 5309, "\u0120rejoiced": 5310, "\u0120gor": 5311, "clothes": 5312, "\u0120triumph": 5313, "\u0120retired": 5314, "\u0120creep": 5315, "\u0120skins": 5316, "\u0120soot": 5317, "evening": 5318, "dark": 5319, "\u0120clearly": 5320, "\u0120lam": 5321, "\u0120pearl": 5322, "taken": 5323, "ular": 5324, "reg": 5325, "\u0120anybody": 5326, "umst": 5327, "\u0120immense": 5328, "\u0120compass": 5329, "wis": 5330, "\u0120diamonds": 5331, "serve": 5332, "\u0120resp": 5333, "might": 5334, "\u0120somehow": 5335, "\u0120hag": 5336, "\u0120silken": 5337, "\u0120appetite": 5338, "\u0120occup": 5339, "min": 5340, "\u0120pardon": 5341, "\u0120destroy": 5342, "\u0120bod": 5343, "\u0120rope": 5344, "dead": 5345, "forward": 5346, "\u0120strangers": 5347, "\u0120wives": 5348, "\u0120dancer": 5349, "\u0120ornam": 5350, "\u0120summoned": 5351, "\u0120neighbours": 5352, "\u0120complained": 5353, "\u0120forgive": 5354, "lau": 5355, "ran": 5356, "\u0120weap": 5357, "\u0120plants": 5358, "play": 5359, "\u0120mortals": 5360, "\u0120deeper": 5361, "\u0120wrapped": 5362, "ipao": 5363, "pit": 5364, "\u0120rags": 5365, "\u0120fisherman": 5366, "\u0120flag": 5367, "\u0120vel": 5368, "ti": 5369, "filled": 5370, "fit": 5371, "\u0120gn": 5372, "\u0120punish": 5373, "\u0120swing": 5374, "\u0120curtains": 5375, "\u0120deceived": 5376, "\u0120assured": 5377, "trees": 5378, "\u0120queer": 5379, "\u0120knee": 5380, "\u0120moving": 5381, "\u0120council": 5382, "\u0120nobles": 5383, "\u0120properly": 5384, "\u0120excuse": 5385, "\u0120robber": 5386, "hundred": 5387, "\u0120wizard": 5388, "\u0120stout": 5389, "\u0120prosper": 5390, "\u0120peeping": 5391, "\u0120ling": 5392, "\u0120heavily": 5393, "saw": 5394, "\u0120relations": 5395, "those": 5396, "\u0120lights": 5397, "fellow": 5398, "\u0120proved": 5399, "\u0120bewild": 5400, "\u0120err": 5401, "\u0120errand": 5402, "\u0120brings": 5403, "hall": 5404, "still": 5405, "ids": 5406, "\u0120drops": 5407, "\u0120lane": 5408, "\u0120ointment": 5409, "\u0120dais": 5410, "\u0120chains": 5411, "\u0120shoemaker": 5412, "rels": 5413, "stones": 5414, "nes": 5415, "\u0120glittered": 5416, "\u0120serpent": 5417, "otted": 5418, "umbers": 5419, "\u0120parting": 5420, "\u0120weaver": 5421, "\u0120ditch": 5422, "umble": 5423, "\u0120tone": 5424, "earth": 5425, "\u0120important": 5426, "\u0120miller": 5427, "hunting": 5428, "\u0120tribe": 5429, "\u0120tremendous": 5430, "\u0120loft": 5431, "pet": 5432, "\u0120selfish": 5433, "\u0120stoorworm": 5434, "\u0120aged": 5435, "sels": 5436, "\u0120thor": 5437, "\u0120scot": 5438, "\u0120hens": 5439, "\u0120snor": 5440, "\u0120snorro": 5441, "\u0120ench": 5442, "\u0120enchanter": 5443, "lovely": 5444, "\u0120adventure": 5445, "\u0120chop": 5446, "\u0120engaged": 5447, "\u0120candles": 5448, "rib": 5449, "\u0120cell": 5450, "\u0120cellar": 5451, "\u0120sounds": 5452, "\u0120assumed": 5453, "ract": 5454, "\u0120dublin": 5455, "\u0120strike": 5456, "\u0120conn": 5457, "\u0120affection": 5458, "dragon": 5459, "\u0120fen": 5460, "ility": 5461, "\u0120egypt": 5462, "\u0120merely": 5463, "\u0120female": 5464, "\u0120pastor": 5465, "\u0120imper": 5466, "\u0120radiance": 5467, "colored": 5468, "\u0120roman": 5469, "faithful": 5470, "\u0120daim": 5471, "ploy": 5472, "\u0120pheasant": 5473, "\u0120woodcutter": 5474, "mond": 5475, "\u0120indian": 5476, "\u0120bostwick": 5477, "\u0120goody": 5478, "kers": 5479, "\u0120uraschimataro": 5480, "\u0120polar": 5481, "\u0120bau": 5482, "\u0120liang": 5483, "\u0120scal": 5484, "ishosha": 5485, "wasynd": 5486, "sweeper": 5487, "\u0120jug": 5488, "\u0120ves": 5489, "\u0120raise": 5490, "eyes": 5491, "\u0120reaching": 5492, "clam": 5493, "\u0120contro": 5494, "\u0120hunts": 5495, "\u0120startled": 5496, "\u0120brill": 5497, "\u0120brilli": 5498, "\u0120throne": 5499, "\u0120bee": 5500, "ius": 5501, "coming": 5502, "\u0120grasped": 5503, "wat": 5504, "wedding": 5505, "court": 5506, "ilar": 5507, "\u0120concl": 5508, "\u0120contr": 5509, "half": 5510, "\u0120pars": 5511, "oft": 5512, "ppers": 5513, "uce": 5514, "\u0120extreme": 5515, "\u0120strict": 5516, "\u0120chased": 5517, "jack": 5518, "\u0120conducted": 5519, "\u0120barking": 5520, "furred": 5521, "\u0120stairs": 5522, "\u0120turtle": 5523, "\u0120condem": 5524, "\u0120subjects": 5525, "\u0120charmed": 5526, "\u0120manners": 5527, "\u0120circumst": 5528, "\u0120supply": 5529, "\u0120showing": 5530, "\u0120disappointment": 5531, "zzled": 5532, "\u0120prevent": 5533, "cure": 5534, "\u0120weight": 5535, "\u0120visitor": 5536, "feet": 5537, "\u0120counted": 5538, "\u0120clot": 5539, "\u0120consideration": 5540, "also": 5541, "wall": 5542, "\u0120gloomy": 5543, "forth": 5544, "\u0120wounded": 5545, "\u0120missing": 5546, "\u0120fork": 5547, "\u0120scratched": 5548, "\u0120patiently": 5549, "maiden": 5550, "\u0120seeking": 5551, "\u0120possessions": 5552, "\u0120tuck": 5553, "\u0120happier": 5554, "\u0120reeds": 5555, "save": 5556, "\u0120gathering": 5557, "\u0120onions": 5558, "\u0120collect": 5559, "\u0120line": 5560, "\u0120pulling": 5561, "sitting": 5562, "\u0120langu": 5563, "\u0120morrow": 5564, "\u0120rush": 5565, "\u0120polished": 5566, "\u0120mourning": 5567, "\u0120fiercely": 5568, "itor": 5569, "\u0120slew": 5570, "sum": 5571, "ma": 5572, "\u0120herring": 5573, "\u0120gulls": 5574, "book": 5575, "\u0120saturday": 5576, "\u0120finish": 5577, "\u0120cracked": 5578, "\u0120rescue": 5579, "\u0120annoyed": 5580, "sea": 5581, "\u0120loaded": 5582, "\u0120seed": 5583, "\u0120iv": 5584, "swift": 5585, "\u0120bowing": 5586, "\u0120cush": 5587, "enth": 5588, "\u0120darted": 5589, "\u0120birthday": 5590, "\u0120sadd": 5591, "shoes": 5592, "\u0120starting": 5593, "\u0120passion": 5594, "ioned": 5595, "\u0120swallows": 5596, "\u0120gwr": 5597, "\u0120wrought": 5598, "rows": 5599, "';": 5600, "\u0120inqu": 5601, "\u0120thither": 5602, "\u0120board": 5603, "lding": 5604, "reel": 5605, "\u0120searching": 5606, "ilight": 5607, "rice": 5608, "\u0120excited": 5609, "\u0120yards": 5610, "\u0120shrie": 5611, "\u0120clerk": 5612, "\u0120doesn": 5613, "cu": 5614, "ama": 5615, "\u0120thousands": 5616, "\u0120glorious": 5617, "\u0120sweetest": 5618, "\u0120crowded": 5619, "large": 5620, "\u0120gri": 5621, "\u0120bail": 5622, "\u0120fee": 5623, "\u0120buffalo": 5624, "ination": 5625, "\u010d\u0120\u0120\u0120": 5626, "tail": 5627, "\u0120sacri": 5628, "\u0120sacrif": 5629, "\u0120goodman": 5630, "\u0120shouting": 5631, "rape": 5632, "\u0120couch": 5633, "\u0120inhab": 5634, "\u0120clock": 5635, "\u0120peerie": 5636, "inder": 5637, "\u0120emptied": 5638, "\u0120uneas": 5639, "\u0120wen": 5640, "\u0120lasted": 5641, "\u0120transformed": 5642, "ban": 5643, "\u0120sacred": 5644, "\u0120marked": 5645, "\u0120thoroughly": 5646, "\u0120robbed": 5647, "\u0120bang": 5648, "\u0120helmet": 5649, "\u0120tribut": 5650, "\u0120relat": 5651, "\u0120begins": 5652, "\u0120morraha": 5653, "\u0120lightly": 5654, "ics": 5655, "\u0120puff": 5656, "\u0120hopping": 5657, "\u010a\u0120\u0120\u0120\u0120\u0120\u0120\u0120\u0120\u0120\u0120": 5658, "\u0120handkerchief": 5659, "-\"": 5660, "\u0120color": 5661, "\u0120huld": 5662, "\u0120homes": 5663, "otei": 5664, "\u0120employ": 5665, "ofu": 5666, "ofuku": 5667, "pin": 5668, "\u0120meer": 5669, "\u0120belonging": 5670, "\u0120cass": 5671, "\u0120twitchit": 5672, "\u0120mitten": 5673, "\u0120mittens": 5674, "\u0120martin": 5675, "\u0120johnny": 5676, "\u0120tiggy": 5677, "winkle": 5678, "otsze": 5679, "jee": 5680, "\u0120bah": 5681, "\u0120bahmond": 5682, "\u0120bahmondang": 5683, "\u0120os": 5684, "\u0120osseo": 5685, "\u0120efforts": 5686, "\u0120depths": 5687, "\u0120threshold": 5688, "beside": 5689, "grown": 5690, "\u0120ducks": 5691, "\u0120plumage": 5692, "\u0120det": 5693, "\u0120alike": 5694, "\u0120amazement": 5695, "oofs": 5696, "\u0120loos": 5697, "please": 5698, "\u0120dew": 5699, "\u0120shortly": 5700, "table": 5701, "hast": 5702, "\u0120paw": 5703, "\u0120earnestly": 5704, "\u0120similar": 5705, "asc": 5706, "\u0120confess": 5707, "natured": 5708, "\u0120serious": 5709, "\u0120nearest": 5710, "\u0120slippers": 5711, "\u0120smithy": 5712, "\u0120solemnly": 5713, "prom": 5714, "say": 5715, "\u0120releas": 5716, "\u0120plucked": 5717, "beam": 5718, "\u0120tightly": 5719, "\u0120nighting": 5720, "\u0120z": 5721, "neighb": 5722, "\u0120obtained": 5723, "\u0120protection": 5724, "\u0120letting": 5725, "palace": 5726, "fool": 5727, "usual": 5728, "\u0120willingly": 5729, "\u0120accepted": 5730, "\u0120hosp": 5731, "ury": 5732, "\u0120ann": 5733, "\u0120admire": 5734, "\u0120loving": 5735, "\u0120gazing": 5736, "ob": 5737, "ifferent": 5738, "rain": 5739, "\u0120resembled": 5740, "\u0120penny": 5741, "\u0120helping": 5742, "\u0120suits": 5743, "\u0120contained": 5744, "break": 5745, "adly": 5746, "\u0120fury": 5747, "\u0120simply": 5748, "\u0120slip": 5749, "\u0120consc": 5750, "\u0120dozen": 5751, "\u0120sauc": 5752, "\u0120tumbled": 5753, "\u0120billet": 5754, "corner": 5755, "hur": 5756, "\u0120directions": 5757, "\u0120fiery": 5758, "tic": 5759, "\u0120blind": 5760, "both": 5761, "\u0120guarded": 5762, "bles": 5763, "ambled": 5764, "\u0120saus": 5765, "\u0120worst": 5766, "\u0120whit": 5767, "eness": 5768, "whole": 5769, "arter": 5770, "idered": 5771, "\u0120exceedingly": 5772, "\u0120frog": 5773, "\u0120plate": 5774, "turn": 5775, "squ": 5776, "\u0120barn": 5777, "\u0120misery": 5778, "\u0120sunball": 5779, "lets": 5780, "\u0120hewed": 5781, "\u0120tops": 5782, "\u0120awful": 5783, "\u0120disappear": 5784, "\u0120insato": 5785, "iron": 5786, "\u0120streets": 5787, "\u0120wishing": 5788, "\u0120starve": 5789, "\u0120salmon": 5790, "\u0120lock": 5791, "\u0120industrious": 5792, "\u0120require": 5793, "\u0120owner": 5794, "\u0120painted": 5795, "\u0120worship": 5796, "ssy": 5797, "\u0120urged": 5798, "grass": 5799, "\u0120keeps": 5800, "\u0120jacket": 5801, "\u0120dairy": 5802, "wanted": 5803, "\u0120earned": 5804, "joyed": 5805, "rise": 5806, "too": 5807, "\u0120staring": 5808, "counc": 5809, "\u0120envious": 5810, "ander": 5811, "\u0120flies": 5812, "gment": 5813, "\u0120difference": 5814, "\u0120sorrowful": 5815, "\u0120rh": 5816, "\u0120crash": 5817, "\u0120straightway": 5818, "whether": 5819, "umult": 5820, "ooping": 5821, "awl": 5822, "aving": 5823, "\u0120greedy": 5824, "\u0120swamp": 5825, "\u0120rapidly": 5826, "kaw": 5827, "\u0120troubles": 5828, "swall": 5829, "\u0120pier": 5830, "\u0120wed": 5831, "\u0120saluted": 5832, "bey": 5833, "\u0120absent": 5834, "\u0120secure": 5835, "\u0120parl": 5836, "\u0120wages": 5837, "\u0120virt": 5838, "\u0120twilight": 5839, "\u0120bind": 5840, "\u0120breeze": 5841, "\u0120twisted": 5842, "\u0120angrily": 5843, "\u0120stopping": 5844, "thy": 5845, "\u0120beggar": 5846, "\u0120prayed": 5847, "\u0120sparrows": 5848, "\u0120ships": 5849, "\u0120poly": 5850, "ki": 5851, "\u0120ashore": 5852, "\u0120drift": 5853, "burner": 5854, "\u0120somebody": 5855, "\u0120chairs": 5856, "stra": 5857, "pled": 5858, "\u0120excitement": 5859, "\u0120dumb": 5860, "\u0120clasped": 5861, "itches": 5862, "omp": 5863, "\u0120tumbling": 5864, "\u0120ceiling": 5865, "\u0120monarch": 5866, "\u0120explained": 5867, "\u0120wits": 5868, "\u0120advance": 5869, "\u0120naughty": 5870, "ggest": 5871, "lts": 5872, "\u0120sailing": 5873, "\u0120dece": 5874, "\u0120medicine": 5875, "\u0120hundreds": 5876, "\u0120tread": 5877, "\u0120spoon": 5878, "\u0120lint": 5879, "\u0120utterly": 5880, "acles": 5881, "\u0120abb": 5882, "xpected": 5883, "\u0120washer": 5884, "\u0120poetry": 5885, "\u0120noses": 5886, "\u0120twe": 5887, "\u0120anxiously": 5888, "\u0120eagles": 5889, "\u0120sticking": 5890, "\u0120wing": 5891, "\u0120flute": 5892, "\u0120tribute": 5893, "itary": 5894, "\u0120eastern": 5895, "\u0120overtake": 5896, "\u0120pole": 5897, "\u0120fog": 5898, "\u0120addressing": 5899, "\u0120streams": 5900, "\u0120faithfully": 5901, "\u0120corpse": 5902, "\u0120persons": 5903, "\u0120blown": 5904, "\u0120spat": 5905, "chnic": 5906, "\u0120professor": 5907, "sack": 5908, "boots": 5909, "\u0120fifth": 5910, "ratul": 5911, "\u0120ancest": 5912, "\u0120daimio": 5913, "\u0120jofuku": 5914, "\u0120realized": 5915, "\u0120handsomer": 5916, "hark": 5917, "\u0120sorcerers": 5918, "\u0120whiskers": 5919, "\u0120godmother": 5920, "ribby": 5921, "duchess": 5922, "\u0120laotsze": 5923, "\u0120wang": 5924, "\u0120minda": 5925, "\u0120mike": 5926, "\u0120pitch": 5927, "uded": 5928, "\u0120mock": 5929, "\u0120bend": 5930, "unged": 5931, "\u0120emer": 5932, "clamation": 5933, "\u0120control": 5934, "\u0120demanded": 5935, "\u0120stirred": 5936, "\u0120timid": 5937, "cried": 5938, "\u0120garment": 5939, "\u0120richly": 5940, "mil": 5941, "\u0120impatiently": 5942, "\u0120murmured": 5943, "hard": 5944, "\u0120inch": 5945, "\u0120impl": 5946, "\u0120formed": 5947, "\u0120sylvia": 5948, "\u0120daz": 5949, "\u0120affairs": 5950, "inter": 5951, "\u0120experience": 5952, "\u0120amusing": 5953, "\u0120joyful": 5954, "supp": 5955, "\u0120perched": 5956, "\u0120escort": 5957, "\u0120pledge": 5958, "\u0120spurs": 5959, "cock": 5960, "culiar": 5961, "\u0120bedside": 5962, "\u0120fors": 5963, "\u0120separated": 5964, "\u0120stem": 5965, "\u0120condemned": 5966, "ilst": 5967, "\u0120prompt": 5968, "clined": 5969, "\u0120unfortun": 5970, "\u0120hers": 5971, "island": 5972, "\u0120circumstances": 5973, "\u0120deserved": 5974, "\u0120pursued": 5975, "\u0120thorn": 5976, "gant": 5977, "ldom": 5978, "\u0120suited": 5979, "surely": 5980, "tow": 5981, "fear": 5982, "\u0120tas": 5983, "quickly": 5984, "iving": 5985, "whom": 5986, "oused": 5987, "\u0120louder": 5988, "\u0120deeds": 5989, "\u0120cavern": 5990, "\u0120tie": 5991, "\u0120vowed": 5992, "\u0120keys": 5993, "ends": 5994, "ped": 5995, "pu": 5996, "\u0120contrived": 5997, "\u0120butt": 5998, "done": 5999, "\u0120swiftness": 6000, "\u0120sus": 6001, "\u0120susan": 6002, "between": 6003, "trou": 6004, "itting": 6005, "\u0120conduct": 6006, "trave": 6007, "\u0120kicked": 6008, "\u0120groom": 6009, "\u0120cleaned": 6010, "\u0120fed": 6011, "\u0120suffering": 6012, "\u0120persuaded": 6013, "\u0120cared": 6014, "\u0120finer": 6015, "else": 6016, "\u0120brownie": 6017, "\u0120digging": 6018, "\u0120prettiest": 6019, "yth": 6020, "\u0120fulfilled": 6021, "\u0120wonders": 6022, "\u0120entr": 6023, "\u0120flour": 6024, "\u0120gods": 6025, "\u0120special": 6026, "\u0120woe": 6027, "magic": 6028, "\u0120tempest": 6029, "\u0120soundly": 6030, "theless": 6031, "onsense": 6032, "rier": 6033, "farewell": 6034, "\u0120grove": 6035, "\u0120attacked": 6036, "\u0120pumpkin": 6037, "\u0120seventh": 6038, "oot": 6039, "rigg": 6040, "\u0120space": 6041, "\u0120ridden": 6042, "\u0120fan": 6043, "rem": 6044, "\u0120sharply": 6045, "\u0120rhian": 6046, "\u0120rhiannon": 6047, "\u0120ornaments": 6048, "\u0120gilded": 6049, "\u0120tumult": 6050, "\u0120dign": 6051, "\u0120placing": 6052, "short": 6053, "\u0120staying": 6054, "\u0120forgi": 6055, "\u0120forgiven": 6056, "\u0120humble": 6057, "stop": 6058, "\u0120marsh": 6059, "\u0120gaze": 6060, "\u0120beams": 6061, "\u0120bewildered": 6062, "\u0120blossoms": 6063, "kawr": 6064, "\u0120kindred": 6065, "\u0120collar": 6066, "\u0120lift": 6067, "geon": 6068, "\u0120tire": 6069, "\u0120reproach": 6070, "aved": 6071, "\u0120byre": 6072, "\u0120quiver": 6073, "\u0120snoring": 6074, "\u0120twig": 6075, "quarter": 6076, "shout": 6077, "\u0120bits": 6078, "\u0120hammer": 6079, "\u0120mourn": 6080, "\u0120blame": 6081, "\u0120pea": 6082, "high": 6083, "\u0120peas": 6084, "\u0120floated": 6085, "\u0120forbidden": 6086, "ips": 6087, "\u0120dim": 6088, "\u0120scorn": 6089, "\u0120isn": 6090, "\u0120lifting": 6091, "\u0120seizing": 6092, "\u0120footsteps": 6093, "fair": 6094, "\u0120push": 6095, "\u0120rattled": 6096, "\u0120feeble": 6097, "\u0120signs": 6098, "\u0120appe": 6099, "\u0120weapons": 6100, "rous": 6101, "\u0120suggest": 6102, "\u0120lass": 6103, "\u0120ge": 6104, "\u0120geese": 6105, "\u0120ken": 6106, "\u0120roast": 6107, "\u0120hillside": 6108, "\u0120sorely": 6109, "pig": 6110, "\u0120rash": 6111, "\u0120qual": 6112, "uct": 6113, "host": 6114, "\u0120pad": 6115, "itched": 6116, "\u0120proposal": 6117, "ram": 6118, "\u0120proposed": 6119, "\u0120writing": 6120, "\u0120wonderfully": 6121, "\u0120kerchief": 6122, "\u0120ale": 6123, "\u0120followers": 6124, "\u0120clair": 6125, "elled": 6126, "ifted": 6127, "\u0120flown": 6128, "\u0120sym": 6129, "oole": 6130, "\u0120mel": 6131, "\u0120bows": 6132, "anta": 6133, "\u0120mast": 6134, "\u0120shin": 6135, "\u0120aug": 6136, "\u0120instructions": 6137, "storm": 6138, "\u0120frogs": 6139, "\u0120blowing": 6140, "\u0120retain": 6141, "\u0120schoolmaster": 6142, "\u0120embroidered": 6143, "sheep": 6144, "weight": 6145, "\u0120jade": 6146, "\u0120budd": 6147, "\u0120dough": 6148, "\u0120congratul": 6149, "\u0120mikoto": 6150, "\u0120favorite": 6151, "\u0120disposition": 6152, "\u0120unexpected": 6153, "\u0120japanese": 6154, "\u0120rebel": 6155, "\u0120emp": 6156, "\u0120otot": 6157, "\u0120ototach": 6158, "\u0120ototachib": 6159, "\u0120ototachibana": 6160, "\u0120courtier": 6161, "\u0120persimmon": 6162, "\u0120persimmons": 6163, "aba": 6164, "\u0120homely": 6165, "\u0120lily": 6166, "\u0120nils": 6167, "ray": 6168, "\u0120thrall": 6169, "\u0120widdly": 6170, "\u0120anna": 6171, "\u0120bella": 6172, "flor": 6173, "\u0120bunny": 6174, "\u0120dungting": 6175, "\u0120bonze": 6176, "\u0120monedo": 6177, "\u0120leelinau": 6178, "\u0120scalp": 6179, "\u0120mishosha": 6180, "ampum": 6181, "wass": 6182, "wassamo": 6183, "\u0120frightful": 6184, "born": 6185, "\u0120dawned": 6186, "\u0120constant": 6187, "tles": 6188, "\u0120furiously": 6189, "bun": 6190, "\u0120gaily": 6191, "\u0120sparkling": 6192, "finished": 6193, "\u0120smallest": 6194, "dressed": 6195, "\u0120breathed": 6196, "\u0120hoofs": 6197, "\u0120blackbird": 6198, "\u0120dismounted": 6199, "\u0120monk": 6200, "\u0120necks": 6201, "\u0120implored": 6202, "garden": 6203, "send": 6204, "\u0120butterfly": 6205, "\u0120absol": 6206, "think": 6207, "cannot": 6208, "\u0120happiest": 6209, "ify": 6210, "\u0120interrupt": 6211, "\u0120value": 6212, "\u0120phy": 6213, "waited": 6214, "asing": 6215, "faction": 6216, "\u0120paused": 6217, "\u0120write": 6218, "\u0120extremely": 6219, "mus": 6220, "\u0120gorge": 6221, "acher": 6222, "\u0120peculiar": 6223, "\u0120eleven": 6224, "\u0120recognize": 6225, "\u0120likes": 6226, "\u0120nightingale": 6227, "\u0120whilst": 6228, "\u0120disguise": 6229, "\u0120scales": 6230, "woods": 6231, "aining": 6232, "\u0120sar": 6233, "\u0120arrange": 6234, "hung": 6235, "itality": 6236, "\u0120seldom": 6237, "care": 6238, "ified": 6239, "rait": 6240, "\u0120spied": 6241, "\u0120provide": 6242, "\u0120nim": 6243, "\u0120dried": 6244, "\u0120relief": 6245, "\u0120avoid": 6246, "dep": 6247, "lier": 6248, "ception": 6249, "\u0120haught": 6250, "\u0120restored": 6251, "\u0120savage": 6252, "\u0120backward": 6253, "struck": 6254, "\u0120tremble": 6255, "\u0120biting": 6256, "\u0120simon": 6257, "name": 6258, "\u0120travels": 6259, "\u0120travelling": 6260, "\u0120divide": 6261, "walk": 6262, "eld": 6263, "\u0120belongs": 6264, "each": 6265, "orter": 6266, "\u0120proof": 6267, "\u0120shouts": 6268, "\u0120split": 6269, "horses": 6270, "\u0120fears": 6271, "\u0120rejoined": 6272, "\u0120affair": 6273, "\u0120easier": 6274, "close": 6275, "\u0120envy": 6276, "\u0120dwarfs": 6277, "\u0120fellows": 6278, "chance": 6279, "years": 6280, "sun": 6281, "cre": 6282, "return": 6283, "\u0120ris": 6284, "\u0120peak": 6285, "\u0120language": 6286, "\u0120striking": 6287, "\u0120sleepy": 6288, "ulted": 6289, "\u0120lions": 6290, "live": 6291, "brown": 6292, "\u0120sixt": 6293, "\u0120sixteen": 6294, "\u0120cream": 6295, "\u0120ahti": 6296, "\u0120takes": 6297, "\u0120rhy": 6298, "\u0120lame": 6299, "\u0120evenings": 6300, "\u0120rowed": 6301, "\u010d\u0120\u0120\u0120\u0120\u0120\u0120\u0120\u0120\u0120": 6302, "\u010d\u0120\u0120\u0120\u0120\u0120\u0120\u0120\u0120\u0120\u0120\u0120\u0120\u0120\u0120": 6303, "\u0120slumber": 6304, "\u0120fidd": 6305, "wished": 6306, "heaven": 6307, "\u0120bye": 6308, "\u0120funeral": 6309, "\u0120overjoyed": 6310, "being": 6311, "nies": 6312, "\u0120tails": 6313, "\u0120remembrance": 6314, "\u0120sense": 6315, "\u0120acted": 6316, "\u0120attent": 6317, "\u0120dagger": 6318, "death": 6319, "\u0120swear": 6320, "\u0120countries": 6321, "\u0120pub": 6322, "\u0120bees": 6323, "\u0120heather": 6324, "ford": 6325, "\u0120fashioned": 6326, "\u0120craft": 6327, "\u0120masters": 6328, "\u0120fountain": 6329, "nigh": 6330, "\u0120doom": 6331, "\u0120alarm": 6332, "\u0120mischief": 6333, "hear": 6334, "\u0120mentioned": 6335, "tri": 6336, "leave": 6337, "\u0120poisoned": 6338, "\u0120defend": 6339, "taking": 6340, "ping": 6341, "\u0120herdsman": 6342, "rolled": 6343, "\u0120stump": 6344, "\u0120ulster": 6345, "dr": 6346, "\u0120boast": 6347, "\u0120tun": 6348, "iring": 6349, "feel": 6350, "across": 6351, "birds": 6352, "blue": 6353, "\u0120raising": 6354, "\u0120accident": 6355, "acing": 6356, "\u0120examined": 6357, "\u0120happening": 6358, "\u0120stal": 6359, "ooner": 6360, "\u0120diso": 6361, "\u0120bath": 6362, "\u0120velvet": 6363, "\u0120stooped": 6364, "\u0120robbers": 6365, "\u0120barrel": 6366, "\u0120quarrel": 6367, "\u0120plans": 6368, "\u0120resist": 6369, "\u0120naturally": 6370, "\u0120violent": 6371, "women": 6372, "\u0120clapped": 6373, "hem": 6374, "inced": 6375, "isto": 6376, "\u0120sandy": 6377, "\u0120glow": 6378, "\u0120clum": 6379, "\u0120dangerous": 6380, "mates": 6381, "\u0120dashed": 6382, "\u0120officer": 6383, "\u0120wearer": 6384, "acc": 6385, "\u0120motion": 6386, "\u0120deadly": 6387, "\u0120contents": 6388, "\u0120keen": 6389, "\u0120turf": 6390, "\u0120invitation": 6391, "\u0120rosy": 6392, "\u0120hate": 6393, "\u0120dismiss": 6394, "\u0120hopes": 6395, "\u0120ascend": 6396, "deal": 6397, "cild": 6398, "cildou": 6399, "cildoune": 6400, "arn": 6401, "\u0120scolded": 6402, "\u0120toll": 6403, "\u0120swung": 6404, "guard": 6405, "really": 6406, "\u0120fared": 6407, "\u0120uneasy": 6408, "\u0120whiche": 6409, "\u0120whichever": 6410, "\u0120funny": 6411, "\u0120duties": 6412, "\u0120struggle": 6413, "\u0120perse": 6414, "six": 6415, "\u0120avail": 6416, "\u0120washerwoman": 6417, "adv": 6418, "\u0120earthly": 6419, "maids": 6420, "\u0120piled": 6421, "\u0120abundance": 6422, "gory": 6423, "fro": 6424, "\u0120sits": 6425, "\u0120sne": 6426, "aping": 6427, "ivil": 6428, "iner": 6429, "\u0120shirt": 6430, "\u0120flail": 6431, "\u0120setanta": 6432, "erness": 6433, "finn": 6434, "\u0120relatives": 6435, "\u0120reported": 6436, "\u0120herding": 6437, "\u0120cleared": 6438, "lied": 6439, "antage": 6440, "\u0120support": 6441, "\u0120august": 6442, "\u0120portion": 6443, "eg": 6444, "\u0120distri": 6445, "jamie": 6446, "ddess": 6447, "around": 6448, "\u0120victory": 6449, "\u0120fenians": 6450, "\u0120actually": 6451, "ilies": 6452, "\u0120upward": 6453, "\u0120roasted": 6454, "\u0120afterward": 6455, "\u0120muslin": 6456, "\u0120seam": 6457, "\u0120bailiff": 6458, "\u0120sultan": 6459, "zu": 6460, "\u0120kotei": 6461, "\u0120veget": 6462, "\u0120imperial": 6463, "ixir": 6464, "igo": 6465, "berg": 6466, "\u0120column": 6467, "\u0120rescued": 6468, "pee": 6469, "tim": 6470, "\u0120grau": 6471, "izz": 6472, "club": 6473, "\u0120cassim": 6474, "\u0120jackson": 6475, "wow": 6476, "\u0120resumed": 6477, "\u0120statue": 6478, "\u0120hamper": 6479, "\u0120molo": 6480, "\u0120tsian": 6481, "\u0120females": 6482, "\u0120buffalos": 6483, "owasso": 6484, "\u0120wampum": 6485, "\u0120kwasynd": 6486, "\u0120squall": 6487, "\u0120homeward": 6488, "\u0120vessel": 6489, "appear": 6490, "\u0120glowing": 6491, "\u0120minister": 6492, "\u0120amazed": 6493, "\u0120huntsmen": 6494, "\u0120dived": 6495, "\u0120expecting": 6496, "\u0120surround": 6497, "\u0120region": 6498, "\u0120stealing": 6499, "keness": 6500, "ases": 6501, "frightened": 6502, "entered": 6503, "\u0120politely": 6504, "\u0120bake": 6505, "gen": 6506, "utely": 6507, "\u0120agreeable": 6508, "\u0120ends": 6509, "\u0120interrupted": 6510, "\u0120jest": 6511, "\u0120contrary": 6512, "\u0120parson": 6513, "\u0120prospect": 6514, "creature": 6515, "whate": 6516, "whatever": 6517, "\u0120comforted": 6518, "orders": 6519, "bur": 6520, "\u0120severely": 6521, "ution": 6522, "wild": 6523, "oup": 6524, "begged": 6525, "lived": 6526, "\u0120sprung": 6527, "\u0120bruin": 6528, "cry": 6529, "\u0120prettier": 6530, "making": 6531, "\u0120lux": 6532, "thinking": 6533, "racted": 6534, "\u0120puzzled": 6535, "\u0120admired": 6536, "\u0120ut": 6537, "pray": 6538, "agree": 6539, "\u0120morsel": 6540, "\u0120assist": 6541, "\u0120shows": 6542, "however": 6543, "\u0120bounds": 6544, "ceiving": 6545, "\u0120impro": 6546, "\u0120reading": 6547, "\u0120likewise": 6548, "\u0120stab": 6549, "\u0120disturbed": 6550, "\u0120wounds": 6551, "\u0120nails": 6552, "\u0120stomach": 6553, "inv": 6554, "\u0120alighted": 6555, "\u0120trump": 6556, "carry": 6557, "\u0120scrambled": 6558, "left": 6559, "\u0120refresh": 6560, "\u0120fling": 6561, "\u0120undertake": 6562, "\u0120borne": 6563, "lid": 6564, "uge": 6565, "dance": 6566, "\u0120toes": 6567, "thus": 6568, "welcome": 6569, "\u0120camp": 6570, "\u0120pool": 6571, "aited": 6572, "ivers": 6573, "\u0120slender": 6574, "\u0120rings": 6575, "\u0120palm": 6576, "\u0120sipao": 6577, "quest": 6578, "\u0120feeding": 6579, "\u0120faire": 6580, "\u0120nevertheless": 6581, "\u0120steam": 6582, "\u0120flow": 6583, "\u0120sunrise": 6584, "\u0120reck": 6585, "\u0120wrigg": 6586, "followed": 6587, "show": 6588, "\u0120uncomfortable": 6589, "\u0120pile": 6590, "\u0120cups": 6591, "ern": 6592, "\u0120flash": 6593, "\u0120exha": 6594, "\u0120witness": 6595, "\u0120suspected": 6596, "\u0120tossing": 6597, "\u0120inform": 6598, "\u0120public": 6599, "\u0120oath": 6600, "\u0120newly": 6601, "alone": 6602, "lady": 6603, "\u0120selling": 6604, "\u0120becom": 6605, "\u0120becoming": 6606, "vis": 6607, "\u0120backs": 6608, "\u0120mule": 6609, "\u0120produ": 6610, "lw": 6611, "\u0120warned": 6612, "abon": 6613, "\u0120thence": 6614, "abb": 6615, "\u0120ou": 6616, "knight": 6617, "\u0120infant": 6618, "\u0120severe": 6619, "\u0120removed": 6620, "\u0120cracking": 6621, "\u0120nap": 6622, "icious": 6623, "\u0120colours": 6624, "\u0120bas": 6625, "dinner": 6626, "\u0120boiled": 6627, "\u0120root": 6628, "\u0120asks": 6629, "asleep": 6630, "need": 6631, "sweet": 6632, "\u0120deck": 6633, "strange": 6634, "\u0120frying": 6635, "bread": 6636, "leaf": 6637, "ounce": 6638, "\u0120fragrant": 6639, "\u0120murd": 6640, "\u0120spect": 6641, "lected": 6642, "myself": 6643, "\u0120pap": 6644, "\u0120convinced": 6645, "\u0120horrid": 6646, "\u0120matches": 6647, "\u0120breathe": 6648, "\u0120arrival": 6649, "umer": 6650, "iments": 6651, "\u0120valleys": 6652, "until": 6653, "\u0120wondrous": 6654, "\u0120bair": 6655, "\u0120thres": 6656, "\u0120goodwife": 6657, "\u0120whistled": 6658, "ashes": 6659, "\u0120anxiety": 6660, "\u0120scotland": 6661, "\u0120beaver": 6662, "quid": 6663, "\u0120marvellous": 6664, "irk": 6665, "\u0120irish": 6666, "earl": 6667, "\u0120reluct": 6668, "\u0120devour": 6669, "\u0120ph": 6670, "\u0120waved": 6671, "\u0120trace": 6672, "onb": 6673, "onbie": 6674, "\u0120ghost": 6675, "\u0120creel": 6676, "\u0120settle": 6677, "\u0120card": 6678, "\u0120dil": 6679, "aste": 6680, "hair": 6681, "\u0120merrily": 6682, "\u0120stock": 6683, "\u0120stately": 6684, "\u0120ruby": 6685, "oc": 6686, "ae": 6687, "\u0120calm": 6688, "\u0120invite": 6689, "\u0120gregory": 6690, "\u0120scarf": 6691, "\u0120track": 6692, "ansp": 6693, "\u0120vow": 6694, "meal": 6695, "\u0120valu": 6696, "\u0120stroke": 6697, "\u0120civil": 6698, "\u0120glory": 6699, "\u0120rec": 6700, "\u0120lamb": 6701, "\u0120emain": 6702, "\u0120mach": 6703, "ulain": 6704, "lings": 6705, "\u0120swine": 6706, "\u0120instrum": 6707, "\u0120distinct": 6708, "\u0120leaned": 6709, "\u0120wilderness": 6710, "pill": 6711, "\u0120scrape": 6712, "\u0120repre": 6713, "\u0120represent": 6714, "\u0120squeeze": 6715, "\u0120squeezed": 6716, "\u0120crushed": 6717, "spread": 6718, "\u0120abbot": 6719, "\u0120office": 6720, "\u0120shared": 6721, "\u0120damp": 6722, "\u0120bricri": 6723, "\u0120bricriu": 6724, "\u0120nets": 6725, "\u0120sheen": 6726, "\u0120goddess": 6727, "west": 6728, "\u0120requested": 6729, "small": 6730, "avers": 6731, "barrow": 6732, "\u0120gleamed": 6733, "\u0120casting": 6734, "\u0120honored": 6735, "\u0120inner": 6736, "\u0120highly": 6737, "\u0120member": 6738, "\u0120streamed": 6739, "\u0120spout": 6740, "\u0120counten": 6741, "\u0120stroked": 6742, "\u0120aud": 6743, "\u0120lect": 6744, "\u0120colors": 6745, "\u0120conven": 6746, "handkerchief": 6747, "\u0120boot": 6748, "\u0120foo": 6749, "illings": 6750, "\u0120councillor": 6751, "\u0120\u010a\u0120\u0120\u0120": 6752, "\u0120suitor": 6753, "\u0120sixth": 6754, "\u0120spider": 6755, "\u0120cherry": 6756, "\u0120encou": 6757, "\u0120province": 6758, "akeru": 6759, "jected": 6760, "\u0120inaba": 6761, "weights": 6762, "\u0120jepp": 6763, "\u0120jeppe": 6764, "silverwhite": 6765, "\u0120elk": 6766, "\u0120marie": 6767, "\u0120holloweg": 6768, "\u0120rabbits": 6769, "dish": 6770, "dsch": 6771, "\u0120armlet": 6772, "sung": 6773, "abo": 6774, "\u0120indians": 6775, "ata": 6776, "\u0120heir": 6777, "\u0120grasp": 6778, "\u0120gleaming": 6779, "disappeared": 6780, "\u0120laying": 6781, "journey": 6782, "\u0120wager": 6783, "rup": 6784, "sword": 6785, "bushes": 6786, "\u0120carbun": 6787, "appro": 6788, "\u0120services": 6789, "\u0120apartment": 6790, "early": 6791, "\u0120cau": 6792, "\u0120likeness": 6793, "answer": 6794, "brid": 6795, "\u0120loosened": 6796, "second": 6797, "\u0120sparkled": 6798, "\u0120anywhere": 6799, "\u0120ray": 6800, "mble": 6801, "\u0120admiration": 6802, "\u0120orig": 6803, "\u0120origin": 6804, "flies": 6805, "willing": 6806, "fairy": 6807, "\u0120absolutely": 6808, "\u0120using": 6809, "whis": 6810, "\u0120amused": 6811, "\u0120asse": 6812, "kingdom": 6813, "\u0120disgust": 6814, "\u0120ami": 6815, "\u0120soc": 6816, "\u0120society": 6817, "satis": 6818, "\u0120degre": 6819, "\u0120degrees": 6820, "\u0120constantly": 6821, "gent": 6822, "comp": 6823, "often": 6824, "meant": 6825, "\u0120pipes": 6826, "lost": 6827, "\u0120_": 6828, "music": 6829, "promised": 6830, "\u0120gorgeous": 6831, "\u0120quantities": 6832, "\u0120bedroom": 6833, "\u0120phys": 6834, "\u0120physic": 6835, "\u0120performed": 6836, "ision": 6837, "\u0120reel": 6838, "\u0120sniffed": 6839, "kit": 6840, "tu": 6841, "yellow": 6842, "iel": 6843, "\u0120shines": 6844, "\u0120cease": 6845, "\u0120consequence": 6846, "\u0120promptly": 6847, "\u0120amount": 6848, "\u0120regretted": 6849, "\u0120trusted": 6850, "\u0120speedily": 6851, "sses": 6852, "\u0120assure": 6853, "\u0120desert": 6854, "\u0120ragged": 6855, "\u0120hospitality": 6856, "\u0120continually": 6857, "\u0120awk": 6858, "\u0120awkward": 6859, "port": 6860, "\u0120portrait": 6861, "\u0120graceful": 6862, "rive": 6863, "\u0120recoll": 6864, "\u0120decide": 6865, "\u0120shade": 6866, "\u0120slightest": 6867, "gree": 6868, "\u0120grim": 6869, "agreeable": 6870, "lace": 6871, "saying": 6872, "\u0120desol": 6873, "\u0120ruin": 6874, "\u0120recognised": 6875, "\u0120punished": 6876, "\u0120explain": 6877, "\u0120haughty": 6878, "\u0120mich": 6879, "\u0120micha": 6880, "\u0120michael": 6881, "\u0120bodies": 6882, "\u0120bars": 6883, "\u0120slid": 6884, "\u0120lodging": 6885, "\u0120hasty": 6886, "\u0120dispatch": 6887, "\u0120lines": 6888, "\u0120whirlwind": 6889, "apes": 6890, "\u0120estate": 6891, "\u0120drown": 6892, "bish": 6893, "consol": 6894, "\u0120deaf": 6895, "\u0120biggest": 6896, "usk": 6897, "same": 6898, "golden": 6899, "\u0120goods": 6900, "\u0120owed": 6901, "lord": 6902, "\u0120aband": 6903, "\u0120shorter": 6904, "\u0120poisonous": 6905, "\u0120particularly": 6906, "\u0120meas": 6907, "\u0120pettic": 6908, "\u0120pettico": 6909, "\u0120proudly": 6910, "rers": 6911, "\u0120screaming": 6912, "oorer": 6913, "spring": 6914, "clim": 6915, "\u0120beans": 6916, "\u0120wail": 6917, "\u0120gasped": 6918, "\u0120clasp": 6919, "\u0120swans": 6920, "\u0120jaws": 6921, "elope": 6922, "\u0120rept": 6923, "\u0120rivers": 6924, "sal": 6925, "\u0120consulted": 6926, "ishes": 6927, "\u0120missed": 6928, "spr": 6929, "\u0120befell": 6930, "\u0120students": 6931, "\u0120flowing": 6932, "\u0120foam": 6933, "\u0120fare": 6934, "\u0120richer": 6935, "\u0120awaiting": 6936, "\u0120splash": 6937, "\u0120commotion": 6938, "opened": 6939, "\u0120stretching": 6940, "cast": 6941, "saddle": 6942, "\u0120sobs": 6943, "\u0120burial": 6944, "outside": 6945, "kins": 6946, "\u0120cooking": 6947, "\u0120unluck": 6948, "\u0120pant": 6949, "\u0120awakened": 6950, "\u0120knelt": 6951, "true": 6952, "tem": 6953, "reached": 6954, "\u0120boughs": 6955, "nuts": 6956, "wonder": 6957, "\u0120taller": 6958, "strong": 6959, "\u0120veil": 6960, "\u0120prevailed": 6961, "\u0120luckily": 6962, "\u0120persuade": 6963, "\u0120avenge": 6964, "\u0120prisoner": 6965, "\u0120liber": 6966, "\u0120double": 6967, "\u0120exhausted": 6968, "\u0120brightness": 6969, "\u0120judgment": 6970, "\u0120reb": 6971, "chamber": 6972, "ago": 6973, "\u0120pens": 6974, "chair": 6975, "\u0120crim": 6976, "\u0120swore": 6977, "inkling": 6978, "none": 6979, "fashion": 6980, "maker": 6981, "\u0120wheat": 6982, "full": 6983, "\u0120lingered": 6984, "\u0120glove": 6985, "mered": 6986, "brothers": 6987, "\u0120jumping": 6988, "\u0120curled": 6989, "died": 6990, "spo": 6991, "anges": 6992, "\u0120foretold": 6993, "\u0120penkawr": 6994, "greet": 6995, "cir": 6996, "speak": 6997, "\u0120mound": 6998, "\u0120wave": 6999, "\u0120aught": 7000, "\u0120hadn": 7001, "\u0120parlour": 7002, "\u0120kissing": 7003, "\u0120baw": 7004, "\u0120shove": 7005, "\u0120obli": 7006, "gay": 7007, "instead": 7008, "\u0120active": 7009, "\u0120climbing": 7010, "laid": 7011, "knife": 7012, "avest": 7013, "\u0120purse": 7014, "\u0120barley": 7015, "pers": 7016, "\u0120awhile": 7017, "\u0120wig": 7018, "\u0120cargo": 7019, "\u0120brig": 7020, "urope": 7021, "\u0120fleet": 7022, "\u0120thinks": 7023, "\u0120shag": 7024, "\u0120shaggy": 7025, "\u010a\u0120\u0120\u0120\u0120\u0120\u0120\u0120\u0120\u0120\u0120\u0120\u0120\u0120\u0120": 7026, "...": 7027, "glass": 7028, "fold": 7029, "\u0120tones": 7030, "\u0120loveliest": 7031, "\u0120disturb": 7032, "\u0120bethought": 7033, "tear": 7034, "pearls": 7035, "\u0120grip": 7036, "\u0120sour": 7037, "boys": 7038, "\u0120fully": 7039, "\u0120echo": 7040, "mill": 7041, "\u0120scream": 7042, "oser": 7043, "\u0120reminded": 7044, "sure": 7045, "against": 7046, "\u0120exchanged": 7047, "ouched": 7048, "\u0120ner": 7049, "\u0120foe": 7050, "\u0120rejoicing": 7051, "herds": 7052, "\u0120rot": 7053, "assad": 7054, "\u0120bide": 7055, "\u0120infl": 7056, "\u0120summons": 7057, "spare": 7058, "\u0120indign": 7059, "\u0120od": 7060, "\u0120distressed": 7061, "\u0120powerless": 7062, "\u0120mal": 7063, "\u0120satisfaction": 7064, "\u0120sensible": 7065, "hon": 7066, "hum": 7067, "hills": 7068, "\u0120arrive": 7069, "\u0120inhabit": 7070, "dealer": 7071, "unted": 7072, "\u0120figures": 7073, "\u0120permitted": 7074, "\u0120fearful": 7075, "dock": 7076, "cott": 7077, "\u0120yarn": 7078, "\u0120bewitched": 7079, "\u0120dilig": 7080, "\u0120bury": 7081, "\u0120christening": 7082, "\u0120clar": 7083, "gress": 7084, "\u0120dang": 7085, "\u0120brow": 7086, "sters": 7087, "\u0120leads": 7088, "\u0120sink": 7089, "\u0120unusual": 7090, "swallow": 7091, "\u0120entrance": 7092, "\u0120summit": 7093, "\u0120admit": 7094, "\u0120books": 7095, "\u0120stu": 7096, "\u0120frighten": 7097, "\u0120talis": 7098, "\u0120talisman": 7099, "\u0120limbs": 7100, "\u0120numbers": 7101, "cousin": 7102, "illa": 7103, "\u0120roar": 7104, "ien": 7105, "\u0120dreadfully": 7106, "\u0120grieve": 7107, "\u0120solitary": 7108, "\u0120finds": 7109, "\u0120balls": 7110, "\u0120temples": 7111, "\u0120delive": 7112, "aries": 7113, "amore": 7114, "ua": 7115, "\u0120thankful": 7116, "\u0120confidence": 7117, "\u0120whey": 7118, "\u0120log": 7119, "\u0120horsemen": 7120, "\u0120brink": 7121, "during": 7122, "\u0120praise": 7123, "\u0120restless": 7124, "\u0120tame": 7125, "stor": 7126, "\u0120rattle": 7127, "\u0120patient": 7128, "\u0120garret": 7129, "\u0120newsp": 7130, "\u0120ming": 7131, "\u0120mayor": 7132, "idently": 7133, "rate": 7134, "\u0120clay": 7135, "\u0120glistened": 7136, "\u0120withdrew": 7137, "\u0120china": 7138, "\u0120mild": 7139, "\u0120countenance": 7140, "\u0120countless": 7141, "\u0120buckwhe": 7142, "\u0120buckwheat": 7143, "\u0120invent": 7144, "\u0120highway": 7145, "\u0120toys": 7146, "\u0120audience": 7147, "\u0120spoiled": 7148, "\u0120lecture": 7149, "\u0120packed": 7150, "\u0120shillings": 7151, "councillor": 7152, "\u0120dipped": 7153, "\u0120baker": 7154, "\u0120hulda": 7155, "uh": 7156, "\u0120vegetables": 7157, "\u0120retainers": 7158, "momotaro": 7159, "\u0120splendor": 7160, "\u0120employed": 7161, "\u0120governor": 7162, "\u0120dismissed": 7163, "\u0120shrine": 7164, "\u0120dyn": 7165, "\u0120takeru": 7166, "\u0120ventured": 7167, "\u0120crew": 7168, "\u0120hermits": 7169, "\u0120described": 7170, "\u0120attached": 7171, "concer": 7172, "\u0120realize": 7173, "\u0120unfaithful": 7174, "load": 7175, "\u0120underground": 7176, "\u0120yield": 7177, "\u0120ivan": 7178, "\u0120quack": 7179, "\u0120bess": 7180, "\u0120bessie": 7181, "\u0120dumpty": 7182, "\u0120stile": 7183, "\u0120poker": 7184, "jemima": 7185, "\u0120hunca": 7186, "dschou": 7187, "\u0120tscha": 7188, "\u0120tschauna": 7189, "\u0120procure": 7190, "\u0120mudjee": 7191, "\u0120weend": 7192, "\u0120sheem": 7193, "aupee": 7194, "manger": 7195, "servants": 7196, "flo": 7197, "ague": 7198, "\u0120rows": 7199, "\u0120pause": 7200, "\u0120groaning": 7201, "ression": 7202, "\u0120leafy": 7203, "number": 7204, "pay": 7205, "\u0120ages": 7206, "gue": 7207, "\u0120learnt": 7208, "\u0120purest": 7209, "\u0120genius": 7210, "\u0120sped": 7211, "\u0120hurrying": 7212, "cross": 7213, "\u0120deserted": 7214, "\u0120throng": 7215, "\u0120dove": 7216, "jumped": 7217, "\u0120happens": 7218, "gift": 7219, "\u0120equally": 7220, "\u0120tells": 7221, "\u0120dazz": 7222, "\u0120lovers": 7223, "\u0120frequ": 7224, "\u0120cursed": 7225, "\u0120shod": 7226, "\u0120minded": 7227, "\u0120bay": 7228, "\u0120coax": 7229, "rothed": 7230, "direct": 7231, "\u0120weave": 7232, "\u0120forsaken": 7233, "\u0120sunbeam": 7234, "dress": 7235, "poured": 7236, "\u0120nic": 7237, "stay": 7238, "\u0120jor": 7239, "\u0120jorinde": 7240, "oringel": 7241, "\u0120lamented": 7242, "carried": 7243, "\u0120ninth": 7244, "\u0120posit": 7245, "\u0120lent": 7246, "\u0120tend": 7247, "\u0120beech": 7248, "\u0120inclined": 7249, "\u0120neighbouring": 7250, "\u0120pop": 7251, "\u0120mend": 7252, "whenever": 7253, "\u0120elegant": 7254, "\u0120daring": 7255, "wax": 7256, "tor": 7257, "feather": 7258, "\u0120observe": 7259, "\u0120acquaint": 7260, "\u0120utmost": 7261, "\u0120contempt": 7262, "\u0120jealousy": 7263, "\u0120degree": 7264, "--'": 7265, "\u0120sinking": 7266, "\u0120skipped": 7267, "\u0120marvel": 7268, "\u0120desolate": 7269, "\u0120thereby": 7270, "enchant": 7271, "\u0120stepping": 7272, "bag": 7273, "\u0120solid": 7274, "venged": 7275, "\u0120skull": 7276, "\u0120husbands": 7277, "lad": 7278, "moment": 7279, "\u0120furnished": 7280, "nay": 7281, "gate": 7282, "gall": 7283, "\u0120fame": 7284, "catch": 7285, "\u0120lard": 7286, "\u0120sausage": 7287, "\u0120sheer": 7288, "\u0120deb": 7289, "\u0120dwells": 7290, "\u0120abandoned": 7291, "\u0120embraced": 7292, "\u0120quarrell": 7293, "\u0120woven": 7294, "\u0120confessed": 7295, "\u0120harder": 7296, "\u0120understanding": 7297, "\u0120reins": 7298, "\u0120poorer": 7299, "\u0120hood": 7300, "\u0120foxes": 7301, "thest": 7302, "den": 7303, "\u0120youths": 7304, "\u0120risen": 7305, "\u0120steadily": 7306, "\u0120antelope": 7307, "\u0120square": 7308, "fishing": 7309, "engi": 7310, "miz": 7311, "mizi": 7312, "\u0120owned": 7313, "aston": 7314, "\u0120ruled": 7315, "strength": 7316, "\u0120stormy": 7317, "\u0120coffee": 7318, "\u0120jar": 7319, "\u0120haven": 7320, "maidens": 7321, "distance": 7322, "\u0120realm": 7323, "weather": 7324, "\u0120swell": 7325, "\u0120hired": 7326, "ashore": 7327, "song": 7328, "\u0120gnaw": 7329, "\u0120pace": 7330, "\u0120dripping": 7331, "hou": 7332, "passing": 7333, "\u0120borrowed": 7334, "vill": 7335, "\u0120rip": 7336, "aling": 7337, "\u0120helpless": 7338, "fallen": 7339, "\u0120litter": 7340, "tight": 7341, "igning": 7342, "parents": 7343, "\u0120arts": 7344, "\u0120monkeys": 7345, "\u0120dismay": 7346, "\u0120baskets": 7347, "\u0120fruits": 7348, "\u0120refres": 7349, "\u0120pouring": 7350, "\u0120stern": 7351, "\u0120inj": 7352, "\u0120favourite": 7353, "\u0120suspect": 7354, "\u0120creeping": 7355, "eenth": 7356, "\u0120wouldst": 7357, "soever": 7358, "vest": 7359, "\u0120dignity": 7360, "vengeance": 7361, "\u0120boon": 7362, "\u0120profit": 7363, "\u0120unfortunate": 7364, "\u0120attempted": 7365, "\u0120murder": 7366, "\u0120rained": 7367, "\u0120horseman": 7368, "inn": 7369, "\u0120struggled": 7370, "\u0120innocence": 7371, "\u0120deed": 7372, "\u0120prophe": 7373, "\u0120lowest": 7374, "word": 7375, "\u0120combed": 7376, "does": 7377, "\u0120trod": 7378, "\u0120forged": 7379, "\u0120shalt": 7380, "\u0120shaft": 7381, "\u0120mabon": 7382, "\u0120ants": 7383, "\u0120hosts": 7384, "\u0120neg": 7385, "\u0120wakened": 7386, "ubbed": 7387, "bones": 7388, "\u0120dropping": 7389, "\u0120hangs": 7390, "\u0120thrice": 7391, "\u0120signed": 7392, "stretched": 7393, "\u0120handsomest": 7394, "\u0120spells": 7395, "\u0120fancied": 7396, "\u0120gentlemen": 7397, "pret": 7398, "\u0120arch": 7399, "gged": 7400, "\u0120tailor": 7401, "pull": 7402, "\u0120mournful": 7403, "\u0120splendidly": 7404, "ainted": 7405, "bra": 7406, "\u0120finland": 7407, "\u0120glimpse": 7408, "\u0120parad": 7409, "\u0120paradise": 7410, "\u0120steward": 7411, "cken": 7412, "\u0120otto": 7413, "\u0120fence": 7414, "\u0120tram": 7415, "\u0120misch": 7416, "\u0120mischiev": 7417, "cribed": 7418, "food": 7419, "\u0120brush": 7420, "\u0120resting": 7421, "nonsense": 7422, "omon": 7423, "\u0120necklace": 7424, "\u0120rubbing": 7425, "\u0120lesson": 7426, "\u0120moments": 7427, "\u0120weighed": 7428, "\u0120porch": 7429, "\u0120strewn": 7430, "\u0120caro": 7431, "\u0120sabre": 7432, "\u0120closer": 7433, "ieved": 7434, "\u0120conso": 7435, "\u0120clumsy": 7436, "wers": 7437, "\u0120complaint": 7438, "\u0120wisest": 7439, "\u0120retire": 7440, "\u0120perpet": 7441, "\u0120rotten": 7442, "\u0120lords": 7443, "\u0120amb": 7444, "\u0120ambassad": 7445, "\u0120proclamation": 7446, "laugh": 7447, "\u0120decked": 7448, "\u0120importance": 7449, "doors": 7450, "\u0120elves": 7451, "\u0120goblins": 7452, "\u0120gemdel": 7453, "\u0120gemdelove": 7454, "\u0120gemdelovely": 7455, "\u0120mester": 7456, "\u0120ward": 7457, "\u0120remed": 7458, "\u0120troth": 7459, "\u0120sacrifice": 7460, "\u0120hairs": 7461, "\u0120prow": 7462, "\u0120nag": 7463, "\u0120tattered": 7464, "\u0120curiously": 7465, "uls": 7466, "\u0120harsh": 7467, "\u0120gallant": 7468, "reason": 7469, "\u0120unlock": 7470, "uttering": 7471, "\u0120inherited": 7472, "\u0120humb": 7473, "\u0120perplex": 7474, "\u0120folks": 7475, "\u0120sadness": 7476, "\u0120liquid": 7477, "\u0120croak": 7478, "penny": 7479, "\u0120lassie": 7480, "\u0120paddock": 7481, "anket": 7482, "\u0120warmer": 7483, "\u0120distaff": 7484, "\u0120hideous": 7485, "\u0120strand": 7486, "\u0120obedient": 7487, "\u0120stack": 7488, "flowers": 7489, "\u0120mut": 7490, "\u0120pudding": 7491, "\u0120jer": 7492, "\u0120offended": 7493, "riment": 7494, "\u0120trotted": 7495, "oint": 7496, "\u0120destined": 7497, "\u0120acquired": 7498, "\u0120fireplace": 7499, "\u0120stake": 7500, "\u0120popped": 7501, "\u0120captive": 7502, "mortal": 7503, "\u0120wailed": 7504, "\u0120kittens": 7505, "\u0120cards": 7506, "\u0120bravely": 7507, "\u0120precip": 7508, "\u0120sympath": 7509, "\u0120pays": 7510, "\u0120chat": 7511, "\u0120maybe": 7512, "cent": 7513, "\u0120gives": 7514, "playing": 7515, "\u0120wrestling": 7516, "\u0120thump": 7517, "\u0120officers": 7518, "\u0120tan": 7519, "\u0120concealed": 7520, "\u0120entertainment": 7521, "\u0120heroes": 7522, "\u0120gaul": 7523, "\u0120midna": 7524, "uid": 7525, "\u0120deliverer": 7526, "\u0120thong": 7527, "acht": 7528, "\u0120advantage": 7529, "\u0120forgiveness": 7530, "fam": 7531, "kept": 7532, "\u0120worthy": 7533, "\u0120freel": 7534, "\u0120pleasantly": 7535, "\u0120artic": 7536, "\u0120cair": 7537, "ourn": 7538, "ilte": 7539, "\u0120lofty": 7540, "\u0120pyr": 7541, "\u0120freeze": 7542, "\u0120respected": 7543, "\u0120theat": 7544, "\u0120supplied": 7545, "\u0120evidently": 7546, "comm": 7547, "\u0120tick": 7548, "newed": 7549, "\u0120hymn": 7550, "zes": 7551, "\u0120thoughtful": 7552, "leton": 7553, "\u0120teap": 7554, "\u0120teapot": 7555, "\u0120spur": 7556, "\u0120bushel": 7557, "\u0120labor": 7558, "\u0120clearing": 7559, "\u0120gutter": 7560, "\u0120tunnel": 7561, "\u0120polyte": 7562, "\u0120polytechnic": 7563, "rums": 7564, "\u0120learning": 7565, "\u0120manger": 7566, "\u0120lion": 7567, "\u0120pomp": 7568, "\u0120amater": 7569, "\u0120amateras": 7570, "\u0120amaterasu": 7571, "\u0120grandson": 7572, "\u0120pleading": 7573, "iy": 7574, "reated": 7575, "\u0120tent": 7576, "\u0120attack": 7577, "\u0120crawl": 7578, "\u0120wealthy": 7579, "\u0120horai": 7580, "\u0120remote": 7581, "itive": 7582, "\u0120elixir": 7583, "dum": 7584, "dumpling": 7585, "\u0120dynasty": 7586, "\u0120entertained": 7587, "\u0120native": 7588, "seed": 7589, "\u0120umb": 7590, "\u0120lotus": 7591, "\u0120underway": 7592, "stump": 7593, "kno": 7594, "\u0120comple": 7595, "\u0120proclaimed": 7596, "\u0120torre": 7597, "\u0120toads": 7598, "\u0120clarib": 7599, "\u0120claribel": 7600, "\u0120discourse": 7601, "inda": 7602, "lily": 7603, "timmy": 7604, "ippy": 7605, "\u0120bunnies": 7606, "\u0120trit": 7607, "\u0120tao": 7608, "asper": 7609, "iang": 7610, "aboz": 7611, "abozho": 7612, "\u0120plume": 7613, "\u0120fasting": 7614, "\u0120peepi": 7615, "\u0120spots": 7616, "\u0120mariner": 7617, "\u0120schooner": 7618, "\u0120twine": 7619, "\u0120switches": 7620, "\u0120koj": 7621, "\u0120kojata": 7622, "\u0120brim": 7623, "\u0120greedily": 7624, "hands": 7625, "\u0120muttered": 7626, "\u0120tenderly": 7627, "\u0120reign": 7628, "forgot": 7629, "middle": 7630, "\u0120centre": 7631, "\u0120reared": 7632, "\u0120rustling": 7633, "wicked": 7634, "\u0120carbuncle": 7635, "nds": 7636, "giving": 7637, "mist": 7638, "impossible": 7639, "\u0120paths": 7640, "\u0120wring": 7641, "haired": 7642, "\u0120planted": 7643, "running": 7644, "\u0120minds": 7645, "\u0120entreated": 7646, "seem": 7647, "\u0120becomes": 7648, "\u0120wearied": 7649, "tling": 7650, "\u0120occasions": 7651, "\u0120exerc": 7652, "\u0120leis": 7653, "pleased": 7654, "\u0120wanting": 7655, "\u0120christened": 7656, "\u0120decent": 7657, "\u0120ink": 7658, "forest": 7659, "\u0120treacher": 7660, "\u0120betrothed": 7661, "\u0120skilled": 7662, "star": 7663, "kitchen": 7664, "\u0120fow": 7665, "ureen": 7666, "\u0120remaining": 7667, "\u0120splendour": 7668, "delight": 7669, "mountain": 7670, "stopped": 7671, "\u0120positively": 7672, "hook": 7673, "\u0120imagin": 7674, "\u0120imaginable": 7675, "\u0120ed": 7676, "avour": 7677, "adam": 7678, "\u0120peaceful": 7679, "\u0120elsewhere": 7680, "ption": 7681, "\u0120recollect": 7682, "eches": 7683, "bbling": 7684, "\u0120lace": 7685, "\u0120fitting": 7686, "!--": 7687, "\u0120sup": 7688, "\u0120whereupon": 7689, "\u0120tasks": 7690, "\u0120withdra": 7691, "que": 7692, "\u0120chariots": 7693, "mine": 7694, "suck": 7695, "\u0120spoil": 7696, "\u0120islands": 7697, "icated": 7698, "\u0120prey": 7699, "xen": 7700, "\u0120bunch": 7701, "\u0120plunged": 7702, "strous": 7703, "\u0120dragging": 7704, "\u0120aimed": 7705, "\u0120risk": 7706, "\u0120touching": 7707, "\u0120erect": 7708, "\u0120larder": 7709, "\u0120inherit": 7710, "walked": 7711, "\u0120paying": 7712, "\u0120belief": 7713, "\u0120rushes": 7714, "feast": 7715, "\u0120puts": 7716, "\u0120upside": 7717, "\u0120potatoes": 7718, "\u0120endure": 7719, "\u0120pou": 7720, "\u0120bonnet": 7721, "\u0120ske": 7722, "toe": 7723, "\u0120refuge": 7724, "\u0120robin": 7725, "breast": 7726, "\u0120receiving": 7727, "\u0120petticoat": 7728, "\u0120unseen": 7729, "scar": 7730, "spoke": 7731, "dder": 7732, "ani": 7733, "\u0120grains": 7734, "\u0120saving": 7735, "flew": 7736, "\u0120consult": 7737, "power": 7738, "\u0120traitor": 7739, "basket": 7740, "summer": 7741, "oms": 7742, "mat": 7743, "\u0120cleaning": 7744, "\u0120silvery": 7745, "\u0120dom": 7746, "\u0120train": 7747, "\u0120pussy": 7748, "\u0120expression": 7749, "\u0120childhood": 7750, "estern": 7751, "\u0120sque": 7752, "spl": 7753, "ruly": 7754, "except": 7755, "rowing": 7756, "\u0120wheels": 7757, "\u0120naked": 7758, "\u0120beds": 7759, "\u0120bathed": 7760, "\u0120pleases": 7761, "\u0120preferred": 7762, "\u0120wedd": 7763, "\u0120sending": 7764, "marry": 7765, "\u0120bathe": 7766, "\u0120backwards": 7767, "\u0120merc": 7768, "\u0120cushions": 7769, "\u0120invented": 7770, "\u0120insist": 7771, "prep": 7772, "\u0120violently": 7773, "\u0120attentively": 7774, "\u0120belt": 7775, "teen": 7776, "\u0120desper": 7777, "coloured": 7778, "\u0120ack": 7779, "\u0120acknow": 7780, "\u0120crimson": 7781, "\u0120chap": 7782, "fresh": 7783, "ga": 7784, "\u0120fifteenth": 7785, "\u0120kiev": 7786, "\u0120kieva": 7787, "grew": 7788, "\u0120trade": 7789, "\u0120purch": 7790, "\u0120journeyed": 7791, "athered": 7792, "\u0120stray": 7793, "\u0120dost": 7794, "\u0120wrath": 7795, "\u0120reptile": 7796, "\u0120overtaken": 7797, "\u0120remarks": 7798, "surpr": 7799, "arr": 7800, "\u0120retorted": 7801, "\u0120dart": 7802, "footed": 7803, "\u0120whip": 7804, "words": 7805, "\u0120stair": 7806, "\u0120groans": 7807, "\u0120skir": 7808, "\u0120cheerfully": 7809, "\u0120cautiously": 7810, "thousand": 7811, "\u0120conceal": 7812, "\u0120harp": 7813, "mess": 7814, "\u0120olw": 7815, "\u0120olwen": 7816, "\u0120greyh": 7817, "\u0120bounded": 7818, "\u0120porter": 7819, "\u0120spake": 7820, "\u0120moist": 7821, "\u0120herdsmen": 7822, "ddy": 7823, "\u0120broom": 7824, "\u0120deny": 7825, "\u0120raz": 7826, "\u0120mod": 7827, "\u0120gwrn": 7828, "\u0120gwrnach": 7829, "\u0120inquire": 7830, "\u0120shaken": 7831, "walking": 7832, "\u0120dar": 7833, "\u0120sofa": 7834, "lect": 7835, "says": 7836, "agged": 7837, "\u0120patter": 7838, "\u0120oblige": 7839, "outher": 7840, "outhern": 7841, "\u0120strangely": 7842, "trouble": 7843, "mid": 7844, "\u0120strode": 7845, "\u0120ours": 7846, "\u0120colour": 7847, "dre": 7848, "\u0120knots": 7849, "grey": 7850, "\u010a\u010a": 7851, "geons": 7852, "lawn": 7853, "\u0120shedding": 7854, "\u0120curse": 7855, "\u0120brides": 7856, "tar": 7857, "\u0120forge": 7858, "\u0120europe": 7859, "\u0120oars": 7860, "\u0120sled": 7861, "\u0120costly": 7862, "aching": 7863, "\u0120drifted": 7864, "bbing": 7865, "\u0120satin": 7866, "\u0120raspberries": 7867, "fing": 7868, "\u0120leader": 7869, "\u0120pockets": 7870, "\u0120murdered": 7871, "\u0120loosed": 7872, "bus": 7873, "\u0120az": 7874, "pick": 7875, "stable": 7876, "balls": 7877, "\u0120whipping": 7878, "\u0120manly": 7879, "\u0120coward": 7880, "sticks": 7881, "\u0120tripped": 7882, "\u0120bitten": 7883, "bene": 7884, "crack": 7885, "\u0120hurriedly": 7886, "\u0120curds": 7887, "\u0120ado": 7888, "straight": 7889, "\u0120inmates": 7890, "\u0120bravest": 7891, "\u0120pony": 7892, "\u0120armed": 7893, "\u0120untied": 7894, "\u0120upset": 7895, "\u0120howling": 7896, "\u0120rider": 7897, "oops": 7898, "\u0120plough": 7899, "\u0120victim": 7900, "\u0120cotton": 7901, "\u0120cri": 7902, "try": 7903, "\u0120lively": 7904, "\u010d\u010d\u0120\u0120\u0120": 7905, "conf": 7906, "\u0120remedy": 7907, "\u0120pron": 7908, "\u0120bairn": 7909, "\u0120lads": 7910, "\u0120cherished": 7911, "pple": 7912, "\u0120breathing": 7913, "\u0120saddled": 7914, "\u0120ringing": 7915, "\u0120motionless": 7916, "\u0120sails": 7917, "\u0120defe": 7918, "\u0120twist": 7919, "rul": 7920, "\u0120feasting": 7921, "\u0120picking": 7922, "\u0120prosperous": 7923, "\u0120twinkle": 7924, "\u0120shaped": 7925, "\u0120suffic": 7926, "\u0120previous": 7927, "\u0120kittler": 7928, "\u0120kittlerump": 7929, "\u0120kittlerumpit": 7930, "\u0120engl": 7931, "\u0120english": 7932, "\u0120slop": 7933, "voice": 7934, "minded": 7935, "pow": 7936, "\u0120hoy": 7937, "\u0120perpetual": 7938, "\u0120brass": 7939, "\u0120somewhere": 7940, "har": 7941, "\u0120frau": 7942, "\u0120frauk": 7943, "\u0120fraukirk": 7944, "\u0120priv": 7945, "\u0120tit": 7946, "\u0120departure": 7947, "\u0120lighting": 7948, "\u0120reckon": 7949, "\u0120grin": 7950, "\u0120prover": 7951, "\u0120proverb": 7952, "\u0120vengeance": 7953, "\u0120inhabitants": 7954, "\u0120rhymer": 7955, "\u0120torches": 7956, "\u0120result": 7957, "bling": 7958, "\u0120saucer": 7959, "ancy": 7960, "cottage": 7961, "\u0120vio": 7962, "\u0120cinder": 7963, "eding": 7964, "\u0120troop": 7965, "\u0120keg": 7966, "\u0120overboard": 7967, "wo": 7968, "\u0120han": 7969, "\u0120nodding": 7970, "\u0120pudd": 7971, "\u0120festivities": 7972, "\u0120displeas": 7973, "\u0120merriment": 7974, "cht": 7975, "\u0120conquered": 7976, "\u0120slippery": 7977, "\u0120moreover": 7978, "\u0120glassy": 7979, "\u0120hunters": 7980, "uous": 7981, "hip": 7982, "\u0120sunny": 7983, "rey": 7984, "\u0120glistening": 7985, "\u0120haunted": 7986, "\u0120transp": 7987, "\u0120halt": 7988, "\u0120forms": 7989, "\u0120stark": 7990, "\u0120ravens": 7991, "\u0120snapped": 7992, "\u0120precipice": 7993, "sand": 7994, "dan": 7995, "besides": 7996, "\u0120gander": 7997, "rab": 7998, "\u0120scratching": 7999, "\u0120practice": 8000, "\u0120ness": 8001, "anna": 8002, "aired": 8003, "\u0120boyne": 8004, "\u0120culain": 8005, "\u0120afar": 8006, "\u0120clothing": 8007, "terri": 8008, "\u0120kisses": 8009, "\u0120foal": 8010, "\u0120collected": 8011, "\u0120hallow": 8012, "\u0120rights": 8013, "\u0120distinctly": 8014, "\u0120dense": 8015, "\u0120torch": 8016, "\u0120sickness": 8017, "\u0120thunderbo": 8018, "\u0120cough": 8019, "annon": 8020, "\u0120meaning": 8021, "rach": 8022, "\u0120ansh": 8023, "\u0120anshgay": 8024, "\u0120anshgayli": 8025, "\u0120anshgayliacht": 8026, "arison": 8027, "\u0120daytime": 8028, "\u0120flutes": 8029, "keeping": 8030, "\u0120expressed": 8031, "dig": 8032, "\u0120cao": 8033, "\u0120caoilte": 8034, "\u0120overtook": 8035, "utation": 8036, "\u0120current": 8037, "clear": 8038, "\u0120wheelbarrow": 8039, "\u0120usually": 8040, "\u0120newspaper": 8041, "\u0120mingled": 8042, "\u0120trap": 8043, "\u0120interesting": 8044, "\u0120fortunate": 8045, "\u010a\u0120\u0120\u0120\u0120\u0120\u0120\u0120": 8046, "\u0120pul": 8047, "\u0120progress": 8048, "\u0120hasten": 8049, "\u0120exe": 8050, "\u0120disagreeable": 8051, "\u0120housekeeper": 8052, "\u0120hatch": 8053, "\u0120poem": 8054, "\u0120nurser": 8055, "\u0120nursery": 8056, "robe": 8057, "\u0120stuffed": 8058, "\u0120cane": 8059, "\u0120fluttered": 8060, "\u0120pupp": 8061, "\u0120director": 8062, "\u0120dolls": 8063, "\u0120musical": 8064, "\u0120shooting": 8065, "\u0120warn": 8066, "\u0120pail": 8067, "\u0120kids": 8068, "\u0120scolding": 8069, "\u0120unexpectedly": 8070, "\u0120secured": 8071, "\u0120neighbors": 8072, "\u0120henceforth": 8073, "\u0120subd": 8074, "\u0120dischar": 8075, "\u0120compelled": 8076, "\u0120trip": 8077, "toise": 8078, "\u0120mistaken": 8079, "umo": 8080, "bons": 8081, "\u0120district": 8082, "\u0120esp": 8083, "\u0120umbrella": 8084, "\u0120toyon": 8085, "\u0120toyonari": 8086, "\u0120follows": 8087, "\u0120completed": 8088, "crane": 8089, "\u0120coats": 8090, "\u0120tavern": 8091, "\u0120magnificence": 8092, "\u0120firewor": 8093, "\u0120fireworks": 8094, "\u0120tidy": 8095, "fu": 8096, "\u0120bonbon": 8097, "\u0120counter": 8098, "\u0120morg": 8099, "\u0120morgian": 8100, "\u0120morgiana": 8101, "\u0120acorn": 8102, "luc": 8103, "\u0120police": 8104, "\u0120henny": 8105, "\u0120humpty": 8106, "\u0120sideways": 8107, "\u0120cornet": 8108, "squir": 8109, "\u0120cater": 8110, "\u0120caterpill": 8111, "\u0120chippy": 8112, "\u0120smells": 8113, "toad": 8114, "\u0120lettu": 8115, "\u0120lettuces": 8116, "\u0120yuan": 8117, "sly": 8118, "\u0120tsin": 8119, "\u0120schi": 8120, "\u0120huang": 8121, "\u0120renewed": 8122, "kung": 8123, "\u0120lodges": 8124, "\u0120weendigo": 8125, "\u0120sermon": 8126, "\u0120udro": 8127, "\u0120udrost": 8128, "shilling": 8129, "marriage": 8130, "\u0120neighbourhood": 8131, "eav": 8132, "\u0120quen": 8133, "\u0120emerald": 8134, "\u0120absur": 8135, "\u0120absurd": 8136, "ext": 8137, "\u0120stirrup": 8138, "\u0120describe": 8139, "esy": 8140, "presence": 8141, "\u0120surrounding": 8142, "\u0120brood": 8143, "\u0120workman": 8144, "\u0120accomplished": 8145, "times": 8146, "\u0120prec": 8147, "\u0120grazing": 8148, "pur": 8149, "sued": 8150, "\u0120pursuing": 8151, "\u0120tracks": 8152, "\u0120wret": 8153, "\u0120fearing": 8154, "\u0120continue": 8155, "meet": 8156, "\u0120speck": 8157, "\u0120midday": 8158, "\u0120crows": 8159, "itions": 8160, "princesses": 8161, "tin": 8162, "\u0120original": 8163, "butter": 8164, "\u0120loveliness": 8165, "unfortun": 8166, "above": 8167, "content": 8168, "inations": 8169, "especially": 8170, "\u0120smart": 8171, "complete": 8172, "aze": 8173, "angry": 8174, "\u0120upwards": 8175, "replied": 8176, "year": 8177, "addy": 8178, "\u0120bagp": 8179, "\u0120bestow": 8180, "\u0120event": 8181, "\u0120released": 8182, "\u0120ess": 8183, "\u0120councill": 8184, "\u0120councillors": 8185, "\u0120changing": 8186, "\u0120fasten": 8187, "\u0120sweep": 8188, "\u0120fowls": 8189, "\u0120pover": 8190, "\u0120poverty": 8191, "icker": 8192, "talk": 8193, "\u0120confused": 8194, "blood": 8195, "idering": 8196, "\u0120customers": 8197, "\u0120choo": 8198, "\u0120trained": 8199, "charm": 8200, "matter": 8201, "\u0120ca": 8202, "rateful": 8203, "\u0120exist": 8204, "\u0120difficulties": 8205, "\u0120offering": 8206, "\u0120confir": 8207, "\u0120confirmed": 8208, "scri": 8209, "exclaimed": 8210, "\u0120speeches": 8211, "\u0120reappeared": 8212, "noticed": 8213, "\u0120shy": 8214, "satisfied": 8215, "ek": 8216, "nees": 8217, "\u0120blinded": 8218, "\u0120icy": 8219, "\u0120bursting": 8220, "\u0120crossly": 8221, "\u0120containing": 8222, "\u0120folded": 8223, "\u0120interested": 8224, "milk": 8225, "gging": 8226, "happiness": 8227, "\u0120pictures": 8228, "\u0120roused": 8229, "\u0120behav": 8230, "mis": 8231, "antic": 8232, "\u0120graciously": 8233, "lished": 8234, "\u0120mainland": 8235, "\u0120march": 8236, "\u0120choked": 8237, "\u0120stabbed": 8238, "\u0120starved": 8239, "\u0120carelessly": 8240, "\u0120bowls": 8241, "\u0120hitherto": 8242, "\u0120monstrous": 8243, "\u0120howled": 8244, "company": 8245, "\u0120perish": 8246, "\u0120concluded": 8247, "counter": 8248, "\u0120jeered": 8249, "\u0120dusk": 8250, "ters": 8251, "\u0120tossed": 8252, "\u0120feasted": 8253, "\u0120cured": 8254, "seeing": 8255, "\u0120shores": 8256, "\u0120enquired": 8257, "bro": 8258, "\u0120chick": 8259, "\u0120surprising": 8260, "\u0120patted": 8261, "\u0120warmly": 8262, "\u0120sobbed": 8263, "nearly": 8264, "\u0120holid": 8265, "clean": 8266, "\u0120complex": 8267, "\u0120rye": 8268, "\u0120noted": 8269, "city": 8270, "\u0120pans": 8271, "\u010a\u010a\u0120\u0120\u0120\u0120\u0120\u0120\u0120\u0120\u0120": 8272, "\u0120barne": 8273, "inks": 8274, "ait": 8275, "handed": 8276, "\u0120buny": 8277, "\u0120bunyip": 8278, "\u0120flashing": 8279, "\u0120chattering": 8280, "waters": 8281, "ython": 8282, "gop": 8283, "gopani": 8284, "\u0120undo": 8285, "uts": 8286, "\u0120zengi": 8287, "\u0120loth": 8288, "\u0120buildings": 8289, "\u0120dressing": 8290, "felt": 8291, "\u0120plot": 8292, "\u0120excurs": 8293, "\u0120smoked": 8294, "\u0120fairest": 8295, "tobacco": 8296, "unch": 8297, "weed": 8298, "\u0120float": 8299, "beard": 8300, "\u0120slyly": 8301, "\u0120waken": 8302, "afraid": 8303, "\u0120wrung": 8304, "liked": 8305, "\u0120mourned": 8306, "village": 8307, "leaves": 8308, "shoot": 8309, "\u0120towns": 8310, "\u0120admitted": 8311, "\u0120wedded": 8312, "\u0120clump": 8313, "mock": 8314, "\u0120ign": 8315, "\u0120merciful": 8316, "\u0120snakes": 8317, "\u0120sees": 8318, "\u0120cushion": 8319, "\u0120carries": 8320, "pting": 8321, "\u0120judges": 8322, "\u0120wrinkled": 8323, "\u0120sworn": 8324, "\u0120shock": 8325, "difficul": 8326, "\u0120wande": 8327, "\u0120swif": 8328, "\u0120swifter": 8329, "\u0120concerning": 8330, "gladly": 8331, "\u0120england": 8332, "lers": 8333, "fashioned": 8334, "\u0120prospered": 8335, "\u0120robbing": 8336, "\u0120betide": 8337, "assed": 8338, "\u0120buying": 8339, "\u0120pitied": 8340, "\u0120encl": 8341, "dwell": 8342, "moned": 8343, "\u0120planned": 8344, "almost": 8345, "\u0120forgetting": 8346, "\u0120abuse": 8347, "\u0120suitable": 8348, "slow": 8349, "ref": 8350, "spoken": 8351, "thee": 8352, "\u0120portal": 8353, "\u0120clam": 8354, "olves": 8355, "\u0120forthwith": 8356, "\u0120gwrhy": 8357, "\u0120gwrhyr": 8358, "whose": 8359, "hew": 8360, "hope": 8361, "\u0120blade": 8362, "isher": 8363, "bid": 8364, "vous": 8365, "\u0120spreading": 8366, "\u0120carp": 8367, "\u0120shawl": 8368, "\u0120shadows": 8369, "\u0120virtue": 8370, "\u0120fired": 8371, "\u0120verse": 8372, "\u0120norway": 8373, "\u0120southern": 8374, "\u0120heaped": 8375, "\u0120basin": 8376, "jul": 8377, "julung": 8378, "youngest": 8379, "sle": 8380, "ager": 8381, "\u0120wherein": 8382, "\u0120butler": 8383, "\u0120glasses": 8384, "\u0120thatched": 8385, "\u0120magpie": 8386, "\u0120reflection": 8387, "\u0120pigeon": 8388, "\u0120prepar": 8389, "\u0120playthings": 8390, "\u0120steeds": 8391, "\u0120sev": 8392, "\u0120seventy": 8393, "mal": 8394, "\u0120imit": 8395, "ckoned": 8396, "maybe": 8397, "\u0120wiped": 8398, "\u0120stalks": 8399, "further": 8400, "\u0120pepper": 8401, "\u0120bamboos": 8402, "iliar": 8403, "llen": 8404, "lament": 8405, "\u0120disobey": 8406, "\u0120hesitated": 8407, "\u0120crawling": 8408, "\u0120jun": 8409, "iper": 8410, "inafore": 8411, "inafores": 8412, "\u0120sunlight": 8413, "\u0120yawn": 8414, "\u0120trampled": 8415, "\u0120twigs": 8416, "\u0120keeper": 8417, "\u0120gallows": 8418, "\u0120plat": 8419, "\u0120platform": 8420, "\u0120granny": 8421, "\u0120pushing": 8422, "friends": 8423, "\u0120dine": 8424, "\u0120enable": 8425, "cabb": 8426, "shoulder": 8427, "\u0120mischievous": 8428, "\u0120ribbon": 8429, "\u0120counting": 8430, "\u0120buckled": 8431, "\u0120onese": 8432, "\u0120oneself": 8433, "\u0120tables": 8434, "\u0120avoided": 8435, "cor": 8436, "\u0120elb": 8437, "istol": 8438, "\u0120regained": 8439, "\u0120shrieked": 8440, "\u0120relieved": 8441, "ral": 8442, "\u0120peering": 8443, "\u0120scent": 8444, "gran": 8445, "\u0120torment": 8446, "\u0120ank": 8447, "\u0120cav": 8448, "\u0120caval": 8449, "\u0120impatient": 8450, "\u0120fortunately": 8451, "\u0120yell": 8452, "\u0120array": 8453, "\u0120confident": 8454, "\u0120flashed": 8455, "\u0120conquer": 8456, "\u0120pastures": 8457, "\u0120awaken": 8458, "\u0120walnut": 8459, "\u0120lair": 8460, "sect": 8461, "\u0120vap": 8462, "\u0120sober": 8463, "\u0120satisf": 8464, "\u0120threshing": 8465, "\u0120sentence": 8466, "\u0120stillness": 8467, "ills": 8468, "boat": 8469, "dry": 8470, "bride": 8471, "\u0120ork": 8472, "\u0120orkney": 8473, "fle": 8474, "\u0120remainder": 8475, "ouch": 8476, "goat": 8477, "\u0120hearty": 8478, "\u0120landing": 8479, "\u0120release": 8480, "\u0120laws": 8481, "\u0120explo": 8482, "ded": 8483, "oulder": 8484, "\u0120spade": 8485, "\u0120pressing": 8486, "phir": 8487, "afternoon": 8488, "\u0120canonbie": 8489, "thomas": 8490, "\u0120succeeding": 8491, "\u0120commiss": 8492, "oped": 8493, "tens": 8494, "truth": 8495, "common": 8496, "\u0120kaily": 8497, "\u0120kailyard": 8498, "\u0120blanket": 8499, "\u0120bleeding": 8500, "glo": 8501, "\u0120prim": 8502, "\u0120prud": 8503, "\u0120busied": 8504, "five": 8505, "\u0120suspicious": 8506, "\u0120suspicions": 8507, "\u0120dell": 8508, "\u0120stockings": 8509, "\u0120puddings": 8510, "\u0120fried": 8511, "\u0120chuck": 8512, "\u0120shim": 8513, "\u0120clapping": 8514, "\u0120crag": 8515, "\u0120sliding": 8516, "\u0120exert": 8517, "\u0120norrow": 8518, "\u0120norroway": 8519, "lead": 8520, "\u0120cred": 8521, "draught": 8522, "rode": 8523, "\u0120hesitation": 8524, "\u0120lum": 8525, "\u0120ercildoune": 8526, "\u0120study": 8527, "frey": 8528, "\u0120repent": 8529, "\u0120downwards": 8530, "\u0120radiant": 8531, "\u0120rin": 8532, "\u0120nether": 8533, "enchanted": 8534, "\u0120reality": 8535, "\u0120intr": 8536, "\u0120apprent": 8537, "\u0120valuable": 8538, "\u0120sympathy": 8539, "\u0120churches": 8540, "\u0120stricken": 8541, "\u0120ould": 8542, "\u0120preparing": 8543, "\u0120claw": 8544, "\u0120redhead": 8545, "gan": 8546, "\u0120macha": 8547, "raised": 8548, "onze": 8549, "\u0120sports": 8550, "\u0120metal": 8551, "\u0120crowds": 8552, "\u0120fil": 8553, "\u0120regular": 8554, "dyarrig": 8555, "\u0120sod": 8556, "\u0120ribs": 8557, "\u0120tooth": 8558, "oul": 8559, "\u0120increase": 8560, "\u0120comfortably": 8561, "fighter": 8562, "captain": 8563, "\u0120fians": 8564, "\u0120thunderbolt": 8565, "\u0120yourselves": 8566, "\u0120snug": 8567, "\u0120appears": 8568, "\u0120accomplish": 8569, ".,": 8570, "\u0120intell": 8571, "\u0120comparison": 8572, "\u0120slaughter": 8573, "\u0120papa": 8574, "\u0120decht": 8575, "\u0120dechtire": 8576, "\u0120der": 8577, "\u0120bloody": 8578, "\u0120comrades": 8579, "mur": 8580, "\u0120clerics": 8581, "nech": 8582, "allen": 8583, "\u0120plumes": 8584, "\u0120beamed": 8585, "\u0120hom": 8586, "\u0120concerned": 8587, "\u0120\u0120\u0120\u0120\u0120\u0120\u0120\u0120\u0120\u0120\u0120": 8588, "\u0120freezing": 8589, "\u0120intro": 8590, "render": 8591, "escend": 8592, "\u0120recomm": 8593, "\u0120tallow": 8594, "\u0120letters": 8595, "\u0120warmed": 8596, "\u0120gifted": 8597, "\u0120concern": 8598, "\u0120affli": 8599, "\u0120mankind": 8600, "\u0120fragrance": 8601, "\u0120dusty": 8602, "\u0120skeleton": 8603, "\u0120execut": 8604, "\u0120notes": 8605, "\u0120fold": 8606, "\u0120pred": 8607, "\u0120calls": 8608, "\u0120starch": 8609, "\u0120firewood": 8610, "\u0120customary": 8611, "\u0120warmth": 8612, "\u0120oats": 8613, "\u0120halloo": 8614, "umbs": 8615, "hist": 8616, "\u0120theatre": 8617, "\u0120discu": 8618, "\u0120amusement": 8619, "bin": 8620, "\u0120curls": 8621, "\u0120unif": 8622, "\u0120attract": 8623, "\u0120acquaintance": 8624, "\u0120games": 8625, "\u0120visits": 8626, "\u0120lecturer": 8627, "!-": 8628, "shot": 8629, "\u0120fooled": 8630, "\u0120brushed": 8631, "\u0120drake": 8632, "hans": 8633, "\u0120wagg": 8634, "\u0120cann": 8635, "\u0120cannib": 8636, "\u0120crust": 8637, "mi": 8638, "\u0120virtues": 8639, "\u0120obedience": 8640, "\u0120ok": 8641, "\u0120tam": 8642, "\u0120homesick": 8643, "\u0120ebb": 8644, "ceding": 8645, "\u0120manhood": 8646, "\u0120preserved": 8647, "\u0120ruff": 8648, "\u0120quarre": 8649, "\u0120incense": 8650, "\u0120buddha": 8651, "\u0120commands": 8652, "\u0120ky": 8653, "\u0120kyoto": 8654, "\u0120carpent": 8655, "\u0120plight": 8656, "\u0120fuji": 8657, "\u0120disgrace": 8658, "\u0120wrestle": 8659, "\u0120tortoise": 8660, "\u0120mats": 8661, "\u0120empire": 8662, "\u0120murak": 8663, "\u0120murakumo": 8664, "\u0120kum": 8665, "\u0120brigand": 8666, "ushi": 8667, "\u0120flint": 8668, "\u0120exception": 8669, "\u0120espied": 8670, "\u0120attempts": 8671, "\u0120chir": 8672, "\u0120nicely": 8673, "\u0120groves": 8674, "ative": 8675, "\u0120steadfast": 8676, "\u0120rashomon": 8677, "\u0120ogres": 8678, "\u0120trop": 8679, "\u0120trophy": 8680, "\u0120uncons": 8681, "\u0120unconscious": 8682, "\u0120damage": 8683, "\u0120musicians": 8684, "\u0120separate": 8685, "\u0120lawrence": 8686, "\u0120marks": 8687, "\u0120forfe": 8688, "christ": 8689, "nu": 8690, "\u0120pike": 8691, "suc": 8692, "\u0120colts": 8693, "arin": 8694, "\u0120noises": 8695, "\u0120marg": 8696, "\u0120display": 8697, "\u0120cather": 8698, "\u0120catherine": 8699, "quack": 8700, "\u0120forty": 8701, "\u0120sarah": 8702, "\u0120nasty": 8703, "\u0120enc": 8704, "tiddly": 8705, "\u0120samuel": 8706, "\u0120dor": 8707, "\u0120dormouse": 8708, "\u0120reed": 8709, "\u0120chamberlain": 8710, "\u0120humor": 8711, "\u0120buttons": 8712, "\u0120cockch": 8713, "\u0120cockchaf": 8714, "\u0120dispatched": 8715, "\u0120purr": 8716, "\u0120rubbish": 8717, "\u0120hack": 8718, "\u0120hackee": 8719, "\u0120roly": 8720, "\u0120shrunk": 8721, "\u0120caterpillar": 8722, "arrows": 8723, "\u0120lucinda": 8724, "hunca": 8725, "\u0120jasper": 8726, "\u0120yang": 8727, "\u0120plains": 8728, "\u0120constable": 8729, "dung": 8730, "\u0120triton": 8731, "\u0120hia": 8732, "\u0120magist": 8733, "\u0120plow": 8734, "\u0120moose": 8735, "imid": 8736, "toward": 8737, "kewis": 8738, "awis": 8739, "moria": 8740, "\u0120ola": 8741, "\u0120nich": 8742, "\u0120nichol": 8743, "\u0120nicholas": 8744, "\u0120await": 8745, "bbed": 8746, "\u0120bending": 8747, "\u0120ponder": 8748, ";'": 8749, "exp": 8750, "\u0120remind": 8751, "\u0120charger": 8752, "smo": 8753, "\u0120brilliant": 8754, "\u0120bulr": 8755, "\u0120timidly": 8756, "\u0120courtesy": 8757, "\u0120stamped": 8758, "\u0120rogue": 8759, "windows": 8760, "\u0120rightly": 8761, "\u0120weren": 8762, "\u0120beauties": 8763, "rors": 8764, "\u0120burns": 8765, "pat": 8766, "hardly": 8767, "\u0120ard": 8768, "\u0120tended": 8769, "dust": 8770, "\u0120cooks": 8771, "cake": 8772, "\u0120gladness": 8773, "\u0120unwilling": 8774, "\u0120dazzled": 8775, "\u0120allowing": 8776, "\u0120butterflies": 8777, "\u0120elo": 8778, "\u0120loves": 8779, "longer": 8780, "\u0120leisure": 8781, "inated": 8782, "\u0120frequently": 8783, "occas": 8784, "manner": 8785, "quiet": 8786, "\u0120hardest": 8787, "\u0120induce": 8788, "\u0120physician": 8789, "determ": 8790, "hour": 8791, "\u0120sweeping": 8792, "\u0120deserve": 8793, "\u0120tastes": 8794, "anim": 8795, "\u0120joringel": 8796, "\u0120sings": 8797, "neighbour": 8798, "\u0120lacking": 8799, "\u0120hue": 8800, "sell": 8801, "\u0120flocked": 8802, "abled": 8803, "\u0120fug": 8804, "arts": 8805, "peace": 8806, "\u0120ung": 8807, "reco": 8808, "\u0120announced": 8809, "\u0120attracted": 8810, "\u0120apparent": 8811, "inst": 8812, "\u0120caring": 8813, "towards": 8814, "contin": 8815, "shelter": 8816, "hungry": 8817, "bbled": 8818, "bund": 8819, "\u0120assistance": 8820, "winter": 8821, "sor": 8822, "\u0120instance": 8823, "gentle": 8824, "ickle": 8825, "\u0120occupied": 8826, "\u0120worthless": 8827, "\u0120reception": 8828, "\u0120vanishing": 8829, "\u0120conscience": 8830, "\u0120undertook": 8831, "\u0120shovel": 8832, "bore": 8833, "\u0120revenged": 8834, "tied": 8835, "\u010a\u010a\u0120": 8836, "\u0120tying": 8837, "length": 8838, "jump": 8839, "whoever": 8840, "\u0120shrill": 8841, "mice": 8842, "\u0120holly": 8843, "\u0120pounced": 8844, "killed": 8845, "\u0120lust": 8846, "akers": 8847, "\u0120folly": 8848, "latter": 8849, "\u0120undressed": 8850, "\u0120tuft": 8851, "ton": 8852, "\u0120lets": 8853, "ples": 8854, "\u0120poult": 8855, "\u0120snap": 8856, "\u0120tucked": 8857, "\u0120measured": 8858, "alive": 8859, "\u0120kor": 8860, "\u0120shapes": 8861, "\u0120partly": 8862, "\u0120labou": 8863, "\u0120complexion": 8864, "\u0120dances": 8865, "\u0120mounting": 8866, "letiko": 8867, "aned": 8868, "\u0120lamia": 8869, "inside": 8870, "cold": 8871, "sky": 8872, "\u0120clung": 8873, "\u0120flapping": 8874, "ann": 8875, "\u0120python": 8876, "\u0120covering": 8877, "\u0120wasp": 8878, "compl": 8879, "sprang": 8880, "past": 8881, "\u0120revealed": 8882, "staff": 8883, "tola": 8884, "\u0120storms": 8885, "waves": 8886, "\u0120beer": 8887, "\u0120compared": 8888, "\u0120excursion": 8889, "turning": 8890, "\u0120spit": 8891, "\u0120shelf": 8892, "\u0120wink": 8893, "\u0120raging": 8894, "rock": 8895, "\u0120haul": 8896, "store": 8897, "\u0120steamer": 8898, "\u0120gust": 8899, "blessing": 8900, "departed": 8901, "neither": 8902, "\u0120parent": 8903, "kill": 8904, "\u0120slaves": 8905, "sli": 8906, "\u0120tiniest": 8907, "\u0120ignor": 8908, "shook": 8909, "willingly": 8910, "\u0120accused": 8911, "everyone": 8912, "\u0120horrified": 8913, "stepped": 8914, "jud": 8915, "\u0120liberty": 8916, "\u0120fourteen": 8917, "\u0120desperate": 8918, "low": 8919, "\u0120highness": 8920, "\u0120securely": 8921, "\u0120carved": 8922, "rather": 8923, "\u0120declined": 8924, "\u0120wont": 8925, "asps": 8926, "\u0120crafts": 8927, "gathered": 8928, "possess": 8929, "\u0120nimble": 8930, "\u0120thyself": 8931, "\u0120hanged": 8932, "bearing": 8933, "\u0120gw": 8934, "\u0120aven": 8935, "\u0120unloo": 8936, "neck": 8937, "\u0120vine": 8938, "\u0120lately": 8939, "\u0120suspicion": 8940, "best": 8941, "mountains": 8942, "\u0120rent": 8943, "\u0120shab": 8944, "\u0120shabby": 8945, "\u0120staircase": 8946, "rich": 8947, "vor": 8948, "\u0120logs": 8949, "\u0120wretch": 8950, "\u0120doorway": 8951, "slowly": 8952, "\u0120produced": 8953, "surprise": 8954, "\u0120rubies": 8955, "vere": 8956, "\u0120level": 8957, "wyr": 8958, "\u0120tongues": 8959, "front": 8960, "enn": 8961, "unless": 8962, "\u0120rud": 8963, "\u0120razor": 8964, "\u0120cant": 8965, "win": 8966, "enter": 8967, "\u0120pecked": 8968, "\u0120dun": 8969, "\u0120joke": 8970, "\u0120lamps": 8971, "\u0120darling": 8972, "silk": 8973, "\u0120ey": 8974, "yonder": 8975, "\u0120glee": 8976, "\u0120tongs": 8977, "\u0120strolled": 8978, "\u0120pattern": 8979, "\u0120sobbing": 8980, "\u0120daybreak": 8981, "\u0120threads": 8982, "eldest": 8983, "\u0120homewards": 8984, "feeling": 8985, "\u0120visiting": 8986, "\u0120strings": 8987, "spite": 8988, "ert": 8989, "meat": 8990, "bad": 8991, "rue": 8992, "\u0120grows": 8993, "hig": 8994, "higher": 8995, "\u0120forwards": 8996, "\u0120leapt": 8997, "zy": 8998, "\u0120pigeons": 8999, "\u0120preparations": 9000, "\u0120axle": 9001, "\u0120perches": 9002, "\u0120heaps": 9003, "onesome": 9004, "\u0120coffins": 9005, "\u0120racing": 9006, "\u0120shells": 9007, "\u0120seventeen": 9008, "shells": 9009, "ships": 9010, "\u0120asia": 9011, "\u0120steered": 9012, "poly": 9013, "itself": 9014, "cro": 9015, "\u0120familiar": 9016, "\u0120woo": 9017, "ishly": 9018, "\u0120coloured": 9019, "charcoal": 9020, "\u0120din": 9021, "aths": 9022, "straw": 9023, "\u0120juniper": 9024, "\u0120pinafores": 9025, "\u0120limping": 9026, "endent": 9027, "\u0120greetings": 9028, "\u0120ian": 9029, "fisher": 9030, "\u0120nests": 9031, "\u0120healed": 9032, "\u0120victor": 9033, "\u0120murde": 9034, "\u0120dirt": 9035, "pos": 9036, "business": 9037, "claiming": 9038, "\u0120blushing": 9039, "\u0120whipped": 9040, "\u0120group": 9041, "\u0120afford": 9042, "others": 9043, "\u0120forgave": 9044, "ingling": 9045, "quake": 9046, "\u0120thurs": 9047, "\u0120thursday": 9048, "different": 9049, "\u0120switch": 9050, "walter": 9051, "\u0120elbows": 9052, "\u0120cork": 9053, "ache": 9054, "\u0120trous": 9055, "\u0120perchance": 9056, "\u0120lur": 9057, "wolves": 9058, "....": 9059, "\u0120cowards": 9060, "beneath": 9061, "\u0120piercing": 9062, "\u0120dive": 9063, "\u0120serai": 9064, "\u0120corners": 9065, "\u0120overheard": 9066, "\u0120sale": 9067, "chants": 9068, "acle": 9069, "marks": 9070, "darkness": 9071, "\u0120stall": 9072, "\u0120ankles": 9073, "\u0120armour": 9074, "completely": 9075, "\u0120career": 9076, "\u0120galloping": 9077, "\u0120troops": 9078, "\u0120shepherds": 9079, "arily": 9080, "\u0120unlucky": 9081, "\u0120ambassador": 9082, "\u0120compet": 9083, "itors": 9084, "\u0120laird": 9085, "\u0120visitors": 9086, "\u0120insect": 9087, "\u0120peat": 9088, "\u0120denied": 9089, "\u0120influ": 9090, "ifying": 9091, "stoorworm": 9092, "\u0120rend": 9093, "\u0120abide": 9094, "\u0120gravely": 9095, "\u0120pretending": 9096, "eous": 9097, "quished": 9098, "\u0120foes": 9099, "\u0120overlooking": 9100, "\u0120bridled": 9101, "\u0120slim": 9102, "\u0120outw": 9103, "trout": 9104, "\u0120brain": 9105, "\u0120paced": 9106, "prepared": 9107, "\u0120mull": 9108, "\u0120mullioned": 9109, ".)": 9110, "story": 9111, "\u0120vexation": 9112, "\u0120wickedness": 9113, "sty": 9114, "\u0120besee": 9115, "\u0120lil": 9116, "\u0120dwarfie": 9117, "\u0120qualities": 9118, "\u0120medicines": 9119, "\u0120uncan": 9120, "\u0120uncanny": 9121, "accord": 9122, "accordingly": 9123, "\u0120orphir": 9124, "\u0120needs": 9125, "\u0120wily": 9126, "\u0120knave": 9127, "dwarf": 9128, "\u0120scented": 9129, "\u0120vest": 9130, "aging": 9131, "\u0120fearless": 9132, "\u0120hillock": 9133, "mering": 9134, "roof": 9135, "\u0120hin": 9136, "\u0120prevented": 9137, "\u0120daint": 9138, "\u0120knowe": 9139, "\u0120relate": 9140, "\u0120trot": 9141, "\u0120scraped": 9142, "wolf": 9143, "\u0120suggested": 9144, "\u0120guil": 9145, "\u0120guilty": 9146, "\u0120mary": 9147, "\u0120hopeless": 9148, "faced": 9149, "moon": 9150, "\u0120western": 9151, "izon": 9152, "\u0120clamb": 9153, "bright": 9154, "\u0120spectacles": 9155, "\u0120perplexed": 9156, "habet": 9157, "\u0120caps": 9158, "\u0120countryman": 9159, "\u0120intent": 9160, "\u0120maun": 9161, "\u0120alight": 9162, "\u0120strait": 9163, "\u0120stained": 9164, "person": 9165, "\u0120credit": 9166, "\u0120liking": 9167, "\u0120fife": 9168, "\u0120exped": 9169, "flying": 9170, "\u0120cuff": 9171, "agg": 9172, "change": 9173, "\u0120fade": 9174, "\u0120runs": 9175, "\u0120chill": 9176, "\u0120swoon": 9177, "wine": 9178, "hunt": 9179, "\u0120haunts": 9180, "\u0120fren": 9181, "\u0120french": 9182, "\u01201": 9183, "offic": 9184, "\u0120foaming": 9185, "\u0120stooping": 9186, "\u0120croaking": 9187, "\u0120dangers": 9188, "\u0120baked": 9189, "\u0120tailors": 9190, "\u0120kir": 9191, "shoe": 9192, "pes": 9193, "\u0120scraping": 9194, "\u0120spoons": 9195, "pearl": 9196, "\u0120enraged": 9197, "pulled": 9198, "lim": 9199, "\u0120sauce": 9200, "inions": 9201, "\u0120supported": 9202, "\u0120lark": 9203, "rah": 9204, "\u0120cabbage": 9205, "cass": 9206, "\u0120respectable": 9207, "\u0120polit": 9208, "\u0120ach": 9209, "\u0120achieve": 9210, "\u0120superint": 9211, "conchubar": 9212, "\u0120ty": 9213, "particular": 9214, "\u0120kennel": 9215, "servation": 9216, "\u0120faced": 9217, "\u0120complaining": 9218, "\u0120squeezing": 9219, "\u0120chiefs": 9220, "\u0120bronze": 9221, "\u0120stature": 9222, "oration": 9223, "\u0120instrument": 9224, "\u0120captains": 9225, "\u0120strongly": 9226, "\u0120faded": 9227, "\u0120immortal": 9228, "\u0120cull": 9229, "\u0120cullamore": 9230, ".'\"": 9231, "meantime": 9232, "\u0120granua": 9233, "already": 9234, "\u0120plaited": 9235, "withstanding": 9236, "\u0120feat": 9237, "\u0120melo": 9238, "\u0120butchers": 9239, "\u0120currach": 9240, "yourself": 9241, "\u0120conver": 9242, "mac": 9243, "handsome": 9244, "\u0120brugh": 9245, "\u0120ath": 9246, "\u0120halloween": 9247, "\u0120fiddles": 9248, "ceremon": 9249, "\u0120image": 9250, "agan": 9251, "\u0120trad": 9252, "\u0120tradition": 9253, "\u0120teachings": 9254, "\u0120psal": 9255, "\u0120gems": 9256, "\u0120cairnech": 9257, "\u0120careless": 9258, "\u0120miracles": 9259, "\u0120phant": 9260, "\u0120vision": 9261, "\u0120descendants": 9262, "\u0120haunch": 9263, "\u0120boil": 9264, "started": 9265, "\u0120ener": 9266, "\u0120upright": 9267, "\u0120lumps": 9268, "\u0120engage": 9269, "\u0120introdu": 9270, "\u0120chips": 9271, "\u0120shutter": 9272, "\u0120recalled": 9273, "\u0120rusty": 9274, "\u0120tapers": 9275, "\u0120pictured": 9276, "\u0120wears": 9277, "\u0120prettily": 9278, "\u0120growth": 9279, "\u0120quality": 9280, "\u0120rail": 9281, "\u0120organ": 9282, "\u0120chinese": 9283, "\u0120smiles": 9284, "\u0120foli": 9285, "\u0120foliage": 9286, "\u0120luxur": 9287, "ami": 9288, "\u0120decre": 9289, "\u0120baking": 9290, "\u0120stur": 9291, "\u0120fleece": 9292, "\u0120objection": 9293, "\u0120cluck": 9294, "\u0120sackful": 9295, "\u0120lacked": 9296, "\u0120posted": 9297, "\u0120acknowled": 9298, "\u0120wardrobe": 9299, "\u0120uniform": 9300, "\u0120musk": 9301, "\u0120onward": 9302, "\u0120movements": 9303, "\u0120performance": 9304, "\u0120weigh": 9305, "\u0120conscious": 9306, "avings": 9307, "\u0120bean": 9308, "manage": 9309, "\u0120harness": 9310, "\u0120towel": 9311, "hallo": 9312, "\u0120drinks": 9313, "sue": 9314, "\u0120augustness": 9315, "\u0120seashore": 9316, "\u0120buckets": 9317, "ori": 9318, "\u0120respectfully": 9319, "\u0120holds": 9320, "\u0120shiy": 9321, "\u0120shiyu": 9322, "\u0120fondly": 9323, "\u0120hana": 9324, "sak": 9325, "saka": 9326, "jiji": 9327, "jijii": 9328, "buy": 9329, "\u0120quarreling": 9330, "\u0120discharged": 9331, "\u0120meals": 9332, "sometimes": 9333, "\u0120praying": 9334, "\u0120heavenly": 9335, "\u0120endeav": 9336, "\u0120workmen": 9337, "jewel": 9338, "\u0120station": 9339, "\u0120rai": 9340, "\u0120raiko": 9341, "\u0120convenient": 9342, "\u0120compliments": 9343, "\u0120stupidity": 9344, "\u0120kumas": 9345, "\u0120kumaso": 9346, "\u0120worshiped": 9347, "\u0120barefoot": 9348, "\u0120priests": 9349, "piration": 9350, "tern": 9351, "\u0120mouths": 9352, "yesterday": 9353, "\u0120tweet": 9354, "\u0120boxes": 9355, "\u0120belongings": 9356, "\u0120pines": 9357, "\u0120resign": 9358, "\u0120appre": 9359, "\u0120terute": 9360, "\u0120nostri": 9361, "\u0120glowed": 9362, "\u0120delivering": 9363, "\u0120hundredweights": 9364, "\u0120formerly": 9365, "\u0120pelt": 9366, "\u0120angu": 9367, "\u0120anguish": 9368, "itable": 9369, "\u0120interior": 9370, "\u0120betray": 9371, "\u0120loop": 9372, "\u0120flask": 9373, "\u0120anointed": 9374, "\u0120hornets": 9375, "\u0120sting": 9376, "\u0120swarm": 9377, "\u0120male": 9378, "\u0120invest": 9379, "\u0120tending": 9380, "\u0120trumpets": 9381, "\u0120oxen": 9382, "\u0120contest": 9383, "\u0120handsomely": 9384, "\u0120selected": 9385, "\u0120yielded": 9386, "\u0120barnek": 9387, "\u0120margare": 9388, "\u0120margaret": 9389, "\u0120pyrote": 9390, "\u0120coughed": 9391, "\u0120beng": 9392, "\u0120bengal": 9393, "\u0120objected": 9394, "\u0120gau": 9395, "\u0120visible": 9396, "\u010a\u0120\u0120\u0120\u0120\u0120\u0120": 9397, "\u0120chees": 9398, "dragons": 9399, "\u0120pian": 9400, "\u0120piano": 9401, "\u0120storeroom": 9402, "\u0120bumble": 9403, "nest": 9404, "\u0120footmen": 9405, "\u0120doubted": 9406, "\u0120jane": 9407, "pickles": 9408, "\u0120policeman": 9409, "\u0120cleve": 9410, "\u0120plates": 9411, "\u0120deceive": 9412, "\u0120encamp": 9413, "\u0120oranges": 9414, "\u0120lemons": 9415, "\u0120liz": 9416, "\u0120cockchafer": 9417, "\u0120woof": 9418, "\u0120ducklings": 9419, "\u0120gloves": 9420, "\u0120squirrels": 9421, "\u0120chip": 9422, "\u0120chipm": 9423, "tops": 9424, "shed": 9425, "\u0120wriggled": 9426, "lucie": 9427, "\u0120created": 9428, "ammon": 9429, "\u0120partake": 9430, "\u0120poles": 9431, "\u0120cords": 9432, "\u0120kins": 9433, "\u0120official": 9434, "\u0120fasted": 9435, "\u0120dschu": 9436, "\u0120wu": 9437, "liu": 9438, "\u0120scholars": 9439, "\u0120beavers": 9440, "\u0120manabozho": 9441, "\u0120partook": 9442, "\u0120expert": 9443, "monedowa": 9444, "\u0120neighboring": 9445, "\u0120magical": 9446, "\u0120grandchild": 9447, "\u0120waupee": 9448, "onwee": 9449, "\u0120grandp": 9450, "\u0120grandpa": 9451, "\u0120squallers": 9452, "\u0120soria": 9453, "\u0120tipp": 9454, "\u0120tapp": 9455, "\u0120helge": 9456, "\u0120magistrate": 9457, "\u0120firelock": 9458, "\u0120blessom": 9459, "\u0120whiteland": 9460, "\u0120snowshoes": 9461, "\u0120tents": 9462, "plunged": 9463, "\u0120patch": 9464, "extra": 9465, "woe": 9466, "\u0120wildly": 9467, "daughters": 9468, "\u0120hewn": 9469, "azed": 9470, "loud": 9471, "approached": 9472, "\u0120waterfall": 9473, "believe": 9474, "equ": 9475, "\u0120mirrors": 9476, "\u0120causing": 9477, "bridge": 9478, "choose": 9479, "\u0120afresh": 9480, "\u0120horseback": 9481, "bade": 9482, "desire": 9483, "\u0120disguised": 9484, "drop": 9485, "\u0120nick": 9486, "\u0120mate": 9487, "\u0120reflect": 9488, "\u0120fountains": 9489, "\u0120impression": 9490, "\u0120speaks": 9491, "\u0120seriously": 9492, "\u0120eloquence": 9493, "\u0120assemb": 9494, "begin": 9495, "\u0120charms": 9496, "\u0120disd": 9497, "\u0120exercise": 9498, "irable": 9499, "\u0120prick": 9500, "\u0120lastly": 9501, "\u0120bagpipes": 9502, "keys": 9503, "\u0120shortest": 9504, "\u0120aloft": 9505, "ride": 9506, "wand": 9507, "news": 9508, "smith": 9509, "\u0120charged": 9510, "\u0120sill": 9511, "coach": 9512, "\u0120pricked": 9513, "\u0120bris": 9514, "\u0120treachery": 9515, "roy": 9516, "greatly": 9517, "farmer": 9518, "rejo": 9519, "pieces": 9520, "\u0120resolution": 9521, "determined": 9522, "soup": 9523, "\u0120nicer": 9524, "move": 9525, "arrived": 9526, "\u0120considering": 9527, "cage": 9528, "creatures": 9529, "adowed": 9530, "\u0120fished": 9531, "iture": 9532, "\u0120spared": 9533, "\u0120popular": 9534, "adine": 9535, "\u0120promising": 9536, "madam": 9537, "\u0120ungrateful": 9538, "\u0120whisked": 9539, "\u0120existence": 9540, "\u0120vanity": 9541, "\u0120declare": 9542, "\u0120immensely": 9543, "\u0120attire": 9544, "recogn": 9545, "\u0120luxury": 9546, "\u0120curing": 9547, "\u0120pleasures": 9548, "\u0120exerted": 9549, "\u0120evident": 9550, "\u0120inscri": 9551, "iour": 9552, "knees": 9553, "bidding": 9554, "search": 9555, "continued": 9556, "bundle": 9557, "\u0120contains": 9558, "\u0120wasted": 9559, "\u0120withdrawn": 9560, "\u0120unhappiness": 9561, "\u0120flatter": 9562, "\u0120lovelier": 9563, "hers": 9564, "imag": 9565, "imagine": 9566, "\u0120declaring": 9567, "\u0120cornwall": 9568, "\u0120wade": 9569, "\u0120travelers": 9570, "gro": 9571, "udge": 9572, "ammer": 9573, "mouth": 9574, "\u0120examp": 9575, "acious": 9576, "\u0120arriving": 9577, "lonely": 9578, "\u0120trumpet": 9579, "\u0120battles": 9580, "\u0120pitifully": 9581, "\u0120returns": 9582, "sound": 9583, "consolate": 9584, "\u0120grumbling": 9585, "decl": 9586, "fier": 9587, "bargain": 9588, "\u0120encounter": 9589, "third": 9590, "warri": 9591, "\u0120lance": 9592, "\u0120grunt": 9593, "\u0120score": 9594, "\u0120sausages": 9595, "knowing": 9596, "\u0120dies": 9597, "lled": 9598, "\u0120thyme": 9599, "\u0120mouthful": 9600, "elder": 9601, "broke": 9602, "\u0120quarrelling": 9603, "\u0120poultry": 9604, "\u0120busily": 9605, "\u0120chickens": 9606, "\u0120snip": 9607, "fix": 9608, "fixed": 9609, "anyone": 9610, "\u0120shiver": 9611, "\u0120rises": 9612, "contented": 9613, "barbaik": 9614, "\u0120transform": 9615, "lands": 9616, "\u0120wonderingly": 9617, "\u0120holiday": 9618, "\u0120earthen": 9619, "pots": 9620, "fields": 9621, "\u0120owing": 9622, "occasion": 9623, "\u0120broth": 9624, "exc": 9625, "\u0120pancakes": 9626, "\u0120seats": 9627, "gather": 9628, "\u0120keyhole": 9629, "climb": 9630, "\u0120farthest": 9631, "\u0120hooks": 9632, "\u0120worms": 9633, "\u0120raw": 9634, "minutes": 9635, "pool": 9636, "\u0120flinging": 9637, "\u0120disappearing": 9638, "\u0120ridge": 9639, "\u0120advancing": 9640, "wings": 9641, "image": 9642, "\u0120unlike": 9643, "unned": 9644, "\u0120sunk": 9645, "reward": 9646, "\u0120brows": 9647, "\u0120roofs": 9648, "\u0120burnished": 9649, "\u0120crops": 9650, "\u0120hummed": 9651, "\u0120desires": 9652, "asa": 9653, "\u0120trusty": 9654, "\u0120tufts": 9655, "matte": 9656, "\u0120junk": 9657, "\u0120rules": 9658, "\u0120swiftest": 9659, "\u0120richest": 9660, "\u0120stored": 9661, "\u0120tune": 9662, "rememb": 9663, "remembered": 9664, "fed": 9665, "\u0120peacefully": 9666, "\u0120unto": 9667, "\u0120fiddler": 9668, "\u0120finely": 9669, "\u0120gnawing": 9670, "\u0120peats": 9671, "pack": 9672, "moor": 9673, "hey": 9674, "ffin": 9675, "proper": 9676, "sa": 9677, "\u0120wip": 9678, "\u0120wiping": 9679, "\u0120drums": 9680, "\u0120deserves": 9681, "idly": 9682, "snake": 9683, "\u0120border": 9684, "\u0120nursed": 9685, "\u0120souls": 9686, "losing": 9687, "finest": 9688, "\u0120gang": 9689, "\u0120owe": 9690, "thirst": 9691, "\u0120refreshed": 9692, "\u0120restrain": 9693, "\u0120dispute": 9694, "\u0120insul": 9695, "gentleman": 9696, "\u0120sire": 9697, "\u0120adding": 9698, "inet": 9699, "\u0120quarry": 9700, "\u0120permit": 9701, "\u0120outstri": 9702, "\u0120outstripped": 9703, "\u0120justice": 9704, "\u0120regain": 9705, "\u0120dow": 9706, "\u0120ename": 9707, "ppings": 9708, "\u0120banded": 9709, "\u0120shields": 9710, "\u0120clasps": 9711, "\u0120tidings": 9712, "\u0120unwise": 9713, "\u0120harvest": 9714, "\u0120reap": 9715, "suff": 9716, "\u0120freedom": 9717, "\u0120rein": 9718, "\u0120besought": 9719, "behold": 9720, "growing": 9721, "\u0120ost": 9722, "\u0120ostler": 9723, "ssip": 9724, "\u0120embarr": 9725, "\u0120darting": 9726, "\u0120whistling": 9727, "\u0120begone": 9728, "worse": 9729, "\u0120spending": 9730, "\u0120unjust": 9731, "\u0120evidence": 9732, "treat": 9733, "\u0120laden": 9734, "cost": 9735, "\u0120ruined": 9736, "received": 9737, "\u0120blushed": 9738, "apple": 9739, "\u0120spears": 9740, "\u0120sods": 9741, "greeting": 9742, "\u0120bedwyr": 9743, "ustenn": 9744, "ustennin": 9745, "phew": 9746, "harm": 9747, "obtain": 9748, "\u0120pierced": 9749, "\u0120rudeness": 9750, "\u0120anvil": 9751, "\u0120heated": 9752, "\u0120rooted": 9753, "\u0120leash": 9754, "companion": 9755, "\u0120knowest": 9756, "\u0120stag": 9757, "\u0120stumps": 9758, "knights": 9759, "\u0120folding": 9760, "twelve": 9761, "month": 9762, "\u0120complaints": 9763, "\u0120advise": 9764, "scot": 9765, "\u0120eyel": 9766, "setting": 9767, "lose": 9768, "\u0120stuffs": 9769, "\u0120footman": 9770, "\u0120awe": 9771, "\u0120bawled": 9772, "\u0120sighing": 9773, "\u0120tasting": 9774, "\u0120inviting": 9775, "\u0120djulung": 9776, "\u0120heavier": 9777, "greatest": 9778, "burning": 9779, "\u0120gleam": 9780, "bottom": 9781, "thick": 9782, "\u0120twinkling": 9783, "married": 9784, "\u0120angered": 9785, "fetch": 9786, "pretty": 9787, "\u0120latch": 9788, "\u0120marries": 9789, "sweetheart": 9790, "sail": 9791, "\u0120crossing": 9792, "\u0120lick": 9793, "\u0120handing": 9794, "handsom": 9795, "quarters": 9796, "addled": 9797, "\u0120dismal": 9798, "hot": 9799, "\u0120boards": 9800, "cules": 9801, "\u0120afri": 9802, "\u0120africa": 9803, "\u0120amer": 9804, "nesia": 9805, "\u0120coast": 9806, "\u0120drif": 9807, "\u0120drifting": 9808, "\u0120nod": 9809, "\u0120lonesome": 9810, "\u0120iceber": 9811, "\u0120icebergs": 9812, "\u0120drooping": 9813, "yl": 9814, "\u0120wagged": 9815, "zzling": 9816, "otto": 9817, "\u0120watering": 9818, "\u0120remains": 9819, "\u0120twinkled": 9820, "\u0120awaited": 9821, "\u0120vases": 9822, "serving": 9823, "\u0120tiresome": 9824, "climbed": 9825, "\u0120sandw": 9826, "\u0120yawned": 9827, "\u0120dip": 9828, "\u0120lighter": 9829, "\u0120falcon": 9830, "eaten": 9831, "\u0120sorrowfully": 9832, "everybody": 9833, "dirty": 9834, "\u0120murderer": 9835, "\u0120convent": 9836, "\u0120vig": 9837, "\u0120reproached": 9838, "\u0120excus": 9839, "\u0120excuses": 9840, "tong": 9841, "forced": 9842, "peasant": 9843, "\u0120roughly": 9844, "rolling": 9845, "\u0120mocking": 9846, "ouncing": 9847, "courage": 9848, "\u0120drawer": 9849, "mush": 9850, "ena": 9851, "\u0120shoots": 9852, "reach": 9853, "\u0120uglier": 9854, "lie": 9855, "\u0120howl": 9856, "\u0120groaned": 9857, "\u0120bra": 9858, "\u0120bravery": 9859, "sons": 9860, "\u0120produce": 9861, "\u0120blast": 9862, "\u0120towers": 9863, "\u0120afgh": 9864, "\u0120merchants": 9865, "\u0120seasons": 9866, "\u0120crest": 9867, "\u0120sall": 9868, "astonishment": 9869, "\u0120balance": 9870, "\u0120cavalry": 9871, "\u0120numer": 9872, "\u0120numerous": 9873, "\u0120nervous": 9874, "plenty": 9875, "threat": 9876, "\u0120bushy": 9877, "\u0120whirling": 9878, "\u0120regiment": 9879, "\u0120reasonable": 9880, "\u0120puck": 9881, "\u0120perfor": 9882, "\u0120eighty": 9883, "iam": 9884, "ites": 9885, "\u0120chestnut": 9886, "cade": 9887, "\u0120cald": 9888, "\u0120caldron": 9889, "lies": 9890, "\u0120fishermen": 9891, "kindly": 9892, "\u0120dreaded": 9893, "cery": 9894, "\u0120influence": 9895, "\u0120satisfy": 9896, "\u0120jagged": 9897, "uously": 9898, "\u0120ven": 9899, "\u0120vanquished": 9900, "ersn": 9901, "ersnapp": 9902, "ersnapper": 9903, "\u0120bolts": 9904, "comr": 9905, "\u0120secrets": 9906, "iskly": 9907, "\u0120neigh": 9908, "thro": 9909, "erable": 9910, "pleasant": 9911, "touch": 9912, "\u0120believing": 9913, "\u0120nigh": 9914, "\u0120deceit": 9915, "finger": 9916, "craft": 9917, "\u0120sufficiently": 9918, "\u0120pretend": 9919, "\u0120press": 9920, "sey": 9921, "\u0120remembering": 9922, "eyed": 9923, "string": 9924, "powder": 9925, "\u0120boulder": 9926, "\u0120ambit": 9927, "medic": 9928, "\u0120fortunes": 9929, "\u0120wanderings": 9930, "\u0120knightly": 9931, "\u0120mothers": 9932, "\u0120helga": 9933, "cal": 9934, "joice": 9935, "\u0120reluctantly": 9936, "deeds": 9937, "sented": 9938, "xture": 9939, "\u0120web": 9940, "\u0120waistcoat": 9941, "\u0120malicious": 9942, "couraged": 9943, "potion": 9944, "\u0120hire": 9945, "apsed": 9946, "\u0120readiness": 9947, "\u0120fatal": 9948, "thread": 9949, "\u0120wronged": 9950, "ware": 9951, "\u0120daunted": 9952, "\u0120customer": 9953, "\u0120rocky": 9954, "beginning": 9955, "ercildoune": 9956, "iance": 9957, "\u0120brand": 9958, "\u0120threatening": 9959, "cakes": 9960, "\u0120troubling": 9961, "\u0120hinnie": 9962, "\u0120uncommon": 9963, "\u0120stealth": 9964, "\u0120stamping": 9965, "\u0120bodily": 9966, "ists": 9967, "\u0120watchful": 9968, "bell": 9969, "\u0120brilliantly": 9970, "\u0120urging": 9971, "\u0120joking": 9972, "\u0120apply": 9973, "irm": 9974, "lful": 9975, "\u0120grumbled": 9976, "\u0120na": 9977, "\u0120keenly": 9978, "\u0120hanks": 9979, "\u0120nun": 9980, "\u0120rocked": 9981, "maisie": 9982, "\u0120addition": 9983, "\u0120horizon": 9984, "\u0120habet": 9985, "\u0120habetrot": 9986, "\u0120carpet": 9987, "isite": 9988, "\u0120defect": 9989, "stress": 9990, "farm": 9991, "\u0120nobleman": 9992, "stream": 9993, "\u0120poster": 9994, "\u0120moorland": 9995, "\u0120jerk": 9996, "\u0120smoothly": 9997, "laughing": 9998, "\u0120veins": 9999, "allowed": 10000, "lict": 10001, "\u0120shoon": 10002, "holding": 10003, "\u0120crook": 10004, "\u0120swish": 10005, "\u0120flutter": 10006, "\u0120swooped": 10007, "croak": 10008, "lookers": 10009, "\u0120apparently": 10010, "gin": 10011, "\u0120caution": 10012, "\u0120palfrey": 10013, "lling": 10014, "\u0120leadeth": 10015, "bound": 10016, "\u0120frame": 10017, "\u0120goodly": 10018, "\u0120verses": 10019, "\u0120defeated": 10020, "\u0120interv": 10021, "\u0120privile": 10022, "\u0120privilege": 10023, "\u0120beckoned": 10024, "\u0120rim": 10025, "uder": 10026, "\u0120limb": 10027, "\u0120hairy": 10028, "\u0120conclusion": 10029, "\u0120capture": 10030, "wound": 10031, "\u0120recovery": 10032, "\u0120fath": 10033, "\u0120halls": 10034, "\u0120outer": 10035, "\u0120emerged": 10036, "\u0120nib": 10037, "built": 10038, "goose": 10039, "rin": 10040, "\u0120hound": 10041, "ourne": 10042, "\u0120ren": 10043, "rour": 10044, "rourke": 10045, "\u0120rattling": 10046, "\u0120tipsy": 10047, "\u0120reaping": 10048, "\u0120smashed": 10049, "inges": 10050, "\u0120pinch": 10051, "fox": 10052, "\u0120carcass": 10053, "iant": 10054, "ism": 10055, "\u0120heel": 10056, "\u0120moat": 10057, "\u0120swordsmen": 10058, "\u0120bawling": 10059, "\u0120gilla": 10060, "\u0120stew": 10061, "within": 10062, "\u0120pumps": 10063, "\u0120chess": 10064, "\u0120sualt": 10065, "\u0120pup": 10066, "\u0120devoted": 10067, "\u0120scuff": 10068, "\u0120proc": 10069, "\u0120thenceforward": 10070, "\u0120tales": 10071, "\u0120appare": 10072, "\u0120apparel": 10073, "\u0120villages": 10074, "\u0120gad": 10075, "following": 10076, "\u0120coaxing": 10077, "\u0120bulk": 10078, "\u0120strikes": 10079, "\u0120instruments": 10080, "iber": 10081, "\u0120druid": 10082, "\u0120enjo": 10083, "\u0120points": 10084, "\u0120instructed": 10085, "\u0120clashed": 10086, "\u0120obst": 10087, "\u0120strove": 10088, "\u0120succession": 10089, "ories": 10090, "\u0120harb": 10091, "\u0120considerable": 10092, "\u0120earthquake": 10093, "\u0120perceive": 10094, "\u0120prophes": 10095, "supposed": 10096, "opp": 10097, "oonagh": 10098, "\u0120notwithstanding": 10099, "\u0120guided": 10100, "\u0120ugliest": 10101, "\u0120intellig": 10102, "eight": 10103, "\u0120twelf": 10104, "\u0120twelfth": 10105, "\u0120cormac": 10106, "\u0120cloudy": 10107, "\u0120arise": 10108, "\u0120singed": 10109, "\u0120forgetful": 10110, "\u0120fannet": 10111, "\u0120articles": 10112, "\u0120clet": 10113, "\u0120cletty": 10114, "\u0120psalm": 10115, "\u0120damsel": 10116, "\u0120clan": 10117, "\u0120battal": 10118, "\u0120robed": 10119, "\u0120challen": 10120, "usal": 10121, "\u0120torrent": 10122, "\u0120repented": 10123, "\u0120energy": 10124, "stork": 10125, "\u0120plump": 10126, "\u0120families": 10127, "\u0120insult": 10128, "rammer": 10129, "\u0120surrender": 10130, "apt": 10131, "\u0120distinction": 10132, "\u0120protest": 10133, "paper": 10134, "ority": 10135, "\u0120shutters": 10136, "\u0120condescend": 10137, "\u0120corp": 10138, "\u0120auth": 10139, "\u0120puffing": 10140, "\u0120benefit": 10141, "\u0120glances": 10142, "\u0120strips": 10143, "\u0120emperors": 10144, "\u0120thickly": 10145, "\u0120lumber": 10146, "\u0120center": 10147, "\u0120stalk": 10148, "atters": 10149, "\u0120buds": 10150, "\u0120blooming": 10151, "ibility": 10152, "\u0120crabs": 10153, "\u0120pinched": 10154, "cus": 10155, "\u0120brighter": 10156, "\u0120prizes": 10157, "\u0120commit": 10158, "tee": 10159, "bone": 10160, "\u0120rapidity": 10161, "\u0120conquering": 10162, "\u0120sewn": 10163, "uments": 10164, "\u0120commun": 10165, "\u0120wipe": 10166, "\u0120coachman": 10167, "\u0120airs": 10168, "\u0120parsonage": 10169, "books": 10170, "beams": 10171, "\u0120compens": 10172, "\u0120thumped": 10173, "\u0120folds": 10174, "\u0120rake": 10175, "\u0120whips": 10176, "\u0120prede": 10177, "\u0120predecess": 10178, "\u0120crackled": 10179, "\u0120jars": 10180, "\u0120crackling": 10181, "\u0120canary": 10182, "\u0120puffed": 10183, "artered": 10184, "\u0120crumbs": 10185, "\u0120cracker": 10186, "\u0120acting": 10187, "\u0120wire": 10188, "\u0120cupid": 10189, "cil": 10190, "sion": 10191, "\u0120puppets": 10192, "\u0120\"'": 10193, "\u0120appearing": 10194, "\u0120consciousness": 10195, "\u0120promises": 10196, "\u0120chopping": 10197, "\u0120draws": 10198, "\u0120builds": 10199, "\u0120bale": 10200, "\u0120bef": 10201, "\u0120befool": 10202, "lest": 10203, "\u0120korbes": 10204, "\u0120pillows": 10205, "\u0120click": 10206, "aughtered": 10207, "grinder": 10208, "\u0120wage": 10209, "\u0120pursue": 10210, "horns": 10211, "\u0120snare": 10212, "\u0120bleated": 10213, "cupboard": 10214, "\u0120hoho": 10215, "\u0120hohode": 10216, "\u0120hohodemi": 10217, "\u0120fearfully": 10218, "\u0120gracefully": 10219, "\u0120tay": 10220, "\u0120tayot": 10221, "\u0120tayotama": 10222, "\u0120tamay": 10223, "\u0120tamayori": 10224, "\u0120ceremonial": 10225, "\u0120koto": 10226, "\u0120enjoyment": 10227, "\u0120marvelous": 10228, "\u0120cuttle": 10229, "\u0120cuttlefish": 10230, "\u0120san": 10231, "\u0120seeming": 10232, "\u0120friendship": 10233, "\u0120ancestors": 10234, "\u0120feigned": 10235, "\u0120shinan": 10236, "\u0120shinansha": 10237, "\u0120empress": 10238, "ultiv": 10239, "\u0120verand": 10240, "\u0120veranda": 10241, "\u0120kim": 10242, "\u0120eagerness": 10243, "ghold": 10244, "\u0120expedition": 10245, "\u0120rasc": 10246, "chers": 10247, "\u0120ridicul": 10248, "\u0120kneeling": 10249, "\u0120screens": 10250, "\u0120snat": 10251, "\u0120dutiful": 10252, "\u0120india": 10253, "osure": 10254, "\u0120encount": 10255, "\u0120encountered": 10256, "\u0120sche": 10257, "\u0120scheme": 10258, "\u0120devotion": 10259, "\u0120balcon": 10260, "\u0120precaut": 10261, "\u0120lowly": 10262, "\u0120woodcutters": 10263, "mp": 10264, "\u0120signal": 10265, "\u0120encouraged": 10266, "ok": 10267, "\u0120clogs": 10268, "\u0120samur": 10269, "\u0120samurai": 10270, "\u0120cannibal": 10271, "\u0120mission": 10272, "\u0120scare": 10273, "\u0120insign": 10274, "asak": 10275, "\u0120ise": 10276, "\u0120undertaking": 10277, "\u0120ki": 10278, "\u0120traces": 10279, "\u0120painfully": 10280, "\u0120advers": 10281, "\u0120banner": 10282, "\u0120ascribed": 10283, "\u0120wholly": 10284, "\u0120soj": 10285, "\u0120ideas": 10286, "ically": 10287, "\u0120dumpling": 10288, "\u0120unconcer": 10289, "\u0120purposely": 10290, "\u0120tassels": 10291, "\u0120earliest": 10292, "icity": 10293, "\u0120filial": 10294, "\u0120fainted": 10295, "\u0120bundles": 10296, "lication": 10297, "\u0120pil": 10298, "\u0120pilgr": 10299, "wannon": 10300, "\u0120buddhist": 10301, "\u0120peasants": 10302, "\u0120nostrils": 10303, "\u0120harmless": 10304, "\u0120banners": 10305, "\u0120okun": 10306, "\u0120okuni": 10307, "nushi": 10308, "mikoto": 10309, "\u0120squash": 10310, "\u0120hatched": 10311, "\u0120carts": 10312, "\u0120weld": 10313, "echo": 10314, "\u0120mowing": 10315, "\u0120hopgiant": 10316, "\u0120afoot": 10317, "\u0120forfeit": 10318, "\u0120advis": 10319, "\u0120aided": 10320, "\u0120specter": 10321, "\u0120farmstead": 10322, "window": 10323, "\u0120anoint": 10324, "\u0120starkad": 10325, "success": 10326, "\u0120aboard": 10327, "\u0120beheaded": 10328, "\u0120investig": 10329, "\u0120unheard": 10330, "\u0120topmost": 10331, "chest": 10332, "anes": 10333, "duke": 10334, "\u0120magnificently": 10335, "inate": 10336, "\u0120ornament": 10337, "\u0120erected": 10338, "\u0120mish": 10339,
[...]
