Ġ t
Ġ a
h e
i n
Ġt he
e r
Ġ s
o n
Ġ ,
r e
Ġ w
Ġ c
Ġ o
e d
Ġ b
n d
Ġ f
a t
Ġ .
i t
o r
Ġ in
Ġ p
e n
i s
Ġ m
e s
a r
Ġo f
a n
a l
Ġ d
in g
Ġa nd
a s
Ġ h
r o
Ġt o
i c
Ġ l
i on
o u
Ġ n
Ġ re
l e
Ġt h
Ġ e
Ġ g
Ġ =
Ġ "
en t
i l
Ġ 1
s t
a m
Ġ Ċ
e l
o m
Ġ @
a d
a c
Ġ on
Ġw as
Ġs t
Ġb e
u r
l y
Ġ he
Ġf or
Ġ u
Ġ '
Ġa s
o l
i d
i m
i v
i r
t er
i g
Ġ@ -
Ġ@- @
c t
t h
o w
it h
a y
Ġa l
Ġ r
Ġ 2
o t
u t
e t
v er
Ġw ith
at ion
Ġth at
c e
Ġ is
Ġ it
Ġw h
Ġc on
Ġ j
c h
Ġb y
u s
Ġa n
Ġa t
Ġd e
Ġs e
Ġ k
u l
Ġ )
Ġ (
Ġ v
Ġc h
a nd
ro m
e m
a in
a g
Ġ1 9
o s
er s
u m
Ġh is
Ġc om
he r
a v
es t
0 0
o d
r i
Ġf rom
Ġp ro
Ġs u
p e
i f
is t
re s
i es
Ġ y
u n
Ġn e
il l
a p
s e
er e
l d
or t
o p
Ġm o
Ġo r
Ġs h
Ġ ro
Ġw ere
Ġp l
a b
a k
at e
ig h
ar d
al l
ar t
on g
Ġe x
ic h
Ġu n
q u
Ġl e
an t
u d
b er
g h
it y
at ed
am e
es s
o c
Ġa re
re d
Ġt r
Ġa r
iv e
Ġ â
i e
ac k
Ġh ad
Ġâ Ģ
ro u
i p
Ġwh ich
as t
i an
Ġn ot
p t
m ent
r it
in e
or d
g e
al ly
ou r
Ġa f
el l
i a
Ġw he
igh t
Ġcom p
t her
c l
is h
ou n
av e
Ġ 3
p p
ar y
Ġc l
u st
Ġth is
c c
Ġa d
Ġf ir
Ġ2 00
Ġs c
Ġb o
Ġ en
Ġb ut
Ġw or
Ġhe r
Ġt w
Ġthe ir
ou s
Ġfir st
Ġcon t
o re
Ġ ;
r a
Ġa b
s o
Ġin t
ct ion
id e
Ġit s
o g
u re
Ġm an
ic al
i re
i al
Ġaf ter
ou ld
ĠâĢ ĵ
he d
Ġon e
Ġal l
Ġthe y
Ġa m
Ġs p
Ġt e
Ġ2 0
Ġp er
Ġal so
om e
u b
Ġre c
Ġ :
t e
it ion
ig n
Ġf e
p er
r u
o k
u e
ou t
o v
at er
Ġt im
as s
Ġcom m
Ġu s
Ġne w
ag e
Ġtw o
Ġm ar
Ġ i
Ġs he
Ġh ave
or m
Ġre s
e ar
Ġd es
ow n
Ġ 4
re e
Ġh as
Ġm e
Ġs er
on d
Ġpl ay
Ġd is
r y
Ġ 5
Ġp o
Ġa g
d u
Ġp art
Ġbe en
Ġbe c
Ġwh o
l and
Ġc o
Ġg o
en ce
a re
an s
Ġ1 8
Ġo ther
Ġ@ .
Ġ@. @
i le
ur ing
ou gh
t ed
Ġy ear
p l
Ġ im
an ce
or y
e ct
ation s
Ġo ver
Ġe v
f f
i z
ac h
ad e
an g
Ġw e
w n
Ġof f
Ġf in
el y
cl ud
r ic
Ġ20 1
t s
Ġp re
ou nd
Ġc ol
i b
Ġu p
Ġo ut
ion s
k e
Ġf l
Ġc an
Ġin ter
it e
ur n
Ġ@ ,
Ġ@, @
Ġc ent
Ġd uring
ac e
Ġwhe n
Ġin clud
ic e
Ġs pe
res s
Ġtim e
Ġa p
ac t
Ġe ar
nd er
Ġin d
Ġs ong
v ed
ul t
Ġb r
k s
w e
en s
Ġat t
c ed
Ġmo re
Ġint o
c es
Ġse c
a il
on e
oun t
Ġb l
ol l
w ard
Ġp r
Ġfor m
Ġg r
Ġp e
am p
re n
Ġw ould
as on
p ort
m an
Ġ 6
ab le
i ed
Ġch ar
rou gh
ing s
it ed
Ġh im
Ġj o
v e
Ġmo st
l es
ri b
ent s
as ed
Ġm us
Ġn o
Ġbe t
as e
il d
i x
Ġk n
Ġg ame
Ġ 7
at es
Ġs ou
i ous
at h
Ġs ome
al s
Ġ qu
Ġre m
w ay
Ġas s
Ġwh ile
rou nd
or s
Ġthe m
Ġa cc
Ġp ar
Ġm ay
os e
ak e
is s
Ġre g
Ġw ar
Ġf il
Ġon ly
v el
Ġ ver
Ġthe re
f orm
Ġen g
Ġg en
Ġh ow
f er
Ġrec ord
ub l
g an
Ġu nder
Ġc ar
a w
a us
Ġf r
Ġcon s
Ġn or
Ġth ree
ol d
Ġre l
er ed
Ġl ater
Ġm in
Ġs o
Ġ 9
Ġ 8
o od
ter s
Ġab out
at t
Ġfil m
Ġa c
em ber
u g
Ġe m
re at
Ġth rough
Ġa ct
oll ow
Ġse ason
Ġwor k
we en
Ġbet ween
Ġ19 9
Ġl i
Ġag ain
ic k
Ġm on
Ġf ollow
Ġa pp
Ġth an
Ġs y
Ġe nd
Ġm a
Ġpro du
Ġb u
Ġw rit
ation al
ul ar
r al
Ġd ay
Ġw in
c k
ic t
Ġn um
Ġh igh
f t
Ġspe c
Ġre le
Ġsu b
Ġl ar
Ġl o
h ip
ie w
Ġre t
er ic
Ġd o
f ore
is ion
Ġp os
Ġde f
Ġsec ond
am es
Ġ 00
ct ed
on s
Ġnor th
ol og
Ġb ro
Ġg u
Ġal b
n ing
p h
is hed
Ġwhe re
Ġf our
Ġp res
Ġm ade
Ġin c
ur y
Ġp ubl
s s
Ġc ity
Ġs a
Ġ ent
Ġl oc
Ġwor ld
Ġam eric
Ġp h
at ing
Ġsu ch
e nd
Ġe le
Ġalb um
Ġsou th
n e
Ġbe fore
Ġs ur
Ġc ap
iv ed
if ic
Ġ z
u al
Ġe p
Ġc all
Ġus ed
l l
Ġser ies
ter n
he s
i el
Ġap pe
an e
ic s
il y
Ġse ver
Ġ 0
Ġsu pp
Ġs ing
Ġgen er
Ġo p
ro p
Ġhow e
Ġp ol
Ġbe ing
Ġ00 0
Ġyear s
Ġbo th
Ġman y
Ġf ound
Ġs m
Ġthe se
Ġs et
Ġhis t
Ġst ud
Ġs im
Ġ1 0
Ġa ir
Ġre v
Ġb ack
Ġ ed
Ġtr ans
Ġde c
ar s
i o
Ġhowe ver
Ġc ount
Ġre p
if e
Ġad d
al e
ir d
iv er
in t
Ġd ire
Ġw ill
Ġl ong
Ġw ell
Ġs ch
Ġre ce
ut e
ot her
ain ed
Ġp op
t en
Ġnum ber
Ġ1 2
is ed
Ġde p
it ies
ig in
er t
Ġb el
Ġd r
Ġthe n
aus e
od e
y s
Ġar m
Ġb att
Ġd iv
Ġor igin
Ġar t
vel op
Ġdes c
Ġt er
in es
l i
Ġear ly
Ġc re
is e
Ġmus ic
t on
Ġm ill
Ġin v
it s
Ġst ate
Ġep is
in ce
Ġchar ac
Ġb rit
h n
Ġsever al
j ect
an k
Ġper form
Ġm ain
or n
Ġinclud ing
Ġagain st
Ġ1 6
Ġin st
Ġst e
Ġde velop
Ġ /
Ġo b
Ġkn own
Ġp ort
ro w
Ġbec ame
Ġte am
Ġs l
a ir
Ġin f
ĠâĢ Ķ
id ent
ur ch
iel d
in s
Ġn ov
Ġc rit
u res
Ġ19 8
an n
Ġm il
at her
Ġsh ow
Ġ est
Ġun ited
i et
f ul
ow er
Ġo per
er n
Ġcon st
th ough
Ġal though
Ġst r
em ent
Ġ1 5
Ġcent ury
Ġjo hn
Ġo ld
Ġ1 1
Ġd ist
Ġle ad
l ed
Ġl and
o ol
Ġch r
an y
Ġ1 7
u c
u nd
Ġim p
Ġm et
Ġfollow ing
or k
Ġs ign
d er
at ive
ver n
u p
t il
Ġd own
Ġth ough
Ġcont in
Ġr un
Ġc are
a red
Ġ19 4
y l
Ġsh ip
Ġli ke
Ġcomp le
Ġex p
Ġd if
el f
Ġk e
le y
Ġop en
o st
Ġm at
u ally
Ġv ar
Ġne ar
Ġbe gan
Ġ19 6
Ġal ong
i red
a z
Ġdis c
Ġgo vern
Ġb ar
ment s
iz ed
el s
Ġf am
Ġ19 7
Ġbec ause
ain s
Ġpro v
ro ss
Ġc ould
em b
u ch
Ġdesc rib
Ġd id
Ġe ver
un e
Ġs ix
Ġcall ed
Ġpe op
Ġepis ode
Ġp ers
on t
o y
Ġk ing
u ed
Ġin s
a u
Ġd am
s on
Ġfe at
ak ing
Ġun til
in ed
Ġsa id
g r
Ã ©
rou p
iv ers
Ġare a
t y
cc ess
Ġg er
Ġameric an
Ġst ates
Ġdes ign
a h
Ġch urch
Ġw est
Ġpre v
Ġpeop le
Ġg roup
ov e
Ġst art
Ġa ust
g est
ce pt
Ġc r
Ġy ou
Ġret urn
Ġma j
oc k
u red
Ġs ince
Ġhe ad
am ed
Ġm od
Ġan y
ul l
Ġbrit ish
in d
Ġp ass
Ġad v
Ġan n
Ġe ach
Ġf o
an ge
Ġn ational
it t
Ġs ame
ap h
Ġrele ased
Ġoff ic
id ed
Ġhe l
Ġe u
Ġo wn
ist s
i ally
Ġa round
Ġo cc
i er
is m
Ġbo ok
Ġwe e
Ġj u
Ġst ar
i um
Ġa ug
Ġk m
Ġmill ion
Ġm ed
Ġl ife
Ġu se
ib le
Ġmaj or
os ed
on y
Ġf ive
Ġe l
Ġsu ccess
Ġm ag
Ġ1 3
Ġe ff
an c
Ġaug ust
Ġro ad
ou se
Ġm iss
Ġb est
en n
Ġc amp
Ġsm all
Ġsupp ort
Ġcomm and
Ġcon c
Ġto wn
Ġsch ool
Ġser v
st em
Ġt y
Ġl ine
Ġg re
Ġcomp any
Ġcharac ter
x t
u es
Ġfin al
Ġan other
Ġc he
Ġ19 5
Ġcont ro
Ġa ward
Ġb re
Ġ if
Ġdire ct
Ġse pt
Ġr iver
Ġpubl ic
Ġatt ack
Ġj ust
et s
Ġ %
Ġcons id
Ġcol le
Ġr a
al es
i ent
Ġg e
Ġsy stem
Ġg reat
Ġsept ember
Ġf ur
Ġcl ass
Ġcon f
Ġm id
Ġst orm
ut ion
Ġt it
ain ing
Ġre port
Ġh um
u th
Ġp rom
Ġex t
Ġlar ge
Ġaust ral
Ġg ames
Ġwh at
Ġm y
m s
Ġan t
ur al
Ġg l
Ġc or
Ġbl ack
v en
Ġ19 3
Ġt ri
Ġch ild
Ġsh ort
Ġw ater
b e
b le
Ġ19 1
o ver
Ġl a
Ġre st
Ġd ue
in a
d om
ag ue
l ish
Ġi i
Ġ ir
Ġl ast
Ġ rom
av ing
Ġn ow
ac ed
Ġj une
Ġhist ory
Ġe ast
p ed
Ġmar k
Ġv ide
ar k
iv es
Ġo ct
Ġev en
Ġl ate
Ġj an
as h
Ġ1 4
Ġh ome
Ġn ame
Ġw ay
Ġrev iew
il t
at ely
Ġgovern ment
Ġger man
Ġbu ild
Ġmo v
Ġt urn
Ġpart ic
at s
Ġ es
g er
Ġde m
Ġis land
Ġrece ived
in k
Ġchr ist
olog y
Ġacc ord
og r
Ġun ivers
pe ct
Ġm en
r on
ag es
Ġdescrib ed
g et
Ġv is
Ġm uch
Ġh ur
Ġg un
Ġwith in
Ġtr ack
Ġcl ub
Ġc our
Ġspec ies
t ing
Ġh al
Ġappe ar
Ġinc re
o ber
od y
Ġde ath
he n
u ary
b y
Ġg od
Ġto p
Ġgener al
ion al
ro te
Ġinter n
c ess
Ġfam ily
il ity
Ġoct ober
ag ed
Ġst ru
Ġplay ed
Ġ $
g in
a e
Ġar ch
e p
Ġ x
n er
Ġs w
Ġaccord ing
Ġtim es
Ġte ch
Ġle ague
s ion
Ġto ok
Ġcap t
em pt
rop ical
if ied
a im
b all
Ġth ird
ant s
Ġre f
Ġd el
o red
iv ely
Ġ [
Ġ ]
Ġp ower
Ġsing le
Ġl ist
. .
Ġju ly
Ġle g
Ġ2 5
Ġs oc
Ġw rote
Ġw on
r il
Ġm or
iv ing
Ġor gan
Ġvide o
pt ion
Ġpro te
Ġconst ru
Ġdif fer
ian s
Ġar r
Ġwh ite
Ġ. ..
Ġmar ch
Ġev ent
Ġapp ro
Ġall ow
Ġst re
Ġb ased
Ġd est
id es
Ġa v
Ġap ril
Ġpos s
a i
er v
Ġst ory
Ġt em
Ġn ort
i am
l ing
Ġeu ro
Ġf ore
os s
i od
it al
Ġinclud ed
Ġb as
Ġv al
Ġcomm on
Ġre d
ction s
Ġpers on
Ġadd ition
Ġs k
he l
im e
om in
Ġle ft
Ġbel ie
Ġy ork
Ġest ab
Ġjan uary
Ġh ar
h am
Ġth ose
an ces
te nd
Ġn amed
Ġ3 0
ic ally
Ġdiv ision
ak es
Ġver y
am ent
Ġex pl
Ġatt empt
Ġeng land
Ġpos ition
Ġper iod
Ġfo ot
Ġh ouse
Ġres p
Ġp at
Ġh and
Ġprev ious
Ġv ill
Ġde ce
op s
le t
Ġb us
st er
il ar
Ġs ol
c hed
Ġe as
Ġorigin al
a ur
Ġs om
ent ly
p s
Ġv ict
b o
Ġa uth
Ġhe av
Ġnov ember
ul ation
pe nd
Ġmon th
Ġcomm un
Ġpl ace
Ġk ill
ra ft
qu e
Ġeuro pe
Ġl ight
m ed
Ġch amp
Ġf ield
Ġt ropical
Ġc al
Ġst and
m ber
m er
i ence
ard s
Ġ19 2
Ġdece mber
Ġsim ilar
d s
Ġbu ilt
n ess
Ġsu g
Ġo pp
Ġs ent
Ġre al
Ġte le
p le
Ġmil it
Ġam ong
Ġsong s
ac hed
Ġhur ric
Ġm ake
Ġl ed
Ġw om
Ġpres ent
Ġin it
at ure
Ġfur ther
en se
ar ch
Ġloc al
Ġplay er
en ces
Ġc ur
iv en
Ġl aw
Ġre qu
n a
Ġ1 00
Ġst ill
ed er
Ġto ur
m in
g ed
Ġ er
i ation
en e
Ġf ar
p or
Ġne xt
Ġ Â
Ġs qu
Ġj e
ent ion
Ġ200 9
g y
Ġ201 0
b s
Ġc le
as ter
Ġy oun
Ġf ri
Ġv iew
Ġtr ad
Ġb ill
Ġ200 8
Ġsu per
Ġto t
is on
Ġpo st
Ġp ri
Ġex per
Ġro ck
Ġis s
b r
Ġbr ig
Ġro le
Ġre pl
i k
Ġpl an
Ġhist or
Ġim port
Ġc oun
Ġc ame
ren ch
Ġs ide
Ġever y
Ġl ow
Ġf re
Ġl ove
ogr aph
Ġr ight
Ġb and
Ġs ay
Ġmo ved
Ġcare er
Ġc ast
Ġunivers ity
Ġwith out
iv al
Ġeff ect
Ġpol it
ap p
ot t
Ġh o
Ġof ten
ak en
Ġpar k
Ġrecord ed
Ġfe w
Ġt re
Ġob s
a ff
Ġr ad
Ġhurric ane
or ies
Ġcont r
Ġmilit ary
Ġch art
y le
en g
ver s
Ġc aus
ber t
Ġsug gest
Ġm emb
Ġor der
Ġconsid ered
Ġbatt al
Ġpro f
Ġl ess
Ġarm y
Ġse e
Ġprodu ction
Ġpro ject
Ġrele ase
ad y
er y
at ter
is ter
Ġass oc
Ġ200 7
Ġform er
el t
Ġinf l
Ġle vel
Ġde b
Ġres ult
Ġc y
i or
Ġs old
Ġeng lish
Ġbe h
Ġwee k
ut ed
Ġf ire
ot s
Ġf rench
ic o
Ġpro p
Ġne ver
Ġw al
Ġf un
Ġcl aim
Ġbatt le
th ing
Ġpo int
Ġre fer
Ġt ake
Ġd et
Ġrep res
Ġpubl ished
ward s
Ġwrit ten
Ġdiffer ent
Ġhal f
s elf
Ġcontin ued
Ġh a
in c
Ġan g
Ġro y
gr am
Ġday s
v es
Ġpro t
Ġf eder
us s
Ġfor ces
Ġhe ld
Ġauth or
Ġintern ational
Ġman ag
s ide
Ġc ro
Ġdef e
Ġn ight
Ġro ute
Ġstr ong
Ġdes p
l er
Ġp it
Ġ2 1
Ġc at
Ġn av
Ġfor ce
Ġgo od
Ġp ress
re t
p ar
iss ion
Ġfri end
im ent
c hes
Ġs ound
Ġc ult
Ġst at
Ġc ross
it er
Ġj ack
Ġh y
v ision
id ge
Ġcount y
Ġg old
Ġh aving
Ġch ang
Ġcomp et
es tern
Ġw at
Ġ2 3
er c
Ġcontro l
Ġthrough out
Ġmemb ers
Ġchamp ions
Ġ201 1
it ar
Ġbec ome
Ġpop ular
Ġpartic ular
Ġs um
ens ive
ra w
Ġchild ren
Ġ200 6
ro du
l ine
Ġgr and
Ġcom b
Ġtot al
Ġcan ad
Ġver sion
Ġdevelop ment
ar n
Ġe c
r ing
Ġtit le
Ġp a
b ru
is ing
Ġlo st
ic es
iz e
m e
Ġ &
Ġcount ry
au gh
Ġn et
en c
Ġ2 4
f ord
Ġhigh way
Ġf le
Ġrom an
Ġh am
Ġco ver
Ġp al
Ġind e
Ġdesp ite
Ġp ur
Ġl itt
er ing
Ġpro gram
Ġf em
ro y
Ġl ive
Ġ2 6
Ġ2 2
Ġf ac
Ġde cl
Ġsou ther
Ġe ight
Ġlitt le
Ġs it
d ay
Ġsouther n
o b
Ġfor t
st on
Ġw ant
Ġfe bru
Ġfebru ary
Ġcrit ic
Ġr ich
ition s
Ġrepres ent
Ġcent ral
Ġreport ed
Ġm ount
Ġact iv
Ġd on
Ġg ave
Ġprodu ced
Ġge or
yl an
Ġt ro
s h
Ġhum an
Ġ !
Ġd ylan
c o
Ġs ite
Ġinfl u
os p
Ġor d
Ġf ree
ail ed
Ġon ce
ar a
Ġ201 2
Ġtele vision
Ġwrit ing
Ġg iven
Ġnort her
iet y
Ġh or
Ġhe ro
ri ed
Ġmod ern
Ġl ab
ap an
Ġpres ident
Ġserv ice
Ġco ast
ert ain
Ġg round
Ġyoun g
c he
am a
Ġ2 8
Ġnorther n
Ġsu n
ress ion
Ġa ge
ne y
Ġmat ch
Ġv i
Ġe qu
Ġsign ific
Ġj apan
f ect
Ġinv ol
Ġinclud e
e ad
Ġm ass
Ġc e
Ġar g
Ġw estern
ab ly
Ġl im
x im
Ġv e
Ġ ill
Ġb all
Ġroy al
Ġl y
Ġm i
Ġbattal ion
Ġb urn
our s
Ġaf ric
ren t
Ġse ven
Ġm aking
Ġsh ould
Ġc ou
Ġb ody
Ġa way
at ic
Ġeas tern
Ġstru ct
Ġd ou
Ġr ac
Ġw ood
Ġd av
Ã ¡
Ġocc ur
Ġestab l
Ġtech n
Ġ201 3
Ġto o
Ġt or
Ġlo ok
Ġse en
Ä ģ
ad es
c raft
Ġp ra
Ġst ated
Ġf if
pl ay
it her
Ġf t
Ġt en
Ġreturn ed
Ġf ather
am b
Ġac ross
se qu
Ġinst ead
a x
Ġde v
Ġ5 0
Ġship s
Ġdest roy
Ġgu itar
Ġestabl ished
at or
Ġear li
Ġpr im
on es
olog ical
Ġ ire
Ġus ing
Ġnew s
a pe
Ġc as
Ġb ur
Ġty p
Ġcon v
pl oy
f ic
Ġf act
Ġ19 0
c om
Ġconstru ction
in ted
Ġpop ulation
Ġf ull
Ġs on
Ġameric a
Ġnot ed
Ġann oun
Ġchampions hip
Ġh ig
Ġbro ad
es e
Ġre ached
Ġint rodu
Ġdevelop ed
Ġ2 7
Ġbuild ing
Ġb i
Ġfoot ball
g round
Ġthough t
n t
Ġc iv
ain t
Ġm ix
Ġplay ers
Ġire land
us ed
um ent
Ġbrig ade
Ġme an
Ġvar ious
Ġm ich
Ġwor ks
Ġsignific ant
Ġl ond
Ġeng ine
il le
Ġimport ant
Ġv ir
m ost
Ġtr av
Ġre ad
Ġperform ance
Ġmil es
re w
Ġwill iam
Ġlond on
ut es
Ġfin d
Ġind ust
Ġhim self
Ġdisc over
Ġking dom
Ġ ide
Ġst yle
Ġne ed
Ã Ń
in ess
w ork
Ġf ig
Ġb ird
en ed
Ġfr ont
Ġperform ed
id ence
Ġf elt
Ġele ct
Ġaustral ia
k ed
end ed
Ġf all
Ġat l
Ġoffic ial
Ġbro wn
Ġc ir
Ġt ur
l o
Ġinter est
Ġp ut
Ġfe et
Ġc up
Ġare as
Ġev ents
Ġsu ff
Ġw ent
m p
it ive
Ġdo es
Ġciv il
Ġph il
Ġo d
Ġbe gin
Ġv ol
al d
Ġm m
Ġb ow
Ġrel ations
Ġpo em
Ġset t
Ġm ot
Ġl et
Ġm er
Ġd ied
Ġm other
uc le
Ġcour t
g es
Ġrel ig
Ġr ange
Ġl ang
Ġo l
os aur
ie f
Ġd i
Ġc er
Ġv o
Ġsuccess ful
Ġsur v
Ġear th
Ġother s
og n
Ġorigin ally
Ġw all
Ġhe n
a ign
ant ic
Ġcamp aign
ree k
f ield
ri pt
Ġup on
Ġt est
Ġg et
r ation
un g
Ġst ars
a el
Ġb ase
Ġnov el
Ġstart ed
iz ation
Ġj ames
Ġkn ow
Ġform ed
Ġcharac ters
us h
Ġs n
Ġpolit ical
g ress
Ġprof ess
Ġh om
Ġs al
in ts
Ġn on
it ing
Ġwom en
om b
Ġp red
Ġspec ial
in ation
on om
Ġg al
Ġprom ot
s hip
y ing
Ġsc ient
a f
Ġtrad ition
c il
Ġp en
an a
Ġcaus ed
Ġevent ually
ri e
Ġloc ated
Ġh old
ric k
Ġw ord
Ġr h
Ġdirect or
Ġre se
Ġh ill
al th
Ġcre ated
z e
Ġcent er
av es
in o
Ġstre et
Ġcrit ics
Ġab le
Ġh ot
Ġent ire
Ġ18 9
Ġreg ion
f all
c her
Ġ200 4
i ers
ist ed
Ġ200 5
Ġprodu c
Ġh ol
Ġmag az
Ġa ud
Ġan im
l ess
Ġf ight
Ġb orn
Ġb er
Ġinde pend
Ġto m
y n
al ity
c ut
Ġc op
ac y
Ġcol on
Ġf av
Ġn ucle
Ġto get
Ġtoget her
Ġg row
Ġbec om
Ġb ir
Ġme et
Ġin n
Ġheav y
Ġst ri
Ġch ap
Ġcir c
Ġb ay
as ing
Ġs an
m ar
ĠâĢ Ļ
ri es
Ġhel p
al y
Ġre du
amp le
Ġdif fic
Ġdiffic ult
Ġgun s
Ġse x
Ġrem ained
Ġh on
Ġdep art
Ġcon d
Ġd u
Ġcomple ted
Ġag re
Ġgo al
Ġd en
Ġn at
Ġn ar
Ġsc ored
Ġ3 1
ort s
Ġv oc
iv id
Ġl oss
Ġannoun ced
Ġaustral ian
i ated
Ġfore st
Ġpro cess
Ġf a
Ġfour th
Ġal most
Ġs il
Ġm em
Ġm ad
Ġcom ment
Ġdam age
Ġpe ak
it ted
ent h
Ġa ver
Ġj our
Ġbeh ind
Ġle ast
Ġen c
id s
Ġcon dom
en ced
rough t
Ġse a
Ġpart y
Ġc ell
Ġadd ed
Ġr ail
Ġter rit
Ġ2 9
Ġacc om
Ġm ac
Ġcol l
r ay
ot a
re am
Ġkill ed
Ġmonth s
Ġw ife
Ġfollow ed
k i
Ġappe ared
b or
Ġsqu ad
Ġ ident
Ġqu ar
Ġrelations hip
on ic
Ġplay ing
Ġind ivid
i que
Ġin form
ap er
Ġh all
Ġro und
Ġse le
Ġs at
Ġdav id
Ġaward s
d en
Ġst ation
e en
Ġrec ogn
Ġs our
Ġ4 0
Ġfeat ures
Ġm c
Ġje w
ac es
Ġt rib
ant ry
ress ed
Ġh ard
Ġair craft
Ġfl ight
t im
w h
Ġm ach
d le
Ġest im
Ġd er
i us
Ġr u
Ġb ra
Ġc ard
Ġa ch
Ġwin d
Ġ200 3
Ġapp o
Ġt aken
m ing
Ġt reat
Ġ18 5
way s
Ġre b
Ġfle et
ol ution
Ġex c
ell ing
o le
Ġl ack
Ġ201 5
pe c
Ġs aw
Ġc reat
em ents
Ġlead ing
Ġr ank
Ġf und
Ġlang u
Ġsub sequ
ul ly
Ġfr ance
Ġa ction
Ġimp ro
Ġt al
em y
Ġe ither
Ġse par
Ġm ater
Ġpro ble
Ġser ved
Ġrecord ing
Ġto wards
ist ic
Ġu l
id a
Ġpar li
Ġoper ations
ograph y
Ġc ase
Ġarch ae
Ġdec ided
Ġl os
Ġtrans port
Ġfl or
g o
Ġele ments
at a
Ġcl os
Ġw id
Ġr ul
Ġinter v
Ġso on
Ġd raw
Ġp ast
Ġcl ose
Ġh ost
Ġrecord s
Ġro bert
Ġpre m
m y
Ġgener ally
Ġmagaz ine
c ent
Ġcomm erc
Ġbelie ved
Ġac cept
ign ed
Ġmo ve
ct or
enc y
Ġcur rent
Ġfl ood
Ġparli ament
Ġcomp os
Ġto w
Ġco st
ict ion
Ġcoun cil
Ġfem ale
re st
Ġsa f
ric t
Ġme as
Ġcare y
Ġro se
ough t
ach ing
Ġla un
n ed
Ġk h
Ġex ample
ud e
Ġreg ular
Ġres pect
Ġinf antry
Ġg ir
Ġmanag er
Ġcon n
Ġcomm ission
Ġme x
Ġpo ints
Ġd omin
Ġbus iness
Ġ q
Ġc ru
Ġ18 8
Ġf ly
Ġwee ks
Ġr ather
Ġb al
s u
Ġstud y
Ġst op
n es
Ġeurope an
Ġout side
Ġex e
Ġfeder er
od es
Ġopen ed
Ġed uc
y e
at ors
Ġbe g
Ġfin ished
Ġc ut
tend ed
Ġdire cted
Ġf oc
Ġ3 5
Ġb rought
Ġad m
t t
Ġreg ard
Ġbl ue
op h
u ck
Ġw ales
ce ed
Ġv iet
Ġes c
um b
u ter
Ġearli er
Ġy ard
c ast
Ġty pe
Ġach ie
Ġfeat ured
Ġinv est
Ġbe y
Ġsec ret
ap s
Ġvict ory
re ad
Ġun ion
l ic
Ġst age
m a
Ġz e
Ġm ember
k ing
Ġse qu
Ġm os
Ġant i
Ġb ig
im es
Ġsy m
Ġr ain
Ġpr iv
ur b
bo ard
ord an
Ġh it
an ch
Ġan c
Ġins p
Ġc am
Ġpro b
Ġcon du
he re
Ġm cc
w ood
Ġv en
Ġrad io
Ġr ace
Ġa th
Ġprov ided
Ġ -
Ġassoc iation
Ġw il
act ion
Ġopen ing
Ġtro ops
Ġwork ing
Ġappear ance
Ġst ay
Ġind ic
Ġvill age
Ġwant ed
Ġmus e
el er
Ġro om
Ġde al
Ġj ordan
Ġm ult
ent ial
Ġwin ds
ell ow
Ġne g
Ġre ason
Ġparticular ly
Ġ18 6
Ġth om
Ġpr act
Ġgir l
Ġatl antic
Ġ201 4
Ġmin or
Ġp ot
Ġinit ially
Ġre ve
Ġsum mer
Ġr ap
Ġdep ression
Ġn orm
Ġcre w
an ia
Ġev idence
Ġchrist ian
Ġmid dle
Ġinst it
Ġsoc ial
med i
ish ing
id ing
Ġl eng
Ġg ar
he st
Ġoff ice
Ġlar gest
Ġm ary
Ġcle ar
s el
Ġcom e
Ġmuse um
Ġm ur
Ġgeor ge
Ġsh o
Ġk il
er ous
Ġex ist
Ġposs ible
Ġde ter
ing ton
Ġs us
Ġab ove
w est
ag o
Ġch o
Ġcommerc ial
or ing
th od
Ġ5 00
at in
k y
Ġmater ial
g g
Ġst ren
Ġke y
on st
Ġy ards
Ġsp ace
Ġfe el
Ġm ust
oun ted
u gh
et t
v al
if f
Ġflor ida
á ĥ
Ġallow ed
Ġpri or
Ġw ild
Ġb an
Ġres ul
he ad
Ġsay ing
Ġem ploy
it a
Ġn ine
Ġresp ons
h a
Ġac ad
Ġsom et
Ġh ours
Ġj ud
Ġpa ul
Ġcrit ical
Ġbro ther
Ġvi ol
Ġhor se
Ġquar ter
Ġol iv
ou ri
Ġf ut
Ġreg iment
Ġa ut
Ġc reek
Ġoper ation
Ġl ower
Ġleng th
Ġec onom
Ġstren g
Ġwh om
Ġspec ific
o ff
Ġrece ption
Ġrese arch
Ġqu ick
Ġp ain
Ġl iter
Ġli k
m en
Ġcy cl
Ġmiss ouri
Ġse em
Ġwork ed
Ġ200 1
Ġpol ice
Ġsoc iety
Ġf ood
Ġdesign ed
Ġpo or
o on
v ille
Ġcommun ity
Ġn omin
ar ies
Ġp ac
Ġprevious ly
Ġs am
s c
Ġd oc
Ġbre ak
Ġgo als
Ġfor ced
Ġrep ubl
Ġpra ised
n al
ver t
Ġhe art
Ġrem ains
Ġer a
Ġcap ital
f or
u el
Ġd om
Ġsh ot
Ġincre ased
Ġind ian
Ġth reat
Ġmon t
Ġm art
Ġph ys
re g
al and
Ġav ail
o res
Ġmed ia
Ġinterv iew
r ated
Ġst one
Ġ18 7
Ġ197 0
Ġmich ael
Ġdis s
Ġsc re
Ġn y
Ġu k
Ġh ous
u ation
p r
Ġh osp
Ġback ground
Ġsur f
gy pt
Ġun its
it z
Ġcommand er
ess ion
Ġstud io
he ast
o id
cl us
Ġwrit er
Ġpro per
ĠÂ £
Ġt aking
Ġrepl aced
ul a
Ġthe at
Ġe gypt
Ġf ace
Ġpart s
Ġmain t
Ġrich ard
one y
hen s
rib uted
ar i
Ġnav y
le ment
Ġindust ry
j e
as ion
x as
v ing
Ġappro xim
Ġsub st
Ġass ist
er ved
ann ed
Ġrelig ious
ab it
Ġde ad
ol ic
Ġcomm it
Ġse ction
b and
Ġhen ry
Ġb od
Ġhig hest
Ġcolle ge
Ġreview s
Ġh app
Ġbegin ning
Ġclaim ed
Ġestim ated
Ġob ject
ĠÂ °
Ġ200 0
Ã ³
st e
Ġc ertain
Ġp ie
Ġex cept
at ory
Ġp ay
Ġr ang
Ġm ph
Ġcar ol
Ġcanad a
Ġim m
i h
Ġrepubl ic
ib ility
Ġobs erv
it es
ul f
Ġ199 0
Ġconn ect
Ġjo ined
Ġtrav el
Ġo x
Ġold ham
Ġjapan ese
Ġgr ad
um p
Ġl ines
Ġass emb
Ġ3 6
Ġpl aced
Ġgre en
Ġaver age
y er
Ġst ories
Ġinvol ved
cut ive
Ġsign ed
Ġch ange
st and
ri ption
Ġd ig
Ġtr aining
Ġsuggest ed
ul ated
un k
Ġre n
Ġint ens
Ġintrodu ced
Ġincre asing
Ġc a
Ġsc en
Ġtrans fer
Ġun c
Ġpo et
t ies
Ġsomet imes
ell ed
Ġ4 5
Ġim medi
Ġits elf
Ġ18 3
Ġviet n
Ġstruct ure
Ġto day
Ġch ic
Ġo ur
Ġter m
Ġin j
Ġocc up
Ġar ab
Ġoliv ier
im in
Ġsc ene
r ison
Ġgo ing
Ġprot est
Ġcomple te
ak er
Ġath let
g en
Ġp u
Ġn ames
Ġb ab
Ġg ive
Ġm ale
Ġh un
o f
Ġmex ico
Ġir ish
ann a
Ġaddition al
as k
Ġavail able
re ady
Ġth us
Ġse m
Ġw r
ic a
Ġind ia
Ġam b
b ack
Ġab s
Ġair port
Ġr an
Ġst aff
in ing
Ġlangu age
Ġd ate
Ġpl ot
Ġwh ose
Ġrem ov
Ġnear ly
Ġfif th
Ġm al
d own
Ġto ld
por ary
pe cted
Ġthom as
as es
al ed
Ġwom an
Ġapproxim ately
Ġsub ject
Ġshow s
Ġfriend s
ar ily
Ġa st
Ġcont em
Ġth ink
Ġ6 0
Ġem p
Ġd ark
Ġd ut
Ġdam aged
um e
g l
Ġal ready
Ġestab lish
Ġsur round
Ġappo inted
t o
Ġro b
Ġn ative
Ġcomp an
Ġ196 0
Ġem b
Ġs ize
ers on
Ġbrit ain
ri an
Ġiss ue
Ġdis p
Ġprob ably
Ġturn ed
Ġpartic ip
Ġwin ning
Ġqu est
Ġcontr act
ar ing
Ġcat hed
Ġl ay
Ġly ric
ap t
Ġstud ents
Ġbo y
Ġm ight
Ġj in
h ib
qu ar
Ġpac ific
Ġh op
Ġsc ore
Ġdeb ut
Ġpass ed
Ġes pec
en on
Ġcomple t
i i
Ġcapt ain
Ġbo ard
Ġad min
Ġl ord
Ġbet ter
Ġc ad
Ġtw ent
Ġp enn
Ġze aland
Ġu pp
Ġnet work
Ġ18 4
Ġwith d
Ġdis play
Ġang el
Ġl ou
Ġc red
ate g
Ġc ath
v est
Ġ ?
Ġs en
Ġl ink
Ġover all
Ġvis it
Ġm el
Ġde ep
ines e
Ġfor ward
Ġespec ially
osaur us
ab ility
ail s
or ation
Ġen ough
Ġnot es
t r
Ġd oll
Ġt ar
Ġd augh
Ġch inese
Ġf ailed
z z
Ġd ro
Ġbr idge
Ġrun ning
Ġmix ed
Ġb en
Ġto uch
Ġp an
Ġmus ical
u k
is es
Ġex am
Ġj er
b c
Ġlim ited
b ers
on se
Ġnat ural
Ġsp an
Ġ200 2
ok e
Ġp et
i res
g ar
Ġii i
Ġord ered
r d
n el
Ġsl ow
Ġfut ure
Ġm ic
Ġl ake
Ġwhe eler
Ġn in
Ġrem aining
Ġdepart ment
Ġeduc ation
Ġsp ent
Ġpe ter
Ġchang es
Ġmov ing
Ġarr ived
Ġinclud es
Ġvir gin
Ġlar ger
Ġus ually
Ġcanad ian
ste in
Ġcathed ral
Ġbre ed
Ġgr ant
Ġcon cept
Ġbir th
Ġp are
Ġro ll
Ġbroad cast
Ġbird s
Ġupp er
Ġrequ ired
Ġpl at
Ġl atter
Ġmount ain
Ġaf f
Ġal i
Ġs aint
il ities
or ial
l or
Ġdec ision
on c
Ġvo ice
Ġf er
Ġrem ain
Ġaf fect
Ġresp onse
Ġm r
Ġafric a
Ġn ature
fer ence
Ġtr aff
ri age
Ġo ly
Ġoly mp
ag on
Ġprev ent
w or
Ġsch ol
Ġw ide
Ġcent re
ow s
Ġp un
g a
Ġrel ated
Ġfeat ure
ip p
Ġm oney
ific ation
Ġcom ed
Ġm ention
n ers
Ġs elf
Ġm ounted
Ġprofess ional
Ġc orn
Ġc m
Ġ3 8
Ġb ad
Ġgroup s
Ġw it
Ġterrit ory
Ġg a
Ġg ot
Ġfilm s
Ġsupport ed
is c
Ġbl ood
Ġrac hel
Ġpos itive
Ġbo x
Ġlar g
Ġsc ience
Ġbook s
p an
Ġsc ott
Ġbill board
Ġpress ure
Ġend ed
Ġl iving
Ġfre qu
Ġd an
Ġo ce
Ġhe alth
o o
Ġfin ally
ch ing
Ġ8 0
Ġsquad ron
Ġt v
Ġcult ure
Ġm ort
u als
k er
Ġbecom ing
Ġm om
Ġchar les
if a
Ġtem per
z y
u nder
Ġal ways
Ġhead quar
Ġsmall er
Ġprov ide
Ġsh own
Ġh aw
Ġg ro
s en
k n
ony m
in ct
Ġl og
Ġpriv ate
Ġtr ade
le ct
Ġ199 5
Ġtem ple
Ġdiscover ed
Ġfo x
Ġshort ly
um ents
Ġb atter
Ġ7 5
rie f
Ġf ru
Ġmin utes
i os
Ġgod s
Ġexper ience
Ġn ations
Ġdisc uss
Ġdefe ated
Ġb ord
Ġj am
Ġ198 0
Ġfr ank
Ġh air
h ou
sel ves
a ut
Ġt ax
Ġsurf ace
Ġsubsequ ently
Ġde g
Ġp ian
Ġbow l
Ġd j
he m
ad ed
Ġr are
Ġeffect s
u an
Ġperson al
ur g
Ġin h
Ġconc ert
Ġce le
l im
ish op
Ġun it
Ġt ell
Ġm akes
Ġgre ater
w ell
Ġcoun ter
Ġcal if
ra el
Ġj un
Ġmost ly
Ġide a
Ġproble ms
Ġpr inc
Ġint ended
l ight
Ġfav or
Ġteam s
Ġper cent
iv a
Ġscient ology
Ġle arn
Ġnum bers
Ġke ep
Ġver s
Ġcolle ction
Ġcapt ured
Ġlarg ely
Ġu nd
id ents
Ġp il
Ġm aster
Ġcon clud
Ġf est
Ġsqu are
Ġrefer red
Ġthem selves
Ġarr ang
pp ed
Ġqu een
Ġlik ely
k an
Ġmet res
Ġprim ary
ac ted
Ġw ing
pl es
Ġconst ant
Ġcalif orn
Ġh us
Ġmach ine
Ġha ifa
Ġme thod
Ġir on
Ġmark et
Ġr uss
Ġsh a
Ġ201 6
Ġcro at
Ġwho le
Ġt enn
Ġg all
Ġcons ist
Ġse v
ke y
Ġy et
Ġgu ard
Ġd ed
Ġtraff ic
Ġopp os
Ġs ov
Ġx enon
Ġloc ation
Ġc ause
r or
Ġtow er
Ġent ered
Ġp ow
Ġo m
am s
Ġd yn
Ġport ug
Ġconstru cted
Ġem er
Ġp air
is er
Ġs and
Ġcont ains
Ġo tt
Ġmag n
Ġa le
Ġb omb
Ġis rael
Ġsc ript
Ġmajor ity
Ġlyric s
Ġlist ed
Ġheadquar ters
Ġ Ã
Ġmor ning
o or
Ġgreat est
Ġf ail
Ġrank ed
Ġad op
Ġa er
Ġoce an
Ġstart ing
Ġle aving
Ġcan n
Ġch ief
Ġro w
Ġr ay
Ġan al
er a
Ġcontro ll
Ġ199 9
om an
Ġd um
g ian
at ively
Ġoffic ers
Ġequ ip
Ġo s
Ġwhe ther
Ġinform ation
Ġro ss
Ġele ction
Ġstud ies
Ġgal vest
Ġgalvest on
ri a
Ġul tim
Ġcompan ies
Ġv an
Ġb rief
Ġcompet ition
Ġ195 0
Ġto urn
b a
Ġf ans
er gy
Ġjew ish
Ġcre ate
Ġjour nal
k en
and er
Ġfight ing
Ġpo ly
m on
Ġchang ed
Ġk r
Ġnews p
Ġcele br
Ġ7 0
Ġbr ad
Ġrun s
Ġstand ard
Ġthem e
Ġepis odes
Ġsold iers
Ġprop osed
Ġgr aph
Ġform s
Ġadmin ist
ous ly
Ġ3 3
Ġconc ern
Ġl iver
at ops
Ġt akes
Ġl ived
Ġcol or
Ġpl ans
Ġp le
om m
Ġatt r
Ġagre ed
Ġshe ll
Ġart ist
Ġinflu ence
m as
Ġlaun ched
Ġcommit te
Ġl ady
Ġindepend ent
p ool
Ġmov ement
Ġmean ing
Ġsing les
Ġb ud
ur ity
Ġy our
Ġacc ess
et ic
ch ange
Ġbr ing
c ing
te en
Ġscre en
Ġb ound
Ġcaliforn ia
Ġincre ase
Ġconst it
Ġr at
Ġg i
Ġass igned
Ġl if
ill ery
Ġquick ly
is ions
Ġmo le
Ġcomp ared
Ġre ach
Ġmin ute
Ġcath olic
ac hes
Ġtradition al
land s
Ġc ra
Ġtr ue
Ġart illery
Ġdeter m
Ġre in
Ġsp ir
Ġsix th
and on
Ġchic ago
Ġtre es
Ġoccur red
ou th
Ġdou ble
Ġv ot
Ġvill a
Ġsy n
Ġme ant
Ġhe re
e th
Ġval ley
Ġc rick
ac ing
Ġins ide
Ġfoc us
Ġhosp ital
Ġth ings
Ġle ave
ic ated
Ġit al
Ġ4 00
Ġen s
ic ted
Ġen v
Ġcor ps
Ġrev olution
Ġdestroy ed
Ġdefe at
Ġser ious
Ġrequ est
um n
Ġvict or
Ġserv ices
Ġph ot
Ġl atin
g ing
Ġinvest ig
Ġappe ars
Ġ3 2
Ġspe ed
Ġf ol
Ġn ix
Ġcondom s
Ġd one
Ġ ign
Ġconsid er
Ġlong er
Ġschool s
Ġsc hed
Ġarch it
Ġt ons
Ġk ick
Ġcontem porary
Ġac qu
Ġaward ed
Ġas ked
Ġent er
Ġ194 0
Ġal ice
ort un
Ġcomple x
Ġarchit ect
Ġsour ce
Ġsc ot
b ar
Ġh und
Ġhund red
Ã³ n
Ġcar ried
Ġsome thing
c a
Ġa w
Ġp urch
p re
Ġrap id
Ġdaugh ter
Ġinit ial
Ġbe at
Ġh orn
n y
Ġc and
Ġcycl one
Ġprote ins
Ġf ow
Ġwrit ers
Ġpro gress
Ġend ing
Ġbuild ings
Ġb ul
Ġcondu cted
Ġ199 8
Ġ3 00
Ġdis m
Ġmar riage
Ġm as
Ġanc ient
Ġth ick
Ġsim p
Ġdist rict
Ġtwent y
Ġann ual
Ġstat us
Ġpol ish
Ġassoc iated
Ġp ath
Ġ9 0
Ġburn s
Ġemp ire
Ġ ess
Ġf ant
Ġacc ount
Ġ193 0
Ġch all
Ġafric an
Ġs av
Ġste p
Ġim age
Ġth row
Ġmin ister
Ġal kan
Ġr am
oc ks
Ġmar ried
Ġun able
Ġcons erv
Ġcon ference
Ġcomment ed
l in
it ation
Ġ199 3
it ude
Ġalbum s
Ġhus band
Ġindivid ual
Ġfl ow
he t
Ġsp ring
Ġd ra
Ġnum erous
Ġt ay
Ġ +
Ġb ank
Ġb ol
Ġim ag
Ġscen es
Ġnix on
Ġcast le
ro om
Ġliver pool
it or
u f
Ġh abit
an as
Ġch ann
Ġposition s
Ġcro wn
t ar
Ġan th
Ġproduc er
Ġsom ers
Ġo w
Ġinsp ired
e e
Ġche m
itt ing
Ġmanag ement
ct s
ist ics
olog ist
an ced
Ġ4 7
Ġte xas
Ġattack s
ch an
Ġtrack s
Ġsaf e
Ġiss ued
ve y
Ġ3 9
Ġter ms
ail y
oun ts
Ġp ul
Ġrec over
Ġpol ic
Ġsomers et
Ġun li
Ġear ned
Ġbeg ins
Ġdef ense
Ġwat ers
d ing
Ġsl ight
ro s
Ġpian o
Ġmos ley
Ġde pend
Ġdirect ly
Ġpl anned
Ġg iving
Ġcon ver
Ġmark ed
Ġvar iety
Ġfr anc
Ġd aily
Ġdef end
Ġadv ance
Ġport ray
Ġ199 6
Ġfig ure
e y
Ġdoc ument
Ġbab y
Ġed ge
Ġb id
Ġbus ch
Ġb on
Ġp ict
all ed
r at
ur s
augh t
Ġchrist mas
Ġv ia
Ġnucle ar
Ġp ick
Ġimmedi ately
Ġcommitte e
ad a
Ġhistor ical
yl v
and s
Ġper fect
Ġy ellow
Ġperform ances
Ġexper i
Ġact or
Ġadv ent
Ġth under
um ed
Ġco ach
Ġtay lor
Ġorgan ization
ad o
Ġspan ish
Ġmet al
Ġdr um
Ġcol d
ath an
Ġs we
Ġn est
Ġtrans l
Ġconf l
h ouse
Ġf ell
Ġb or
Ġab andon
ru ction
Ġhel ped
Ġpar is
Ġcomb at
Ġk ind
p a
Ġsov iet
ber y
Ġfow ler
Ġmult ip
Ġw ound
Ġth ir
Ġre ar
Ġsuff ered
Ġfin anc
Ġcl osed
Ġrh y
r ical
Ġc row
Ġlead ers
Ġs out
Ġcas ual
Ġn ation
Ġpres ence
Ġus es
b ury
Ġcontro vers
Ġu t
Ġnear by
Ġmiss ion
ce nd
if y
Ġb ass
Ġfeder al
Ġra ised
Ġg ard
l s
ib ly
Ġg h
Ġb ond
Ġ id
Ġpresent ed
Ġre ally
om et
Ġcult ural
Ġj ane
Ġbe ach
Ġst ad
and ed
Ġwe ap
Ġma xim
Ġpe ace
Ġpre c
Ġm un
Ġr if
Ġp aper
Ġcontin ue
Ġvoc als
Ã¡ n
Ġcover ed
a ult
Ġru le
Ġ4 2
Ġcomp osed
Ġprinc ip
Ġhand s
er ve
Ġsp ort
in ent
Ġattempt s
Ġcarol ina
Ġpenn s
Ġpenns ylv
Ġsym b
Ġfig ures
Ġfru it
Ġvirgin ia
Ġinc or
Ġen j
Ġex tended
Ġpre p
en ing
Ġs ir
Ġcour se
Ġbel ow
Ġsho ot
d a
Ġth r
che ster
iam i
Ġsele cted
Ġoffic er
Ġat tend
Ġas pect
Ġpur p
Ġb ed
Ġpl ant
Ġs ac
stand ing
im ony
Ġvoc al
Ġbl ock
y r
Ġf iction
Ġdis e
Ġcan c
Ġbod ies
Ġrel ief
Ġassemb ly
Ġme yer
ess a
Ġhig her
Ġp s
Ġappear ances
Ġ199 7
Ġsp orts
Ġm ile
Ġf ill
Ġhy d
Ġbey onc
Ġbeyonc Ã©
Ġte xt
Ġneed ed
Ġne cess
pt ed
Ġj ose
Ġe ye
Ġcount ries
Ġsex ual
Ġh our
u ing
ur ies
Ġd a
an i
ant a
Ġse arch
Ġoff ensive
Ġro ugh
Ġr is
Ġgerman y
Ġm iami
Ġprote in
Ġre ject
Ġhigh ly
Ġsit uation
Ġar ts
Ġpl aces
Ġpare n
Ġal tern
Ġanal ys
Ġ4 4
in y
Ġpower ful
Ġext re
Ġcomp l
ol f
Ġcad m
Ġdist ance
Ġm is
Ġf air
Ġallow ing
Ġh u
Ġsil ver
Ġstreng th
Ġbo b
Ġcomed y
Ġent ertain
Ġcl im
Ġfest ival
Ġem per
Ġrec ent
g al
Ġattack ed
Ġc ab
ag ing
ap o
Ġn ico
Ġsom al
Ġsing er
Ġgovern or
Ġw a
Ġlab or
Ġt on
Ġsh r
rib ution
Ġr ate
i ate
Ġconf ir
Ġpennsylv ania
Ġk a
Ġb ell
p ole
v ement
k el
Ġcadm ium
Ġed ition
Ġfore ign
Ġadv ant
Ġremov ed
Ġwid ely
Ġjack son
Ġnorth west
h old
is her
Ġres c
ap ed
is ation
Ġacad emy
Ġinter se
ru ct
Ġmod el
Ġmov ie
tr ack
Ġen ergy
Ġoff ered
Ġb ene
le g
Ġact ive
Ġlevel s
Ġgen us
r ate
Ġl ot
Ġ5 1
ic ation
Ġrem ix
Ġscot land
Ġme ans
Ġpr ince
Ġtheat re
Ġpeak ed
Ġsound track
Ġj im
Ġcop ies
av en
Ġcomb ined
Ġm ess
Ġattempt ed
Ġrespect ively
Ġth ous
Ġopp ortun
Ġsc oring
Ġquest ion
Ġ18 2
iz ing
Ġ199 1
Ġtyp ically
Ġmeet ing
Ġchr is
ã ĥ
ter ed
Ġthem es
Ġexp ress
ic ient
h ood
Ġs ister
ab or
Ġre form
Ġrespons ible
Ġenv ir
Ġc ert
Ġch ina
Ġf ish
Ġstad ium
Ġtouch down
Ġk ak
h ic
for ce
Ġactiv ities
o pe
Ġfam il
Ġisland s
Ġand erson
Ġale x
Ġset s
Ġdescrib es
Ġd ress
Ġobs erved
Ġf ast
Ġcand id
se nd
Ġs ales
Ġinst r
Ġenj oy
Ġve hic
Ġwin ter
Ġmat ches
Ġimp act
Ġ199 2
Ġform ation
Ġre ign
Ġheav ily
Ġhous es
Ġaud ience
Ġbra at
Ġlook ing
Ġactiv ity
Ġent r
Ġ199 4
Ġparen ts
Ġright s
h l
Ġst ra
Ġredu ced
Ġsu c
Ġd ream
an es
ell ig
Ġdef ence
Ġchr onic
Å į
Ġcar ry
Ġarm ed
Ġqu ality
Ġresp ond
Ġl ie
Ġresul ted
Ġmin nes
Ġminnes ota
Ġ7 6
Ġ4 8
Ġnort heast
Ġdom est
Ġ3 7
Ġconclud ed
ul ations
Ġw ave
Ġcrick et
Ġsm ith
Ġcomplet ely
Ġspir it
Ġhon or
il s
Ġpre par
ur a
Ġreport s
Ġst ating
Ġcall ing
Ġital ian
Ġcontr ast
Ġchann el
u ated
Ġenvir on
us e
Ġres idents
Ġcond itions
ic an
Ġtown send
Ġl is
Ġhaw ai
Ġkak apo
Ġeu rop
Ġsepar ate
Ġreve aled
Ġfeat uring
is l
Ġeff orts
ri al
Ġman aged
Ġj ul
b re
b ed
Ġfol k
Ġint ellig
Ġmeyer be
ath us
Ġrose bery
ã ģ
if t
Ġart ists
Ġspec im
Ġwas h
Ġdesc ription
Ġf at
Ġplay s
k a
oc r
st one
Ġref used
Ġli ber
Ġdecl ared
Ġsh iva
Ġfin als
Ġmeyerbe er
Ġappro ach
ah a
Ġindepend ence
Ġam ount
Ġwe bs
Ġiss ues
Ġthere fore
Ġl ib
ay s
Ġt un
Ġs le
Ġstru gg
Ġem ot
ac her
Ġwal pole
Ġn es
b ird
Ġfin kel
Ġfinkel stein
Ġex pected
Ġcom ing
Ġleg isl
Ġsec urity
Ġnav al
Ġseason s
Ġele v
Ġsu st
p ing
w rit
Ġ15 0
Ġoff er
ing u
Ġc ateg
Ġtit les
an z
Ġemper or
Ġcasual ties
f a
Ġt essa
Ġy ue
Ġtyp es
Ġs ense
i ro
Ġ5 2
ro ad
Ġw ear
Ġword s
Ġmain ly
Ġcon se
in al
Ġbord er
Ġchar l
Ġa ctions
Ġs r
Ġgr ass
Ġwe ather
Ġwe aken
Ġbr anch
f l
e k
Ġill ino
Ġnico le
Ġott oman
us ion
Ġbecom es
Ġill ust
Ġsc ale
Ġatt ention
b l
Ġact ually
Ġdem onst
h m
Ġbeh av
Ġpract ice
ap ped
Ġjo b
Ġexc av
Ġh ors
Ġrec omm
Ġtourn ament
urb an
Ġstru ck
ic ip
Ġc ore
Ġne igh
Ġsub s
Ġspe ct
Ġsc ul
Ġ3 4
Ġr ug
Ġbraat hens
Ġd ang
as y
Ġultim ately
Ġlet ters
Ġman uf
Ġmanuf act
i ber
c ript
Ġcol umb
Ġad vert
ut ions
Ġwrit e
Ġleg al
Ġha it
g u
are nt
Ġact ress
Ġro les
Ġentertain ment
Ġl in
Ġd og
Ġprim arily
ess ions
Ġview ers
Ġl b
Ġj ur
Ġvietn am
Ġs or
on ents
at ives
Ġjohn son
Ġter min
Ġaccept ed
Ġb h
Ġpri est
Ġcann ot
c le
Ġal one
em ic
Ġportug ues
Ġhot el
Ġachie ved
Ġcon g
Ġsequ ence
Ġmo g
Ġb ishop
Ġauthor ity
r id
r ain
Ġele cted
Ġqu al
Ġb ott
m et
al ty
Ġf res
Ġfar m
Ġgu est
Ġf ully
Ġt ree
Ġnewsp aper
Ġportugues e
Ġplan et
Ġrain fall
ens ion
Ġfound ation
Ġcol ony
Ġalong side
Ġincor por
Ġexp ed
Ġsp read
Ġauthor ities
Ġd un
ent al
Ġmeas ure
Ġmom ent
Ġap art
m ond
Ġb at
Ġslight ly
em s
Ġn ick
Ġpr ison
Ġsp ain
Ġ18 1
Ġwork ers
Ġflood ing
Ġant imony
Ġt int
an o
Ġown ed
Ġbatter y
Ġp ound
Ġbro ken
Ġ198 6
Ġocc asion
ber g
Ġtr u
Ġr idge
Ġoper a
onym ous
Ġme chan
op er
Ġd ata
Ġart ic
Ġstand ing
Ġaffect ed
Ġper man
Ġconfl ict
Ġsur re
led ge
Ġlou is
Ġsk in
Ġm ales
ceed ed
Ġtw ice
ogr ap
Ġexp ressed
Ġinc hes
Ġmur der
y a
Ġdomest ic
og ue
o x
Ġconc ent
Ġ ur
Ġfe y
Ġor b
Ġdef ensive
Ġcomp uter
Ġcamp us
Ġw els
Ġs arn
Ġtint in
Ġtit led
Ġofficial s
Ġa id
Ġhistor ic
Ġhe ight
Ġ18 0
ent ed
Ġland s
he w
Ġfly ing
Ġdise ase
Ġbatt les
Ġphys ical
b on
Ġshow ed
g n
Ġapp le
Ġwels h
Ġod a
Ġnes b
Ġad j
Ġdist inct
Ġdire ction
Ġnot e
Ġloc k
d e
Ġand rew
Ġdou b
ast ic
nd s
ig an
Ġto ward
Ġb ull
Ġsp ot
us hed
Ġne ut
Ġw ed
Ġcer em
Ġab ility
Ġenviron ment
ul ed
Ġr id
Ġt a
Ġbar row
Ġz hou
Ġcer es
Ġvar anas
Ġvaranas i
ã Ĥ
Ġd v
Ġf red
Ġco ok
Ġinflu enced
Ġsay s
Ġapp arent
Ġmention ed
Ġd ur
Ġsn ow
Ġelect ron
Ġnesb itt
Ġoda en
Ġadvant age
Ġcontin ues
Ġl ives
u x
ol s
Ġfinanc ial
Ġsit es
Ġearli est
Ġnar row
Ġ4 9
Ġindivid uals
Ġangel es
Ġprop os
Ġcompos ition
Ġcl ar
Ġmo b
Ġact ing
Ġs ides
Ġas h
Ġre pe
Ġenc our
wh ile
Ġprodu ce
Ġ ig
Ġillino is
Ġev a
Ġodaen athus
Ġdum ont
Ġo il
Ġel se
en ant
ac ts
Ġex hib
d on
Ġ192 0
Ġfound ed
Ġsc r
Ġtr y
Ġd ub
Ġtor ped
Ġtorped o
Ġj os
Ġadm ir
ill a
Ġadop ted
Ġjour ney
Ġc ities
Ġsing ing
Ġresult ing
Ġal ab
anc y
Ġolymp ic
Ġj ump
Ġengine er
Ġdig ital
ov ic
Ġd in
Ġsarn ia
Ġmog ad
Ġpot ential
Ġoffic ially
Ġho pe
t a
Ġexe cutive
Ġwithd raw
Ġded icated
Ġbas is
Ġanalys is
Ġ6 5
Ġrepresent ed
Ġstud ios
on na
Ġch air
et ts
Ġsour ces
Ġper Ã³n
Ġpie ce
Ġc it
Ġre act
Ġsurround ing
Ġdo ing
Ġchap el
Ġshe l
Ġcapt ure
Ġlos ing
u ous
t v
Ġi b
Ġschol ars
Ġass ault
Ġcont ain
Ġag ric
Ġman chester
Ġwil hel
Ã ¨
c ul
Ġthunder bird
ill s
Ġeff ort
Ġf aced
g s
Ġext ra
am ing
Ġtransfer red
Ġv ic
Ġwash ington
Ġlet ter
Ġe y
ot y
Ġsp l
Ġrel atively
Ġmaxim um
ell a
Ġd ance
Ġrequ ire
Ġc in
Ġstud ent
Ġbo at
Ġem ph
Ġv ess
Ġmed ical
Ġdr ive
Ġunli ke
Ġat tended
ark ed
Ġtri ed
Ġ198 8
Ġfe ed
Ġorgan ized
Ġpat tern
Ġfem ales
Ġfun ction
ian a
Ġch or
Ġfr ag
Ġcle an
r ane
Ġt rou
Ġold er
Ġagric ult
Ġcomp ound
b our
Ġro s
Ġk ore
Ġfree way
l ings
od on
Ġim per
Ġtar get
Ġpro ved
ad el
Ġjose ph
Ġe at
l ers
Ġg ang
Ġk g
om s
Ġele ment
ul ts
Ġbey ond
Ġmean while
Ġop in
Ġscul pt
Ġalab ama
Ġnot able
Ġom aha
Ġhel ms
Ġmogad ish
Ġ áĥ
st ation
e ch
Ġdiv ided
Ġdeterm ined
Ġchar ge
Ġdesign ated
Ġliter ature
Ġed ward
w ide
og en
Ġsh ape
Ġ6 4
Ġm u
um ber
Ġfl ag
Ġposs ibly
cl aim
Ġbase ball
Ġanim al
Ġim ages
Ġd ie
Ġbelie ve
p o
Ġpr ime
Ġarchae ological
Ġintens ity
Ġk ent
Ġfollow s
Ġc ust
Ġprote ct
Ġchart s
k et
Ġpa id
Ġ4 6
i ations
Ġd raft
Ġwe ight
Ġresul ts
Ġcolle ct
Ġ ic
Ġl l
Ġc ub
Ġpl um
Ġinstit ute
Ġgold en
iz es
Ġdiss ip
Ġl ane
Ġtri p
Ġinn is
Ġmogadish u
Ġcont ent
Ġun kn
Ġvis ual
Ġreturn ing
Ġarm s
Ġsimp ly
Ġhom es
m es
Ġf ix
Ġsupport ing
al ing
Ġe th
im s
Ġrest aur
Ġ196 4
Ġr it
Ġcre ation
Ġemph as
e x
ro ll
Ġarg ent
Ġmic ro
Ġs ens
Ġtreat y
Ġhistor ian
Ġsol o
Ġstruct ures
Ġwilhel m
Ġmcc all
k are
Ġport ion
Ġke pt
Ġequip ment
Ġknow ledge
Ġentr ance
Ġp aint
Ġtechn ology
Ġeconom ic
m ore
Ġm outh
Ġj up
Ġsecret ary
Ġp ine
Ġon to
Ġk ar
Ġproject s
Ġs is
l ied
Ġgrow ing
Ġcon gress
Ġre action
Ġcou ple
u ff
Ġunder ground
ag an
Ġhors es
Ġrug by
Ġplay station
w ise
Ġlead er
Ġper m
Ġdep th
ip s
Ġrail way
Ġfilm ing
Ġmin d
Ġarg ued
Ġgre w
Ġimport ance
Ġweek ly
er o
Ġpromot ion
Ġl am
Ġl es
Ġk it
w here
ed ar
Ġm d
Ġd ar
Ġwebs ite
Ġch os
Ġcritic ism
Ġ5 3
Ġpublic ation
Ġsuggest s
l ies
Ġcurrent ly
Ġsh are
ast y
Ġr ise
Ġbur ied
Ġle ge
Ġland ing
et y
ist ry
Ġmin er
Ġe ag
Ġin du
Ġ5 5
Ġwe ak
Ġbal tim
Ġbaltim ore
Ġr ih
Ġrih anna
Ġham els
Ġt act
Ġg ained
Ġord ers
Ġtr a
Ġcritic ized
Ġvol ume
Ġbel ong
nd ing
Ġjup iter
Ġesc ape
Ġadv anced
p ass
Ġlab el
Ġcaus ing
Ġle w
ac ement
Ġrefer ence
Ġpal est
Ġbreed ing
Ġmus c
er atops
Ġdj ed
Ġmultip le
Ġnew ly
Ġproper ty
pr ise
Ġob t
Ġabandon ed
Ġre aching
ir t
Ġprom inent
Ġin ch
Ġrelig ion
Ġdism iss
Ġte acher
Ġhe ll
Ġclaim s
r ative
Ġcont aining
Ġst ock
Ġdeb uted
Ġdjed kare
Ġen emy
Ġchos en
ot ed
Ġadminist ration
th y
Ġgl ass
Ġa ven
Ġbe aut
Ġo uter
or ter
Ġenc oun
Ġperson nel
Ġ5 6
az z
Ġdef in
Ġfa ith
Ġb it
Ġthe ory
Ġ194 7
Ġcol umn
Ġvol un
Ġh ib
Ġtor res
Ġgrant ed
Ġreject ed
j o
Ġde ploy
Ġ4 3
Ġyou th
Ġk ings
Ġconse cutive
Ġcas es
Ġj on
Ġsh ar
Ġm ut
Ġcell s
Ġunkn own
Ġtown s
Ġstri ke
Ġ12 0
Ġseem s
Ġa head
Ġcommon ly
et te
Ġcon ne
Ġc art
Ġf it
Ġchap ter
Ġcond ition
Ġat m
Ġvis ited
Ġ194 1
Ġstra ight
Ġcor re
Ġe ll
ograp her
Ġscott ish
e z
Ġco al
ul ate
Ġsecond ary
Ġde ities
Ġdr am
Ġincreasing ly
Ġsett lement
Ã ¼
Ġcra zy
Ġcomp ar
v in
Ġapple wh
Ġapplewh ite
Ġgrow th
Ġar rest
Ġan onymous
Ġsystem s
Ġproble m
e es
Ġvers ions
Ġdv d
Ġpass ing
adel ph
adelph ia
Ġ iv
Ġe t
Ġatm osp
ap pe
Ġ198 7
m al
Ġsecond s
Ġsen ior
Ġb c
Ġl u
Ġt el
Ġident ified
Ġbro ke
Ġwound ed
Ġfranc is
Ġtr ain
Ġma x
Ġreg ions
Ġtr uth
Ġsur vey
Ġris k
Ġy e
Ġnomin ated
Ġtemper ature
Ġb bc
Ġh aven
Ġun ique
se y
Ġfant asy
it able
Ġs ave
Ġoper ated
Ġth ing
ad s
Ġun f
Ġh art
Ġegypt ian
Ġg reek
Ġpromot ed
Ġphil os
Ġr ing
Ġkill ing
Ġtr ust
Ġk ir
ush ing
i ke
Ġcr us
Ġagre ement
Ġno thing
Ġ198 9
Ġc ry
Ġf ired
Ġmi ke
Ġro d
Ġfam ous
Ġ urban
Ġroad s
Ġ4 1
Ġf ash
Ġ198 4
Ġcroat ia
Ġst ations
Ġr ub
Ġav oid
l ines
Ġ197 2
Ġs elling
Ġmot or
Ġaccom pan
Ġopp osed
Ġapp lic
i ant
ou red
Ġa ired
Ġcar l
Ġf ame
Ġdet ect
Ġsl am
Ġprem ier
Ġar c
Ġod e
Ġser ve
Ġ5 4
Ġ198 5
Ġcho ice
Ġmem orial
Ġsw ed
Ġcontroll ed
Ġvir t
Ġbar b
Ġanim als
Ġra id
ord in
Ġb a
am ic
Ġco ol
Ġm att
ab b
Ġstreng t
ain e
as c
Ġm ig
at i
Ġl uc
Ġc amb
Ġcomp r
Ġb ern
Ġpoet ry
Ġsem i
Ġch ur
igh th
Ġf al
Ġst an
Ġsubsequ ent
Ġcrow d
Ġver t
Ġdr ama
Ġs in
Ġbo ats
Ġwor ship
Ġmy th
Ġide as
Ġinter change
Ġad ult
Ġh ms
Ġd w
r is
Ġwrit es
Ġspe ak
Ġfilm ed
Ġgr am
Ġexpl ained
st ream
Ġconfir med
Ġcard iff
Ġres erv
Ġcou gar
Ġweap ons
Ġtri al
Ġcons isted
Ġrapid ly
Ġfamil ies
Ġreg ister
Ġher self
Ġ194 4
Ġphil adelphia
Ġb ru
Ġmich igan
Ġsu nd
Ġg ives
Ġregard ed
Ġv ul
Ġm and
Ġjo int
Ġpie ces
Ġbr ight
Ġinv asion
Ġland fall
Ġpit ched
Ġke ats
Ġch ains
aw a
Ġaspect s
Ġa i
Ġr y
um es
Ġdel iver
Ġ13 0
y ch
Ġt ail
Ġval ue
Ġex tend
Ġinj ury
Ġdro pped
Ġtrans it
Ġhigh light
Ġfail ure
Ġsev enth
Ġmin im
Ġhum ans
Ġmaint ained
Ġres emb
Ġsu d
Ġd ry
ro l
ill o
Ġm ir
re y
Ġkil omet
Ġact ors
Ġprem i
i qu
Ġwilliam s
Ġg ord
Ġmus h
Ġbattal ions
Ġb ats
is hes
en ge
Ġo h
Ġext ensive
in ity
Ġprep ared
Ġret ired
Ġg ulf
Ġph ase
Ġro t
ful ly
Ġ5 7
Ġste am
h u
Ġbelie f
Ġprov ince
Ġfun g
Ġf ict
Ġdut ch
Ġwh y
Ġpen ins
Ġsout heast
Ġcreat ing
Ġb es
Ġmat ter
ot e
Ġsust ained
Ġje ff
Ġste ve
ir ing
Ġ ice
Ġfl ank
Ġconnect ed
Ġsignificant ly
j a
Ġd ial
Ġprote ction
Ġfl u
Ġ6 00
Ġit aly
Ġm ist
Ġsk y
Ġg ain
Ġla id
Ġa ri
Ġd rop
Ġl ov
Ġconc er
l a
Ġh at
Ġmed ie
Ġmedie val
Ã ¶
Ġsouth west
Ġand y
Ġab u
Ġn athan
Ġad apt
Ġameric ans
Ġbud get
Ġwall s
Ġper h
Ġsupp ly
Ġlie ut
clus ion
Ġrecogn ized
Ġsched uled
Ġfac ilities
he as
Ġr ival
Ġfin ds
Ġfind ing
Ġproduc ers
Ġw olf
Ġbas ket
Ġtr ail
Ġpass es
Ġchamp ion
Ġmush room
Ġig uan
ic ed
Ġco oper
Ġnecess ary
Ġsurre nder
Ġperh aps
air s
Ġpopular ity
Ġdel ay
Ġconserv ation
Ġth in
ar ia
Ġstart s
Ġref lect
Ġch ose
Ġs ought
Ġfres h
Ġdist ingu
Ġpow ers
Ġg as
Ġwar s
Ä ĩ
Ġintellig ence
Ġmon ument
Ġrec onst
Ġsurv iv
Ġst ones
re te
Ġg ab
Ġnucle us
cher s
ames e
h i
Ġcom ic
hel ess
Ġloss es
Ġf ought
Ġcon sequ
Ġrec ently
Ġ9 6
m ark
Ġhouse hold
h ire
ol ved
Ġso ft
Ġph o
k in
Ġ198 1
f ort
Ġtreat ment
Å ¡
app ing
Ġfrequ ently
Ġun us
Ġc ited
ell er
Ġpolic y
at o
Ġexe c
Ġgener ation
Ġcl ou
n i
Ġal tar
Ġr ating
is y
Ġw rest
Ġvietn amese
Ġgrad ually
Ġk ur
Ġse g
Ġlib r
Ġemploy ed
Ġd ated
if ying
Ġbott om
Ġj es
Ġend s
Ġdeg ree
al a
Ġregard ing
Ġs ap
Ġmot ion
Ġco le
ap es
e ter
Ġn az
Ġconstit ution
Ġthunderbird s
Ġcamb od
Äģ da
al le
Ġf ellow
an ks
Ġatt or
Ġte nd
Ġcom es
Ġsh aped
Ġgr ay
Ġdist ribution
Ġindust rial
Ġ17 9
Ġ7 00
Ġcont ained
h an
Ġpre fer
olog ists
on ent
Ġcolle cted
Ġpil ot
Ġsaf ety
Ġ193 9
Ġox ford
heas tern
Ġext r
Ġpenins ula
Ġche l
à ¸
ed a
Ġgame play
Ġserv ing
Ġimpro ved
th ur
Ġ194 2
Ġst ore
Ġsim ple
im ents
res p
Ġe ld
Ġworld wide
Ġm it
Ġhabit at
Ġqu e
Ġk en
Ġwin s
Ġv ice
Ġo pt
Ġast ron
Ġpl ate
Ġjo in
Ġneg ative
Ġfash ion
Ġg ra
Ġe gg
Ġallow s
Ġsever e
Ġdem ocr
Ġun su
se a
Ġcont ributed
Ġathlet es
bor ough
Ġmac le
Ġgord on
Ġswe et
Ġk ang
Ġf an
Ġport ra
Ġsy nt
ans as
Ġne ither
Ġlieut enant
anc ing
ack s
Ġelect ric
Ġ191 8
Ġinc ident
Ġun s
Ġfr ame
Ġear n
Ġcommission ed
Ġ7 3
o ys
Ġeconom y
Ġsol id
Ġcin em
Ġin g
Ġs ie
Ġkn e
k ins
iv ity
Ġdyn asty
Ã ¤
Ġle v
Ġchampionship s
Ġeffect ive
Ġentire ly
Ġfict ional
Ġwit ness
w in
Ġmart in
Ġ9 5
Ġprogram s
Ġturn er
Ġn ba
Ġ6 1
Ġh ip
Ġconc rete
Ġvolun te
Ġa ston
Ġlis a
Ġimper ial
Ġexp anded
Ġex clus
Ġh ind
Ġ6 2
Ġc av
b urg
Ġfl oor
Ġ196 8
Ġrese ar
o ch
Ġp ap
Ġneg ot
Ġbo ston
ic ks
Ġst ages
Ġcent uries
Ġnorm al
en a
Ġslow ly
Ġ8 00
il ed
Ġfe ar
Ġdra wn
Ġmar io
Ġ9 7
Ġreason s
Ġset ting
Ġtrans m
Ġmus lim
Ġlew is
Ġit ems
Ġd ates
Ġtur k
Ġkilomet res
Ġch am
Ġearth qu
Ġ196 9
Ġcan al
Ġsent ence
Ġbo ise
Ġj ain
Ġeurop ium
Ġocc as
Ġexped ition
Ġchem ical
Ġdec ades
Ġso le
are t
Ġplan ning
Ġb art
u le
Ġchor us
Ġj ac
ly wood
Ġmun icip
Ġdeath s
ay er
Ġf el
Ġdec ade
r um
Ġexperi enced
Ġrough ly
Ġp oll
r ang
Ġdan iel
Ġn c
Ġup d
Ġgl ob
Ġt all
Ġcont est
Ġ197 5
Ġju an
Ġruss ian
ren ce
Ġg ully
Ġd ota
Ã¡n h
out s
Ġbene f
Ġappe al
Ġorgan iz
Ġeven ing
Ġaven ue
Ġgirl s
Ġey es
Ġgre g
Ġpo pe
Ġg il
c ription
ograph ic
Ġc d
Ġoccup ied
Ġg ross
e v
in i
Ġple as
Ġall ied
Ġfir m
ok ed
Ġoccasion ally
Ġdid n
Ġeng aged
Ġ8 5
Ġtransport ation
Ġh in
Ġ7 2
c hen
Ġmass ive
Ġter ror
Ġauth ors
Ġ197 4
Ġt s
Ġ196 5
Ġev ita
br idge
i ences
Ġk its
ys on
Ġqu ite
Ġad ap
Ġspe aking
ad ing
Ġplat form
Ġsuccessful ly
Ġpurch ased
Ġsum m
Ġlo y
ann y
m ans
Ġchur ches
Ġdis appe
z er
Ġaddition ally
ol a
c y
Ġho ly
Ġa u
Ġcont act
Ġis ol
Ġse ctor
Ġrec re
id er
sh ire
c an
Ġdoll ar
Ġviol ence
Ġis ab
Ġ8 1
Ġed itor
Ġh ug
ubl in
u ate
act ive
Ġkh Ã¡nh
ing ly
t own
Ġbro ok
Ġne ck
o ir
Ġm erc
Ġ7 1
ist an
h ar
Ġwed ding
Ġbr id
Ġ9 4
Ġdecl ined
Ġr on
Ġw ides
Ġh an
Ġr ivers
and a
Å Ĥ
op es
am y
Ġw ick
Ġjam al
Ġrom e
Ġ16 4
Ġli u
Ġm ap
Ġdet ails
Ġpurp ose
Ġprot agon
Ġar sen
Ġperman ent
Ġattor ney
Ġbrief ly
Ġsub m
Ġpaint ings
Ġ194 6
Ġc ul
Ġstre t
Ġd rew
Ġel imin
ar ian
Ġown ers
Ġb rian
s w
Ġaccom pl
Ġb le
Ġexper iment
Ġcor por
Ġ16 0
Ġass ass
Ġhe m
Ġpu pp
Ġd ip
Ġlong est
Ġcateg ory
av a
Ġbeg un
Ġlearn ed
Ġs ail
Ġarr ival
Ġpolit ics
Ġrem n
Ġmar l
Ġd ublin
ly ss
Ġmacle od
Ġtenn yson
Ġpar alle
Ġmov es
Ġz one
Ġthir ty
oc ated
Ġinter ior
Ġpubl isher
Ġtechn ical
i as
Ġadd ing
Ġinstr ument
Ġc os
Ġperform ing
Ġa im
Ġh ang
Ġbill ion
Ġcr ime
Ġapp lied
ul i
ri en
Ġbra z
Ġl ic
Ġgu ide
y c
Ġhyd ro
Ġposs ibility
Ã© t
Ġmar ine
Ġliter ary
Ġle on
o be
el a
Ġbas in
Ġsett lers
Ġacc ident
Ġgr av
Ġsim one
Ġal le
Ġp ric
Ġenjoy ed
Ġac res
Ġrespond ed
Ġdo or
Ġ193 6
Ġdiscover y
Ġcor resp
Ġcorresp ond
n s
Ġh ired
Ġ191 9
Ġfre ed
Ġparticip ated
Ġ195 2
Ġdevelop ing
Ġro of
Ġmar ia
Ġaw are
Ġcont rib
Ġs ar
ut ation
Ġhapp y
Ġ #
Ġsymb ol
es h
Ġhead s
Ġform ula
Ġaccompan ied
Ġcall s
e ction
Ġfield s
Ġearthqu ake
Ġ196 6
Ġk at
Ġro utes
Ġph ill
Ġgu y
ff man
Ġjust ice
Ġl it
ut ing
Ġhe ard
as er
het ic
Ġold est
m un
Ġrein force
Ġf uel
ph y
Ġon es
os es
is ers
Ġpain ting
r ons
Ġh ung
Ġchar ter
Ġclub s
Ġcomb ination
Ġexist ence
Ġengine ering
Ġbrother s
Ġ11 0
ok es
Ġinit i
on a
Ġcharacter istics
Ġmar sh
Ġexist ing
Ġcompet itions
3 0
Ġal bert
ru pt
ÃŃ a
Ġste w
b led
Ġanth ony
Ġdec re
Ġmo on
ri er
Ġbel t
Ġn om
Ġpop ulations
Ġ17 7
Ġu lyss
Ġulyss es
v o
Ġmar c
Ġgo es
che st
Ġ7 7
y cl
Ġdou gl
Ġk el
Ġ197 3
Ġbi ography
Ġfund ing
Ġopportun ity
Ġcons ists
Ġpro s
Ġcard inal
pt y
Ġres erve
ak ed
Ġmag ic
Ġs id
Ġthous ands
Ġle ar
Ġwides p
Ġwidesp read
Ġsub mar
Ġd ock
Ġd ru
Ġtyp ical
Ġreview ers
Ġcar ib
Ġcoast al
Ġgre y
Ġlast ed
ic ations
Ġyoun ger
Ġdomin ated
ich ol
Ġf ount
Ġturk ish
Ġgreat ly
Ġt ask
Ġch ance
j i
Ġreal ity
Ġwat ch
Ġvehic les
Ġsu pre
Ġr um
Ġsubst ant
Ġdep ict
wor ks
Ġrece iving
id ay
Ġc aught
at us
Ġclos ely
ess ed
Ġstop ped
c ome
Ġexp ans
Ġcon vers
Ġmiss ing
Ġse at
Ġgeor g
w ater
Ġ5 9
Ġb ath
Ġturn ing
Ġcap able
Ġevery thing
Ġhorn ung
Ġover se
us al
Ġclass ic
ist on
Ġcru iser
Ġmount ains
Ġtechn ique
Ġany thing
Ġweaken ed
Ġunsu ccess
Ġcerem ony
j am
Ġus a
Ġhold ing
Ġj azz
Ġm ine
Ġres ident
Ġ196 7
m el
Ġt able
Ġdes cend
Ġleg acy
Ġev ac
Ġrail road
Ġ6 6
Ġtell s
Ġassist ant
Ġastron om
r ig
Ġinsp ir
Ġjo y
it ors
is f
Ġrestaur ant
Ġ9 8
Ġ191 4
Ġcreat or
Ġhead ed
Ġsimilar ly
Ġrul es
Ġdecl ine
Ġmy c
ion e
Ġban ks
Ġserv es
il es
Ġprov ides
Ġder ived
Ġcour ts
ag re
Ġcarib be
Ġstory line
Ġj ers
Ġ17 5
a ire
in n
Ġam l
Ġmon arch
Ġac id
Ġcolon ial
Ġm ul
Ġno isy
Ġiguan odon
Ġdown lo
pect ive
ent ially
Ġor chest
Ġdougl as
Ġsupp osed
Ġclass ified
Ġs ort
Ġsuff icient
Ġinv ited
Ġb ought
v ens
Ġd iam
Ġs ed
s et
Ġpal ace
Ġloc ations
ific ations
Ġhill s
Ġin ner
Ġpr in
ag n
Ġbattles hip
Ġdiv ers
Ġhy p
Ġfill ed
Ġphilos oph
Ġroll ing
b ody
Ġflight s
Ġsurv ived
Ġgr ade
Ġcaribbe an
Ġfall s
Ġres our
Ġpit ch
Ġread ing
Ġp up
Ġview ed
Ġcol our
Ġinn ings
Ġdissip ated
Ġchel sea
Ġcust om
Ġsh ared
Ġway s
Ġv ision
Ġestablish ment
Ġcolon el
Ġatmosp here
Ġacqu ired
Ġsh ore
Ġrece ive
Ġreb u
Ġtr ying
Ġrhy th
Ġw y
Ġr ural
Ġro c
Ġo ri
Ġdo ct
Ġd im
Ġ197 1
Ġev il
Ġc rop
Ġdescrib ing
Ġsc he
Ġopin ion
ab il
Ġeag le
Ġrepe ated
Ġnov els
Ġ194 5
Ġrat ings
Ġwat ched
Ġg ate
Ġs ang
Ġali en
Ġs ara
Ġex act
Ġj ay
Ġelectron ic
Ġas ia
Ġpu zz
Ġconstant ine
Ġdest iny
Ġgeor gian
Ġper ry
v ar
Ġhib ari
z ac
Ġma eda
Ġturn s
Ġcr imin
Ġmy ster
Ġent ry
ac ity
Ġp ack
Ġle e
Ġdem and
Ġ25 0
Ġconver ted
am ents
Ġlibr ary
Ġf ine
Ġam ate
Ġmod er
Ġte aching
Ġpri ze
Ġj ones
Ġsim on
Ġreg ional
Ġe ighth
Ġr Ã©
Ġpho en
Ġpen alty
Ġste el
Ġres ist
Ġps ych
igh ter
Ġwhere as
Ġlege nd
Ġv on
Ġoppos ition
Ġs ad
ak a
Ġp av
Ġ198 2
Ġbo ys
Ġmort al
Ġm tv
Ġex erc
Ġ17 6
Ġos lo
Ġsp acing
Ġq edar
Ġr io
Ġroman i
Ġever gl
Ġevergl ades
r uli
Ġfr anch
Ġengine ers
Ġt as
Ġarrang ed
Ġrec ru
Ġfoc used
if ul
Ġen l
Ġren amed
Ġexp os
bo ok
Ġ191 6
Ġassist ance
Ġfin ish
Ġent ering
Ġhait i
Ġexpl os
iv ered
Ġven us
Ġd ating
ad or
Ġl ad
it an
Ġd od
Ġsuc ceeded
Ġdep icted
Ġkne w
cept ion
Ġresc ue
Ġbraz il
Ġ195 6
est one
Ġprov iding
Ġ191 3
Ġunc le
iss ance
v is
Ġpre gn
i ot
Ġlo ver
pt on
Ġ197 6
Ġmo z
Ġpoem s
Ġun re
Ġconsist ing
Ġatt ached
Ġartic le
Ġcit iz
Ġcon qu
er ick
Ġ194 3
Ġdisc ip
Ġor n
Ġag ent
Ġt ied
Ġcred ited
Ġstr ateg
Ġadd ress
Ġsupp lies
Ġdel ivered
Ġrom antic
Ġsepar ated
Ġpart ners
m at
ard o
Ġcert ified
Ġdist urb
Ġgh ost
ian ce
Ġdef ined
s p
Ġsie ge
il ton
Ġmethod s
Ġreg ime
Ġref le
Ġhold s
Ġtown ship
Ġimm ig
Ġ11 2
Ġcred its
Ġcamp s
Ġcommun ist
Ġbasket ball
Ġtom b
a res
Ġl enn
Ġadap ted
b les
ust ed
rop ri
Ġdep os
Ġcivil ian
Ġpr int
Ġste vens
b ur
n ell
Ġsec ure
Ġpo le
Ġathlet ic
Ġout standing
Ġrare ly
Ġsud den
Ġexam ples
Ġdes ire
Ġhe ar
um a
Ġcondu ct
Ġcommand ed
Ġhin du
ie ce
Ġjers ey
ub e
Ġ196 3
Ġcontrovers y
Ġ8 7
Ġmor rison
Ġh its
Ġcon ve
Ġrang ers
Ġp att
Ġdin osaur
Ġprofess or
Ġcolon ies
ed s
Ġsele ct
Ġclass es
Ġmiss iss
Ġmississ ipp
Ġremain der
Ġar thur
Ġwind ow
Ġwal ter
p any
Ġle aves
Ġpl ain
Ġpre y
Ġfin ishing
Ġcolumb ia
Ġv oy
Ġs ight
Ġprote cted
Ġhol lywood
Ġrep utation
Ġshoot ing
Ġalex ander
Ġrefer ences
Ġrit ual
r ont
att le
Ġtrans form
Ġre ne
Ġcirc um
Ġso il
Ġu til
Ġacc ounts
i ar
Ġn ic
Ġindic ate
Ġtru j
Ġsp in
n o
Ġaustral ians
g Ã©
Ġel iz
Ġportray ed
ob a
Ġfount ain
Ġsund ay
Ġarchae ology
Ġbrad ford
Ġmont ana
Ġn as
Ġut c
Ġche ss
Ġmiss ions
Ġoccur s
Ġmem ory
Ġsynt hes
Ġden ied
Ġunder t
Ġpur s
Ġ195 3
Ġproduc ing
Ġthreat ened
Ġv ent
Ġwor st
em an
Ġwar m
ame ter
Ġon line
Ġtest s
Ġdiv ine
c on
man n
Ġsou l
Ġl at
t ure
Ġintrodu ction
Ġspecific ally
Ġcroat ian
Ġstrengt hen
op her
Ġchair man
Ġfac ing
Ġagricult ural
Ġappo int
Ġtruj illo
or a
m od
Ġ197 8
Ġfeel ings
Ġmary land
Ġheart s
Ġan zac
Ġpred e
Ġget ting
Ġmas ters
Ġr and
Ġn one
Ġnot ing
Ġfeel ing
Ġconne ction
Ġpass age
Ġmississipp i
Ġfavor ite
Ġstud ied
Ġsw ord
Ġscient ific
Ġex pect
Ġsam uel
Ġdiv isions
Ġan ton
Ġrepl ace
Ġwood en
Ġaltern ative
Ġstep hen
k h
Ġappear ing
Ġinterest ed
Ġrecogn ition
ot hes
Ġcommun ities
Ġview s
in ary
Ġact s
i ents
ell i
ag ues
Ġsuccess or
Ġsubst it
Ġa x
Ġstr and
Ġlead s
ent ions
Ġstat ement
Ġoff ense
Ġste f
Ġind ig
Ġex it
Ġcharl ie
o e
Ġal an
Ġâ Ī
ĠâĪ Ĵ
Ġb os
Ġlab our
Ġhom er
d al
Ġro xas
Ġspe ech
r ant
Ġun p
Ġarsen al
Ġsupre me
Ġmess age
Ġrif les
r ations
Ġprincip al
er ted
Ġmar g
Ġ191 5
Ġpict ure
Ġwr ong
Ġgall ery
Ġsee ing
ur i
bre ak
Ġmaint ain
Ġdismiss ed
Ġbas ic
Ġreview er
Ġhow ard
Ġnet her
ruct ure
pp ing
Ġdoll ars
Ġ6 9
Ġc ens
e f
Ġkn ight
Ġn bc
Ġglob al
Ġdu ke
Ġwar ri
Ġbr and
Ġbi ographer
Ġ ern
Ġlord s
g ie
Ã ¸
Ġactiv ision
Ġpl unk
Ġchang ing
Ġcap acity
Ġenter prise
Ġpl ants
Ġspecim ens
ond er
Ġcontin uing
Ġatt ributed
Ġnin th
Ġs i
Ġkn ots
Ġs ell
Ġve get
Ġret ire
Ġtw el
Ġtwel ve
Ġdiscuss ed
wor th
Ġchar ges
ac ent
Ġacad emic
or ters
Ġopp onents
Ġisab ella
Ġinvol vement
Ġconsider able
Ġdraw ing
Ġpur su
o z
aw s
Ġextre m
Ġtrib es
Ġt ie
Ġcal vert
Ġprede cess
Ġdifficult y
Ġdang erous
Ġfl ash
ag a
Ġsome one
Ġ9 1
Ġmar ks
Ġ189 0
Ġ191 7
Ġsev ent
Ġt aught
Ġ194 8
Ġchall enge
Ġd na
Ġex change
ot es
Ġsh ut
Ġoff ers
Ġtow ers
Ġs ession
Ġsett le
n ic
Ġt ig
or er
Ġ7 9
Ġwor th
os is
Ġ7 4
art s
e enth
Ġrul ed
t ic
Ġstand ards
Ġp ale
Ġforest s
Ġh ud
Ġschol ar
Ġcr ash
Ġpro se
Ġthe ater
Ġle uk
Ġv ary
Ġadvent ure
Ġsara je
Ġsaraje vo
Ġwe alth
Ġclar ks
Ġd anny
Ġrele g
Ġy ank
Ġin land
u ct
p us
Ġkits une
Ġsub t
Ġf ab
Ġfred erick
Ġdem ol
ou l
Ġguard ian
Ġfac es
Ġvictor ia
Ġsign ing
Ġcamp b
u it
Ġ8 8
eng ers
Ġman ner
Ġsuper ior
Ġabs or
id den
Ġprodu ct
Ġexcept ion
Ġspl it
Ġemot ional
Ġ197 9
Ġ195 1
Ġtal k
r am
f ri
Ġan ne
Ġlaun ch
Ġrock y
Ġyank ovic
Ġs her
Ġthe r
Ġal g
Ġc ory
Ġj if
Ġn ap
un ion
Ġg ather
Ġ195 4
Ġ196 1
Ġal ph
Ġanc est
Ġbre aking
Ġsh op
Ġobserv ations
gr aded
Ġ ere
Ġdec or
re c
Ġjo e
o th
Ġp age
Ġland ed
Ġnomin ation
ious ly
Ġc u
Ġleaders hip
Ġrelationship s
Ġneigh bor
Ġl ap
ber ts
ang er
Ġrac es
av ia
Ġsim ult
Ġsimult ane
Ġpro ceed
Ġrepl acement
Ġcandid ate
Ġcons um
Ġcou p
re ll
Ġhistor ians
Ġclou d
ab eth
Ġhe rit
Ġherit age
Ġcham ber
Ġs ke
it led
Ġarch b
Ġe ch
2 0
Ġb ert
Ġbrig ades
Ġcross ing
Ġclarks on
Ġw im
Ġd ag
n amed
Ġ12 1
Ġm am
Ġy an
Ã §
Ġm ode
Ġnight ing
Ġmoz amb
Ġsomal i
Äģ nt
el ess
Ġdist ributed
iv als
Ġt ank
ce ived
Ġorganiz ations
Ġamate ur
e per
Ġrecomm ended
Ġag ency
Ġ193 7
Ġd iet
Ġpar as
Ġpick ed
Ġf ro
Ġbring ing
Ġhe li
Ġroom s
ask a
Ġinterse ction
Ġ9 9
Ġc ot
or ous
ill ing
rane an
i ary
Ġre ver
rop ol
ag u
Ġro berts
Ġpart ies
Ġacc ur
Ġb ure
ist ol
Ġdestroy ers
i Äĩ
Ġcar bon
Ġfung us
Ġfrancis co
Ġsec ured
Ġclass ical
g as
os a
Ġdocument ary
onic a
Ġbehav i
Ġmar ines
Ġbus h
Ġbelie ves
Ġwal k
Ġleg s
Ġte eth
Ġest ate
Ġbl ocks
Å Ľ
Ġad ults
Ġpart ial
Ġs anta
Ġextrem ely
Ġwaters hed
Ġjer usal
Ġjerusal em
Ġg le
Ġsim ps
Ġsimps ons
Ġwild e
b rien
Ġbon o
Ġnighting ale
Ġjif na
Ġsk ye
Ġnever t
Ġnevert heless
Ġmult i
act ions
Ġlist en
us sion
Ġrif le
Ġg one
Ġcl ay
Ġ195 5
Ġmiss ed
Ġcar ter
Ġdis app
Ġexpans ion
Ġdi ameter
Ġstre ets
ival ent
iven ess
Ġwe b
Ġlangu ages
Ġmunicip al
Ġann ivers
Ġconcern s
Ġimmedi ate
Ġsurround ed
Ġgod d
Ġlear ning
c rib
t i
y les
Ġisol ated
e xt
Ġham ilton
Ġsurv iving
um ps
Ġse ctions
Ġconstru ct
Ġp ir
Ġad am
Ġma h
Ġshow ing
Ġolymp ics
Ġterrit ories
Ġgen re
Ġm l
Ġad ams
ĠÃ Ĺ
Ġwind ows
Ġtun nel
Ġche n
Ġargent ina
Ġw ic
á »
Ġl anc
ad ow
Ġdet ail
Ġs ons
Ġ195 8
Ġfl at
Ġinstit utions
Ġcommon we
Ġcommonwe alth
i able
Ġh oc
Ġint ention
Ġv ac
Ġinspir ation
Ġarm or
Ġret reat
Ġadmir al
Ġg am
Ġemer ged
Ġannivers ary
Ġ8 9
re ts
Ġrul er
Ġex isted
Ġinh abit
Ġextre me
Ġencour aged
Ġheav en
ay a
Ġw ants
Ġfir ing
i pe
Ġdet ailed
Ġportra it
Ġdip l
Ġappro ached
Ġarrang ement
Ġ19 00
Ġprotest s
in als
Ġt ick
u ge
Ġis l
Ġcompound s
b ie
Ġtri es
Ġban ai
ock ed
Ġsequ el
Ġh i
Ġry an
Ġcr is
Ġbr on
Ġfl o
us ing
Ġfreed om
Ġadm itted
Ġpo inted
Ġsuff ering
Ġcorre ct
Ġinf r
Ġimp lement
e or
Ġaut om
Ġbe ar
il ing
Ġsong writ
Ġcho ir
Ġf ern
Ġp in
Ġtri ple
Ġattempt ing
Ġco b
Ġcross ed
Ġrene w
Ġtre ated
Ġunus ual
Ġhop ed
m us
Ġinstit ution
Ġcre st
s ch
Ġintern al
Ġregular ly
Ġ194 9
Ġgi ant
it als
Ġ197 7
Ġt u
Ġclim ate
Ġnorm an
ra f
Ġdesign ation
es i
Ġcount ies
Ġvide os
Ġro ger
Ġc ov
Ġegg s
Ġst em
Ġme ga
Ġlb w
Ġcer atops
Ġlenn on
av Äģda
Ġfranch ise
Ġimpro ve
Ġn a
Ġfl ower
Ġser ial
Ġposs ession
Ġass umed
Ġcav al
Ġdut ies
Ġag ed
Ġver se
ant ly
Ġown er
Ġstat istics
Ġmet eor
Ġvis ible
ud a
Ġimp oss
Ġlaw s
ink ing
Ġmed ium
Ġiniti ative
ic ts
Ġstrong ly
Ġac kn
Ġackn ow
im ate
Ġident ity
ri f
Ġk id
Ġtrans ition
Ġair line
Ġpro hib
Ġhundred s
w ich
Ġfl ed
ar f
Ġappro ved
Ġs ulf
Ġp ione
ot ic
o is
un t
Ġprotagon ist
Ġs essions
Ġdes ert
Ġwear ing
Ġresour ces
Ġje an
em ia
Ġinde ed
Ġmusic ians
ing er
com ing
Ġfoot age
Ġreconst ruction
oc a
Ġrel ative
Ġconv oy
Ġt ales
Ġsap rang
i en
Ġ0 7
Ġrh odes
aur us
Ġher gÃ©
Ġcrus ad
Ġkil mer
Ġjane iro
Ġgo ffman
à ¤
Ġan ek
Ġbol ÃŃ
ĠbolÃŃ var
Ġcomplet ion
Ġacc used
Ġpart ly
Ġa k
o om
Ġspecim en
Ġinter p
Ġin a
Ġequ al
Ġk in
Ġw ings
Ġdoub t
Ġcoll abor
Ġ198 3
Ġindic ated
Ġsh akes
us es
Ġmole c
Ġwin ner
Ġde an
Ġcam era
Ġsh if
Ġfix ed
Ġtermin us
Ġgeorg ia
Ġtri als
Ġhe at
Ġeas ily
Ġpleas ure
Ġattr acted
Ġpre ced
Ġconcern ed
Ġ9 3
Ġlook ed
Ġ191 0
od ies
Ġcy cle
Ġcircum st
Ġint e
Ġdeb ate
ly ing
ud es
Ġp ure
Ġhar m
Ġpract ices
Ġc raft
Ġc ater
y m
r ates
Ġpro port
Ġadj acent
Ġcab in
enc ies
Ġbehavi our
Ġsp r
Ġmed al
Ġrec onna
Ġreconna issance
Ġ0 6
Ġ6 3
Ġhun ting
ab les
Ġcat ch
Ġconcer ts
Ġme ets
Ġb ce
w hel
Ġdram atic
Ġth ro
w en
Ġwim bled
Ġwimbled on
Ġrichard son
Ġw el
Ġow en
Ġger ard
Ġpr er
Ġprer og
Ġlaw ton
Ġstar ling
Ġanek Äģnt
Ġcompos er
Ġdownlo ad
Ġincorpor ated
Ġmor al
Ġpurch ase
Ġemer g
Ġex ha
um in
Ġinflu ences
Ġchall eng
Ġpo ol
all ow
Ġdiam ond
Ġp ink
Ġque ens
ah l
Ġsh ots
Ġfall ing
ok ing
Ġrhyth m
Ġag gress
Ġw ard
Ġtravel ed
Ġsett led
Ġunder stand
Ġrecord ings
Ġmin istry
Ġeffect ively
Ġr ated
Ġdest ruction
Ġredu ce
le ts
Ġsculpt ure
Ġfe ather
Ġb oss
Ġmet all
Ġart ific
Ġpro l
Ġpubl ishing
Ġcong reg
Ġdo ctor
Ġremn ants
h ow
Ġcam bridge
et on
or gan
Ġver te
t w
Ġkore an
Ġg or
Ġpar ks
Ġsp aces
Ġm ant
Ġsomal ia
Ġparalle l
Ġa ce
Ġess ential
Ġseem ed
Ġconv ention
Ġrec alled
Ġsome wh
Ġsomewh at
Ġobt ained
Ġpain ted
Ġ188 0
Ġmeet ings
atter ed
y ard
Ġhol iday
Ġsele ction
Ġcontrovers ial
it ated
he im
Ġjes us
Ġag es
Ġmer ch
Ġdis pl
Ġattack ing
aw are
Ġfund s
Ġvict ims
Ġrest oration
Ġsol ar
st r
Ġbehav ior
Ġk er
Ġav iation
Ġoper ating
op l
Ġ190 9
r us
Ġcont ext
Ġstand s
go ing
Ġabs ol
Ġpupp et
Ġgar c
Ġim pl
Ġafter wards
Ġaccom mod
Ġbo om
if er
r ight
Ġmeas ures
Ġdr iving
Ġc ant
Ġrecover ed
Ġpup ils
Ġ0 5
t z
Ġele ven
Ġw et
Ġadv is
Ġover whel
Ġlo b
Ġfur t
Ġs b
y on
Ġbrid ges
Ġpit cher
Ġ12 2
Ġho b
ate ch
Ġstorm s
Ġan iston
Ê »
Ġke amy
Ġk omb
Ġkomb at
Ġesc ort
Ġt one
Ġdiv or
Ġrepresent ing
Ġcris is
Ġbu ck
Ġ191 2
on so
Ġshakes pe
Ġcons c
Ġrep r
Ġpan el
id ae
ic ate
Ġlow est
Ġman us
Ġpres erved
z a
ann ah
Ġb ah
Ġpass engers
Ġo ak
Ġp ier
Ġcirc ulation
g ers
Ġhost ed
Ġarab ic
Ġoppos ite
Ġcanc er
Ġconv in
Ġgodd ess
Ġdistingu ished
Ġorigin s
Ġunder st
Ġlink ed
Ġinter action
Ġarchitect ure
Ġc em
Ġnorm ally
Ġinc om
Ġdestroy er
ach us
Ġreb els
Ġgener als
ect ed
Ġgr ace
Ġthrow ing
Ġ193 1
Ġeliz abeth
Ġpra ise
Ġc ave
Ġ0 8
Ġmay or
Ġpol and
Ġger mans
Ġte ach
Ġdirect ors
r as
Ġ193 5
Ġ5 8
Ġresear chers
Ġjohn ston
Ġfr aser
Ġc ake
Ġwit ch
Ġplunk etts
Ġcory th
Ġcoryth osaurus
Ġcarry ing
Ġal t
Ġrespons ibility
Ġlim it
ak u
Ġnin tend
Ġnintend o
Ġf ate
Ġina ug
Ġstay ed
Ġ8 6
Ġreturn s
Ġco vers
Ġshakespe are
Ġprop ag
Ġb apt
Ġ193 2
Ġg ib
Ġf old
ens is
Ġhoc key
Ġtrad ing
Ġwill ing
Ġstan ley
Ġprogram me
Ġcross es
Ġcal c
Ġequip ped
Ġp ad
Ġsat ur
Ġinc ome
Ġs ab
Ġb one
Ġsis ters
h ist
Ġrec ur
Ġvess el
Ġmon uments
Ġan sw
Ġinterp ret
Ġinfr ast
Ġ6 8
Ġexp ensive
Ġform ing
Ġdifficult ies
Ġd c
Ġse es
Ġdis aster
Ġjud ge
Ġin se
Ġdef ended
Ġcover ing
Ġartific ial
Ġcem eter
Ġu st
Ġarchb ishop
Ġaud io
at ures
Ġjun ior
Ġw i
Ġal f
Ġelse where
Ġec cl
ol ay
Ġmob ile
Ġv a
Ġall ah
Ġir a
Ġto ll
Ġr ag
Ġg ri
es se
Ġw ine
Ġdef ences
Ġmarl borough
Ġt ailed
Ġprerog ative
Ġwater fall
Ġhel met
Ġpal my
Ġf ia
Ġa z
Ġother wise
Ġsw it
Ġpromot e
Ġhor iz
Ġcitiz ens
Ġconf eder
Ġear l
r ating
Ġcar p
Ġbar r
Ġ191 1
Ġeld er
Ġgl ad
Ġ192 9
Ġthous and
Ġ192 1
Ġbeaut iful
Ġt ip
Ġmanus cript
Ġal ter
Ġp ant
Ġ nd
Ġ8 2
Ġimposs ible
Ġp ushed
Ġprin cess
Ġb ang
Ġamb ass
Ġste ad
Ġc ull
Ġbomb ard
Ġte x
Ġvill ages
Ġunivers al
Ġel abor
ish ment
ic ide
ol es
Ġtrib ut
Ġnether lands
Ġenvironment al
Ġsat isf
Ġlegisl ation
sc op
Ġburn ing
Ġvot ed
Ġl ith
Ġsp ur
Ġoccas ions
Ġsupp orters
Ġag ree
Ġ eric
Ġcom ments
Ġobs er
Ġdipl om
Ġarrest ed
Ġw ag
Ġb ac
v a
Ġp ed
Ġt ong
w are
Ġsurviv ors
Ġpat rick
Ġh ou
Ġdefe ating
Ġintern et
ck i
Ġpat ri
amp s
ith ic
Ġh ay
p ut
Ġb ou
Ġge off
b urn
Ġlaw rence
Ġfe i
hew s
Ġcan ter
ow ie
Ġret ained
Ġvo iced
Ġc iting
Ġinst ru
le te
Ġaccom pany
Ġgard en
Ġpar ish
Ġ193 8
Ġt ale
Ġ196 2
Ġtre as
Ġ195 9
f are
Ġstre ak
Ġunder standing
Ġdisapp o
Ġinvol ving
Ġobserv atory
Ġpat ron
Ġchr on
Ġatl anta
Ġequ ivalent
Ġn ad
Ġra ise
Ġobject s
Ġperiod s
ac le
Ġt ight
Ġab und
Ġtrib ute
Ġd ens
et ime
Ġclos er
Ġprodu cts
Ġprefer red
que z
Ġl as
Ġm Ã¡
Ġgarc ÃŃa
Ġsle ep
Ġunsuccess ful
Ġsur pr
Ġpolit ic
el in
Ġvess els
Ġac claim
Ġchar ity
Ġr ib
ar m
if ies
Ġcemeter y
Ġcrimin al
Ġg ates
Ġdoct r
Ġp ig
Ġmar gin
c ru
Ġintens ified
Ġ16 1
we ight
Ġstef ani
Ġcry st
ut z
Ġc atech
Ġam ino
Ġbats man
oc eratops
Ġra ff
Ġpit man
Ġcambod ia
Ġform al
if orm
Ġanti qu
Ġapp ropri
Ġs ic
Ġlabor atory
Ġvisit ors
r ator
Ġcoll ab
Ġcollab oration
Ġn urs
p es
Ġcl ock
Ġcomm itted
Ġdeploy ed
Ġbo re
Ġde ck
Ġre ct
Ġresist ance
Ġapparent ly
Ġdial ogue
Ġcaus es
Ġhous ing
Ġneed s
Ġmed iter
Ġmediter ranean
Ġtw in
Ġtem ples
Ġreve als
Ġag g
Ġhel ic
Ġnot ably
Ġabs ence
Ġcritic ised
Ġcoll aps
Ġas c
Ġpropos al
Ġshar p
k es
Ġdemocr atic
Ġnar rative
Ġoverse as
Ġmom ents
Ġspirit ual
o ok
Ġdoes n
iqu es
Ġsav ed
Ġ6 7
Ġc bs
Ġab d
Ġn ur
Ġfall en
Ġst able
Ġg ent
Ġconve ction
Ġpalest ine
Ġca es
Ġsubs pec
Ġsubspec ies
Ġ16 2
Ġlate x
Ġcatech ism
Ġsl ide
Ġcanter bury
Ġphill ies
Ġaer ith
Ġman ga
Ġre ady
Ġimpro v
o h
el ine
Ġde em
Ġstation ed
Ġrepres ents
onom y
Ġref ers
oty pe
Ġsuggest ing
Ġrepresent ative
Ġcolor ado
Ġpost ed
Ġs aves
es co
Ġmod ified
el le
il ly
ap ers
Ġh ull
Ġint ense
Ġda wn
Ġfern and
Ġmusic ian
Ġprodu ctions
i est
Ġfor b
Ġexp and
Ġdrum s
Ġhelic op
Ġrest rict
ig ation
Ġent h
Ġform ally
Ġsubmar ine
Ġ0 9
Ġbure au
Ġtrou ble
ill ed
m ath
Ġlo an
Ġfollow ers
Ġexpos ure
Ġship ping
Ġrepublic an
Ġgram my
Ġkr ak
m ate
Ġsk ull
Ġconsid ers
Ġtr ick
af ter
Ġcorn er
v n
Ġjournal ist
Ġs ale
Ġmark g
Ġmarkg raf
ch ang
ip ed
Ġext ension
d y
Ġwar ning
Ġplat oon
b oy
Ġfurt ado
os om
Ġph r
Ġcan yon
Ġimag ine
Ġk ann
Ġjack r
Ġjackr abb
Ġraff les
in je
Ġval ky
Ġdepend ing
Ġo ption
Ġl ose
Ġhapp ened
Ġde leg
Ġinform ed
he red
Ġpurp oses
Ġbar ker
s es
Ġsac red
Ġext ent
Ġse as
Ġrep rodu
Ġn hl
Ġpred ators
Ġeng ines
Ġcot ton
Ġob st
ab led
Ġc ape
Ġt am
Ġsatur day
Ġrecover y
Ġdev ot
Ġpoor ly
Ġmaterial s
Ġinn ov
Ġann ually
Ġfav our
Ġdisplay s
Ġact ual
Ġpers u
Ġground s
Ġens ure
Ġ ille
Ġres ign
Ġafter math
Ġdomin ican
Ġrem ember
r ants
Ġorb it
Ġm ud
Ġ16 6
Ġrang es
Ġav o
Ġthere after
Ġust a
Ġusta Å¡
Ġsug ar
Ġ14 0
Ġvehic le
Ġsh olay
Ġnet works
Ġh ok
Ġb aker
h ol
Ġcommun ications
Ġreserv oir
Ġmusc aria
Ġmod els
Ġk im
oo th
Ġchild hood
Ġj enn
Ġfif a
Ġwithd rew
Ġfact ors
Ġtal king
ric ted
Ġrich mond
Ġlay er
Ġp ull
Ġeas y
Ġrepresent atives
Ġinj uries
Ġche ck
ap y
Ġv el
Ġwrit ings
Ġsuper n
Ġg ust
Ġthr one
Ġuse ful
l ife
Ġopportun ities
Ġinfrast ructure
Ġdr iven
Ġl ists
os l
Ġsimultane ously
Ġco ins
Ġrecomm end
z en
Ġr ates
Ġmex ican
Ġread ers
Ġth or
Ġpl ane
Ġwat ching
Ġbl ow
Ġte en
Ġob l
ent ional
Ġinflu ential
Ġexcav ation
ish n
Ġpar v
un a
n g
ack ed
Ġent itled
og y
fri end
Ġcam er
z i
Ġadvert ising
m ont
Ġn ichol
Ġsit uated
Ġy o
oc y
Ġrad iation
ag as
Ġblack s
Ġag o
Ġmag gie
Ġwi ÅĽ
ni owie
Ġstar lings
Ġpart ially
Ġinterest s
Ġan ime
Ġinstr uments
Ġar k
Ġam mun
Ġammun ition
Ġsubstant ial
Ġ9 00
Ġcomm em
Ġfun er
Ġproper ties
Ġan aly
Ġ192 8
Ġr ush
Ġinst alled
Ġhistor ically
Ġmo ore
Ġstrugg le
Ġpass ion
Ġvict ories
in ian
Ġsequ ences
Ġgener ated
Ġsp ons
il st
te enth
Ġs el
ov en
Ġfund ament
Ġ15 5
ul s
Ġcircumst ances
ro us
Ġint el
Ġorigin ated
Ġmov ements
ins on
Ġoper ate
Ġsever ely
Ġtur b
Ġex cess
ug osl
Ġburn ed
Ġnor way
Ġsp oke
Ġmass achus
Ġmassachus etts
u v
Ġsh ark
Ġpar am
Ġperson ality
che ll
Ġportug al
Ġparv ati
ag er
Ġplate au
Ġbull s
Ġl iv
Ġc ass
Ġt ag
Ġb enn
l ie
Ġdr iver
itz er
Ġ7 8
ian g
Ġpe ters
Ġisrael i
Ġathlet ics
Ġ10 1
Ġadvent ures
Ġp agan
ĠrÃ© union
ĠwiÅĽ niowie
t av
Ġwrest ling
Ġo t
Ġgar rison
Ġemerg ency
Ġsc ar
Ġpred omin
Ġrem ark
Ġt ast
Ġâ Ĥ
Ġ192 7
Ġamong st
Ġsurv ive
w an
Ġfr ust
Ġlist ing
Ġag ents
Ġevery one
w estern
Ġany one
Ġshell s
for ced
il ation
Ġt ide
Ġr ising
Ġrel ie
Ġwh ilst
Ġlook s
Ġrev en
Ġdepart ure
Ġ8 4
Ġg ary
Ġtw ins
Ġf ert
Ġgen e
Ġacknow led
Ġthink ing
Ġh amp
Ġcons ult
Ġy ugosl
Ġsp ores
Ġb rick
f e
Ġ Î
Ġgu er
Ġaff airs
as hed
Ġmill er
Ġeat on
Ġra af
c er
Ġpo ison
Ġb ald
Ġr av
Ġcar ved
Ġl ud
ren e
Ġmet ropol
Ġestablish ing
Ġn iel
ow a
Ġh ars
Ġs ans
Ġmix ture
Ġwr ight
Ġwil son
Ġbig gest
Ġcast ing
Ġro th
Ġfr ig
Ġg wen
Ġswed ish
n h
Ġo sc
Ġpre fect
a ver
Ġhurric anes
ry ce
he era
Ġkann ada
Ġkh and
ĠustaÅ¡ e
ĠanekÄģnt avÄģda
Ġsun g
Ġarm ored
Ġpric e
Ġimp ress
Ġpict ures
Ġt anks
Ġdown town
Ġ186 0
Ġreinforce ments
in ery
Ġdoc uments
Ġwas n
Ġrest ored
Ġres idence
Ġinterest ing
Ġ193 3
Ġphot ograph
Ġdelay ed
Ġbl ues
Ġg ill
Ġplay off
Ġphoen ix
Ġcompet e
st ate
ont o
ant i
Ġ17 8
Ġra f
Ġport s
Ġoccup ation
enc ing
Ġv ast
ug u
Ġpre t
Ġm ys
Ġz oo
Ġspe nd
Ġmar ry
Ġj r
ag ement
Ġlo ose
Ġinst ance
Ġover l
crib ed
ul ted
Ġm ail
Ġclass ification
Ġformer ly
r ich
Ġbe aring
ore n
Ġres igned
Ġoffic es
Ġver onica
Ġsal v
Ġw ives
Ġbur ial
Ġexperi ences
Ġpremi ered
Ġc aves
Ġhon our
p iece
Ġcreat ive
Ġterror ist
Ġm ental
Ġtechn iques
k o
Ġsimp son
Ġus d
Ġc elt
Ġfor ty
Ġk am
Ġt iss
Ġgil bert
Ġcorpor ation
Ġcar s
Ġfif teen
Ġk y
Ġwest ward
ol i
o ot
Ġyan ke
Ġher ald
Ġstew art
Ġ11 3
Ġtre k
Ġbox ing
Ġm ack
Ġpar aly
or i
Ġshe ar
Ġp ag
cul es
Ġwic ca
Ġkhand oba
ĠmÃ¡ r
ĠmÃ¡r quez
Ġmid ge
Ġfor g
Ġsk ills
Ġweap on
Ġatt rib
Ġpro ve
Ġachie ve
Ġdesign s
Ġillust rated
Ġval u
Ġ195 7
Ġrecogn ised
Ġcontin ental
re al
Ġdet ro
Ġdetro it
Ġtor onto
Ġdiffer ences
Ġm all
Ġunivers e
Ġsupp lement
Ġminim um
Ġretire ment
olog ies
Ġ16 5
Ġc ow
Ġcomp lic
Ġst al
Ġsound s
Ġtr ained
Ġcost s
ing e
Ġmoder ate
Ġhud son
Ġprepar ation
Ġsus pend
h y
Ġapplic ation
Ġform at
Ġimp rison
is ters
Ġcons p
Ġr ig
Ġwee ke
Ġwas p
Ġscient ists
Ġmeas ured
Ġfound er
ap se
Ġsur ge
Ġclear ly
Ġ12 3
Ġinh g
Ġaud iences
Ġdr ain
Ġfor cing
Ġm cl
Ġd ak
Ġphil ip
be y
Ġmart ial
Ġjur chen
g ov
Ġc ode
yl ine
Ġres olution
Ġr ide
Ġmul der
Ġmozamb ique
Ġfre lim
Ġfrelim o
Ġgro wn
Ġtem porary
Ġrevolution ary
Ġeng age
ver e
Ġrem arked
Ġvictor ian
Ġw onder
Ġg amb
Ġhu ge
Ġpl us
ed y
Ġexper t
Ġen h
Ġm es
v ant
Ġvoy age
Ġbad ly
Ġeth nic
Ġbar ry
Ġrang ing
Ġstar red
Ġconvin ced
Ġche st
im et
Ġdep icts
Ġart work
Ġch a
Ġco ff
Ġinte gr
Ġb ones
Ġpresent ation
Ġcrop s
Ġphilosoph y
Ġint r
Ġobject ive
Ġsche me
Ġw w
Ġus age
Ġfat al
Ġer r
Ġ185 0
Ġele ctions
Ġprom ised
Ġf asc
Ġdefend ing
ather ine
il i
on ia
cript ions
Ġexcav ations
Ġtact ics
Ġke vin
Ġdra f
ol en
re es
Ġcle ared
Ġsy mp
Ġjo bs
Ġruss ia
Ġbattle cru
Ġvar iation
Ġarchae ologist
ger y
Ġgi ants
Ġcharacter ized
in us
Ġmechan ical
Ġcond em
Ġf oss
Ġcy t
b n
Ġcub s
Ġs as
t les
Ġcr ake
Ġn s
Ġcole man
Ġm bar
Ġz omb
x e
Ġwar ren
Ġt ack
Ġk ansas
Ġcomm ons
Ġsc ully
Ġmag dal
ĠwiÅĽniowie cki
Ġdesign er
ir a
Ġexpl o
em ies
Ġdec ides
Ġpredecess or
Ġgraph ics
Ġdut y
Ġarr iving
Ġ å
Ġinst all
Ġdeterm ine
re l
Ġinter pre
Ġsm ooth
Ġreg iments
Ġcaval ry
Ġvalu able
Ġimp ressed
Ġdisplay ed
Ġpart ner
Ġ192 6
Ġfeed ing
Ġposs ess
Ġf isher
Ġvot e
un ction
Ġcl in
Ġsched ule
Ġins cription
Ġmagn etic
Ġrev ival
Ġne br
Ġcar go
Ġ0 2
Ġ16 3
Ġneut ral
Ġcommun ication
as m
Ġele ph
Ġambass ador
Ġrank ing
Ġdi agn
Ġtex ts
ru pted
Ġfal se
Ġdescrib e
Ġrest ricted
Ġst yles
Ġintel lect
Ġbenef it
Ġd ave
n ight
Ġfact ory
Ġclaim ing
ain ts
Ġalle ged
Ġstr ate
Ġstrate gy
Ġdw arf
Ġh ub
Ġstri king
Ġfeather s
Ġpublic ations
Ġdru g
Ã ±
Ġopp onent
Ġinhabit ants
Ġfrequ ent
Ġb om
Ġd enn
Ġrel ation
Ġmagn itude
Ġ0 3
Ġclos est
ol id
Ġfr an
Ġpe ach
Ġdav is
Ġbound ary
Ġis ot
Ġre nder
Ġcinem a
ant e
Ġk ong
Ġfe e
Ġl ia
Ġch anc
Ġb ind
Ġpers ian
Ġosc ar
Ġcor b
h ang
uck y
Ġmr s
Ġresident ial
Ġprotest ant
Ġar cher
Ġcr ab
Ġham let
Ġquarter back
e fa
Ġhok ies
Ġa ster
ak um
Ġvalky ria
Ġpers pective
Ġun iform
g am
Ġadapt ation
Ġdeem ed
Ġprom pted
Ġkel ly
Ġexclus ively
Ġro ots
Ġrele ases
w a
or al
Ġband s
ac les
Ġall en
Ġsat ell
Ġ190 5
Ġere cted
Ġmach ines
Ġnewsp apers
Ġhighway s
ign ment
ch ar
Ġwa iting
e u
f ather
Ġd ual
b ing
Ġdefin ition
Ġk enn
Ġarm ament
Ġout break
Ġbatter ies
Ġarg ues
Ġd ies
Ġcent ers
Ġrul ing
Ġdomin ant
Ġj et
id ers
Ġj ar
Ġcru ise
Ġas ide
Ġe g
Ġco in
Ġdiffer ence
Ġal leg
Ġre vers
Ġchar ged
Ġrev ol
Ġt ut
Ġarr ive
Ġjon athan
Ġconsid ering
Ġbr ill
Ġbud d
Ġcl ust
Ġste ep
Ġexpl ains
Ġmill enn
Ġsw im
Ġannoun ce
Ġt enth
ic it
Ġatt ained
Ġstrengthen ed
ell ar
Ġdeg rees
Ġh ans
Ġ0 1
Ġref uge
Ġbul k
Ġbel g
Ġles lie
Ġm k
Ġsoc i
Ġupd ated
Ġant hem
Ġdep ut
Ġp c
Ġdec ay
Ġsettle ments
Ġp ic
ne th
Ġis bn
Ġliber al
Ġcommand ment
Ġparaly mp
ic ia
Ġwag ner
Ġmat hews
Ġtur ks
mal ley
Ġab by
Ġch agas
Ġchronic les
Ġhand led
it ively
gr aph
l ock
Ġbrook s
Ġfif ty
Ġex ists
an th
Ġcommem or
Ġart istic
Ġsc attered
Ġjack ets
Ġdisappe ared
Ġsh ield
Ġsee k
Ġfurther more
row s
art e
Ġn ash
Ġcur t
Ġinj ured
bur gh
Ġup set
Ġam az
Ġco inc
Ġdel iber
Ġinvestig ation
Ġmanufact ur
st ic
Ġmat hem
Ġass isted
Ġtal ent
Ġnebr aska
Ġre nd
Ġin fer
Ġcrew s
Ġam id
ĠâĢ ľ
Ġde ity
Ġn ut
Ġgu il
Ġcelebr ated
Ġex port
Ġsu icide
Ġland ings
e c
Ġdistinct ive
Ġam ounts
Ġtest ing
Ġprof ile
Ġa h
Ġc el
Ġbr ain
Ġcl ark
Ġimp ression
Ġgl obe
Ġexp osed
Ġpremi ere
Ġch rom
Ġins criptions
Ġhero es
bor ne
Ġtour ist
Ġass ess
Ġstruct ural
Ġob v
Ġnorth ward
Ġb anned
Ġf ib
Ġst u
Ġres umed
Ġdefend ers
er ies
Ġmet re
Ã¶ n
ol ithic
Ġcelt ic
Ġattr act
Ġjac ob
m outh
Ġnort heastern
w er
Ġcar n
Ġira q
Ġchar m
Ã £
Ġbert in
Ġnur se
bo x
Ġher ze
Ġherze gov
Ġcom ics
Ġche val
Ġpar an
Ġu efa
Ġmag ad
Ġmagad heera
Ġd ict
Ġkur t
Ġse nd
ic ial
ak i
Ġr ic
Ġst ores
Ġdeliver y
Ġqu ant
Ġ11 7
Ġbas ement
Ġ192 5
Ġ192 4
Ġpurs ue
ur ally
Ġout l
Ġtourn aments
Ġorgan isation
Ġtro phy
uc ks
Ġtem por
end ar
Ġappro val
Ġmeteor ological
Ġs oph
Ġfor th
Ġ9 2
Ġent ers
Ġan ch
Ġprevent ed
Ġdemonst rated
are n
Ġviol ent
Ġch an
Ġmagaz ines
Ġlou d
Ġsun k
Ġtur rets
ul ating
at ically
un ch
Ġguil ty
Ġreb ell
Ġl ies
Ġc ous
Ġcirc uit
Ġrefer ring
Ġassass ination
Ġsout heastern
Ġh az
Ġcirc le
ir i
Ġexec uted
Ġdem ands
Ġco ordin
Ġem my
int on
Ġsu re
Ġdis band
Ġpe aking
Ġc od
Ġunc ertain
Ġhou ston
Ġniel sen
Ġmar s
Ġalf red
Ġke ys
Ġd d
Ġw ander
Ġsubstit ute
Ġshe ff
Ġrun ners
Ġz inc
Ġhy g
ad ier
Ġprom pt
Ġch ain
ol ia
Ġyanke es
Ġtri ang
Ġmad rid
ou x
Ġmur ray
re et
Ġhar old
Ġherzegov ina
n c
Ġp ryce
Ġdj ok
Ġdjok ovic
Ġas om
Ġasom tav
Ġasomtav ruli
w ent
Ġtransl ation
Ġide al
om a
Ġafter n
Ġaftern oon
Ġsk et
iv ated
Ġcarp ent
Ġindic ating
Ġal tered
Ġp or
iet ies
Ġcon clusion
Ġd or
Ġcan on
se x
Ġsubject s
Ġ193 4
Ġb ible
Ġst ing
Ġd iver
Ġstr ing
Ġinit iated
Ġcos m
Ġmem or
Ġsix teen
Ġpound s
Ġg ets
Ġst ood
in ations
b an
Ġhost ile
Ġnin et
Ġadop t
Ġinn oc
Ġfe els
Ġsur ve
Ġadvert is
Ġ17 0
Ġemploy ees
Ġno ble
Ġgr an
Ġab ol
Ġto x
Ġsuc ceed
Ġdis agre
Ġf ulf
Ġm ol
Ġab b
Ġexp ression
Ġli ked
Ġbu y
Ġev olution
Ġjew s
Ġd at
Ġmad ison
Ġterrit orial
Ġber lin
Ġconf lic
Ġwarri or
Ġsc and
Ġang lo
Ġmel ody
Ġed ges
es is
ose x
ad i
Ġsuspend ed
Ġbr ack
Ġac ute
Ġu mp
Ġtenn esse
Ġtennesse e
g ars
Ġcon go
Ġgen etic
Ġac re
Ġrun way
Ġwe ir
Ġty ph
Ġhawai i
Ġheli um
Ġj en
Ġcommand os
Ġval ve
ok o
Ġcar re
Ġes hm
Ġeshm un
Ġcertain ly
Ġcomp onents
Ġorchest ra
Ġreve al
Ġput ting
est yle
Ġrespect ive
Ġrece ives
Ġsent iment
Ġorder ing
Ġ ï
Ġrep air
Ġren ov
ost er
Ġ190 8
Ġbirth day
Ġg osp
om ing
Ġrequest ed
Ġcul min
Ġelimin ated
w ick
od ore
Ġg ift
Ġg ap
Ġus s
Ġrec ip
itar ian
Ġon tar
Ġontar io
os ing
i ac
Ġl umber
Ġreal ized
Ġp hen
Ġsign s
Ġconf ront
Ġwithdraw al
Ġkeep ing
Ġread er
Ġst rict
Ġp ip
Ġval id
Ġ ion
Ġen zy
Ġcolle agues
Ġ100 0
Ġredu cing
Ġ187 0
Ġc ash
Ġsee king
Ġy ield
Ġpresident ial
Ġsus p
Ġtheat rical
ie th
Ġsc out
Ġab c
Ġparam ount
Ġmeasure ments
Ġhar bour
Ġs ult
Ġarchitect ural
le ton
Ġto ured
el and
Ġo st
Ġ11 4
sh ore
Ġcat al
Ġprogram ming
Ġb ib
Ġven ues
Ġam ph
Ġpot entially
Ġev ans
Ġtoo th
Ġrebu ilt
Ġroman ian
Ġunder ne
Ġunderne ath
Ġpe ck
ism s
Ġkir k
s is
Ġsw iss
Ġli qu
Ġpret ty
Ġwal king
Ġd ud
Ġsheff ield
end en
ag en
Ġbi ological
Ġfeder ation
Ġconserv ative
Ġr i
in th
ul u
Ġw u
Ġmic hel
Ġst av
nd a
Ġo reg
Ġoreg on
Ġx e
Ġbo ot
Ġo mar
Ġcheval iers
ine y
Ġbid d
Ġsor ra
Ġnd h
Ġmar iana
Ġn am
Ġanim ation
Ġremov al
Ġl inc
Ġlinc ol
Ġ12 5
Ġround s
Ġve ter
Ġ192 3
Ġaut umn
Ġso vere
Ġsovere ign
ro se
Ġorgan ised
Ġp el
Ġqueens land
Ġoper ates
pl ed
Ġco aching
Ġro ok
Ġperson ally
Ġobserv ation
Ġvert ical
Ġpul as
Ġpulas ki
ens es
ship s
Ġup r
ors hip
Ġh ast
Ġas ian
Ġsym pt
Ġfundament al
Ġdeter min
Ġelabor ate
Ġwr apped
Ġpeop les
Ġpartners hip
Ġl augh
mus ic
Ġwid er
Ġstri p
Ġcollaps ed
Ġfavor able
Ġst ere
Ġbas es
Ġbr ut
Ġear ning
Ġsatell ite
Ġben jam
Ġbenjam in
Ġsent ences
Ġl iz
Ġpar ody
Ġsculpt ures
Ġr iding
Ġv ig
Ġshould er
min ster
el ed
Ġstre am
Ġtr acy
Ġlog ic
Ġpropag anda
Ġparliament ary
Ġsem if
Ġcompar ison
Ġhar rison
Ġbar bar
Ġdam s
Ġkill s
st ar
Ġsur gery
Ġagg reg
Ġc ress
Ġm g
Ġf ishing
Ġvis iting
Ġl amb
ra e
Ġdak ota
Ġas ks
Ġcou gars
Ġpres by
Ġpresby ter
r ad
Ġchic ks
Ġnet tles
Ġle igh
Ġl akes
Ġchrist ine
Ġern est
Ġhawai ian
Ġrhy me
Ġspace craft
Ġmole cules
Ġw ik
Ġkil ome
Ġcar mel
Ġrh ys
ard ine
Ġas king
Ġtransl ated
Ġcomple ting
Ġno b
am i
Ġdisp at
Ġbelie ving
Ġlincol n
Ġmin es
Ġsu itable
Ġp ace
Ġadv ancing
Ġyoun gest
w all
ks hire
o ly
Ġd ust
Ġrepresent ation
ro ph
Ġmolec ular
Ġsh orter
Ġinh ab
Ġr ick
Ġj ason
Ġcampb ell
Ġdro ve
Ġover lo
Ġto ler
Ġad e
Ġp yr
Ġstar ring
Ġk w
imet res
Ġsign al
at ural
Ġbound aries
Ġgu id
Ġquest ions
Ġcont ribution
Ġpri x
Ġenth us
Ġprof it
Ġnegot iations
Ġst im
Ġ183 0
Ġchrist opher
Ġcon j
Ġrem ove
Ġrec on
Ġgo at
et own
an ita
Ġcompl iment
Ġprov inc
Ġweeke nd
Ġbrill iant
Ġvo ices
Ġcolumn s
Ġv and
Ġp se
Ġpse ud
Ġsyn ag
Ġcoll apse
c our
b ound
Ġdisp ute
Ġdoctr ine
w s
Ġsans k
Ġsansk rit
Ġat om
Ġl ig
l ow
Ġl anes
Ġch ase
Ġpl atin
Ġplatin um
Ġs ony
Ġext rat
Ġextrat ropical
Ġs ib
Ġbor ough
Ġpar ade
Ġac ids
Ġtr ig
Ġkore a
os y
Ġphr ase
Ġdocument ed
z hou
Ġwild life
c hens
Ġsing ap
Ġsingap ore
Ġpag od
Ġgard ner
Ġwood house
Ġ76 6
Ġisl amic
Ġbod yline
Ġsorra ia
Ġsis ler
Ġw ish
Ġto pped
Ġvol umes
Ġwal ker
Ġultim ate
Ġtrad ed
Ġprep are
Ġsubm itted
Ġfriend ly
Ġpres erv
ol is
Ġbe ars
Ġb are
u a
Ġt ape
Ġtempor arily
Ġjo ining
Ġx ii
Ġreform s
Ġstrateg ic
i j
Ġcould n
Ġste ps
Ġt ub
d ney
os h
Ġtel ugu
Ġb in
Ġcull en
Ġunivers ities
Ġill ness
Ġspe nding
Ġdaugh ters
Ġbattleship s
á ¹
Ġsudden ly
Ġcontr ad
Ġn aming
Ġprodu ces
Ġh idden
Ġshr ine
Ġgr ave
f ire
Ġrac ing
od rom
Ġagricult ure
Ġair lines
Ġprofess ion
Ġredu ction
Ġpow ered
Ġse ct
Ġseg ment
Ġcontroll er
Ġfact or
ens ions
op p
g ets
is p
ro t
r h
Ġdisc ussion
Ġin clusion
Ġbeaut y
Ġfac ility
Ġrot ation
Ġguer r
Ġencoun tered
Ġrefle cted
Ġma ur
Ã© e
Ġsn ake
Ġmillenn ium
Ġexpl oration
Ġt et
re p
el d
Ġrev ised
Ġindust ries
Ġprot es
ak ers
Ġp p
Ġp ages
Ġlouis iana
Ġexpl ain
Ġemphas is
in ated
c i
Ġv ib
n els
Ġme gal
Ġgent le
Ġbenn ett
Ġbelg ium
n ie
Ġve er
Ġnot ice
Ġcress well
d les
Ġs ample
Ġrad ical
Ġhonor ary
Ġ190 7
Ġobject ives
Ġmain land
Ġn l
Ġcor pus
Ë Ī
Ġver ac
Ġverac ru
Ġveracru z
Ġgrav ity
Ġus her
Ġret rie
Ġcan ning
Ġab bey
Ġam anita
Ġdeg rom
Ġbrig gs
Ġing res
Ġne ves
Ġj ardine
Ġbidd enden
Ġunder went
ot o
Ġab ilities
Ġw ishes
Ġen emies
u ki
Ġre ass
Ġclos ure
Ġm ason
Ġt elling
Ġassemb led
Ġexc ell
Ġg at
ul k
Ġdemol ished
Ġju ven
Ġcl o
Ġc her
Ġ192 2
Ġless er
Ġunli k
Ġconsequ ently
Ġst ap
Ġstrugg led
Ġpercent age
Ġfac il
Ġup graded
Ġen cl
Ġh ut
Ġst ern
Ġpul led
Ġdisp ers
Ġs ailed
Ġsha res
Ġadv oc
Ġcerem on
Ġt ony
Ġev ident
e ver
ĠâĢ Ŀ
Ġf itted
Ġbelief s
Ġadv ice
Ġlike wise
Ġic on
er ation
in ction
Ġland sc
Ġdem on
Ġappro aches
Ġf is
Ġdec isions
Ġaccompl ish
Ġl ind
Ġch ord
Ġcomment ing
Ġaer odrom
Ġpat rol
Ġvi i
ace ae
Ġgener a
er m
Ġsen ator
ycl ic
Ġcabin et
po int
Ġmem ories
Ġcho ose
y ers
Ġadminist rative
Ġprovinc ial
Ġevent ual
Ġneighbor hood
Ġpregn ancy
Ġnomin ations
Ġcl inton
Ġcons olid
Ġwest minster
Ġv s
Ġsynag ogue
Ġn ave
Ġdev ast
Ġech o
Ġprison ers
ra wn
Ġconflic ts
Ġ10 5
Ġille gal
Ġjun ction
Ġme ters
Ġbre ad
Ġsa x
Ġa a
Ġsw itzer
Ġball ad
Ġchart ed
Ġla ud
osex ual
Ġun named
Ġfin ale
Ġj ury
Ġth rew
Ġarm ies
Ġs ings
gr ad
Ġcaes ar
Ġapp rec
at um
Ġd ad
Ġk iss
Ġfl ies
Ġsi oux
Ġd ers
Ġders how
Ġdershow itz
ish ops
ah o
Ġconvers ation
br ace
Ġz anz
Ġzanz ib
Ġpun t
Ġpan zer
Ġpatt yc
Ġpattyc ake
Ġtyph oon
Ġar vn
Ġneves inje
Ġchron o
Ġf usion
Ġsh ift
Ġred e
Ġall ies
p ower
Ġover t
Ġ186 1
Ġref ere
ri ages
h um
Ġaccompany ing
Ġp ill
Ġwh it
Ġy or
Ġpre f
ard ed
Ġunlik ely
Ġcolumb us
Ġto d
Ġperm ission
Ġswed en
Ġroc ks
Ġconnect ing
Ġf ing
Ġm ast
Ġd ahl
Ġpil ots
Ġgrand father
Ġm ent
ĠâĤ ¹
Ġbu ff
cl es
Ġid ol
Ġhar mon
Ġev e
Ġbe ings
Ġaggress ive
Ġimm ort
Ġacc um
Ġcl othes
Ġcred it
Ġsu it
Ġl ion
Ġcommand s
Ġpun ishment
Ġargent ine
Ġall iance
Ġrecre ation
Ġsignific ance
Ġis le
Ġreview ed
Ġand re
tern al
Ġr ud
ac re
Ġcharl ot
Ġcharlot te
Ġant icip
Ġproport ion
Ġreact ions
Ġox y
Ġon going
Ġmer ely
Ġrec all
Ġn u
Ġind ones
en ger
Ġke ith
Ġcontrol s
Ġappoint ment
Ġmit chell
Ġstr ange
Ġchronic le
Ġb ag
Ġleuk emia
Ġep ic
Ġfe ud
Ġsubs id
Ġcar ries
b ow
Ġmain stream
Ġpare nt
Ġphys ic
Ġbl u
Ġhar bor
Ġmetropol itan
Ġachie vement
Ġr uth
d ale
Ġst ellar
Ġcooper ation
Ġhen ce
Ġinter cept
Ġj aw
Ġpo hl
Ġret al
ling er
Ġst yl
Ġ36 0
Ġg ael
Ġdr ivers
Ġbe ats
Ġspe aker
Ġswitzer land
Ġexec ution
an ag
ul ous
az er
ash a
Ġwander ers
Ġoff ering
Ġsm oke
Ġpre ston
im on
Ġ ian
ace ous
Ġtig ers
Ġdang er
Ġtemper atures
Ġ12 7
Ã© d
Ġid aho
Äģ d
Ġg ay
Ġher d
Ġ11 5
Ġdevelop ers
Ġsh im
Ġk Åį
Ġho over
Ġmcc art
Ġww f
Ġib is
Ġanim ated
il a
Ġsold ier
Ġdist rib
Ġran ks
Ġn ag
ak s
Å «
Ġark ansas
Ġo k
ter ior
Ġbron ze
Ġmach inery
Ġcarpent er
Ġdepict ing
Ġthem ed
Ġtast e
Ġgard ens
Ġgosp el
Ġprepar ing
Ġm ask
Ġtax onomy
Ġprec ip
Ġmeas uring
Ġpair s
Ġhelp ing
Ġjo h
ro g
m ates
Ġcon form
Ġ8 3
Ġpr inted
Ġconc ur
Ġtravel ing
Ġsl ip
Ġconver sion
Ġback ed
Ġpyr am
Ġ35 0
Ġelev ation
Ġdel aware
Ġtri um
Ġdu o
Ġout f
az a
Ġb our
Ġh ab
ime ter
Ġphen om
Ġprom in
Ġdraw s
Ġex clud
Ġfl esh
Ġsh irt
Ġchrist ians
Ġaer ial
Ġpar ach
Ġairport s
Ġre per
Ġsp ots
Ġst abil
Ġdur ation
Ġ17 4
Ġlif etime
Ġpattern s
ic ity
w al
Ġmad ero
Ġupr ising
Ġon wards
Ġpolic ies
Ġman ip
Ġcomp re
Ġfer ry
ob i
ig e
Ġs q
Ġsult an
Ġd ri
is le
Ġph one
Ġd ense
Ġnaz i
it ic
Ġinvest ment
Ġoff shore
Ġhun t
Ġexact ly
Ġy out
Ġyout ube
Ġten ure
Ġ16 8
Ġteacher s
Ġj ag
Ġfar ming
Ġtim ber
Ġstu art
rit e
ok en
Ġintern ation
Ġret ail
Ġrest ore
a wn
Ġsport ing
Ġdeput y
Ġtrav elled
Ġleon ard
Ġr ushing
Ġr us
Ġev al
Ġtr apped
Ġton in
Ġtonin Ã¡
Ġc ock
Ġres id
Ġcens us
Ġalbert a
Ġcomp ens
Ġin her
Ġarm oured
so ft
Ġbel gian
Ġknight s
Ġtr ails
Ġearn est
ber ry
Ġdo ver
Ġgael ic
Ġever ton
ale y
Ġmccart ney
Ġnad al
Ġis esi
Ġac yclic
Ġless ing
Ġk o
Ġmaint aining
ash i
Ġpos itively
Ġ184 0
Ġwa it
Ġn it
Ġfun ctions
Ġcru c
Ġclos ing
Ġ189 5
Ġc ards
Ġdon ated
Ġk ate
Ġtr unk
Ġalph ab
Ġinter actions
Ġindic ates
Ġdecor ated
Ġg arn
emb le
Ġemb arked
le ys
Ġres ol
Ġpen et
Ġback ing
Ġsy dney
Ġch op
Ġkh an
Ġreven ue
Ġsan ct
Ġtri o
Ġ190 2
Ġaim ed
Ġheav ier
Ġhand ed
ord er
Ġsuccess ion
Ġrecur ring
Ġsp ell
Ġman or
6 0
Ġrequ ires
Ġoper ational
Ġconcent rated
g ro
Ġdecl ar
t le
Ġir reg
Ġirreg ular
Ġcharacter istic
ver se
Ġdub bed
un c
Ġre op
s ky
os ph
Ġoxy gen
Ġhydro gen
Ġun st
Ġp est
Ġra ising
Ġfail ing
Ġcommand ers
ur ation
Ġla ure
Ġtwent ieth
z o
Ġencoun ter
Ġter rain
Ġsearch ing
Ġp ak
Ġaccur ate
and ra
Ġmat ters
Ġcandid ates
Ġball s
Ġse attle
Ġut ah
Ġsurv ival
Ġmanuscript s
Ġsym ph
Ġoper as
Ġder ff
Ġval ues
Ġfarm ers
Ġ11 8
Ġwell s
Ġwat son
Ġmad onna
Ġstrong est
Ġim b
ow ed
Ġpursu it
Ġle ct
Ġdis li
Ġall osaurus
Ġtiss ue
Ġp od
Ġpit ching
Ġthir teen
Ġm old
Ġveget ation
v ard
Ġcanc elled
Ġstav anger
st ers
ol ence
Ġtransm ission
ath y
Ġbul gar
Ġk au
Ġneut r
Ġcrusad ers
st reet
Ġjoy ful
Ġbow ling
Ġad ela
Ġadela ide
Ġshr ub
Ê» i
Ġal ive
Ġsh adow
Ġf u
Ġto ky
Ġcop y
Ġbal ance
Ġflow ers
Ġgu ar
Ġst or
Ġbor row
ission ed
em en
Ġsole ly
Ġsal mon
ip h
Ġqual ified
Ġmor ph
Ġw is
Ġs itting
ild ing
Ġxii i
Ġter r
Ġwy oming
Ġs ank
Ġcom fort
o ard
Ġ0 4
Ġfernand ez
Ġfour teen
v i
Ġt an
w ar
Ġhor ror
Ġmys elf
Ġw ore
Ġtour s
Ġhung arian
Ġeng agement
Ġsur prise
Ġser bs
Ġrem in
Ġconsist ent
Ġover s
Ġev olved
Ġdyn amic
Ġdesc ript
Ġg aining
Ġwh ate
Ġwhate ver
Ġfri ed
ra id
Ġg ig
Ġm ong
Ġto y
Ġserious ly
Ġcous in
Ġair field
Ġto uring
Ġhun ter
Ġincre ases
Ġlack ing
Ġab road
Ġcivil ians
Ġdon ald
Ġmin t
Ġacc eler
Ġstrong er
Ġfew er
Ġoccur ring
Ġt ort
igh ters
Ġbroad way
ograph ical
Ġmov ies
Ġmon key
Ġmother s
Ġun ex
Ġdetect ed
Ġgood s
Ġnumber ed
Ġcomp ilation
Ġmor gan
Ġse ats
Ġphotograph s
Ġsol ution
Ġfrag ment
Ġash ore
b ro
Ġbe ating
Ġw aves
Ġowners hip
Ġdivor ce
Ġwealth y
Ġwithd rawn
Ġatt itude
Ġpo ets
Ġuncle ar
Ġderff linger
Ġcold rum
Ġarchae ologists
Ġgr aves
am an
Ġred es
Ġhar ry
Ġh ugh
bl azer
Ġconc ession
ph one
oy d
Ġac ou
Ġsing ers
Ġsuccess ive
Ġcra f
Ġ il
Ġgram mar
ild a
Ġvolunte ers
Ġdinosaur s
Ġin ning
hu a
Ġ16 9
Ġre aches
ov a
Ġdud ley
Ġhal o
Ġconstit u
Ġcompos itions
Ġh pa
Ġwick ets
Ġfil es
Ġdown stream
Ġjer emy
Ġmon ster
Ġkr ist
Ġmemb rane
Ġle eds
Ġday d
Ġdayd ream
als a
Ġwitch craft
Ġhawai Ê»i
Ġchrist i
Ġverte x
Ġangel ou
sch ild
Ġh nc
thod on
Ġline ar
Ġsh ock
Ġident ify
Ġperm itted
Ġtele graph
Ġinterpre ted
Ġcap s
Ġrev ived
m ith
Ġpound er
Ġfore ver
Ġ10 6
Ġcapt uring
Ġd ick
Ġsting ray
Ġhabit ats
un es
Ġare na
Ġstar ter
Ġphys ics
Ġcontin uous
Ġp m
Ġ188 9
r act
Ġst ro
Ġend ors
els on
Ġpyram id
Ġrein forced
Ġvirt ually
any a
Ġcover age
Ġl em
Ġparticip ate
Ġes p
it o
Ġsympt oms
Ġwhe el
Ġexam ination
Ġ190 3
Ġcru isers
Ġsim pl
Ġact ed
fic ial
Ġdep iction
Ġtre nd
or ph
Ġmyster y
Ġall music
Ġr ar
c op
Ġhamp shire
Ġmain ten
Ġmainten ance
Ġgu ides
Ġappropri ate
Ġobt ain
Ġtar gets
Ġmicro scop
Ġcomm er
Ġcommer ce
anc hes
Ġge nder
Ġlov ed
ul ates
Ġvict im
Ġab use
Ġa ub
ur st
Ġbe au
Ġt ang
Ġgu ild
Ġhum or
Ġpregn ant
Ġopin ions
Ġge ography
Ġpres ents
Ġobv ious
ut her
Ġprotes ters
Ġcut ting
ap ing
Ġmarket ing
Ġs s
Ġz o
ric ts
Ġst akes
Ġmin i
Ġpro st
Ġne il
Ġarrang ements
Ġhon ours
Ġmay a
Ġreleg ated
en ess
Ġelect rical
Ġwell ington
Ġext inct
rom et
Ġvot es
Ġmet ro
Ġhe ir
ur as
orm al
Ġbut ter
Ġhosp itals
Ġ16 7
Ġc ott
Ġgovern ments
Ġmathem at
Ġtr ains
Ġho ok
Ġroman ia
Ġ ia
Ġpatri arch
zz i
u ters
Ġd ot
Ġarab s
Ġde er
elt own
Ġbrad street
Ġpuzz le
Ġpuzz les
isc us
Ġbed ell
Ġk ody
Ġroll er
Ġcy rus
Ġpir ates
Ġp istol
Ġtr ond
Ġroth schild
Ġsor a
Ã ¬
Ġjur chens
Ġmant ell
Ġtas ked
Ġdes per
Ġw re
Ġy am
Ġexclus ive
Ġr ivals
Ġhous ed
Ġper ceived
Ġlegisl ature
Ġauthor ized
Ġvic inity
Ġse ized
Ġse nding
Ġmarg aret
Ġclo thing
Ġexhib ition
Ġgu ine
Ġray s
Ġmat ure
Ġpros pect
Ġto b
Ġquestion ed
ur ance
Ġwor n
Ġdepart ed
Ġ24 0
Ġhe b
Ġp om
Ġhigh land
Ġdispl aced
Ġcon ce
ank a
Ġaud ition
f ast
Ġhel ps
Ġs ized
ly n
Ġun w
Ġresemb le
Ġunderst ood
Ġstat ements
Ġs ick
a ic
os ity
Ġpromot ional
Ġregister ed
Ġrestrict ions
Ġcolle ctions
Ġvul can
Ġ184 9
Ġden omin
Ġrenew ed
Ġblock ed
Ġm ate
Ġbru ce
Ġbomb ing
Ġaut obi
Ġtenn is
Ġa qu
Ġmcc ar
Ġman ual
Ġk on
Ġd il
Ġvar ied
Ġannounce ment
it ter
Ġk le
Ġimmig ration
Ġhol oca
Ġholoca ust
Ġbar rier
Ġeas ter
Ġoppos ing
Ġexpl icit
Ġdefe nder
Ġl umin
Ġchristian ity
Ġp as
Ġpr on
Ġindig en
Ġindigen ous
Ġl Ã¼
Ġinter state
Ġst all
Ġflood ed
ik k
Ġbreak s
Ġins urg
Ġbill s
Ġsc iences
Ġcons ent
Ġcryst al
Ġr ains
ath a
Ġam yl
Ġst er
Ġexperiment al
Ġml b
Ġtom my
Ġ23 0
Ġdrain age
Ġinf ection
Ġrece pt
Ġfort une
Ġpalest inian
ary a
ol in
Ġthe ore
Ġham per
Ġpre st
Ġhum ph
Ġshe ep
Ġzanzib ar
Ġoh io
Ġsav age
Ġsw amp
Ġtouchdown s
Ġh oll
Ġman uel
Ġkick off
ina e
Ġkilome ters
Ġlab yr
Ġlabyr inth
Ġi oc
Ġp uma
Ġtr istan
Ġr Ã¤
Ġrhodes ian
Ġet ty
Æ °
Ġbattle field
Ġinc ur
Ġtoky o
Ġsp o
Ġg aming
Ġdec omm
ir ts
u ations
Ġpers ons
Ġcl er
Ġloy al
Ġpres erve
Ġfuner al
t ical
j an
b orn
Ġar n
s ki
Ġdisappo int
Ġn ca
Ġnca a
Ġgreg ory
Ġcl ocks
Ġ15 1
Ġextend ing
Ġsp ar
Ġch and
r an
al f
Ġphil ipp
ap ur
Ġsc orer
Ġqu iet
Ġw ol
Ġy d
Ġcomp rom
Ġfem in
Ġreflect ing
Ġcor on
Ġan at
Ġabsor bed
are st
Ġcomp onent
Ġrebell ion
Ġdepend ent
Ġsl ayer
p se
Ġhard c
Ġk ids
Ġrepl ied
Ġv ital
Ġf aster
Ġrequire ments
Ġcompr ised
Ġadmin ister
Ġus ers
Ġcomple ment
il is
ĠÂ µ
Ġor ange
Ġf ires
Ġminim al
Ġloc ally
Ġenl ar
z ed
Ġph osph
ens ively
Ġmin isters
Ġgraph ic
it ary
Ġpl ag
Ġfle w
Ġresc ued
Ġdenn is
Ġs ag
Ġfun ny
Ġmc n
Ġdirect ing
Ġun e
Ġtour ism
op ing
it ely
Ġundert aken
Ġp ushing
Ġconf usion
Ġre un
Ġdr inking
Ġz agre
Ġdisturb ance
Ġpers ist
Ġneigh bour
Ġst ick
Ġbir ming
Ġbirming ham
Ġfamil iar
Ġintellect ual
Ġed ited
Ġdist ricts
Ġed it
m i
b u
Ġh ollow
Ġwas te
Ġz ero
Ġve gas
Ġt rough
Ġreported ly
Ġdyn am
Ġj av
Ġh ong
Ġwar n
Ġliqu id
Ġisot opes
Ġtick ets
Ġrub ber
Ġdi oc
Ġi owa
Ġas cend
Ġp am
Ġcl iff
Ġindig o
Ġbe eton
Ġm ild
Ġn ice
Ġne v
Ġsubt ropical
Ġvolunte er
Ġess ay
Ġfast est
c s
Ġ10 8
Ġcre utz
gu ard
Ġbarbar ian
Ġbos n
ra h
Ġbre th
Ġbreth ren
we gian
Ġhell blazer
Ġk yle
Ġhait ian
Ġdist ances
Ġdu et
Ġmin ers
Ġaster oid
Ä «
Ġpalmy rene
Ġbanks ia
Ġtrond heim
Ġh annah
Ġskin ner
br ush
ĠrÃ¤ ikk
ĠrÃ¤ikk Ã¶n
ĠrÃ¤ikkÃ¶n en
Ġst aley
Ġlover boy
Ġeccl estone
ar io
Ġess entially
Ġpra ising
qu ate
Ġexha usted
Ġmanufact uring
z es
Ġbarr acks
Ġrel atives
onso red
Ġbapt ist
Ġang le
Ġspec ulation
Ġconsist ently
Ġdisc ont
Ġens emble
Ġbe am
Ġlight s
n all
Ġab oard
Ġgl am
u ating
Ġl on
Ġsing h
Ġbeh alf
as a
Ġscholars hip
Ġcle vel
Ġclevel and
Ġkenn edy
est y
Ġtub es
Ġpoly t
Ġe ty
Ġety m
Ġobs c
Ġcob ra
Ġconcept s
Ġpriest s
Ġres ur
Ġgen u
Ġari z
Ġariz ona
Ġh itting
Ġhe aring
Ġme g
Ġbusiness es
Ġparach ute
Ġprov ision
ny i
Ġser b
Ġp f
Ġl od
Ġminor ity
Ġb un
Ġdev ice
Ġal de
Ġre ag
Ġext ensively
Ġvar iations
Ġesc aped
Ġnav ar
Ġd ancing
Ġchap ters
Ġen orm
Ġconj unction
Ġconqu est
Ġlam be
l ane
Ġr aw
Ġsquad rons
Ġcompliment ed
Ġass um
Ġm ond
Ġr ice
Ġcur ved
je ction
Ġsoft ware
Ġpl ed
Ġzagre b
Ġconv ict
Ġbeat en
Ġhug hes
Ġ11 1
Ġbr un
Ġp ok
Ġtom bs
Ġat op
Ġbed s
Ġby pass
Ġmark ing
Ġus ual
Ġlin er
Ġtribut aries
Ġmo ck
Ġmar ie
in aw
Ġre agan
Ġass ert
Ġprepar ations
Ġv ik
Ġrad ar
Ġluc as
Ġne p
Ġher b
Ġ190 6
Ġ190 1
Ġ189 7
Ġf ed
Ġgr ain
Ġta wn
Ġnas a
Ġarg uing
Ġmatt hew
Ġconf ession
pan i
Ġhob bs
Ġpant her
Ġ22 0
in ness
Ġnor wegian
Ġ181 9
Ġd s
Ġo rib
Ġder by
f ly
Ġbats men
Ġcorb et
Ġf ul
Ġ26 1
Ġqu iney
Ġfre akum
Ã¬ nh
Ġcrick ets
Ġsy Äģd
Ġcambod ian
Ġ æ
Ġmilit ia
Ġapp ly
Ġall ocated
Ġrep airs
Ġsc rat
Ġto ols
Ġcomm enced
bo at
Ġpost s
Ġcour ses
Ġdo yle
Ġsp onsored
Ġpr ay
Ġaff il
Ġex ceed
Ġt ai
Ġappro aching
Ġded ication
Ġb old
Ġun rest
Ġlo ad
Ġw ake
Ġv in
Ġtrav els
Ġaf ford
Ġrect ang
Ġtrium ph
Ġthr ill
Ġchalleng ing
Ġcommission er
Ġcar riage
Ġstead ily
Ġvel oc
Ġcent imetres
Ġegypt ians
p arts
Ġtrad itions
Ġconne ctions
Ġman if
Ġconcept ion
Ġinter medi
Ġven ue
est ed
Ġtem po
Ġjohn ny
Ġlic ens
Ġarg ument
Ġeurop a
Ġcompet itive
Ġmix ing
Ġbord ers
Ġd al
Ġsp ore
Ġpione er
Ġconcer ning
Ġ187 8
omet ric
Ġjos Ã©
Ġstory lines
Ġur ania
Ġabsol ute
Ġsexual ity
Ġde als
Ġs ant
Ġport ions
Ġtest ed
Ġg ut
Ġdiplom atic
Ġhead ing
Ġbut t
y ll
Ġbar re
Ġqu oted
Ġn aked
Ġair borne
Ġthreat s
Ġexpl ore
Ġmot if
Ġqu ad
Ġf its
Ġadv ised
Ġam end
Ġroc ke
Ġrocke f
Ġor al
Ġpolitic ians
Ġsimilar ities
Ġmur d
Ġso x
p et
t ime
Ġtransport ed
Å Ħ
Ġlack ed
Ġne olithic
Ġis les
Ġsl opes
m aster
Ġle ices
Ġadvertis ements
Ġf ier
Ġpred icted
Ġtrack ed
Ġhousehold s
Ġpl ains
Ġre ward
Ġsp awn
Ġgra ham
Ġen force
Ġcol ours
Ġme nd
Ġacou stic
Ġjust in
Ġn ig
Ġ15 4
Ġgrad uate
Ġpain ter
Ġken neth
Ġcoff ee
Ġp ear
Ġgle e
Ġbro od
g ans
Ġpred ict
É Ļ
Ġleg it
ect ive
Ġhom osexual
Ġy ang
Ġlia o
Ã ¢
Ġretrie ved
Ġwick et
Ġmar ge
Ġre ines
Ġs aving
Ġpagod a
l ical
Ġbre nda
Ġass y
Ġhumph rey
brace let
Ġber h
tw ald
Ġatl Ã©t
ĠatlÃ©t ico
Ġky ra
Ġvi ad
Ġmk hed
Ġï »
Ġpart ington
Ġkn ocked
Ġun less
Ġcommand ing
im a
its u
Ġ10 2
Ġit em
Ġpl acing
Ġborrow ed
Ġl t
Ġsumm ary
Ġsum mar
Ġdeter ior
Ġvers es
Ġ18 00
Ġqual ifying
Ġmil k
Ġtod d
Ġruss ell
Ġd ying
Ġpro ceeded
Ġcontin u
Ġexper ts
Ġheb rew
Ġly rical
Ġcalc ulated
Ġn h
Ġaust rian
Ġflag ship
Ġfrag ments
Ġeleph ant
Ġflood s
Ġinaug ural
Ġd ressed
Ġle af
Ġh od
claim ed
Ġcor rid
Ġfer d
Ġfl ot
Ġmyth ology
Ġanth rop
Ġfert il
Ġconstant ly
Ġtrou bles
Ġcontrad ict
Ġhapp en
Ġdist ant
Ġhop ing
Ġvul ner
Ġang ry
Ġmag ical
Ġc res
Ġwar fare
Ġrecre ational
Ġvis its
Ġun com
Ġconcent ration
iss ions
r ÃŃ
Ġce cil
Ġdeclar ation
Ġhe in
Ġe ating
ad ic
Ġfrank lin
Ġcop per
Ġwar ned
Ġret ain
Ġdens ity
Ġst ability
Ġconsum ption
Ġnavar ro
Ġign ored
anz a
Ġconsp ir
iv ation
Ġexe cut
Ġbern ard
Ġthor ough
Ġen roll
Ġt orn
Ġp and
Ġlo op
Ġfund ed
Ġ17 1
Ġdis rupt
Ġprocess ing
Ġscre ens
Ġsus pect
Ġm v
Ġr ip
Ġtal ks
Ġstud ying
Ġn i
ot ing
Ġeduc ational
at hetic
on ian
ill as
Ġamph ib
ent ine
un ning
Ġexpress way
Ġroad way
oc ation
Ġfav ou
Ġemot ions
Ġconv entional
Ġ13 1
Ġout d
as co
Ġant agon
Ġcelebr ate
Ġartic les
Ġoff s
Ġth ai
Ġinvestig ations
Ġvent ure
Ġll oyd
Ġf us
Ġapplic ations
Ġlanc aster
Ġp ush
Ġcondem ned
Ġimpro vement
cl er
Ġlege nds
Ġcath ol
Ġt ab
g ame
Ġtawn y
Ġstret ched
Ġgrass es
Ġinse cts
Ġf i
ert o
Ġsurviv or
Ġparticip ants
Ġsl ave
Ġb ishops
Ġka if
Ġkaif eng
it ious
Ġcan als
Ġvill aret
Ġkn ock
Ġv ist
Ġg ren
Ġtun nels
ar ius
Ġaltar piece
Ġsuper man
Ġafric aine
Ġgl an
Ġglan ville
ud o
Ġal fa
Ġcharm bracelet
Ġvand ern
Ġvandern oot
Ġec u
Ġat p
Ġaub urn
Ġcant rell
Äģ h
Ġmkhed ruli
Ġï» ¿
Ġm ott
Ġseem ingly
Ġwant ing
Ġimprov ements
Ġoccas ional
Ġbl oom
ĠÃ ¦
Ġbes ides
pl ace
Ġout s
Ġsuper v
Ġgat hered
Ġemploy ment
Ġsurrender ed
c ase
Ġdev oted
Ġhy m
a way
Ġprom ise
Ġpublisher s
Ġyor kshire
Ġman age
Ġsh allow
Ġph yl
Ġt ent
Ġvar iable
Ġgrow s
ip el
Ġf art
Ġmc el
at ers
Ġcl ergy
Ġb illy
Ġmemor able
Ġre jo
Ġinterse cts
Ġn elson
Ġspot ted
Ġsy l
Ġrep orter
Ġhuman itarian
Ġa y
Ġfin est
is ations
Ġaust ria
Ġaust ro
Ġbombard ment
Ġsur pass
Ġsha ft
Ġtas ks
Ġt ies
Ġind ire
Ġsupern atural
Ġhyp othes
Ġcent ered
f u
Ġ13 5
as ters
rib le
Ġlar ry
as hes
Ġv int
Ġem pl
Ġno ise
Ġg y
Ġbr istol
Ġdestroy ing
Ġrepeated ly
Ġdo zen
le cted
Ġexpl aining
Ġinnoc ent
bour ne
Ġbl ind
Ġp ent
Ġrepl acing
Ġun t
Ġjim my
Ġ12 9
Ġbar on
Ġbe er
Ġmccar thy
Ġly ing
Ġtru ly
Ġplan ets
Ġk al
Ġgang es
Ġbh air
Ġmon it
Ġcompre hens
Ġperman ently
Ġsail ors
Ġrockef eller
Ġath lete
Ġr p
a j
n as
ag ers
ib ilities
Ġsal ary
Ġprogress ed
Ġg ains
Ġuk rain
Ġpass ages
it udes
Ġe ug
th a
Ġron ald
Ġbelong ing
Ġ185 7
Ġ190 4
Ġe li
Ġleices ter
Ġul ster
Ġsh aw
Ġrem ind
Ġt ed
Ġ à
Ġbom bs
Ġur ged
f ish
Ġfl ows
Ġjump ing
Ġship ments
Ġreleg ation
Ġtr an
Ġsubst ance
ob ile
im er
u en
Ġs ina
Ġsina i
Ġorn ith
Ġmo ist
Ġimag ery
Ġteam mate
Ġunder go
Ġeight een
Ġcathol ics
Ġboy friend
Ġtrans cription
Ġu y
Ġwitness es
Ġbou le
Ġexerc ise
Ġang les
z u
Ġtrack ing
ac on
f ace
Ġ11 6
Ġdec ide
Ġm h
Ġcal cul
Ġplan es
al ous
Ġg iel
Ġgiel g
Ġgielg ud
aim an
ri x
Ġlo ch
Ġc ps
Ġind olence
Ġbu oys
Ġtrans its
opl asm
Ġbut ton
Ġel gin
Ġste g
Ġqedar ites
Ġjackrabb it
Ġw no
Ġberh twald
ou li
Ġlang ued
Ġlangued oc
Ġra jam
Æ ¡
Ġvert ices
Ġviad uct
ak im
Ġb ub
Ġmyster ious
f ound
ik o
Ġjournal ists
us a
Ġcr im
Ġsix ty
Ġsh all
Ġdest ination
Ġinv ent
Ġmed ic
Ġfa ulk
Ġfaulk ner
Ġgather ing
Ġdecomm issioned
Ġremark able
Ġadv ances
Ġphyl ogen
Ġd ors
Ġd ent
Ġpredomin antly
Ġmont real
Ġpublic ly
Ġfor d
Ġinstrument ation
Ġcirc ular
Ġshif ted
Ġsongwrit er
Ġgarn ered
Ġmerch ant
Ġdis gu
Ġrectang ular
Ġlaw yer
Ġma hes
Ġr amp
Ġf ighter
Ġevery day
iv an
Ġdeal ing
bor o
Ġton nes
Ġtur key
Ġrit uals
Ġoffer ings
Ġestim ates
Ġperfect ly
Ġdevot ion
or ic
Ġc attle
ru ption
Ġlim its
Ġlandsc ape
is ons
Ġce ased
Ġcomplic ated
Ġord inary
Ġintermedi ate
ast s
Ġcol ors
Ġstat ue
d ict
Ġven ge
Ġguitar ist
Ġsac rif
thod ox
Ġkick ed
Ġhelicop ter
Ġinvol ves
Ġint end
Ġsy nd
Ġrob inson
er ia
Ġaccept able
Ġweaken ing
Ġsens itive
Ġyugosl avia
ill es
Ġfung i
ul es
Ġ184 8
Ġsen ate
Ġsa u
g om
Ġsynthes is
cl am
Ġviol ation
oun ced
Ġrespons es
Ġra pe
Ġanton io
Ġsurpr ised
Ġprohib ited
Ġmaur ice
Ġcampaign s
Ġobser vers
Ġimmig rants
d ie
se ason
Ġnar rator
Ġbra h
Ġax is
et ics
on i
Ġdev in
Ġavo ided
Ġtrav elling
Ġswe ep
Ä į
Ġbo hem
Ġaccommod ate
Ġprecip itation
Ġb ug
Ġrel ax
Ġrestaur ants
re ated
Ġmet ric
Ġhun ters
Ġwood land
Ġ urg
Ġevac uated
on ed
Ġco at
ĠâĢ ¦
Ġinternation ally
Ġtem pl
Ġgl or
Ġaltern ate
Ġfriend ship
Ġsib lings
Ġmill s
Ġs acked
Ġâ Ĩ
ĠâĨ Ĵ
Ġreserv es
Ġbrig adier
Ġle ban
b i
Ġenorm ous
Ġpet ition
Ġcre t
Ġcret aceous
Ġpol ar
romet ric
Ġs cler
Ġscre ened
Ġsc ots
Ġop ined
Ġsufficient ly
Ġab n
Ġnev ada
Ġlin ks
Ġgl ac
Ġcommand ments
Ġann als
Ġind oor
Ġcomp uters
Ġturn p
Ġn an
Ġbib lical
Ġastronom ers
Ġbrad man
ĠkÅį s
ĠkÅįs aku
Ġhum pty
Ġshim om
Ġshimom ura
Ġg ack
Ġgack o
Ġn us
Ġtact ical
Ġport able
Ġvar ies
Ġtro op
Ġswit ch
Ġcal iber
Ġnap ole
Ġnurs ery
Ġfocus ing
Ġsec ular
Ġcollabor ated
Ġnat urally
Ġalphab et
Ġchalleng es
Ġin e
Ġmem oir
Ġextend s
Ġdem anded
Ġopt ions
h aw
Ġjul ian
Ġhighlight ed
Ġwal ks
Ġcas em
Ġbo il
Ġsw ing
Ġa ided
Ġr iv
Ġrelie ved
Ġmal ays
Ġconf idence
Ġcame o
Ġmahes h
em a
Ġpreced ing
Ġhal ted
Ġaware ness
Ġindire ct
Ġper ception
Ġp t
Ġdream s
Ġgovern ed
Ġdeliber ately
Ġfin n
Ġin ver
Ġmo th
Ġ17 2
Ġel ig
Ġcommerc ially
h ous
Ġ185 6
om yc
Ġliber ty
Ġpal m
Ġcol omb
Ġfin ance
Ġ185 4
re z
c ar
Ġinstrument al
Ġly n
ÃŃ n
Ġacc us
Ġportray al
Ġimp osed
Ġr ushed
Ġnick n
Ġscreen play
Ġmich a
Ġc able
ows ki
Ġ17 3
Ġpak istan
c ks
al t
Ġkn ee
Ġcycl ones
Ġdisband ed
Ġrele asing
Ġinterview s
ĠÃ ¥
Ġsym met
Ġgust s
en ged
Ġcrow ds
Ġd re
Ġsemif inals
land o
d ed
port s
Ġsc ores
Ġcomment ators
Ġindu cted
Ġman sion
Ġpol es
qu es
Ġc ats
ach ment
c ence
Ġg ry
Ġb unk
ot al
Ġmo od
Ġu m
Ġelev enth
Ġh ide
ret t
Ġse am
Ġk an
Ġreal ised
Ġnichol as
Ġfl av
Ġman s
Ġglad stone
Ġinterpret ation
Ġle ather
Ġgab ri
ros aurus
Ġhyg rometric
Ġdr unk
Ġcomment ary
Ġwood s
Ġw isc
Ġwisc ons
Ġwiscons in
Ġdw ight
Ġlim estone
Ġwe igh
Ġtr inity
Ġlearn s
Ġm entions
Ġfox es
Ġmy el
Ġther apy
Ġuy gh
Ġsil k
ult y
velop ed
Ġd ign
Ġray mond
Ġbe th
ac he
Ġpop ulated
ull ivan
Ġreform ed
Ġgang an
Ġp es
z ing
Ġrob ot
Ġpet e
Ġreservoir s
Ġc g
Ġ urn
Ġag ar
Ġre na
Ġco aster
Ġbe nd
Ġbe ak
Ġwik iped
Ġx box
Ġx ook
Ġcad ets
Ġorib i
Ġ ÃŃ
Ġimb udo
Ġmont fort
Ġdiv ines
Ġb Ã¬nh
Æ° Æ¡
Æ°Æ¡ ng
Ġnus kh
Ġnuskh uri
Ġpf aster
ed e
Ġsk ill
Ġplay able
Ġent ert
Ġk ub
Ġreal istic
Ġ189 4
Ġex terior
i ors
Ġprov isions
Ġw are
Ġcompr ising
Ġrep a
Ġdraw ings
Ġblack ie
Ġprint ing
Ġexhib ited
Ġthough ts
Ġcompet ed
Ġk u
Ġint act
Ġarch ipel
Ġguine a
Ġec ology
Ġn ik
Ġpit ts
Ġpropos als
Ġas k
Ġdeal t
Ġav al
Ġconnect s
Ġastronom ical
m ation
Ġtel esco
Ġtelesco pe
Ġ189 8
Ġmaria h
Ġas p
Ġf ra
Ġdam ages
Ġaff air
ord ination
Ġnon et
Ġnonet heless
Ġt at
Ġdesc ent
Ġexha ust
Ġr ut
Ġstay ing
Ġsp okes
Ġter ry
Ġinv itation
it is
Ġattend ing
Ġsm s
ar o
Ġveloc ity
Ġfound ing
Ġdivers e
Ġrecogn ize
Ġel ite
Ġhar vest
Ġmanif est
Ġro ot
Ġinterv ention
Ġguid ance
o ter
Ġbrazil ian
Ġis n
Ġcateg ories
Ġnav igation
Ġdevelop ments
od ed
Ġcon ceived
Ġhem isp
Ġorgan ic
ĠÂµ m
Ġex ternal
Ġox id
Ġsp or
Ġansw er
Ġ185 1
Ġmont gom
Ġmontgom ery
Ġpay ing
Ġ10 9
c r
Ġk et
st s
Ġcr ush
Ġvar gas
Ġtransform ed
Ġfrequ ency
Ġgu ards
Ġfor get
Ġop ens
Ġobser ver
Ġdar win
ic i
Ġk atherine
ner y
Ġpre l
Ġmarsh al
Ġen abled
Ġscript s
Ġapart ment
es ter
Ġv ishn
Ġincom ple
ad h
Ġth read
Ġb ent
Ġb ould
Ġdecl aring
Ġtour ists
Ġcomprehens ive
Ġstr apping
Ġdru gs
Ġrel ay
Ġdissip ating
Ġassoc iate
Ġappe als
Ġhar ris
Ġbatt ing
Ġor lando
Ġb ry
Ġcontem por
Ġco aches
Ġimpress ive
Ġinv aded
Ġadd ressed
Ġestim ate
ÅĤ aw
Ġrevers ed
ri ers
en burg
Ġber g
Ġspec ulated
Ġposition ed
Ġexam ined
Ġpet ro
Ġretal iation
Ġrh ode
Ġkick ing
Ġgab bar
Ġvill ain
Ġz ones
Ġthe sis
Ġdec oration
Ġinterview ed
Ġse ar
be at
Ġelect ro
Ġpress ed
Ġmark ets
c ont
Ġcelebr ation
Ġjo an
Ġprose c
Ġf itz
Ġdif f
Ġmam mal
ic us
Ġhygrometric us
ct ic
Ġknow s
Ġle agues
Ġd irt
Ġre h
Ġ188 1
Ġpresbyter ian
Ġrap ids
Ġpul p
Ġs aints
Ġhur t
Ġal co
Ġarr ives
Ġwall ace
Ġunex pected
Ġch i
Ġmig ration
Ġp all
Ġpu erto
Ġgo th
Ġdire ctions
Ġoverwhel ming
Ġg ur
Ġs f
Ġcov enant
Ġ12 00
Ġmon aster
Ġin gr
Ġwel come
Ġd ian
Ġlanc ash
Ġlancash ire
Ġgangan elli
Ġfer r
Ġus er
Ġre vel
Ġber gen
umber land
Ġ183 2
Ġext ant
Ġmos que
Ġbrack nell
Ġfast ra
b ach
Ġgu inness
Ġwin ners
Ġnaz aire
Ġcon so
Ġconso le
Ġmor o
ab a
Ġhel m
Ġ73 7
Ġc akes
ĠÃŃ mar
Ġkat ia
Ġk ab
Ġmcel roy
Ġrajam ouli
Ġparan thodon
Ġpav n
Ġmh alsa
Ġpen al
Ġm aps
Ġrev enge
Ġce ase
Ġnew found
Ġbon us
Ġ15 2
Ġrep et
Ġadapt ations
Ġprincip le
Ġconsequ ence
Ġmuseum s
Ġfe ars
Ġw ire
Ġsit uations
Ġmar ched
Ġcann on
Ġsc ope
Ġbul let
Ġse ed
ol ph
Ġt uck
Ġsevent een
qu is
ke eper
Ġcost umes
Ġconsc ious
Ġgib son
Ġb ann
Ġgo ver
Ġelev ated
Ġarchipel ago
Ġencoun ters
Ġplayoff s
ter y
Ġamaz ing
ss on
Ġap ost
Ġ189 1
Ġpap al
Ġraf ael
umber ed
Ġal ignment
Ġ186 5
in der
Ġlay ers
Ġm ounts
Ġexplos ive
Ġpow der
Ġs ri
Ġgrad uated
Ġrom ance
Ġinc red
Ġind o
Ġmut ual
Ġlight ning
Ġcent res
Ġpark er
Ġbo o
n an
Ġkar l
Ġaccept ance
Ġremin is
Ġmet aph
Ġpop ul
Ġw er
Ġemot ion
Ġinhab ited
Ġhuman ity
Ġmess ages
Ġacknowled ged
Ġins isted
Ġass erted
Ġdescript ions
Ġa rose
Ġabund ance
Ġinvol ve
Ġg ree
Ġvocal ist
Ġreview ing
Ġsil ent
Ġdiscuss ing
aly pt
Ġcorrespond ing
Ġenthus i
Ġ10 3
Ġhand ling
Ġdisc our
Ġn aut
Ġmon ten
Ġmonten e
Ġabund ant
Ġme ter
Ġmill ions
Ġcon ven
Ġrever se
Ġelimin ate
back s
k ov
Ġd ÃŃ
ĠdÃŃ az
Ġpro g
clam ation
Ġch in
Ġll osa
Ġan ger
Ġsex ually
Ġm ere
Ġl oren
Ġhy per
Ġbr ings
ge on
Ġexped itions
p her
Ġpass enger
Ġpat ro
Ġsn l
Ġsat ir
at ch
Ġdecre ase
Ġrad ius
ap a
Ġh ood
Ġspe ar
Ġl ing
Ġp ose
Ġhi atus
Ġaccompl ished
Ġw ished
Ġgen res
ov ac
Ġem ig
Ġparticip ation
Ġcamer as
Ġro ut
Ġhost s
Ġmv p
Ġbar ons
ap olis
Ġattend ance
Ġsymb ols
Ġm ak
Ġz im
Ġdav ies
Ġrat io
Ġkill er
Ġreact or
Ġbattlecru isers
Ġtorpedo es
Ġpil gr
Ġpro xim
Ġ188 2
Ġredes ign
Ġfavou rite
Ġpoint ing
Ġn ose
Ġlast ing
Ġye ov
Ġyeov il
Ġdeb t
Ã© l
re ct
Ġ Ø
Ġoccup y
Ġg ru
Ġden mark
Ġmam m
Ä ĥ
Ġo j
Ġqu inn
il and
Ġbes ide
p ack
Ġv est
ist ical
Ġru ins
Ġsub d
Ġlow land
um s
Ġweak ness
Ġro k
Ġhot els
Ġcard inals
Ġse an
ar r
Ġpath s
Ġteach ings
Ġrand om
Ġhem m
Ġhamper ed
Ġcrus ade
Ġs ullivan
Ġplatform s
u i
iz ong
Ġse w
Ġjen kins
Ġalg ern
Ġalgern on
Ġg we
Ġle in
ick en
Ġcounter att
Ġmagdal en
Ġpar rot
Ġep s
Ġjud o
Ġstew ie
Ġdum pty
Ġmcl aren
Ġfe z
Ġne a
Ġdownload able
Ġow ing
Ġseg ments
Ġann oy
Ġ Åį
l an
Ġcrim son
Ġfront ier
Ġdispat ched
Ġstor age
Ġscrat ch
Ġper c
os ition
Ġsket ch
Ġ186 2
Ġreb el
Ġenl isted
Ġexhib it
Ġang lic
Ġbelong ed
Ġwal d
Ġma id
Ġno st
Ġgover ning
Ġlack s
Ġround ed
Ġfair ly
Ġbru ins
anc he
Ġcomm odore
av ian
Ġe cl
Ġg endar
Ġexpl an
bo ards
Ġr al
Ġconf used
ab h
Ġorgan isations
Ġsanct uary
Ġover come
Ġfe ared
Ġferd in
Ġferdin and
Ġreminis cent
Ġsub ordin
Ġinter act
Ġcl a
Ġinc ons
Ġstat ues
Ġdark ness
Ġninet eenth
Ġemphas ized
he rent
Ġvulner able
i u
Ġdeb ated
Ġarg uments
Ġm um
Ġbl amed
Ġdes ired
Ġlat est
Ġpers isted
Ġr iff
Ġhe nd
b al
Ġrend ition
Ġcert ifications
Ġh av
Ġless ons
Ġdr agon
Ġpe er
al ent
Ġadminister ed
Ġdemonst ration
Ġbes ie
Ġsubmar ines
Ġjoh ann
ut t
Ġdeep ly
Ġco ined
Ġr im
Ġsal t
Ġpro of
Ġadv ocated
Ġident ical
Ġchem istry
Ġy l
Ġox ide
Ġeff icient
Ġex ile
Ġhe s
Ġfocus es
m o
Ġdisappe ar
Ġdev il
Ġdist ort
Ġimag ination
Ġagre es
Ġind ies
Ġbomb ers
Ġser ge
to ok
Ġcompan ion
Ġme at
Ġpatro ls
Ġsub urb
Ġsch m
Ġelement ary
Ġhon ors
Ġj ess
Ġch al
Ġch amb
Ġclou ds
Ġdep ress
Ġmin ing
ab ad
Ġabsol ut
f ar
Ġjam ie
Ġrecru ited
Ġsumm it
Ġc ree
Ġk ra
Ġentire ty
Ã ´
Ġsl aves
Ġsw ift
Ġtarget ed
Ġdiss ent
Ġfil ed
Ġconstitution al
don ald
Ġg olf
Ġsign ature
Ġwarri ors
Ġbob by
Ġthom p
Ġthomp son
ut s
Ġforb idden
in er
Ġst aged
ugh t
Ġb ree
arn ation
Ġcon clus
4 0
Ġh ack
Ġcomp art
Ġhe ars
Ġcomp aring
Ġhol es
Ġsuper st
cast le
st own
Ġnew port
gen er
Ġoverwhel med
Ġaffect ing
ac o
Ġextra ordin
Ġlog s
Ġexe ter
Ġintellig ent
ing ham
je ctions
Ġlaw su
Ġjan et
Ġthro wn
Ġbroadcast ing
Ġfrig ates
Ġr ia
Ġaggreg ate
Ġprog ression
Ġl an
Ġunst able
Ġneigh b
d r
ic on
Ġcraf ts
cl air
Ġske let
Ġ189 6
Ġsp elling
id ia
od er
Ġopt im
Ġcook ing
Ġenzy mes
Ġexc iting
Ġche ese
Ġbind ing
Ġch ances
Ġnick named
Ġcongreg ation
ang el
Ġhand le
p in
Ġbreed s
Ġplum age
Ġgen es
Ġg em
Ġgoth ic
Ġdevelop er
Ġtr uck
Ġ15 6
Ġch u
Ġsha olin
Ġdiscover s
Ġabb ot
Ġp amp
Ġnep hew
Ġzomb ie
Ġneutr ino
Ġnorth umberland
Ġd y
Ġgwe nd
Ġk aiman
Ġcom et
b it
Ġlein ster
Ġcampb eltown
Ġcommand o
i Ã¨
ber ger
Ġmary ang
Ġwolf pack
Ġdur ham
ros aur
Ġwikiped ia
uch i
Ġmcn ichol
Ġch au
Ġp esh
Ġper on
Ġver st
Ġverst app
Ġverstapp en
Ġbern iss
Ġberniss art
ĠsyÄģd v
Ġamyl ost
Ġamylost ere
Ġportra its
Ġconf ron
Ġer ror
Ġ ãĤ
Ġlif estyle
Ġcro s
Ġed itions
Ġsuff er
Ġ ãģ
Ġrum ors
Ġnapole on
Ġexcell ent
Ġpro c
Ġhop es
Ġmur phy
Ġ187 4
Ġ189 3
o thy
Ġin gram
ig s
Ġcoast line
Ġbare ly
Ġfunction al
Ġo v
i ating
Ġcurt is
Ġdig it
Ġstop ping
Ġreg ulation
Ġimplement ed
Ġmu ham
Ġremix es
Ġres ort
Ġconcur rent
Ġb m
Ġanch or
Ġdis char
Ġhoriz ont
ig hed
Ġobst acles
Ġdis abled
Ġman eu
Ġd anc
ik a
Ġunf ortun
Ġb ach
m ph
Ġfight s
Ġd read
Ġpre hist
Ġlabel ed
Ġ10 7
Ġmist aken
Ġcivil ization
Ġom n
Ġspecial ized
Ġdr ink
Ġcon vey
Ġref uses
Ġun ity
Ġjud g
Ġtot ally
Ġcrown s
Ġpros per
Ġtradition ally
Ġthan ks
ov es
Ġdrum mer
Ġven om
Ġl ions
Ġfl own
Ġhelicop ters
Ġspect rum
Ġtechn ologies
Ġreper to
op y
Ġframe work
Ġpro ced
Ġg ale
Ġp y
Ġv it
Ġc ort
Ġm ck
Ġunus ually
et her
Ġgu th
Ġguth rie
Ġo val
Ġtr iv
Ġin ex
Ġdo ors
Ġt iny
Ġ189 9
Ã º
Ġresign ation
Ġwitness ed
Ġf ails
ph an
Ġnickn ame
Ġupd ate
Ġwh is
Ġdel ight
ib an
Ġell is
Ġmonth ly
Ġin cl
Ġun esco
Ġne arest
Ġst up
Ġincomple te
Ġbhair ava
Ġsam ples
Ġst ress
Ġsubject ed
Ġdri ft
i ates
Ġchall enged
Ġsec uring
Ġfe ver
Ġf oul
m ad
Ġcontr acts
Ġsoviet s
is ive
Ġlith uan
Ġhars h
Ġand r
Ġcar rier
Ġturb ines
ĠlÃ¼ tz
ĠlÃ¼tz ow
Ġproxim ity
Ġde br
Ġdebr is
Ġsax on
Ġsuggest ion
Ġunc over
Ġk av
chang ed
Ġit v
Ġlisten ers
Ġsp oken
Ġbl ank
g gy
Ġst uff
Ġde gener
st orm
Ġfatal ities
writ er
h o
ades h
Ġstri ker
ter ing
Ġth ail
Ġthail and
com mun
Ġtele phone
ed ing
Ġposs essed
ri et
Ġfrig ate
Ġt apes
Ġbond s
id al
Ġdepos its
ub le
Ġre organ
Ġari k
qu et
Ġsy ria
Ġnorm and
in ces
e ing
Ġprosec ution
od ont
Ġexpl ored
Ġamb ition
Ġ97 8
r ist
Ġexpand ing
Ġprompt ing
om y
Ġjos hua
Ġhe d
em i
Ġsp y
Ġmet s
Ġ ËĪ
Ġp ock
Ġcl air
Ġbu en
he ning
Ġjud ith
Ġrender ed
Ġcour age
Ġrid ic
Ġphenom enon
Ġconf essions
Ġg if
Ġintrodu ces
ac ements
Ġfort ress
Ġfl air
Ġpoet ic
Ġliv est
Ġlivest ock
op le
Ġclear ing
Ġcl aws
Ġsus que
Ġturnp ike
Ġje alous
Ġcrusad er
au x
Ġd ining
Ġcan ons
Ġcarl os
Ġcoal ition
Ġ ãĥ
Ġsn ap
Ġind ie
Ġcl ad
d ings
Ġr na
Ġfoss il
Ġrow ley
Ġmor itz
Ġmd ot
l ayer
Ġalde an
Ġn ok
Ġhair an
Ġt zu
ay ana
Ġvist ara
Ġchan ology
Ġh akim
Ġia af
Ġâ ĺ
Ġga oz
Ġgaoz ong
Ġcop ia
Ġbo ost
Ġscen ario
Ġt une
Ġord n
Ġfab ric
Ġcruc ial
Ġrepa ired
Ġdeploy ment
Ġf oster
Ġland mark
c ock
Ġcorrespond ence
Ġfair y
Ġforg ot
Ġcontin ent
Ġveter an
Ġdiscuss ions
Ġun h
Ġrook ie
ard i
Ġimpro ving
h in
Ġrang er
Ġle o
Ġdiscont in
Ġdon ations
Ġp ont
co pe
Ġce iling
Ġmechan ism
Ġral ph
Ġem pty
Ġp ump
Ġinterse ctions
Ġblock ade
Ġc yl
et ed
Ġdispers ed
Ġsyl v
ful l
Ġin hib
Ġrem ake
Ġcelebr ity
op ol
al o
Ġmanufact ured
Ġsomet ime
Ġse ated
Ġhen ri
Ġdistingu ish
Ġdis order
Ġrem ote
Ġcompet ing
Ġsepar ately
Ġbre ast
Ġkind s
Ġgu it
Ġguit ars
Ġh ate
Ġphot ography
Ġcar roll
Ġsc ream
Ġrem ar
wor ld
Ġtax i
Ġro g
Ġlif ted
Ġreflect s
d ish
Ġhemisp here
Ġd ull
Ġminer als
Ġbreak down
or rh
Ġpersu aded
Ġor le
Ġorle ans
Ġtrib e
m ers
Ġl one
Ġout r
Ġter rible
Ġcar r
Ġass a
Ġcub a
Ġjo ins
Ġloren zo
Ġaff ir
it ate
Ġf ighters
Ġjer ry
Ġdel ays
air n
st ock
Ġgu ided
Ġmater nal
Ġkit chen
Ġtrad em
Ġachie v
Ġachiev ements
el ope
as p
Ġcur ve
Ġbudd hist
Ġclust ers
Ġhair st
p ur
Ġprincip les
Ġgal ax
Ġg and
h s
Ġwor se
v y
Ġremov ing
Ġli am
ed ed
n ik
Ġconsider ably
ol k
Ġdro wn
Ġprevent ing
Ġnewfound land
Ġsus pected
Ġsevent eenth
an ian
Ġdec iding
Ġsuper vis
Ġaver aged
Ġdraf ted
Ġcell ular
Ġstrike outs
Ġrel ied
Ġprol ong
Ġdiss olution
Ġp orn
Ġt ension
ith m
Ġpl a
Ġd iction
Ġret reated
Ġtransm itted
it ch
Ġmor ris
Ġ189 2
Ñ ģ
Ġmort ar
li ke
Ġf let
ass y
Ġt ides
Ġhel en
Ġwid ow
at ra
Ġfl ame
Ġworks h
Ġsm art
Ġmid field
Ġjos h
cour se
Ġt in
Ġmon k
Ġetym ology
Ġpat ients
Ġsu ez
Ġprov inces
Ġb io
Ġb ot
Ġwork er
Ġg el
Ġen o
Ġd imin
Ġgri ff
ops is
Ġump ire
Ġoj ib
Ġtr ap
ach t
Ġd ug
Ġpal mer
Ġmar ily
Ġmarily n
Ġalco hol
in ich
Ġad rian
Ġru f
iv orous
Ġdise ases
Ġlith u
Ġlithu ania
Ġblood y
Ġalg or
j iang
er ts
t ory
Ġ185 9
Ġstrengt hening
Ġstre ams
en z
Ġliber ation
Ġdem ographic
Ġnumber ing
Ġout put
Ġassess ment
Ġ10 4
d ling
Ġun ic
Ġconstant in
Ġt ir
Ġex h
Ġcanc eled
Ġconfl u
Ġsusque h
Ġmon ica
Ġgwend olen
Ġger ald
Ġround ab
Ġkaiman awa
j in
Ġn em
Ġtr il
Ġbrown s
ur t
ton a
Ġsa ig
Ġsaig on
Ġreb bie
Ġe ly
Ġro by
Ġroby n
k ary
Ġst iff
Ġsp erm
osom es
Ġcl an
c ade
Ġsub f
Ġk aw
Ġmod es
Ġmultip layer
Ġmer ri
Ġan sel
Ġboot leg
Ġjackrabb its
Ġpesh kin
Ġingr id
Ġjul io
ens on
Ġbould er
Ġsol ita
Ġsolita ire
Ġtop ological
Ġar be
Ġo ke
Ġoke ech
Ġokeech obe
Ġokeechobe e
ĠsyÄģdv Äģda
Ġgh at
Ġdom nall
Ġâĺ ī
Ġdo of
Ġrepl ay
Ġattrib utes
Ġtre ason
Ġincur sion
Ġprof ound
Ġordn ance
Ġ186 3
Ġrec apt
Ġf urn
m und
w ald
Ġafter ward
Ġcost ume
Ġf ont
Ġpreserv ation
Ġcry pt
it ating
Ġsed iment
Ġte nds
Ġcou pled
Ġacqu is
Ġan k
Ġco y
Ġmanufactur er
Ġnash ville
Ġpe nd
Ġ188 8
Ġver n
Ġnorth western
Ġsav annah
Ġsc ales
Ġcontrib utions
Ġconf ident
Ġliter ally
Ġk um
ust er
Ġmid way
Ġt um
other apy
Ġcorrid or
Ġ12 6
Ġscr ap
Ġph ara
Ġh ier
Ġin ac
Ġincorpor ates
Ġpr ayer
Ġod d
Ġvint age
Ġlic ence
o ons
Ġcharacter ised
Ġrecru it
Ġlo os
Ġreperto ire
Ġ35 5
Ġthere by
Ġdro pping
Ġfr anz
Ġnaut ical
orrh iz
Ġmet als
Ġ183 6
le ted
enc er
ou b
Ġbr anches
Ġenlar ged
Ġwhe at
Ġsupp lied
Ġreop ened
Ġye oman
Ġregard less
Ġdepend s
ug g
h or
Ġimprison ed
Ġag encies
Ġfe ast
po ints
Ġrecall s
Ġj umps
Ġbet ray
Ġphys ically
Ġloy alty
hel or
Ġspr ings
Ġke en
Ġsar ah
l ot
Ġmis under
Ġbarb ara
Ġor thodox
Ġch ile
Ġcut s
Ġvishn u
Ġm ound
Ġske leton
Ġcres cent
Ġjew ell
Ġmir ror
ay an
Ġp ond
ogen ic
Ġvisit or
r un
Ġprol ific
Ġarm our
Ġcompos ers
Ġleon ardo
Ġbel le
Ġlegisl ative
Ġswe pt
Ġqu it
Ġthrow s
Ġmanag ing
Ġpart ition
Ġanne x
Ġori ent
Ġfar ms
Ġsymph ony
ip er
Ġar ist
Ġphilos opher
Ġman ning
Ġatom ic
Ġinter rupted
Ġamphib ious
Ġfolk l
Ġfolkl ore
Ġdescend ants
Ġter med
Ġscand in
Ġge ological
rest rial
ost ic
Ġp ile
Ġsepar ation
Ġdoll s
ac rit
Ġ11 9
Ġk arn
al i
Ġsit com
Ġst ans
Ġstans field
b one
Ġgenu ine
Ġsum mon
Ġ13 7
Ġlawsu it
Ġswim ming
Ġmc g
Ġneut ron
Ġconcent rations
Ġsubst ances
iz ers
Ġarik amed
Ġarikamed u
cont inent
ell or
Ġad en
Ġ187 7
rom e
Ġscler oder
Ġnight s
Ġsin clair
Ġbar nes
Ġdioc ese
Ġun em
d ock
Ġso ap
Ġm im
Ġtribut ary
Ġmamm als
Ġinf ected
Ġabn ormal
Ġpro gn
Ġant ib
Ġul tr
Ġtrig ger
Ġdemand ing
Ġch asing
Ġw ang
Ġz hang
Ġq i
Ã¡ l
Ġexpl orer
Ġfac ulty
Ġhut ch
Ġdetect ive
Ġsouth western
Ġbuen os
Ġa ires
Ġneighborhood s
Ġcommit ment
Ġfran Ã§
Ġinvestig ate
d am
Ġpro be
Ġcol ored
Ġcontr ace
Ġparalymp ic
Ġem ma
Ġnichol son
Ġ é
Ġcommun ists
l f
Ġout fl
Ġremn ant
Ġcle ment
Ġwil f
Ġm ating
Ġfrust rated
Ġattr active
Ġhosp it
Ġhospit all
Ġd rought
Ġunsuccess fully
Ã «
Ġflor a
Ġtrad ers
Ġproceed s
Ġst ump
ast ian
d ers
Ġdel ano
Ġtril ogy
Ġres olved
Ġchann els
Ġk od
Ġk end
Ġh ond
Ġarc ade
Ġvis ions
p ol
Ġansel m
Ġcart y
Ġdur and
Ġd ads
Ġloy als
Ġloyals ock
Ġnucle i
ogn s
Å ¾
Ġw c
Ġcom air
Ġcruiser weight
Ġchar an
Ġdod o
ap ter
Ġgraph s
Ġdoof ens
Ġdoofens hm
Ġcomp at
Ġpan els
Ġrel ating
Ġwre ck
Ġe ase
Ġdeleg ates
Ġdesper ate
Ġguar ant
ra ham
Ġconqu ered
Ġ75 0
Ġp ist
Ġevac uation
e le
Ġmer ged
Ġrel ocated
Ġpost hum
Ġpriv ile
Ġbar k
Ġread ily
Ġsus sex
Ġmel anch
Ġdepict ions
Ġrhy mes
Ġpo ver
Ġpover ty
Ġrow s
Ġg est
Ġfart her
Ġemb ry
Ġmat urity
ct ive
Ġass essed
ass ed
Ġout come
Ġ15 7
Ġenh ance
Ġres pected
Ġthick ness
ue z
Ġfort ified
Ġpom pe
Ġcatholic ism
Ġhighlight s
Ġhorn s
Ġmel od
Ġform ations
Ġgl as
Ġwe ighed
Ġs ink
Ġknow ing
Ġd h
Ġfilm m
Ġobs erve
Ġphilipp ines
Ġtw elf
Ġtwelf th
Ġmap le
Ġrequ iring
Ġl ighter
Ġtra its
Ġf et
Ġkings hip
Ġthreat ening
Ġincons ist
Ġimmort al
Ġinv is
Ġep it
Ġc ure
olog ically
Ġres erved
Ġmaint ains
p ers
Ġcreat ure
Ġfest ivals
Ġdisappo inted
Ġmed ley
Ġthin ks
t ures
Ġproject ed
Ġlist ening
Ġaerodrom es
Ġmanufactur ers
Ġexper iments
Ġthird s
Ġa ids
Ġrele vant
Ġreg ulations
Ġ13 9
Ġerr ors
p at
Ġad ri
enn a
Ġital ians
Ġvictor ious
Ġ185 3
Ġwhen ever
ag ger
Ġview ing
Ġp uck
Ġtox ic
im ol
Ġb ic
Ġstr ain
Ġrefle ction
Ġfac ts
Ġar d
Ġmel bourne
es que
Ġconv iction
Ġindones ian
Ġt rench
Ġprison er
Ġcoordin ated
Ġconduct ing
Ġher bert
Ġcompl ained
Ġra ids
Ġcomed ian
Ġacclaim ed
Ġmicha els
Ġtuck er
Ġtheat ers
Ġjenn ifer
Ġed itors
Ġsupport s
Ġcool er
Ġorb ital
Ġinvestig ated
Ġ15 3
Ġr ises
Ġdam aging
Ġchamb ers
el ing
Ġfl aw
ik er
Ġsome body
Ġchart ing
Ġfin land
Ġident ifies
Ġremix ed
Ġ185 8
Ġprot otype
Ġrac ial
Ä ĳ
Ġjud icial
an im
Ġw iz
Ġen vel
Ġenvel ope
ih ood
Ġst olen
Ġsho es
res h
Ġcare ers
Ġcolon ists
Ġreason ing
Ġimprison ment
Ġen su
Ġensu ing
Ġflo ating
Ġtreas ure
Ġrob in
Ġme gan
Ġj ung
Ð °
Ġk ry
n umbered
Ġcompr ises
Ġbell s
Ġass ign
Ġtor ch
f ront
Ġveer u
Ġl av
Ġextraordin ary
Ġed iting
Ġjun ta
av an
Ġexerc ised
Ġeld est
Ġsail ing
Ġria a
Ġshe et
ast ed
Ġv ow
Ġstr at
r aph
Ġv ault
Ġdisli ked
Ġcont acted
Ġs ak
Ġadvis ory
Ġvers us
Ġaccident ally
Ġ188 5
Ġp ud
ced es
Ġsp ite
Ġrand y
Ġojib we
Ġrel uct
Ġunem ploy
Ġap olog
Ġv ass
Ġd up
Ġcol oured
Ġnest s
Ġbe et
Ġn me
Ġboule vard
Ġr ico
Ġch ip
á º
Ġse min
Ġcontr acted
Ġadd s
Ġparalymp ics
Ġfun k
Ġk un
Ġbe a
Ġpun ct
Ġconflu ence
Ġmuslim s
Ã© ra
Ġend ang
Ġec osy
Ġecosy stem
Ġbu oy
Ġbrun sw
Ġbrunsw ick
Ġvis c
d ick
Ġyeoman ry
Ġse b
ck les
Ġinter ception
Ġd ried
uck le
Ġor tona
Ġmo ons
Ġfant astic
Ġmost ar
Ġmr na
Ġgor illa
Ġamb itious
pl ain
Ġro uting
Ġw anna
Ġhad rosaur
Ġbol ton
Ġll an
Ġassy rian
Ġfel d
Ġham ar
Ġlumin osity
Ġbur row
Ġroy ston
Ġfel icia
Ġdu arte
Ġpok iri
Ġjag ann
Ġros berg
Ġv ett
Ġvett el
Ġbr onc
Ġbronc os
Ġho ys
Ġk us
Ġblack burn
Ġkh oo
Ġgi Ã£
Ġav t
Ġavt ovac
Ġt anya
Ġarbe ider
Ġap f
Ġun l
Ġexp ense
Ġacqu ire
em pl
Ġwar rant
Ġt ak
Ġunp op
Ġpat ch
Ġconsequ ences
Ġprotagon ists
Ġo ath
ost s
Ġquar ters
Ġcoll ision
2 2
Ġobserv ing
Ġiron cl
Ġcar riages
Ġsoc ieties
Ġfair ies
Ġequ ally
c ol
Ġthe ories
ring ton
Ġcher ry
Ġassoc iations
Ġwid th
Ġgr ac
Ġact ively
Ġcollect ively
ul um
Ġelder ly
Ġhang ing
Ġeast ward
Ġstro ke
Ġber m
Ġlo aded
Ġori ented
ig a
Ġinfl icted
Ġ26 0
Ġs inking
Ġgrad uating
Ġber l
Ġint ent
Ġd ish
Ġgrand son
Ġadm its
Ġper th
Ġche f
Ġaccording ly
Ġcontr ary
Ġt amp
b el
Ġflot illa
Ġphara oh
Ġmyth s
en h
Ġsymb olic
Ġflu id
less ness
Ġconclud es
Ġthe olog
Ġfis cher
Ġcl oth
Ġver dict
Ġpract ical
Ġsw allow
Ġgl en
Ġexpect ing
Ġlo ft
Ġ13 4
Ġiss uing
Ġeas ier
Ġaut onom
im ination
Ġpark ing
qu ir
Ġhung ary
Ġt ensions
Ġdr ag
og a
Ġsyn onym
Ġhy ph
Ġyellow stone
Ġass ured
Ġcollect ing
Ġvar i
on ium
ad d
Ġvar iant
Ġg on
Ġfort ifications
ac a
Ġcomprom ise
Ġparticip ating
Ġsusp ic
Ġneg lected
Ġdict ator
Ġremember ed
Ġcr imes
Ġsurpr ising
Ġfather s
s a
Ġlad ies
Ġkid n
her ic
Ġhol land
Ġcompet itor
Ġunder took
Ġreass igned
Ġun pre
Ġme ad
Ġg ast
ill on
Ġmerc y
ro scop
Ġb inary
1 0
t ra
Ġtr aces
Ġra j
Ġdress ing
Ġm t
Ġsubstant ially
Ġl ak
ang a
Ġlu ke
mark et
Ġr abb
Ġsymmet rical
ett es
Ġint im
Ġre ed
Ġstat ute
el ihood
Ġcomp iled
Ġm ull
Ġo we
Ġepis cop
Ġident ification
Ġchop in
h and
Ġw art
Ġeduc ated
Ġlithuan ian
Ġwars aw
Ġtr ace
Ġsymp athetic
Ġevac uate
Ġpupp ets
Ġalb ion
Ġwar ships
Ġbattlecru iser
Ġcapt ivity
Ġun aware
Ġbene ath
i oc
Ġalb e
Ġalbe it
Ġthe or
Ġind ians
Ġaut o
pl ing
Ġprost it
b ard
Ġbe e
Ġst anza
acrit ic
Ġanticip ated
Ġelectric ity
ac ular
st ick
Ġspawn ed
Ġbelong s
Ġhere ford
Ġse al
Ġw emb
Ġwemb ley
Ġm our
i y
Ġol iver
Ġd ir
Ġoliv ia
Ġtim b
Ġcompet itors
Ġch lor
Ġcompar able
Ġflu or
Ġl ung
Ġmort imer
Ġdiscip line
ur er
Ġw ool
Ġmun ich
en ic
Ġbl uff
Ġsand y
Ġint imate
Ġclim ax
he ars
Ġtest ament
Ġse aw
Ġcapt ains
l u
Ġtact ic
enn ial
Ġchanc el
Ġpeace ful
Ġt ube
Ġsho ots
Ġcel est
Ġshel ter
Ġaust in
Ġst ir
Ġpier re
Ġdim ens
Ġdimens ional
Ġsubd iv
Ġparas ites
Ġn ons
Ġinf ilt
aver y
Ġ184 7
Ġ183 8
Ġod ys
Ġmar vel
Ġforgot ten
Ġreh abil
c are
Ġleg ion
Ġ Ã©
Ġen able
Ġinst ances
Ġl un
id el
Ġinnov ative
Ġchap man
Ġbe aver
Ġf ission
Ġn erv
am in
Ġaff ection
Ġpe ggy
Ġsp elled
Ġ33 0
ob on
u zzi
Ġcolon na
Ġbowl ers
Ġta un
Ġzomb ies
Ġc oc
Ġhardc over
Ġg ag
Ġfr ames
Ġwh ites
Ġadvant ages
Ġmist ake
Ġend uring
ik h
Ġbet a
Ġsusqueh anna
Ġgal ile
Ġroundab out
Ġj oke
uc he
Ġendang ered
Ġc age
Ġdie go
Ġend emic
Ġu le
Ġpl ent
og le
ard en
Ġn fl
p ro
g na
Ġb ite
Ġkent ucky
Ġe uc
Ġrev is
Ġpoison ing
Ã ł
j al
ama ic
Ġmerri field
ack down
Ġkar am
Ġchau vel
ine ae
Ġferr ari
Ġcook sey
Ġmusc imol
sh ara
Ġkus anag
Ġkusanag i
Ġgry ll
Ġw any
Ġwany an
Ġb oca
áĥ ĺ
Ġhom ar
Ġdoofenshm irt
Ġdoofenshmirt z
ãģ ®
Ġpredecess ors
Ġup gr
iz er
Ġun off
Ġentert aining
Ġexc ited
Ġreg ained
agon al
Ġg az
Ġab raham
Ġperc ussion
Ġfl int
r idge
Ġm ould
Ġst air
Ġmembers hip
Ġillust rations
g art
io let
Ġf ond
Ġconscious ness
Ġrepr inted
Ġtreas ury
ction ed
p ot
Ġeat en
Ġexpect ations
Ġstrugg ling
Ġpitts burgh
Ġdead line
Ġjud ged
Ġ15 8
Ġmar ble
Ġdev ices
Ġmerc ury
Ġdiscontin ued
Ġoverlo oking
Ġb rom
Ġcr ist
Ġc ove
Ġwh ist
an ing
Ġj ail
Ġade quate
Ġglas g
Ġglasg ow
Ġlow ered
Ġco ordination
at isf
i ya
n n
Ġk ap
Ġtele v
Ġmad h
are th
Ġchem otherapy
Ġcoron ation
Ġcha os
Ġnation ally
Ġoverl ap
Ġ13 3
Ġtoler ance
Ġprec ise
Ġabs ent
ut or
Ġevery body
augh ter
ĠâĢ ĺ
Ġgl iders
Ġamb ul
Ġen com
Ġencom pass
Ġcontroll ing
Ġindivid ually
Ġun lim
Ġunlim ited
Ġcollect ive
Ġz rÃŃ
ĠzrÃŃ nyi
Ġadri atic
Ġa e
Ġyugosl av
Ġcon if
Ġhyph ae
Ġ183 7
Ġintrodu ce
Ġalt og
Ġaltog ether
Ġvar ieties
Ġspec ially
Ġfav ored
Ġto ol
Ġdisp utes
Ġz ap
Ġbrut al
Ġnot or
Ġcal m
Ġsurv ives
Ġtop ics
Ġnav ig
Ġserge ant
s ons
Ġgree ce
Ġhe w
Ġc atherine
Ġre work
Ġautobi ography
Ġtradem ark
Ġpro w
Ġaccess ible
ell ation
Ġbl ame
Ġlay out
Ġtouch ing
Ġr ings
Ġfing ers
av ed
ar as
Ġv et
Ġsongwrit ing
Ġmetall ica
p y
Ġsatisf ied
Ġle op
Ġdemol ition
Ġrub ble
Ġo pted
Ġc hes
Ġes sex
Ġeconom ics
Ġjeff rey
Ġaver aging
Ġmurd ered
Ġdel ta
Ġpap ers
Ġto ugh
Ġcontempor aries
Ġmarc us
h r
Ġkr as
og an
Ġph ases
Ġintrodu cing
Ġgand hi
Ġtur ret
Ġfried rich
Ġens ued
Ġfinanc ially
Ġmed way
Ġth ames
ant on
Ġquad ru
Ġkey board
Ġnot ting
Ġsus an
Ġdress es
Ġpay s
Ġmet acritic
less ly
Ã© s
Ġj ai
Ġvill agers
Ġdefin itely
Ġoccup ies
Ġstere oty
Ġpr adesh
od ied
Ġrem aster
Ġun ve
att an
Ġaccum ulated
Ġsol ve
Ġfier ce
Ġhard y
Ġposs essions
Ġno body
ail ing
el ly
Ġsp ont
ane ous
Ġmid night
Ġflet cher
Ġmetall ic
Ġincor rect
Ġth i
Ġchanc ellor
Ġbit ter
Ġgrand e
Ġcam el
Ġfoss ils
uk u
Ġexplicit ly
Ġactiv ated
ol ly
Ġfa ult
ane y
Ġ15 9
Ġ187 6
Ġ188 3
Ġtr act
Ġev angel
Ġl ucky
Ġlov es
Ġmo ody
Ġa j
p ow
Ġjuven iles
Ġnest ing
Ġdisturb ed
Ġpred ator
Ġbac ter
Ġbre ath
ro v
Ġmunicip ality
Ġsl avery
Ġdom ain
Ġcolle ctor
Ġjur is
Ġne b
Ġsol utions
Ġtr ucks
Ġh il
Ġemb arr
Ġpl ac
Ġte aches
Ġins cribed
Ġdiscuss es
hol m
ol ulu
Ġcl aire
Ġl ens
as ma
Ġdist r
Å Ł
es c
Ġshel ters
it ure
Ġstop pani
Ġpo zz
Ġpozz obon
Ġpozzobon elli
Ġconstantin ople
Ġfant uzzi
Ġmicro soft
Ġanaly zed
Ġlo vers
3 5
Ġnew castle
om on
ag g
Ġchar med
Ù Ħ
Ġqu ake
Ġtack le
ro ft
Ġpat roll
Ġdecre ased
Ġameric as
Ġvisc ount
Ġex empt
Ġp ne
Ë Ĳ
Ġi ber
Ġr as
Ġbab yl
Ġnew ark
Ġcap com
Ġang ered
Ġmar a
Ġalph a
Ġeu kary
Ġg ills
Ġt ama
Ġkry pton
Ġbutter fly
Ġwe y
Ġv ander
Ġreprodu ction
Ġceratops ians
ac eratops
Ġmat rix
Ġtrib bles
Ġconn ie
Ġar amaic
ad ir
Ġjos ce
art a
Ġhug uen
Ġviol ace
Ġviolace a
Ġeuc alypt
ar p
Ġm its
Ġmits uda
Ġfeld man
Ġjagann adh
Ġir rig
Ġpeck ii
Ġhars ha
Ġjav elin
Ġsteg osaur
Ġpit c
Ġpitc airn
Ġcru zi
Ġrat on
Ġsag inaw
Ġpl ens
Ġplens a
Ġadj ust
Ġse aled
Ġg au
Ġgr id
Ġex empl
il ian
g on
Ġred o
Ġdem o
Ġple ased
Ġlimit ations
Ġ ç
Ġhoriz on
Ġout p
Ġcons ens
Ġconsens us
Ġmanufact ure
Ġconfeder ate
Ġet c
Ġinst ruction
Ġtri ps
Ġam ber
Ġchar itable
Ġdiscip les
Ġhar vey
m ill
Ġce c
Ġcec ily
Ġauth ored
Ġ ~
Ġstap les
Ġsen ators
Ġspring field
ou ver
Ġstret ch
Ġinter im
Ġpro ud
Ġbl og
Ġprov en
or ian
Ġprogress ive
Ġman n
Ġbar n
Ġphot o
Ġpl ates
Ġcountry side
Ġmon itors
Ġhorizont al
Ġle aked
ment ed
Ġthrill er
Ġs hed
Ġpl astic
Ġj a
Ġsat ire
Ġwed nes
Ġs ut
Ġdiagn osed
Ġret iring
Ġcontem pl
Ġdoct ors
Ġdiagn osis
Ġapp rent
Ġt ert
Ġsem aph
Ġsemaph ore
ograph ies
Ġprim itive
iz ations
Ġsc rib
Ġdist inction
Ġresur re
Ġclean ing
Ġprote ctor
Ġdescend ed
Ġexclud ed
Ġa ber
Ġthe ology
Ġceremon ial
Ġimport ed
o an
Ġaf raid
an ic
Ġdet on
Ġoper ator
Ġinform al
Ġrequire ment
Ġcontrib ute
Ġfe es
Ġbus y
Ġperform s
Ġcompl aints
Ġinc idents
Ġ13 8
Ġboil ers
Ġse ize
v et
let t
Ġfr inge
Ġtemper ate
v an
Ġcirc ulated
Ġdenomin ation
Ġadvoc ate
Ġho le
Ġgl ory
Ġ185 2
Ġtriv ial
Ġtob ac
Ġship ped
Ġorn ament
Ġabol ished
Ġreag ents
r ance
Ġst o
Ġinc umb
Ġlu is
Ġgovern ors
Ġpe as
Ġpar ad
Ġnational ist
Ġspeak s
con n
Ġag ing
Ġsupp orter
Ġha un
Ġst a
Ġtowns ville
Ġancest ry
Ġed die
Ġesc apes
wor thy
Ġsu ited
Ġnot ices
Ġscen ic
Ġens ured
Ġpseud onym
Ġby ron
all ing
Ġph on
Ġinfer ior
Ġpro claimed
Ġf inger
Ġtem p
c el
Ġ186 6
Ġconse c
Ġdat ab
Ġun anim
Ġaccomplish ments
Ġindu ction
w ing
Ġrival ry
Ġseason al
Ġthe ft
Ġstrict ly
Ġl en
Ġencour age
s k
Ġs iber
z t
Ġl ip
Ġlo ading
Ġass ume
ith s
Ġsl ope
Ġcont ents
Ġgentle man
Ġvic ar
Ġcr ane
Ġbe aches
Ġmed ian
Ġcult ures
Ġpur ple
Ġeccl esi
Ġa ria
Ġer os
Ġadvis ories
Ġbar ometric
Ġnorthwest ward
Ġlight ing
Ġhind i
Ġwebs ites
ters hire
Ġro vers
Ġste ven
Ġa ot
Ġdog s
Ġs amp
Ġinvis ible
Ġste ady
Ġman oe
Ġmanoe uv
Ġtimb aland
Ġshort s
Ġ *
Ġat oms
Ġb ened
ant ine
ogr am
Ġunder grad
Ġspons orship
Ġdisagre ed
Ġleban on
Ġh oney
Ġtop ic
Ġl al
Ġper pet
Ġrhodes ia
Ġcor pse
Ġattr action
Ġad ul
ag us
Ġsh an
Ġast rae
Ġte ars
Ġl act
Ġpra ir
Ġbr aves
Ġ187 2
Ġtriang le
Ġpl aza
Ġ21 7
Ġdec ent
Ġa oc
Ġhat ch
Ġaz ores
Ġi x
Ġdivers ity
Ġcou ples
Ġcontest ed
Ġinvest ors
Ġsust ain
Ġstrateg ies
Ġpriv ately
Ġ55 0
d iction
Ġman ages
Ġdest ruct
Ġn ail
Ġsim ul
Ġvirt ue
Ġt ier
Ġco x
Ġspeak ers
Ġroberts on
Ġsy ll
Ġmonaster y
Ġbulgar ia
Ġcl ip
st age
Ġbl ond
Ġn f
Ġpav ed
Ġlaure n
op a
Ġsid on
Ġcomp act
Ġgl itter
Ġbright on
Ġm Äģ
ĠmÄģ ori
Ġeng aging
Ġfl our
Ġfro st
Ġu ÃŃ
ll o
Ġc um
Ġhib iscus
Ġj ill
Ġ87 8
Ġanth ology
Ġst okes
Ġfus il
Ġfusil iers
Ġod es
Ġt res
Ġmolec ule
Ġcyt oplasm
Ġmalays ia
Ġmcl u
Ġphilosoph ical
un ct
Ġ24 3
Ġrank ings
Ġext inction
Ġeg uchi
ag ram
ic ian
Ġangles ey
Ġpalmy ra
Ġhur dles
Ġdom o
Ġdomo ina
Ġka hn
Ġow l
Ġc oss
Ġtw icken
Ġtwicken ham
Ġeps om
Ġchen n
Ġnom ura
Ġhind enburg
ach arya
Ġwc w
Ġh Æ°Æ¡ng
Ġon o
Ġule ki
Ġgryll otal
Ġo z
Ġfre ely
Ġescort ed
Ġk az
Ġdark er
Ġpublic ity
Ġunpop ular
Ġsh in
Ġantiqu ities
Ġinstru ctions
Ġsh ops
Ġob so
Ġobso lete
Ġflo ors
Ġart if
oc c
Ġst ained
Ġed mund
Ġr aph
Ġmoder ately
Ġstr ings
mans hip
Ġp eng
Ġwood ward
Ġfl att
Ġsp aced
Ġd well
Ġdig ging
Ġlit ter
Ġdisc arded
Ġhalf way
Ġins urance
Ġcol in
Ġcal endar
Ġlink ing
Ġnov ak
Ġfarm land
Ġmob ility
out ed
Ġest uary
Ġcon vert
Ġt att
Ġche ster
Ġpsych ological
Ġactress es
Ġcrown ed
Ġv ick
n am
Ġwednes day
Ġtelev ised
Ġceremon ies
Ġth ak
Ġthak ur
Ġco pe
Ġmar row
Ġmill imeter
Ġam un
Ġprehist oric
Ġar rows
Ġrul ers
Ġarchitect s
Ġpopul ace
Ġnot ion
Ġpromin ently
Ġprotect ive
Ġnecess arily
Ġpromin ence
Ġmer ge
Ġintegr ated
Ġunder lying
Ġdetermin ing
Ġhy br
in ely
á ¸
Ġcons ort
Ġsp ill
Ġm ouse
z ens
light s
Ġca a
Ġbroad ly
Ġrel iance
Ġover night
Ġbig ger
Ġelig ible
Ġsurf aces
Ġlt d
ific ate
on ts
Ġflag s
Ġt ap
Ġbrown ish
ett a
Ġlong acre
Ġjew el
ters on
Ġalleg ations
Ġex agger
Ġemploy ee
Ġ185 5
Ġtobac co
Ġcur ren
Ġal ly
Ġsulf ide
Ġst ip
Ġfact ion
Ġnob el
ell s
Ġaccus ations
Ġpolitic ian
ov ed
Ġconfront ation
Ġinv ented
Ġint rig
Ġun in
en ary
Ġre ef
Ġday light
Ġpress ing
Ġrequest s
Ġhaz ard
Ġl ac
ab ling
ver ly
Ġste pped
Ġlem on
Ġk em
Ġprose cut
Ġper f
Ġdis ney
Ġcommercial s
st ood
Ġm s
Ġcare fully
Ġresemb les
Ġtr im
Ġk aly
Ġst amp
Ġharm ony
Ġru ined
Ġbr ide
Ġto uc
ud ing
Ġa ur
Ġvary ing
Ġabsolut ely
Ġtong ue
Ġcart oon
Ġsign als
Ġorchest ral
Ġfac ade
Ġsecret ly
Ġant illes
Ġnov a
Ġl ighth
ne ys
Ġavo iding
Ġst ored
Ġpolit ically
ion ed
Ġany where
c aster
Ġdecre asing
Ġf ile
Ġsp ike
Ġtick et
Ġpr uss
Ġsubordin ate
Ġrelax ed
am ous
og ues
Ġinde x
ÅĦ ski
Ġc af
Ġrefuge es
Ġwin ston
Ġpubl ish
Ġren own
ul sion
Ġsub mer
Ġaf t
Ġexplos ion
Ġ37 0
g ate
Ġdoub led
Ġdown s
Ġc ement
Ġr az
Ġcir cles
Ġ184 2
Ġc rom
Ġpost p
Ġimp r
Ġbass line
Ġbl ake
Ġwe ird
Ġham mer
ast ical
Ġgl oss
Ġy u
Ġintens ify
Ġthunder storm
Ġroof s
unc iation
Ġvi j
Ġdel hi
Ġphill ips
Ġwarn ings
Ġdec isive
Ġst unt
Ġn ancy
Ġis a
Ġins ist
Ġextr ater
Ġway ne
Ġj as
Ġch ore
os c
Ġsle e
Ġl ust
Ġemer ging
Ġcryst all
Ġbened ict
Ġmon ks
Ġunfortun ately
Ġgovernment al
Ġteen age
Ġfav oured
Ġreve aling
Ġeag er
Ġar te
Ġarte f
Ġins uff
Ġantiqu ity
Ġdub ious
id an
Ġscr apped
w ild
Ġri ots
x i
Ġastrae us
Ġmyc el
Ġmass es
Ġimm un
Ġg aga
in stein
Ġsyn opsis
am oto
Ġmaj ors
Ġâ ģ
Ġâģ Ħ
Ġsl ated
Ġrefere e
Ġrum ours
Ġpric es
Ġd ome
Ġair ing
Ġkn ife
Ġal arm
Ġj agu
Ġu h
Ġah k
Ġcre am
at op
Ġ14 5
Ġnor se
Ġper ip
l on
Ġinvestig ating
Ġret ro
Ġdo o
Ġsp ans
Ġgu ang
Ġis la
Ġwater way
Ġcarn ival
Ġ188 6
Ġord in
or ia
Ġhur on
Ġneighbour ing
Ġcomb ine
Ġp ipe
Ġprinc eton
um an
Ġpre tend
ah u
Ġmushroom s
Ġto ss
he ld
Ġaffect s
Ġin put
Ġre inc
Ġstock holm
Ġt ud
Ġal am
Ġpl asma
Ġmathemat ical
Ġdecl ining
w yn
amb u
Ġdanc ers
Ġm ing
Ġreal izes
Ġexpedition ary
ent in
Ġbow ler
Ġmetaph or
Ġmer cedes
Ġrow son
x d
Ġup stream
w oman
Ġre hears
Ġhum orous
Ġhang zhou
Ġess ays
Ġinher ited
Ġbr ass
Ġmo ored
Ġrear guard
ol or
Ġpne um
Ġre pt
Ġol ive
ain ted
Ġwit ches
Ġreal ize
Ġtack les
Ġlud low
Ġscreen ing
Ġzealand ers
Ġ182 0
str ong
Ġmer ger
Ġmer i
Ġmclu han
Ġn ir
Ġchor al
Ġump ires
Ġwy att
Ġjew els
Ġwey den
Ġpl acement
am er
Ġbelt line
Ġest ates
Ġvoy ager
Ġcob ain
Ġj tw
Ġjtw c
Ġinter active
Ġl n
els k
Ġost end
Ġbru ges
Ġech mar
Ġechmar c
Ġechmarc ach
Ġful be
Ġtam il
Ġshrub s
ish am
Ġpro ctor
Ġx ef
Ġmass a
Ġ à¤
Ġva ishn
Ġw we
Ġsm ackdown
Ġrag hu
Ġraghu ve
Ġraghuve er
Ġin ari
Ġprefect ures
Ġwood full
Ġk ashi
Ġguy brush
Ġprogress es
Ġgau ge
Ġspecial ist
ik i
Ġnew er
Ġps p
ik es
Ġ è
Ġrefer enced
Ġins pect
Ġ14 9
Ġ27 5
Ġjuven ile
Ġmission ary
Ġdor othy
Ġos wald
Ġkin der
Ġre nt
Ġdet ached
id y
Ġtend ed
Ġcrit ically
Ġsw an
Ġpromot ing
Ġaw a
Ġwh ip
Ġv iv
Ġhol otype
Ġnarrow ly
Ġdors al
Ġdel icate
Ġacquis ition
Ġj ak
Ġunh app
Ġfle x
Ġrebu ilding
Ġcontinu ously
Ġcour ty
ell o
Ġsyn th
ia h
Ġberm uda
Ġrail s
g ren
Ġgross ing
Ġpurs ued
i at
Ġprom ising
Ġtig er
Ġm umb
Ġcome back
Ġer z
Ġerz her
Ġerzher z
Ġerzherz og
Ġdread n
b en
Ġsupp ress
zz le
Ġtert iary
Ġmob il
Ġka iser
Ġdem ons
Ġhypothes is
Ġtransform ation
Ġab str
Ġdis rupted
Ġstory t
Ġde eper
Ġwis dom
Ġher mann
om orph
Ġgu ilt
Ġperform er
Ġlegend ary
Ġancest ors
Ġutil ized
om ed
Ġpop mat
Ġpopmat ters
Ġsacrif ice
Ġsound ing
Ġremar ks
Ġinterpret ations
Ġqu art
Ġstri ps
Ġspect ators
Ġdiv ing
Ġfre estyle
Ġlicens ed
f r
Ġsect ors
Ġed in
ins ki
Ġhorse power
Ġappe aled
Ġ187 9
Ġder ives
Ġod or
Ġm oss
ch t
Ġpat terson
Ġquant ities
ato es
Ġacceler ated
Ġproper ly
Ġver me
Ġabol ition
Ġben z
Ġcat aly
Ġincumb ent
Ġo ro
app ers
Ġbl own
Ġer u
Ġrecon cil
Ġprov oked
id as
Ġins ight
Ġv ene
Ġab us
Ġw ield
Ġcont end
y th
Ġatmosp heric
Ġcelebr ations
Ġmor ale
Ġmar it
Ġloos ely
Ġs eller
Ġz en
Ġbac helor
Ġl or
Ġinv ention
Ġperson a
Ġevery where
Ġorb its
Ġt rom
v ara
Ġgen ius
Ġa isle
Ġgamb ling
Ġwear s
Ġfold ed
Ġgalax y
Ġd har
op ed
Ġfl anks
Ġmonit oring
iz z
Ġwould n
Ġsm oking
Ġheav iest
Ġ183 3
Ġmotif s
ograp hed
f eld
ill ance
Ġflu ores
Ġreason able
Ġacad em
Ġmarket ed
Ġreb ound
Ġport land
Ġsent enced
or f
Ġcur ric
Ġchurch ill
Ġrenown ed
Ġminor ities
Ġdispl acement
Ġsubmer ged
Ġship bu
Ġ20 2
in z
ime ters
Ġtim ing
Ġgro s
Ġt ann
Ġd iana
Ġmegal iths
Ġchest n
Ġcommun al
Ġheight s
Ġfront al
Ġn iece
Ñģ Ð
Ġeli ot
Ġacc ent
Ġnotting ham
Ġhub bard
e be
p i
Ġit unes
Ġconf ess
Ġh d
Ġair play
hen tic
Ġsl ate
Ġeros ion
Ġ28 0
Ġcontrib uting
Ġens uring
Ġl amps
Ġhy der
Ġj ub
ces tershire
Ġwol ver
Ġcarl isle
ten ham
Ġine ff
Ġref using
Ġtermin al
Ġbe eth
Ġali ke
Ġch ick
Ġc ai
Ġc ig
Ġexplan ation
Ġadmir alty
Ġsupposed ly
ell ers
Ġlos es
Ġsh irts
Ġmid dles
es y
Ġscient ist
Ġcons umed
osom al
Ġmedic ine
gest ion
Ġpartic les
Ġmo ors
Ġad vers
Ġinsuff icient
Ġbel fast
Ġdomin ion
Ġsumm ers
Ġmountain ous
Ġaccept ing
Ġfrag ilis
Ġnom en
Ġanalys es
Ġmyc ologist
Ġed ible
t es
Ġne o
Ġlength y
Ġbe ast
pe z
Ġfit ness
Ġtrust ees
Ġreconst ru
Ġh iv
Ġreal ism
Ġachie ving
Ġsentiment al
te br
Ġlay ing
Ġamb ig
u pp
Ġlev ine
cc a
Ã ¦
o a
Ġcomplex es
Ġnovel ist
Ġodys sey
Ġd red
ab ilities
Ġoutd oor
Ġsoc cer
Ġvirt u
Ġcrit ique
Ġpl ut
ag ne
Ġst umps
Ġexcess ive
Ġdetermin ation
Ġfle ets
Ġ176 9
Ġen n
Ġtud or
Ġdesign ing
Ġdin ner
ipp ing
Ġfig g
Ġann a
Ġdiction ary
Ġmanag ers
Ġthro at
Ġoutf it
Ġbroadcast s
hen g
Ġl iang
Ġexerc ises
Ġsub ur
Ġle ase
Ġarab ia
Ġche ap
Ġins ert
Ġhad dock
Ġfirm ly
ab l
Ġpa wn
Ġsol ved
Ġ32 0
Ġl uck
Ġcast les
Ġattack ers
est hetic
Ġn ol
Ġmor ay
Ġs izes
Ġtrunk line
Ġeval uation
ren ched
Ġseb astian
Ġmc d
ig o
Ġbuck ingham
Ġbi as
Ġsel en
Ġdown graded
Ã£ o
Ġor so
Ġorso gna
Ġv iz
Ġplat te
Ġarm strong
Ġfor aging
Ġdian e
hip s
ok an
Ġd are
Ġle x
Ġreform ation
Ġbreed ers
ic eratops
z ora
um i
Ġredo ct
Ġredoct ane
Ġtrib ble
Ġk ling
Ġcong ol
Ġcongol ese
Ġmyc ena
Ġpaper back
s ay
Ġsle a
Ġslea ford
Ġsu ite
i op
Ġrock star
Ġcolomb ia
ar ma
Ġkub ica
Ġn ina
Ġb enson
gu y
Ġhoys ala
Ġstock well
Ġwin es
Ġgendar mer
Ġgendarmer ie
Ġkab oom
Ġtom ita
Ġraid en
Ġall Äģh
Ġher bie
Ġf au
ĠÃ¦ lf
rol oph
Ġhapp ens
Ġsc outs
Ġdist ress
Ġalle gian
Ġret aining
Ġprec ious
Ġunoff icial
Ġexpress ing
Ġavail ability
Ġmac ar
Ġmacar thur
Ġhand ful
Ġunc on
Ġcitiz en
1 8
Ġglad ys
at hed
Ġchurch yard
Ġgamb ia
qu al
Ġtarget ing
Ġpar at
Ġcorn ers
Ġfin s
Ġup s
Ġfrust ration
Ġnot iced
Ġfacil itated
Ġpatron age
Ġ182 1
ator ial
Ġaddress es
Ġdis ad
Ġdisad vant
Ġr er
Ġrun ner
be e
Ġdi ary
Ġmeant ime
Ġm ith
Ġkum ar
Ġportray ing
Ġr ash
Ġmumb ai
Ġa uck
Ġcolle g
is i
Ġshr ines
Ġen vision
Ġspread ing
Ġcateg or
kins on
Ġfuner ary
Ġo g
Ġpreced ed
Ġperiod ically
Ġdev ised
Ġf use
Ġer ik
Ġa il
Ġev ol
Ġwar ner
Ġslow ed
l ist
Ġg onna
Ġfound ers
Ġmod est
o ids
Ġfix tures
Ġair sp
Ġairsp ace
Ġaerodrom e
Ġnecess ity
Ġairfield s
Ġmer it
2 8
Ġsl ower
Ġprev alent
Ġcert ificate
Ġgr ants
Ġedin burgh
Ġch as
Ġott om
Ġstal k
Ġ188 4
orrhiz al
Ġ183 1
Ġsol ic
oc rat
Ġat her
Ġcounter fe
Ġt i
Ġang ular
Ġresemb ling
Ġret ros
Ġhe ter
at om
Ġzap ata
Ġwor ried
Ġpersu ade
Ġprovision al
Ġdis g
Ġpr ide
ri fic
Ġstrugg les
Ġover th
Ġsalv ador
Ġobserv es
Ġpen is
Ġmin ds
Ġenjoy able
Ġcr ashed
Ġmon itor
Ġor ch
Ġp ater
h urst
Ġme yers
Ġ14 8
gh an
Ġfernand o
Ġmay be
Ġrel at
Ġgener ations
Ġd ow
r ained
Ġu d
Ġsubsid iary
Ġ12 8
Ġsu ck
ast ing
Ġjoint ly
Ġhon est
Ġcirc us
Ġeight eenth
Ġmor avia
Ġiv an
ern er
Ġlighth ouse
Ġactiv ists
Ġdatab ase
Ġrout ine
Ġecho ed
Ġcust ody
Ġcompl aint
Ġconv icted
Ġem ily
Ġdemocr ats
Ġprocess es
Ġbusiness man
Ġste als
Ġbo bc
Ġmot ivated
Ġcl ut
Ġvir us
or ers
Ġdou g
Ġch ant
Ġsu z
Ġvot ing
Ġl ament
Ġir re
Ġepiscop al
Ġc en
Ġdefe ats
Ġv inc
Ġlaw yers
Ġmass acre
Ġlast s
Ġwart ime
ic z
Ġsiber ia
Ġty r
Ġarist ocr
Ġcolle ges
Ġprior ity
th or
Ġvirt ual
Ġarn old
Ġpl aster
Ġmon te
Ġmiss ile
Ġm w
Ġa ux
Ġshipbu ilding
ar med
Ġnegot iated
mar ks
Ġunder water
Ġsche er
bo ats
Ġcap it
Ġpilgr im
Ġforest ed
Ġconclus ions
Ġfr act
Ġloc als
Ġindepend ently
Ġoccur rence
ist ically
Ġp itt
Ġdun n
Ġclass ics
ll a
Ġecclesi astical
Ġgar th
Ġaut hentic
Ġnew man
ogen esis
Ġcustom ers
Ġtotal ed
Ġtheat res
e ctions
Ġlob b
Ġculmin ated
Ġenc ycl
Ġisl am
Ġcinem at
Ġic onic
Ġtrail er
Ġsu e
Ġsummon ed
Ġm p
um ble
oph one
Ġwat ches
her ry
Ġout numbered
Ġworksh op
Ġconsolid ated
Ġhe ated
Ġbrit t
Ġs od
Ġnatural ist
Î ±
Ġacc ounted
Ġto ys
Ġinstru cted
Ġundergrad uate
Ġartef acts
Ġselect ive
Ġsurve ys
Ġnormand y
Ġapprec iated
Ġverte b
Ġsh apes
Ġrob ust
Ġ180 1
Ġelev ations
Ġenh anced
Ġpear l
ile y
um ped
Ġpost season
Ġw ages
Ġl uther
Ġclass room
Ġang els
Ġscand al
Ġwal ked
Ġpropos es
Ġce o
Ġjagu ar
atter ing
Ġn os
Ġinver tebr
Ġfer al
Ġfl ocks
ow ing
Ġir res
Ġclin ical
Ġuygh urs
Ġaccommod ation
Ġpir ate
Ġciv ic
Ġput s
Ġj ama
Ġh bo
Ġs ided
Ġrecip es
Ġpr ism
Ġobl ig
Ġs ins
Ġsp ark
Ġsh am
Ġscandin avian
h orn
Ġmac l
Ġreinc arnation
Ġconnect or
Ġman h
Ġmanh attan
Ġtheore tical
Ġconsult ant
Ġresol ve
Ġconstitu ency
ann on
Ġconcent rate
Ġdangerous ly
Ġse nds
Ġtal ented
Ġw and
Ġx i
Ġâ Ļ
l ides
v ent
Ġhost ing
Ġworld s
Ġger ry
Ġeffect iveness
Ġbr uss
Ġbruss els
r in
Ġbank rupt
p ie
Ġle ve
Ġly coming
Ġ183 4
Ġton ight
r ams
Ġd uche
Ġduche ss
Ġop Ã©ra
Ġam anda
Ġher ds
Ġstap le
Ġune ven
Ġr ams
Ġg b
Ġ48 0
Ġglor ious
Ġwound s
Ġguerr illa
Ġspr int
Ġg av
Ġsubur bs
Ġd arden
ash ing
Ġback wards
Ġcoinc ide
Ġnerv ous
Ġgu ys
Ġgriff in
Ġrow land
Ġspin ning
Ġconf ig
Ġl ub
Ġhapp iness
4 8
Ġk pa
Ġesc al
Ġor gans
Ġbo let
Ġtama ul
Ġtamaul ip
Ġtamaulip as
f il
Ġh inge
Ġl unch
Ġlar wood
Ġdiam and
Ġdiamand is
ph al
it ational
Ġcar avan
Ġgrant ing
Ġy oko
ĠÅį zora
Ġharmon ix
Ġnever soft
Ġan field
Ġw ally
Ġis hm
Ġishm ael
Ġberl io
Ġberlio z
Ġhuguen ots
Ġpro ph
Ġsh apur
Ġal onso
ĠÃ¥ les
ĠÃ¥les und
op ter
Ġbay e
Ġbaye ux
Ġtorch wood
Ġcomp ares
Ġba ja
ol us
Ġw ica
Ġrich ie
ou che
Ġgr isham
Ġjer emi
Ġverme er
Ġbarb ours
Ġperon ist
Ġinter course
Ġdo le
Ġpod ium
Ġpompe y
Ġkn uckle
Ġknuckle ball
Ġmcd ou
Ġn guy
real m
ĠÃ¦lf ric
Ġdahl an
Ġisla is
Ġbut etown
Ġpolyt ron
Ġcott am
Ġemploy ing
Ġf als
Ġmechan ics
Ġincorpor ate
Ġw ii
gam er
n et
Ġhe ath
Ġdep ot
Ġinvent ory
4 2
Ġen light
Ġill umin
ĠÂ ²
Ġinst inct
c ott
Ġed ith
Ġwor thing
Ġmelanch oly
Ġlif el
Ġbann er
im p
ch a
Ġmemoir s
Ġbas al
Ġty ing
Ġcal der
Ġv anc
Ġvanc ouver
Ġdisappoint ing
Ġass ets
or th
Ġteam mates
ist o
Ġflank ed
Ġbas il
Ġrod rig
Ġkey boards
Ġfranc o
Ġne on
Ġf og
Ġb ars
f o
Ġib n
Ġbarb ie
Ġth ief
Ġjack ie
Ġh ass
Ġsh aring
Ġdisappoint ment
pl ant
Ġunw illing
Ġstra it
Ġworship ped
ud ed
Ġis is
Ġreal m
ig m
Ġdis par
Ġneighbor ing
Ġbroad er
Ġepit het
Ġpl ural
Ġste aling
ot he
Ġmer ging
Ġl az
Ġlim bs
Ġinter ven
Ġap oc
Ġin herent
Ġnam ely
Ġdo zens
Ġcorpor ate
Ġble nd
Ġhealth y
Ġexhib its
Ġsmall est
Ġcrit eria
Ġ31 7
Ġnegot iate
Ġse ap
Ġcommission ing
Ġconf ined
Ġshort age
Ġk or
om p
Ġexpl oring
Ġab rupt
al ine
Ġyellow ish
ob ia
Ġe ct
Ã ¥
Ġtrib une
Ġcr ack
Ġpay ments
Ġder iv
an ium
Ġlab elled
Ġgon z
Ġlif t
Ġrevol t
Ġy a
Ġre y
Ġorgan ize
Ġinaug uration
Ġcab ral
Ġpers ec
Ġut ter
Ġhait ians
Ġpres id
Ġsh ame
Ġinterse ct
Ġdecor ative
Ġrepe at
Ġdemonst rate
Ġjul ia
Ġplag iar
per t
Ġcounter p
Ġkit ty
Ġindones ia
Ġam y
Ġsatir ical
Ġn Ã©e
Ġpar odies
Ġj okes
Ġtimes lot
Ġbur g
Ġmisunder stood
Ġperform ers
Ġphot os
or igin
Ġvalid ity
osp here
Ġattrib ute
ar at
v iew
Ġport ico
Ġcap itals
Ġand h
Ġrel ates
Ġbu nd
Ġad orn
Ġs age
Ġped est
Ġprotect ing
Ġhe t
Ġcra ig
Ġreun ited
m are
Ġste in
Ġcompar isons
Ġ186 7
Ġmodel ed
Ġconf isc
Ġdevast ated
Ġsurve illance
Ġpersist ent
l ated
Ġcoll ins
Ġtr in
Ġamend ment
ret ion
Ġde ar
Ġcontest s
Ġacc ol
Ġfib a
Ġrp g
Ġroad bl
Ġcap ped
Ġtal ked
Ġsurpass ed
Ġdun can
Ġpled ged
Ġsho oter
Ġadm ired
n ity
ott a
Ġbug s
Ġprofess ors
Ġtransport ing
n ick
Ġem pt
Ġedit orial
it i
Ġand ers
Ġj ut
umb led
Ġru in
Ġadopt ion
Ġsub sc
Ġcompos ite
Ġsl ab
Ġprob able
Ġproceed ings
Ġencour aging
Ġc raw
Ġconv oys
Ġfor k
Ġsub urban
od ing
Ġr ca
st in
Ġres on
Ġell en
Ġk l
Ġnh c
Ġatt ain
Ġdead ly
clus ive
Ġpr as
Ġantagon ist
Ġsens ation
Ġu tt
Ġhyder abad
Ġsuper ficial
Ġun ne
Ġunne cess
Ġ à¸
Ġr att
Ġdemocr acy
Ġtrans p
Ġpay ment
Ġob jections
Ġble eding
Ġgen esis
Ġnom ine
Ġbl air
Ġqu ot
Ġphysic ian
Ġsubm it
ul ing
Ġcold play
Ġhal ft
Ġhalft ime
Ġn r
Ġtemp est
i ott
Ġmans field
Ġdivision al
Ġant imon
Ġt art
Ġby z
Ï Ĥ
Ġvolunte ered
Ġexam ining
Ġdism ay
Ġshel ley
Ġtrip oli
Ġrelie ve
Ġemb assy
od s
Ġdiff ers
Ġge ast
Ġgeast rum
is ch
Ġnut ri
Ġse ym
Ġprair ie
k ind
Ġarg ue
Ġmus cle
Ġmarsh all
be c
Ġow ed
Ġlis bon
Ġlog istical
Ġfeed back
Ġhigh lands
Ġst ela
ident ified
Ġ65 0
Ġe uras
Ġstay s
Ġbacter ia
Ġno ct
Ġaccount ing
Ġleuk emic
Ġprot o
Ġep id
Ġdest inations
Ġpock et
wal k
Ġjuris diction
Ġmagn et
Ġsh af
Ġshaf ts
Ġthe odore
Ġins ane
Ġst ance
Ġmin ne
Ġminne apolis
Ġcompens ation
om o
Ġlength s
Ġtax es
oun ce
Ġlegit im
sp ring
Ġinher it
Ġnew ell
w he
Ġmathemat ics
Ġeug ene
at ories
Ġc ord
Ġen er
Ġcoun c
Ġcounc ill
th ick
Ġrhyth ms
d rop
u its
Ġhu ai
m it
Ġprogram mes
Ġconv ective
c ian
Ġric ci
Ġtaun ton
Ġuncertain ty
Ġcont ing
Ġso ir
Ġlob ster
r onym
ig ious
Ġmichel le
n f
Ġsupern ova
Ġradio active
Ġdr ains
Ġsew age
Ġpho ebe
Ġdem ise
Ġsher idan
Ġsubt le
Ġclust er
Ġdivers ion
Ġlib ret
Ġstall ion
Ġstr ang
p it
Ġor icon
Ġtall est
Ġsc al
Ġar bit
Ġro ose
Ġroose vel
Ġroosevel t
Ġcommitte es
Ġvik ing
Ġenn is
Ġg rie
Ġant ar
Ġs aga
Ġsqu at
Ġgo ogle
Ġnat ives
rit es
Ġbos i
Ġtro t
Ġb ard
Ġk ess
Ġinf ant
Ġhond uras
Ġbulk head
Ġh ank
ou k
Ġskelet ons
Ġorgan isms
Ġn m
en stein
Ġc c
Ġcab o
c d
Ġbulgar ian
ert on
Ġlik es
Ġpian ist
Ġsol itude
Ġsl ash
Ġc inc
inn ati
Ġgun pow
Ġgunpow der
Ġshar ks
umb ria
Ġg ems
Ġn ambu
f i
Ġaston ishing
Ġlind say
Ġcouncil s
Ġlis zt
Ġkrist ians
Ġaw aken
Ġcongreg ational
Ġhaw ks
Ġgo f
Ġgof raid
Ġflight less
Ġscleroder mat
Ġpict ish
Ġinsurg ents
Ġthat game
Ġthatgame com
Ġthatgamecom pany
Ġthan hous
Ġthanhous er
Ġpic ard
Ġveer asha
Ġvaishn ava
Ġwe ver
Ġb ile
e er
Ġhyd nell
Ġhydnell um
Ġowe go
Ġmin sky
á» ĩ
Ġshel by
Ġdag s
Ġ Äģ
Ġwoods boro
Ġmad res
Ġsov ets
Ġbernissart ensis
Ġlambe osaur
Ġgh ats
Ġfer b
os hi
Ġsee ks
Ġallegian ce
v as
Ġsynthes ized
Ġneg atively
Ġk ot
Ġdepos it
Ġguarant ee
5 5
Ġ15 00
Ġr ust
Ġpres um
Ġ187 3
Ġhym ns
Ġcorn wall
Ġoutl ined
Ġmask ray
Ġth orn
Ġi uc
Ġiuc n
g ence
Ġel ong
Ġexceed ing
Ġflatt ened
Ġund ers
ri um
Ġg ear
Ġmoment um
Ġd ol
Ġspan ning
Ġencl osed
Ġsoph istic
Ġ186 9
Ġcon fer
Ġcal ib
Ġemb ro
Ġass ignment
Ġsuccess es
Ġke eper
Ġk i
Ġpsych iat
Ġauck land
Ġsh ah
ir able
Ġcolleg iate
Ġtreat ments
Ġb ess
Ġgoddess es
Ġint ric
Ġv ague
Ġhor us
Ġabstr act
Ġne c
Ġserv ants
Ġwithdraw ing
Ġbene ficial
y d
Ġhybr id
ress es
Ġf itting
Ġn ude
Ġtight ly
ol ent
Ġhe aling
Ġrem emb
Ġprof itable
Ġprofession ally
Ġre ly
Ġg ym
Ġexcept ions
Ġconfir m
Ġret ains
Ġperm it
Ġacc idents
app ropri
Ġexcept ional
ri ans
est e
Ġmontene gro
Ġottom ans
Ġimm ense
Ġdiver ted
Ġconvers ations
Ġcarbon aria
Ġred dish
Ġandre a
Ġhein rich
Ġsulf ur
Ġrev ision
Ġconven ient
Ġdem ocrat
Ġconnect ic
Ġconnectic ut
Ġeng r
Ġtr unc
Ġele g
Ġgener ating
Ġch ay
Ġyl ide
oc hem
Ġphosph or
ox ide
Ġhe y
Ġinter l
Ġli bert
Ġassass in
Ġfictional ized
Ġvene z
Ġvenez uel
Ġcru el
Ġconspir acy
Ġde ception
Ġla ura
Ġcommemor ated
y cle
Ġtenn ant
Ġin quir
Ġmarit ime
ici ency
Ġtownship s
ke ep
Ġt ina
m other
Ġen abling
Ġsevent y
Ġd ere
Ġh ilar
Ġflash back
Ġprim etime
b ear
Ġcomfort able
Ġu g
ar c
Ġbald win
Ġbenef its
cc ent
Ġemb ark
Ġstret ches
Ġlater al
Ġcub ic
Ġcar ving
Ġdisplay ing
Ġlog o
Ġw ig
Ġshould ers
Ġel bow
Ġprot r
ri k
Ġen acted
ap et
Ġteen ager
Ġbass ist
Ġcl ick
Ġphysic ist
Ġpol ka
Ġburn t
Ġc ze
Ġcze ch
ou d
le ased
Ġdisc ography
Ġmo or
Ġdec ree
cour t
Ġdrift ing
Ġassoc iates
Ġactiv ist
Ġcase y
Ġsupervis or
Ġbl az
Ġcomp uls
Ġindian a
Ġplag ued
Ġopen ly
Ġprofession als
Ġtechn ically
Ġth ie
Ġprolong ed
Ġlong time
Ã¼ r
Ã³ w
Ġconstit uted
Ġspons or
Ġa ims
Ġban ning
Ġscholar ly
Ġjul ius
Ġmerch ants
Ġo ss
Ġl ingu
Ġdis in
ad en
Ġle ased
Ġdan ish
Ġdepos ited
Ġancest or
Ġtrib al
Ġparalle ls
Ġ182 5
Ġaugust us
Ġjung le
Ġcomm end
Ġimpr int
w ine
Ġgar age
Ġyour self
Ġfaith ful
Ġmain e
at aka
Ġfle e
Ġst icks
Ġlobb ied
m m
Ġlog ical
Ġdes ires
Ġninet een
Ġunnecess ary
Ġremaster ed
Ġunve iled
Ġfootball er
Ġconclud ing
Ġpat ient
Ġreport ing
Ġins ult
Ġmonarch y
ul an
Ġbeeth oven
Ġprop riet
Ġbill ed
Ġem br
ic herry
Ġvib e
Ġburn ley
am pton
Ġmidfield er
Ġb ury
Ġminer al
Ġcool ing
Ġv ap
Ġoxid ation
Ġneighb ors
Ġhard ly
n ia
Ï Ħ
Ġpip es
man ia
Ġabsor ption
Ġattract ing
Ġpe ers
Ġrecru iting
Ġle is
Ġpresent ing
Ġcampaign ed
Ġgabri el
Ġmammal ian
Ġso ils
Ġhum id
Ġoverlo oked
Ġprel imin
ol ate
Ġpron ounced
Ġgran ite
Ġf are
Ġsub pl
Ġseym our
Ġdynam ics
Ġhusband man
u ro
Ġc edar
Ġopen ings
Ġgr at
Ġun identified
Ġsand stone
Ġmark ings
Ġgrass land
Ġwin ters
Ġlar v
Ġlarv ae
Ġdecl ines
Ġhe red
Ġdiffer ently
Ġimm ature
Ġent ity
Ġvolun t
av or
Ġpick ing
Ġenforce ment
in ers
Ġarm en
Ġing red
Ġinnov ation
Ġreg ards
Ġembarr ass
Ġlegit imate
Ġnons ense
Ġdign ity
Ġqual ities
Ġreject s
9 1
Ġsummar ized
Ġfail ures
Ġoff spring
Ġconsc ient
Ġdet achment
Ġspecific ations
Ġ91 0
Ġgener ate
ch air
Ġst aging
b ons
Ġoper ative
Ġt ac
Ġsound ed
Ġarcher y
Ġread s
Ġmag ist
Ġdu ck
Ġrock et
Ġparat ro
Ġbosn ia
Ġintens ification
Ġam ede
Ġamede o
Ġpamp h
Ġaudio book
Ġnar ration
m l
Ġtre m
Ġdesign ers
Ġn ord
Ġg m
ie v
Ġrevel ation
ado x
Ġillust rate
Ġsol ving
Ġfle ming
Ġrid ges
us ions
Ġview er
Ġhairst yle
Ġdoub ts
Ã ª
Ġfa una
Ġec ological
Ġs ire
Ġk ai
Ġbre ese
Ġmont agu
Ġpatroll ing
Ġom itted
Ġprev ention
Ġre clamation
Ġse eds
d p
Ġfr iday
pher son
Ġvert igo
Ġunder way
Ġdisappear ance
Ġp ike
Ġy osh
Ġgam er
gr ass
Ġlauren ce
Ġdrop s
Ġcounteratt ack
Ġdischar ge
Ġgre cian
Ġfre t
Ġl ux
Ġ ã
Ġã Ģ
Ġagar ic
Ġtom or
Ġtomor row
qu est
Ġfur s
Ġmac donald
Ġscr ub
Ġwas ps
Ġcinc innati
Ġcas cade
Ġfr amed
itt ings
Ġts ub
Ġhew itt
Ġeth n
ul ata
Ġqedar ite
Ġtres co
Ġtresco thick
Ġout lets
Ġunder wood
at os
Ġref urb
Ġfor ge
Ġzim mer
Ġol af
Ġgross man
Ġhero in
Ġloc ke
Ġj ih
Ġfin ley
Ġn ue
f inger
Ġwilf rid
Ġconstruct ors
Ġtest ified
Ġram on
Ġmcdou gal
Ġw ied
th ane
Ġmin h
Ġbile Äĩ
ĠbileÄĩ a
Ġinse ct
Ġib ot
Ġibot enic
Ġsh iban
Ġsat ake
Ġtrans itive
Ġwin tory
Ġearth realm
Ġpra eter
Ġpraeter vis
Ġpraetervis a
Ġricci ardo
Ġbro ward
Ġse men
Ġf ass
Ġfass l
Ġfis a
Ġp dr
Ġphoen ician
Ġmed dings
Ġnap a
Ġph ine
Ġphine as
Ġlocal ized
Ġcrimin als
Ġdivor ced
Ġtim eline
uk a
Ġmason ry
Ġsp le
Ġrefere nd
Ġre ctor
Ġquant ity
Ġ186 4
l ake
an or
Ġsurre y
Ġpo ster
Ġkinder gart
Ġillust ration
Ġbe que
Ġnurs ing
Ġas hes
Ġpeng u
Ġlifel ong
Ġwonder ful
Ġsket ches
Ġsac r
Ġstevens on
Ġandrew s
Ġsan ctioned
Ġphylogen y
Ġmit och
Ġmitoch ond
Ġembry os
Ġlif es
Ġrich ards
Ġass ists
Ġculmin ating
Ġunhapp y
Ġuns ure
Ġnation wide
Ġstand ings
Ġecl ip
Ġautom atic
Ġvern on
Ġtest imony
Ġcrowd ed
Ġdef ine
Ġconfeder acy
Ġbah am
Ġfin anced
Ġsp lin
Ġt rent
Ġt ill
Ġconv inc
Ġbuild s
let te
Ġma at
ogr ams
Ġfal con
Ġdece ased
Ġenvision ed
Ġemer ge
Ġcounter parts
Ġper cept
Ġdiffer ed
he res
arch y
Ġperiod ic
d o
th ood
Ġshif ting
Ġarr ay
Ġh ath
Ġicon ography
Ġsyn c
Ġdram atically
Ġun ified
Ġhab its
Ġear s
Ġide ology
Ġen forced
Ġansw ers
Ġbro s
Ġdemonst rating
ios ity
Ġdr ake
Ġquart et
Ġshif ts
Ġsl aughter
Ġp unk
Ġreign ing
Ġreg ulate
Ġpip er
Ġcustom er
Ġl aps
Ġcan opy
st ri
Ġsatisf y
Ġlaun ching
Ġbad ge
Ġin appropri
Ġper ce
Ġsuperior ity
Ġbr ush
roph ic
Ġtax onom
Ġcor ro
oc ar
Ġhy men
Ġim min
Ġimmin ent
Ġmore l
ice a
Ġfun gal
Ġspor adic
Ġte nder
Ġ184 4
Ġprem ium
Ġstri kes
Ġnick el
Ġme th
Ġsubstit uted
Ġal k
Ġgroup ed
Ġch ir
Ġan om
Ġredu ces
Ġpossess ing
Ġjud ges
Ġmar ÃŃa
Ġrid ers
Ġfulf illed
ian o
Ġportray s
Ġcor ruption
ro c
Ġag ust
Ġpresid ency
Ġtrou bled
Ġtra uma
Ġbel oved
Ġcre ates
Ġdomin ance
Ġfacil itate
he nd
are z
ro ck
Ġwe ber
Ġfar mer
Ġles ter
Ġpione ering
Ġgun nery
Ġinv as
Ġcommission ers
Ġst am
Ġwhis key
Ġtext ile
Ġunpre ced
Ġunpreced ented
Ġadm ission
Ġbi ographical
Ġaf ghan
Ġafghan istan
Ġglass es
Ġs es
Ġal ert
Ġir onic
Ġrecogn ise
origin al
Ġpen elope
Ġstr anger
Ġassum ption
roscop ic
h ard
Ġeleph anta
Ġdis emb
gro ve
Ġtr aced
Ġfac ial
Ġdwarf s
Ġpost ure
Ġre jection
ol ar
Ġresemb l
Ġhighlight ing
Ġunre leased
Ġgirl friend
Ġ188 7
Ġant is
Ġfe as
in as
Ġpriv acy
Ġhar ass
Ġdecl are
Ġacadem ics
Ġalleged ly
Ġelect oral
Ġimpl ied
Ġanal og
Ġwiz ards
Ġesp n
Ġbrook lyn
Ġsoph om
Ġsophom ore
Ġtouc hed
Ġwor thy
Ġswit ching
Ġto pping
Ġye ah
Ġst om
Ġfranc isc
Ġst ake
Ġmuham mad
Ġw ise
el ines
us z
Ġukrain e
he tt
Ġatt itudes
Ġhit ler
Ġdiss olved
u z
c z
Ġpat rons
Ġpost ers
Ġalex and
Ġle ch
Ġad oles
at ur
Ġjut land
Ġw es
Ġbur st
Ġcompr ise
Ġhal t
Ġexperi encing
Ġc ere
Ġsupplement ed
Ġthir teenth
Ġfind ings
Ġpla que
Ġsuperst ructure
chang es
Ġple ase
Ġback up
Ġa ar
Ġsl ant
Ġfif teenth
Ġcolumn ist
ind a
Ġout ages
Ġs ipp
Ġsipp y
Ġconv entions
Ġj ov
Ġser g
p ah
re en
Ġpras ad
Ġinter m
Ġl amp
Ġbord ering
Ġps y
Ġsub gen
am bo
f le
Ġports mouth
aks in
Ġquestion ing
th i
Ġagre ements
k ok
Ġcontract ing
Ġs urn
Ġoutl aw
Ġva ude
Ġvol c
Ġvolc ano
c ans
Ġdeliver ing
Ġrap per
Ġsc rew
Ġlet ting
Ġlyric ally
Ġjas per
Ġconsum er
Ġfemin ist
Ġell iott
he a
y i
Ġsal ts
omet ry
Î ½
Ġr ats
Ġu cl
a ul
Ġsic ily
Ġsh ocked
Ġrecommend ations
Ġrac ist
y an
Ġnic ol
ic uous
u ity
Ġobl igation
Ġhero ic
al id
Ġper t
z an
Ġprelimin ary
Ġmoist ure
Ġar ise
Ġant io
Ġpl ague
Ġtra vers
Ġscore less
Ġpit chers
Ġ35 8
Ġwood y
Ġro gers
Ġinc on
Ġreconstru cted
Ġunemploy ment
Ġb ric
Ġcelebr ating
Ġdes erted
Ġdis ast
Ġdisast rous
Ġb iz
Ġnat al
Ġab ort
Ġpal en
Ġpalen que
Ġcapt ive
Ġed u
Ġpre ference
Ġmig rate
Ġcourts hip
Ġperip her
Ġsc hem
Ġrang ed
Ġott o
Ġster ling
Ġa in
Ġx in
at ri
ia o
Ġch ol
Ġdevast ating
Ġheavy weight
Ġk ay
Ġlamb ton
Ġta vern
Ġhun ted
Ġam al
Ġeurope ans
Ġrehabil itation
Ġvo ters
ĠfranÃ§ ois
Ġvirtu os
ern ess
Ġresear ched
Ġm isc
Ġfrank f
Ġch ast
Ġlob by
Ġexam ine
Ġ ×
Ġvij ay
Ġvul gar
h ill
Ġaccur ately
idel ity
Ġun ions
Ġmar riages
ang s
Ġcop yr
Ġcopyr ight
Ġextr av
Ġextrav ag
Ġimprov ised
Ġaval on
Ġfact ions
w right
Ġ179 0
y ards
Ġt ired
Ġsylv ia
Ġback drop
Ġb rent
Ġtut or
Ġconfron ted
Ġprest ige
Ġcelest ial
Ġenthusi astic
b ag
Ġhom eless
Ġ175 9
Ġpatriarch al
Ã© m
Ġpres umed
Ġtypes et
Ġpunct uation
Ġdes k
Ġresour ce
v ana
Ġloc ked
Ġguest s
Ġhar aj
Ġharaj uku
Ġre ub
Ġb b
Ġpar adox
Ġbar riers
Ġexplos ions
Ġtravel ers
Ġcoinc ided
Ġinex per
Ġsh ad
á¸ ¥
Ġjoy ce
Ġenthus ias
Ġshe en
Ġmo ham
Ġbore as
Ġcompens ate
Ġp ere
y uan
Ġsh i
Ġ179 4
Ġra iding
Ġandr Ã©
Ġhard er
Ġn ich
Ġtra verse
Ġconscient ious
Ġsurge on
Ġpneum onia
Ġins ular
Ġent renched
Ġcliff s
Ġcanad ians
Ġbec k
Ġempl acements
Ġw yn
Ġm ls
Ġth umb
iÃ¨ re
Ġintercept ions
Ġpenal ties
Ġgames pot
Ġvet o
Ġgr apes
ff y
Ġtraff ord
Ġcandid acy
Ġde e
Ġfol iot
Ġtot als
Ġdevelop s
Ġma ids
Ġmar ina
Ġs anti
Ġsanti ago
pt ide
Ġther mal
Ġl erner
Ġl ulu
Ġhell er
Ġmerch and
Ġbiographer s
Ġt ull
Ġmart yr
Ġded u
Ġgrav itational
Ġare t
Ġaret usa
Ġtax a
Ġav at
Ġgri p
Ġib rah
Ġsight ings
Ġgal eric
Ġglam organ
Ġcook ery
ap ul
Ġd oping
Ġu day
Ġtre b
Ġcap illa
r n
Ġawaken ing
Ġl ano
Ġvander wer
Ġvanderwer ff
Ġmother well
ord e
Ġhe x
Ġg ases
Ġcr ass
ish na
Ġfat ality
Ġbor gn
Ġborgn ine
bs a
Ġveerasha iva
Ġpowder finger
Ġpoly ure
Ġpolyure thane
m ire
Ġreach ability
Ġcampus es
ok rat
Ġca en
Ġrose ber
Ġroseber ys
apter iscus
Ġgryllotal pa
Ġprinc ipe
a ig
Ġgal entine
roloph us
Ġbohem ica
Ġd hang
Ġkle ine
ãĥ «
ag i
Ġincorpor ating
l c
Ġinstall ation
Ġdang ers
Ġbuild er
Ġin ade
Ġreferend um
4 1
Ġironcl ad
Ġbox es
Ġpist ols
Ġpack ed
Ġstair case
y don
Ġanglic an
Ġkindergart en
Ġpos ed
Ġprincip ally
Ġever ett
Ġresc ues
Ġs ier
Ġsier ra
Ġmor oc
Ġaffil iated
Ġgray ish
Ġbi ology
Ġank le
Ġmil an
est ones
Ġprotest ed
Ġshop ping
Ġprospect s
Ġsha wn
Ġconvers ely
Ġv atic
Ġmy stic
ic ating
Ġsophistic ated
Ġrac ism
Ġopen er
Ġhapp ening
r ill
ad ers
Ġle ver
Ġ12 4
th rough
ak r
at ics
h ot
Ġdiamond s
Ġforb es
Ġbuff alo
Ġdeal ers
Ġcho osing
Ġben ch
Ġb out
Ġdod ge
Ġman ned
Ġmu zzle
Ġsuggest ions
ly ph
Ġout g
Ġdis ruption
Ġtrans cend
Ġstoryt elling
Ġdiss ol
Ġrel ate
Ġne k
Ġqu int
pect ives
f old
Ġpt ole
Ġcon jo
Ġcoun ted
ak h
Ġtend ency
Ġtheolog ians
Ġlik ened
Ġcreat ures
Ġrelief s
Ġchap els
Ġgovern ance
Ġign ore
Ġref usal
Ġmand atory
Ġmusic ally
Ġreg ulated
Ġreg ul
Ġlicens ing
ag l
Ġambul ance
Ġtre nds
Ġaccur acy
Ġcomp are
Ġs que
Ġdisc r
Ġrepet itive
Ġdock yard
Ġbesie ged
Ġkingdom s
Ġsl av
Ġmicroscop ic
Ġt ips
Ġect omyc
Ġlod ge
Ġenzy me
Ġflow ing
Ġprem ises
act ory
Ġprob ability
Ġille g
Ġdep rec
Ġex ceeded
Ġcore y
hy d
at ile
Ġbridge head
Ġc i
Ġam n
id o
ist a
Ġprom ises
Ġoro z
Ġoroz co
Ġsp are
Ġaut onomy
Ġagree ing
Ġp ity
ord a
Ġjul ie
Ġqu otes
Ġsil ence
Ġpure ly
Ġh ides
Ġdr aining
Ġste phan
Ġthorough ly
Ġsimultane ous
or g
Ġinstru ctor
Ġdesp at
f c
Ġsol itary
Ġd ash
Ġcou l
Ġcounterp art
Ġbeau f
uc as
Ġbe verly
Ġenroll ed
Ġse th
Ġprosecut or
Ġint entions
Ġlow e
Ġroyal ty
Ġcomed ic
Ġan x
Ġrad ial
Ġe ccent
Ġeccent ric
3 8
Ġscul pted
Ġarab ian
Ġc is
Ġsk illed
Ġattend ant
Ġk art
Ġser p
Ġdepress ions
Ġbe arded
Ġbr am
Ġspe ctor
Ġh og
Ġresembl ance
Ġsimilar ity
Ġm ates
Ġic eland
Ġchord s
Ġfasc ist
Å¡ ka
Ġori ental
Ġnarrow er
Ġt ables
Ġvol ley
Ġdism ant
Ġimp acts
Ġplant ations
Ġbo g
Ġdisc retion
Ġpe at
Ġaccol ades
Ġn ike
Ġbu ying
Ġrock ets
Ġroadbl ock
act ic
Ġintention ally
Ġdisgu ised
Ġrejo ined
Ġspokes man
Ġfir ms
Ġannex ed
Ġ51 6
ch ild
Ġcurric ulum
Ġw ÅĤ
Ġlic ense
c ot
Ġel imination
Ġintercept ed
ant y
Ġk ant
Ġz y
ir s
Ġsc apa
Ġbal tic
att y
Ġbunk er
Ġadj o
Ġrecover ing
Ġbarrow s
Ġnom adic
Ġmonument al
Ġst ressed
Ġd itch
Ġcompar atively
Ġdep ressed
Ġter restrial
Ġfood s
Ġposs ibilities
ment al
Ġcur ious
Ġencl os
Ġcomm ence
Ġfound ations
Ñ Ģ
cl ass
5 0
r ag
ter ial
Ġpostp oned
ire cted
Ġsp arked
Ġl ots
Ġkur stin
Ġca ution
Ġarr ange
Ġbr andon
Ġsl ot
Ġtext ure
Ġbest s
Ġruth less
Ġkarn ataka
Ġdial ect
Ġun used
Ġincred ible
Ġdefin itive
Ġdigit ally
Ġgoals c
Ġab dom
Ġapp l
Ġth aksin
Ġbang kok
Ġexecut ives
Ġdr ained
che m
Ġexcell ence
Ġprom isc
Ġsex y
Ġlaugh ing
Ġnig el
Ġun beat
Ġunbeat en
k ers
Ġf c
Ġcon ced
Ġro ch
Ġhyd e
Ġtrans f
Ġcr ust
ro x
Ġaccept s
Ġandre as
z el
Ġbyz antine
Ġbol iv
Ġautom obile
Ġbe ads
ra pe
Ġsuper vision
Ġcl ive
Ġir an
ab i
ver y
Ġbi ographies
ony ms
Ġt anz
Ġverteb rae
Ġdifferent iation
is aurus
Ġh m
her ical
Ġc unning
id ium
Ġsurround ings
Ġare n
hes is
Ġmagn olia
Ġtor o
Ġden ial
Ġro pe
Ġk ins
Ġque bec
Ġsusp ension
Ġrein st
Ġsynt hetic
Ġ187 5
Ġdraf ts
Ġhis pan
Ġmos aic
Ġtran se
Ġtranse pt
Ġg ama
ic ular
Ġcamer on
Ġcon rad
Ġjenn a
Ġgu at
Ġvass al
Ġinvertebr ates
Ġcoast s
Ġl ined
Ġinc ub
Ġsp iders
Ġre int
Ġsubsid ies
urn al
ob l
Ġinf ections
Ġcar c
Ġacqu iring
Ġcyt ogen
t op
ab olic
Ġd n
Ġ184 5
Ġmic ros
Ġr iot
Ġx u
Ġwood lands
Ġ183 9
Ġcause way
Ġtrav is
Ġrece iver
ro qu
Ġdestruct ive
Ġcapt ures
b us
Ġoutr age
Ġ Ã©t
Ġun ite
Ġunre li
Ġhar vard
Ġout right
Ġav iv
Ġcow ard
em e
Ġcyl ind
Ġind ent
Ġrow ing
Ġrelig ions
Ġbl ess
Ġhemm ema
Ġ166 0
Ġcont am
Ġrel i
Ġsemif inal
Ġcl ash
Ġm ash
Ġh iding
Ġhall s
bro ok
Ġh ailed
Ġbo ots
Ġreward ed
Ġmour ning
Ġhu izong
Ġfam ine
Ġst ol
Ġcandid ature
us c
Ġspl its
ur p
Ġv ing
Ã¨ me
Ġjac ques
Ġprest igious
Ġad or
ow itz
Ġdet ection
Ġbus es
Ġf cc
ground s
Ġry der
Ġy ah
Ġdomin ate
Ġfashion able
ĠØ §
ĠØ§ ÙĦ
Ġpriv y
Ġid yll
Ġstrat ford
Ġcol er
Ġfield ing
Ġpers ians
Ġ22 1
j ing
Ġstruct ured
Ġl oun
Ġcl own
Ġimag ing
Ġpan ama
Ġretreat ing
Ġvenge ur
Ġpul se
Ġske pt
Ġo gh
Ġsn akes
Ġreg en
Ġchief ly
Ġp ub
Ġtro ut
Ġcom r
Ġir ony
Ġamb ushed
im m
Ġdisp uted
Ġimm ers
Ġstup id
Ġw ond
Ġover ly
Ġcons oles
Ġ31 9
Ġalter ation
Ġm urch
Ġdeb ts
Ġsnap per
Ġkend all
Ġirres ist
Ġirresist ible
w aters
Ġpanzer gren
Ġpanzergren adier
Ġhast ings
Ġvis ibility
Ġsoci ology
Ġbur gh
Ġin ev
Ġvow el
m u
bre aker
Ġcritic izing
Ġbl of
Ġblof eld
Ġrob bie
Ġextr as
Ġbron x
Ġlact arius
st idia
Ġred s
Ġl aser
Ġd ante
is se
Ġprop het
Ġrena issance
Ġasc ension
Ð µ
Ġmagdal ene
Ġag on
Ġsubf am
Ġ182 4
Ġconc olor
Ġam ps
Ġjun o
Ġcare t
Ġc ogn
Ġp ard
Ġham m
Ġceratops ian
Ġmong olia
Ġeuro gamer
p ad
Ġw adi
Ġfl ock
Ġat ions
Ġst oke
Ġlou ise
Ġreal a
Ġdi able
Ġty re
yl a
Ġeth iop
Ġthe a
Ġte pe
Ġbod Ã¸
g ge
Ġkau ai
Ġlano is
Ġparas ite
Ġpl ank
Ġben adir
Ġsay id
Ġdi arma
Ġdiarma it
Ġjih ad
r ink
Ġno it
Ġnoit ul
Ġnoitul ove
Ġs pp
ug a
Ġred oub
Ġsclerodermat ineae
Ġr fu
Ġpoll s
Ġkr ishna
Ġirrig ation
Ġsp ise
Ġspise v
Ġspisev ogns
Ġspisevogns elsk
Ġl su
Ġeric sson
Ġman heim
Ġa if
Ġth arp
Ġgur u
Ġjain ism
Ġanc ients
Ġalgor ithm
Ġbluff s
ih an
Ġundert aker
Ġnail z
Ġrest ig
Ġrestig ouche
Ġreub ens
Ġin ocy
Ġiraq i
Ġport age
Ġdem okrat
Ġdemokrat en
Ġwu z
Ġwuz hu
Ġlo han
Ġfoc a
Ġcas u
Ġcasu arius
áĥ Ķ
Ġto ird
Ġtoird el
Ġtoirdel bach
Ġamylostere um
Ġadj usted
Ġrec ycl
Ġprev iew
Ġvis uals
Ġe is
Ġcros so
Ġstri pped
Ġattr actions
Ġspir its
Ġp on
Ġconver ting
ed ience
Ġartif acts
Ġveter ans
Ġrenov ated
Ġcommemor ate
Ġcro ydon
Ġposthum ously
Ġneck l
Ġroll s
Ġmethod ist
Ġhym n
Ġqual ify
Ġtr aw
Ġresear cher
Ġphylogen etic
Ġancest ral
Ġelong ated
Ġsle nder
Ġpref ers
Ġfisher ies
Ġrebu ild
Ġgoal te
Ġgoalte nder
Ġro ster
Ġaval anche
Ġg p
Ġunder g
Ġfr ances
Ġterr ace
c ular
Ġb ast
Ġno on
ud y
Ġpant he
Ġd ana
ie ff
Ġvin yl
Ġcl ips
o es
Ġbackground s
ic ing
Ġship yard
Ġbaham as
Ġinst ruct
Ġsaf ely
Ġendors ed
Ġroll ed
Ġdef enses
Ġaug mented
Ġpenet rate
Ġmaneu ver
Ġcust oms
Ġviol ations
je ev
Ġk ah
Ġt empt
Ġl ent
Ġbreak fast
Ġfour teenth
Ġhar per
Ġp us
Ġl ore
Ġprefer ring
Ġfresh man
Ġexp ired
Ġsc an
Ġtrans plant
ant o
Ġprop elled
Ġcasem ates
Ġex pend
Ġintric ate
Ġimp erson
Ġobsc ure
Ġovers aw
Ġmid st
Ġn ile
Ġk he
Ġcle ver
Ġcla ude
Ġos ir
Ġosir is
Ġcontradict ory
if fer
Ġvic ious
Ġpers pectives
Ġstat ic
Ġconjo ined
Ġjudg ment
ant ed
Ġprosper ity
Ġlim b
Ġr ational
Ġrom ans
Ġf used
Ġdeterior ated
Ġker ry
Ġgu ess
Ġf uck
Ġsurf aced
Ġimp osing
Ġmagn ific
et ary
Ġdel ux
Ġdelux e
Ġfinn ish
w y
Ġgro ove
Ġprop eller
Ġuncom mon
Ġpress ures
Ġdef ining
Ġinappropri ate
Ġden y
Ġcru ising
Ġhost ilities
Ġvi enna
Ġvers a
Ġsp ru
ar is
Ġsm ell
Ġcr ushed
Ġfru its
Ġlev i
Ġcounterfe it
Ġbor ne
m atic
Ġst alled
Ġlim iting
Ġvari ants
Ġreag ent
om er
Ġst ems
Ġamn esty
ad os
Ġappro ve
Ġtrust ed
Ġconspir ators
Ġautonom ous
el age
Ġhat red
Ġins ign
Ġhum il
Ġun ac
Ġbic ycle
Ġins pe
Ġpl ann
Ġeff iciency
Ġd ive
Ġstr ained
Ġmitchell s
Ġsword s
Ġpo e
Ġpater nal
Ġdere k
Ġhun ger
Ġgross ed
c ur
in ating
Ġunf in
Ġunfin ished
Ġs its
Ġkaly anas
Ġmon ke
Ġro be
Ġfr ight
Ġadorn ed
Ġny mph
Ġcourty ard
Ġwing ed
ig ators
Ġex od
Ġexod us
Ġpleas ant
Ġup coming
Ġkle in
Ġconfisc ated
Ġproceed ing
Ġre ich
Ġvac ant
Ã© r
Ġwas hed
y ah
Ġch im
Ġbar rel
Ġint ensive
Ġden is
Ġviol ated
le e
Ġcoun sel
Ġdesign ations
Ġsy r
Ġstom ach
Ġindu ced
Ġrespons ibilities
Ġmot ors
Ġhold ings
Ġshort ened
Ġfix ture
Ġbre ach
Ġporn ographic
book s
Ġcens orship
Ġstef an
ys ÅĤaw
Ġiron ically
port ed
al u
Ġad olf
Ġf ake
Ġreact ors
ag ar
Ġ45 0
Ġscout ing
Ġmo res
Ġmores by
Ġw ies
Ġadjo ining
Ġpun ch
Ġref it
Ġinfl ict
Ġpast oral
Ġdepos ition
Ġmig rants
Ġclear ance
Ġal der
Ġchestn ut
Ġdem ograph
ar ine
Ġexcav ated
Ġst unning
Ġlight ly
Ġmount ing
Ġredesign ated
art ed
Ġem i
Ġsongwrit ers
Ġche ers
Ġsing led
man uel
Ġamaz on
Ġl p
Ġpursu ing
out ing
Ġsome how
Ġ13 6
Ġm b
Ġver mont
Ġrun off
Ġexplo its
Ġw oo
w et
Ġlav ish
Ġjub ile
Ġearn ings
ach i
Ġp ly
Ġdev on
Ġbur ton
Ġà ¹
Ġdir ty
Ġbeat les
Ġvaude ville
Ġbl aine
Ġal m
Ġforth coming
Ġmys ore
Ġc ute
Ġmel odies
Ġmention ing
Ġst ib
Ġvap or
Ġtreat ise
Ġproced ure
Ġplat y
Ġinf ra
Ġcollect ors
Ġres ide
ab ol
Ġsub continent
er b
Ġfrequ ented
Ġh ilda
h all
Ġmar se
Ġbritt any
Ġle pt
Ġsymp ath
Ġv ed
Ġne ared
Ġnort on
Ġmy ers
Ġemb odied
Ġadminist rator
ple x
Ġgle ba
Ġsp herical
ĠÎ ¼
oty pes
Ġk re
Ġfrag ile
Ġmicroscop y
ic ious
Ġmorph ology
Ġstim ulated
Ġc ushing
st op
Ġrus hes
s he
Ġ187 1
Ġprec inct
Ġsteep le
rain ts
Ġfr action
Ġweigh ing
Ġm ural
Ġne oc
Ġv asco
Ġspo iled
Ġslip ped
rien ne
Ġcont acts
Ġcre ed
Ġ ich
Ġp ied
Ġguat em
Ġw ak
Ġisol ation
Ġsp ine
Ġenviron ments
Ġfro g
Ġb red
Ġele gans
Ġfat ig
Ġsub ty
Ġprogn osis
Ġprec urs
for ward
am ine
Ġlik elihood
Ġris ks
Ġj ing
Ġf land
Ġinv ites
Ġtim ed
Ġund e
Ġout let
Ġkn ot
Ġpoll ution
Ġingred ients
Ġaer os
Ġaeros mith
Ġmil ton
Ġf m
Ġsharp ly
Ġjack et
Ġd art
Ġfulf ill
Ġjust ified
Ġex commun
Ġhomosexual ity
Ġcomp ass
Ġinte g
Ġrev isions
Ġinvest ed
Ġmatch ing
Ġalam os
ro e
Ġge ology
Ġconcurrent ly
Ġto so
Ġwheel chair
Ġd and
Ġpull ing
Ġche er
Ġtan aka
Ġener get
Ġlo pez
Ġbr is
id d
l ong
Ġr ude
Ġlun ar
Ġcap ability
Ġv Äĥ
Ġintegr ation
Ġfore cast
Ġbarre ls
Ġcar lo
Ġ176 6
Ġgi ac
Ġgiac omo
Ġdep r
Ġbunk ers
Ġprem ise
Ġgeoff rey
Ġins erted
Ġf onts
Ġr amb
Ġfar r
pie ces
Ġbur den
Ġthr ust
Ġn g
Ġwar ming
Ġcalcul ators
Ġarch aic
Ġp iers
Ġval leys
b age
Ġjo ey
Ġrec onc
Ġreconc ile
Ġshad ows
Ġsleep ing
Ġb ust
Ġan s
Ġpeak s
Ġantio ch
Ġmand ate
Ġis t
Ġg c
Ġcapt ained
Ġgib ral
Ġgibral tar
Ġsome where
Ġgl az
Ġhaw k
Ġp iz
Ġ122 4
Ġrain bow
Ġmort ars
Ġir rit
Ġsol omon
te es
Ġshort est
Ġspeed s
Ġplant ed
Ġf rit
Ġre e
Ġmort ality
Ġmc gu
Ġgra zing
Ġbut ler
o que
Ġdis hes
Ġconting ent
Ġcompart ments
Ġelimin ating
Ġcomr ades
Ġbo ad
Ġboad icea
Ġpen ult
Ġpenult imate
u ana
Ġfill ing
Ġtr aps
Ġexc it
Ġexcit ement
Ġt ents
Ġcommit ments
Ġjul es
Ġport ed
Ġmen u
Ġmas ked
Ġf aint
Ġsam pled
Ġbed room
ject ed
Ġconfig uration
Ġspaces hip
Ġtake off
Ġb j
Ġmull en
s m
Ġh ots
Ġpred iction
Ġr ally
Ġgabri elle
Ġwood stock
Ġborder ers
Ġnir vana
Ġmott ola
Ġboy z
ric ke
Ġcl amp
Ġwild er
Ġve il
Ġst ops
Ġcar rie
Ġsex p
Ġsexp unct
Ġsexpunct atus
Ġow ls
Ġbishop ric
av i
Ġsal is
Ġsalis bury
Ġspl ash
Ġi o
Ġexpl orers
erv ois
Ġenthusias m
Ġf ittings
Ġed wards
Ġcaret aker
Ġdis ass
Ġprot oceratops
Ġretros pective
Ġped al
Ġro ost
Ġc ay
Ġbar rett
Ġnight cl
Ġt uf
Ġh one
ud ers
Ġali ens
Ġlam bs
Ġvir g
Ġvirg il
Ġsy b
Ġwer neth
Ġ181 8
Ġlig a
Ġen ix
Ġac apul
Ġacapul co
Ġproph Ã¨
ĠprophÃ¨ te
Ġhubbard ton
Ġassass inated
Ġeucalypt s
ov al
Ġkristians and
Ġtrom s
Ġtroms Ã¸
Ġheli k
Ġhelik opter
Ġo ahu
Ġhil o
aff o
Ġkaram ok
Ġkaramok ho
Ġquarter f
Ġv ect
Ġgall ip
Ġgallip oli
Ġkant ara
Ġk ress
Ġpo res
Ġgro ening
Ġball iet
Ġballiet t
Ġnew market
à¤ ¾
Ġsteam boat
Ġlabor int
Ġlaborint us
r agon
Ġstate hood
Ġhall uc
Ġt bsa
Ġj ains
Ġplant ation
Ġbah Ã¡
Ġcy ber
Ġwhe don
Ġview points
Ġordin ance
Ġcrest s
Ġlaud er
Ġlauder dale
Ġcit ra
Ġow asco
Ġnl f
Ġnguy á»
Ġnguyá» ħ
Ġnguyá»ħ n
Ġinocy be
Ġnue ces
Ġj iu
Ġkod okan
Ġbat ou
Ġarbeider en
ss en
Ġham el
Ġmong ols
Ġyang t
Ġyangt ze
Ġburn side
Ġsp lic
Ġw ru
Ġt akum
Ġtakum i
Ġs ihan
Ġsihan ouk
áĥ ¡
áĥ ł
Ġhomar us
Ġmozamb ican
Ġmond lane
Ġlech uck
Ġwied ens
Ġwiedens ahl
Ġconserv ato
Ġconservato ire
Ġr aven
Ġcompat ible
aus ible
Ġupgr ade
Ġbl ur
Ġcriticism s
Ġreg ret
Ġovert urn
Ġserial ized
Ġoct agonal
Ġinade quate
Ġgaz ette
Ġcomp ose
Ġoutp osts
Ġassemb le
ur ated
un s
Ġpresum ably
Ġrenov ation
Ġ186 8
Ġheadquar tered
Ġre union
anth rop
Ġfund ra
Ġdar ling
Ġraph ael
ad don
Ġme als
Ġmod elled
Ġbeque athed
b ank
Ġaltern ating
Ġmarg ins
Ġbon ap
Ġbonap arte
Ġtim or
Ġsubst rate
Ġnew born
Ġreprodu ctive
Ġott awa
Ġhit ch
Ġh ire
Ġdeliber ate
f unction
Ġshut out
Ġmat ched
Ġvatic an
Ġunderg one
Ġar che
Ġsem ic
Ġmod ifications
Ġvi ii
Ġfres co
Ġfle m
Ġengine ered
Ġtre v
Ġtrev or
Ġag round
Ġpage ant
Ġmo h
Ġmodel ing
Ġfant as
Ġf ool
Ġmark er
Ġnow here
Ġze e
Ġveget arian
Ġoutf its
Ġport al
Ġclim bing
Ġgr as
Ġcele b
rit ies
Ġtamp a
Ġov ation
Ġwol ves
Ġpolyt he
Ġspe e
Ġinac cess
Ġinaccess ible
k au
Ġgene al
Ġden ying
Ġident ifying
Ġdis ag
Ġdisag ree
Ġben ign
Ġdis asters
Ġst el
Ġexport ed
Ġemper ors
op ot
m ons
Ġdistrib utor
Ġcert ification
Ġsele ctions
Ġmagnific ent
Ġint ro
Ġhardc ore
st ep
Ġgl ider
Ġgl iding
Ġadvertis ement
Ġpopular ised
Ġspec ified
Ġche aper
Ġhand ic
Ġprogress ing
Ġmed als
Ġair stri
a uc
Ġerr atic
Ġun opp
Ġunopp osed
Ġp ix
Ġdec omp
Ġjohann es
Ġber ke
Ġberke ley
Ġash ley
Ġell ip
Ġdim ensions
Ġconif erous
Ġfru iting
Ġl ign
Ġjewel ry
Ġrecommend ation
Ġ184 6
Ġam ended
Ġwh ig
Ġmistaken ly
Ġcongress man
Ġimpro per
Ġval ued
Ġarsen ic
Ġexp elled
Ġi od
Ġod ds
Ġbar ra
Ġind em
Ġmarch ing
Ġpan ic
Ġland own
Ġdisagre ement
Ġassemb lies
Ġpersec ution
Ġdown ward
Ġexam ines
Ġhom etown
Ġdis gr
Ġassa ults
Ġassa ulted
Ġconc essions
um as
Ġcler k
v arez
Ġconstruct ing
Ġbom ber
Ġunder going
Ġcoll ided
m ind
Ġforest ry
Ġeast wards
ai res
Ġschm id
h ler
Ġboss y
Ġx en
ae us
Ġdel ivers
Ġ14 1
Ġal umn
Ġdiscover ing
Ġlev y
Ġnar rated
Ġsel dom
Ġmanager ial
Ġfeud al
Ġabandon ment
Ġdiv ide
Ġkalyanas und
Ġamid st
Ġey ed
Ġrest ing
it ative
Ġjewell ery
Ġkne eling
Ġbott le
Ġvarious ly
Ġdhar m
al as
Ġdisc us
Ġw rought
Ġquar ry
Ġconsolid ation
Ġline up
Ġcheck ed
Ġhom eland
l ined
Ġhum our
ett o
ank ar
Ġlud w
Ġantis em
Ġent rep
a ise
Ġscot ia
Ġste ering
f olk
Ġtor rent
Ġtorrent ial
Ġdemonst rations
conn or
as i
Ġmonit ored
Ġpp g
Ġare nas
aff ected
l ain
Ġaver ages
in ter
Ġaggress ively
Ġmal one
Ġw ishing
Ġoccup ying
Ġcompuls ory
Ġt ade
Ġtade usz
Ġprev ailed
Ġeliz a
Ġcre ations
Ġstal in
Ġcongreg ations
Ġjer zy
Ġdoctor al
Ġdeleg ation
Ġpatri otic
Ġend e
h ant
Ġintern ed
Ġscr apping
Ġmill imeters
Ġste amed
Ġ44 0
Ġground ed
Ġam ounted
Ġc oty
ul us
Ġmark ers
Ġcat ching
Ġconstit ute
Ġere ct
Ġdemograph ics
ro gen
1 5
Ġtiss ues
Ġal d
Ġhart ley
Ġsub ter
Ġpay ne
Ġurg ing
Ġerr one
k az
Ġex changed
k on
Ġprov idence
Ġar terial
Ġrel ocation
Ġsm ash
Ġsm ugg
lo o
Ġsoundtrack s
Ġros em
Ġrosem ary
Ġel vis
Ġaar on
Ġre iss
m art
Ġrender ing
Ġgl enn
Ġled ge
Ġdown ed
ann i
Ġn ant
Ġpron unciation
Ġcat ches
Ġme h
Ġgar rett
ant ically
Ġv hs
Ġmargin al
Ġsa h
Ġra o
Ġinterm itt
ud d
Ġmal ay
Ġutt ar
Ġjubile e
Ġflaw ed
Ġply mouth
Ġwolver ham
Ġwolverham pton
Ġwhere by
Ġtele com
Ġtele commun
Ġprepar atory
Ġinsurg ency
Ġinter ference
Ġreven ues
li er
Ġexp enses
Ġexplos ives
Ġnew ton
Ġpeters burg
Ġbutt ons
Ġisa ac
Ġexpl ores
Ġman e
Ġind ul
Ġt rop
Ġgr ind
Ġrev amp
Ġcar son
Ġroch dale
Ġb ism
iz hou
Ġge ometry
e a
th al
Ġab bre
Î ¿
Ġc ites
Ġ11 00
Ġindic ation
Ġbl ast
Ġgam ma
Ġinh al
Ġrel oc
Ġsett ling
Ġm aker
Ġrh in
Ġgl ou
Ġdoctr ines
Ġleis ure
Ġweb ster
Ġcampaign ing
Ġconsp icuous
Ġatt aining
Ġpersonal ities
erv es
Ġsyn onyms
Ġtanz ania
lim bs
Ġprop ose
Ġinv alid
ro d
Ġearth star
Ġdefin ite
Ï ģ
Ġcr acks
Ġar ctic
p ine
id i
Ġdig g
Ġpud ding
Ġforg iveness
Ġobs ession
Ġfra ud
1 2
Ġtrad es
Ġmart y
Ġ36 8
Ġbul ld
y t
we ig
Ġpup il
Ġgr ades
Ġcon ical
Ġdon ors
Ġdoor way
Ġar ches
Ġv end
a id
Ġst ole
Ġbiz ar
Ġcomplic ations
Ġback ward
Ġinc ap
Ġcoun ts
Ġterr aces
Ġspecial ised
fl ies
Ġreint rodu
Ġfatig ue
Ġsynd rome
Ġambig uous
Ġe b
Ġern st
Ġpump ing
d ong
Ġver bal
Ġin ability
Ġs g
Ġab du
Ġ181 7
Ġ42 0
Ġdr ives
Ġ25 1
Ġcontain ers
Ġcasual ty
Ġsher iff
Ġdr ill
Ġorganiz ers
Ġ182 9
Ġpat ric
Ġrest ruct
Ġread ings
Ġchemical s
Ġvirtuos o
Ġz ion
Ġem inent
Ġwild erness
Ġqu ote
Ġcontrovers ies
Ġdistort ions
Ġch utz
Ġchutz pah
Ġridic ulous
Ġd ans
Ġb ant
bl ad
Ġexclud ing
Ġaugust ine
Ġk ree
Ġkree ft
Ġthe ological
Ġsalv ation
Ġass erts
Ġint entional
Ġover sh
Ġproport ions
Ġadm it
Ġsh y
ren s
Ġgal leys
Ġhemm em
Ġhemmem as
Ġ182 3
Ġtransport s
Ġ177 0
Ġcap abilities
Ġlabor atories
Ġam pl
Ġpat ent
Ġsun sh
Ġenerget ic
r im
Ġcontin uation
Ġfut ur
Ġfl aws
Ġal icia
Ġt ails
Ġy es
Ġz h
Ġgu an
Ġar row
Ġunreli able
Ġconqu er
Ġy ing
Ġgo ose
Ġthin ly
ah ar
Ġbaby face
Ġfurn iture
Ġ176 1
Ġde acon
Ġc w
Ġhoriz ons
Ġrel iable
Ġun changed
Ġinto x
Ġving ti
Ġvingti Ã¨me
Ġpet it
Ġe j
Ġbankrupt cy
Ġac ronym
Ġn x
Ġr d
f x
Ġ13 2
Ġmunicipal ities
Ġpsychiat ric
Ġinexper i
Ġinexperi enced
Ġchand ler
Ġt ate
Ġwor ry
Ġcho ices
Ġhospitall ers
Ġshell ing
Ġaltern atively
Ġtriang ular
Ġl ining
Ġca ut
Ġval entine
vern ess
Ġre appe
Ġam us
Ġstr um
Ġcul ver
am is
Ġshield s
Ġcar ly
m oor
Ġtai yuan
Ġapart ments
Ġshan gh
Ġshangh ai
Ġsha o
Ġris en
Ġsand wich
Ġb isc
Ġm oll
Ġbest owed
Ġtransition al
Ġclim b
Ġcock pit
Ġseg reg
Ġbro om
Ġbm w
Ġel k
Ġbar oque
Ġedge worth
Ġl ans
Ġkat ie
Ġparan ormal
ons c
Ġassault ing
Ġl Ã©
g ins
Ġriv iÃ¨re
Ġver ne
Ġconf using
Ġspect acular
Ġc ds
Ġsp rites
Ġmerc er
Ġc ed
Ġsh ades
Ġbe head
Ġunder c
Ġunderc over
Ġn od
Ġviol in
Ġoutfl ank
Ġhighland ers
Ġnight fall
Ġcro c
Ġcroc od
Ġun se
Ġunse en
Ġspect re
w ith
Ġgif ted
Ġpl ating
Ġcount ess
Ġres upp
Ġresupp ly
Ġpoly gam
Ġspect ral
Ġbosn ian
Ġwill ie
isc over
Ġgal a
Ġresid ues
Ġturn over
ob ic
ell ular
Ġlocal ization
Ġtermin ated
Ġint est
Ġmind ed
Ġpes os
Äģ n
Ġk ow
Ġ21 0
Ġkn oll
Ñ Ĥ
Ġcompos ing
Ġbr av
Ġline back
Ġsin ner
Ġrob es
Ġgre ens
Ġguild ford
Ġaber d
Ġaberd een
Ġgr un
Ġsad dle
Ġrevis ited
Ġsec rets
ru e
Ġsu ed
Ġnot ts
Ġtann ery
Ġfor wards
Ġz ack
er os
Ġnightcl ub
Ġmc all
Ġmcall ister
Ġland marks
Ġcell o
Ġgaleric ulata
Ġn ab
Ġbow led
Ġsyb il
Ġcatch ment
Ġp Ã©
Ġqueen stown
Ġd ore
Ġscrib e
Ġastronom er
Ġconcert o
Ġmist ress
Ġv ab
q q
h ope
ell ations
Ġhit ter
Ġcard ell
Ġstar r
Ġsh ang
Ġab rams
Ġaster oids
Ġsit ri
Ġsitri uc
Ġdub ai
Ġrod dick
Ġmc man
Ġogh rat
Ġoghrat ina
Ġf ford
il er
Ġdel ia
Ġru wan
Ġgig er
Ġse wer
Ġbh ai
Ġrena ult
Ġ44 8
Ġguerr illas
ves en
Ġns b
Ġs abor
Ġmum ia
Ġfan ning
Ġn ay
Ġse ph
Ġpole hin
Ġpolehin ke
Ġrose y
Ġdis qual
l am
it ans
Ġtat anka
Ġ Äĳ
ĠvÄĥ n
ath lon
Ġbeet ons
Ġnas als
Ġsn elling
Ġdi agram
Ġlar ssen
Ġkit ana
Ġchrom osomes
Ġanzac s
Ġlub ric
Ġcontrace pt
Ġchenn sel
Ġchennsel aig
Ġp oven
Ġpoven mire
Ġamylostere aceae
c ord
op ers
Ġexempl ified
Ġrede em
Ġmarc ell
Ġdescend ant
ound ed
Ġexp ose
ich i
Ġfl ux
Ġpack aged
Ġannoy ing
Ġaw k
Ġawk ward
en es
Ġcrosso ver
Ġf ay
Ġbirth place
et r
Ġstaff ed
f ir
1 6
Ġj unk
Ġo u
Ġrecapt ured
Ġdev out
Ġsuperv ising
Ġclay ton
al g
id ays
Ġcol ton
st ead
Ġb ak
Ġfeed s
et e
Ġn our
Ġsp ines
w orm
Ġpengu ins
Ġfort unes
Ġre iter
Ġl omb
Ġs v
00 0
Ġconfir mation
Ġdirect ive
Ġrodrig uez
Ġflem ish
Ġb ian
br and
Ġlist ings
ad t
Ġdisgu ise
Ġrend ez
Ġrendez v
Ġrendezv ous
Ġobject ed
Ġdiss atisf
Ġ27 0
Ġsign aling
Ġbol lywood
Ġbah rain
Ġlearn t
Ġan up
Ġcinem atic
ish a
Ġincred ibly
Ġb oring
Ġprior ities
Ġceleb rities
Ġcosm opol
Ġcosmopol itan
Ġly mph
Ġ64 0
Ġvick ers
Ġsupp ression
Ġm ik
Ġsl oven
Ġcomb inations
Ġat en
Ġcolle ague
Ġfemin ine
Ġsp here
Ġdefin itions
er ated
Ġn ub
Ġliter al
Ġco hes
Ġecl ips
Ġunp red
Ġunpred ict
Ġcontradict ions
Ġspee ches
Ġestabl ishes
Ġconvey ed
Ġfert ility
Ġk as
Ġcommun icate
Ġgen eric
Ġall ot
Ġup hold
j ust
Ġcosm ic
Ġin und
Ġfig ur
Ġsupp ressed
aly pse
Ġdisturb ing
Ġj ets
Ġeas a
Ġdef ines
Ġpri zes
Ġbas ically
Ġn il
Ġqual ification
Ġleg ally
Ġconsider ation
Ġoper ators
st ed
Ġbroad side
Ġmontene gr
hous es
Ġacknow ledge
g ling
Ġtreat ies
b odies
Ġdens ely
al is
Ġal aska
Ġinf ect
Ġpoly mer
Ġreg ain
Ġde leted
Ġdenomin ations
Ġexagger ated
Ġunder m
Ġwill is
Ġau ction
Ġprov oke
Ġp ett
kov sky
Ġprev ents
Ġequ il
Ġequil ib
Ġle Ã³n
Ġguerr ero
Ġj or
Ġreconcil iation
Ġun le
Ġw akes
Ġview point
Ġrig id
form ed
Ġtort ure
Ġmot ives
Ġagust ÃŃn
Ġvenezuel a
Ġdis ill
Ġdisill usion
Ġcub an
Ġunac cept
Ġunaccept able
Ġprohib ition
Ġcolon ization
Ġsacrif ices
Ġst ur
Ġsal on
Ġplagiar ism
t or
Ġdiplom at
Ġtransfer ring
Ġcons ul
f rey
Ġmig rated
Ġb ip
Ġtor so
fl ow
Ġplann ers
Ġbomb ed
Ġloc ate
Ġcult ivated
Ġaccord ance
field s
Ġpal in
Ġca ucas
Ġgrad uation
is ely
Ġrework ed
Ġsurre al
Ġro x
Ġup right
Ġs ard
Ġjess ica
Ġspons ors
Ġbuild ers
Ġas i
Ġap oll
Ġapoll o
Ġdisemb ark
Ġcis tern
Ġcreat ors
ak ut
ur ti
Ġloc ks
Ġrav ana
Ġvig or
Ġfl ames
o ise
Ġkalyanasund ara
Ġlot us
Ġcontain er
Ġth res
Ġsun ken
e ze
Ġto ile
bre aking
Ġo str
Ġnight mare
Ġtw itter
Ġadmir ation
Ġludw ig
Ġconsec rated
Ġ28 5
ov iÄĩ
Ġemig ration
Ġbor is
Ġcurren ts
Ġnor folk
Ġstr anded
Ġjust ify
Ġleop ard
Ġintim id
Ġamend ments
Ġd unk
Ġexhaust ion
Ġrod man
Ġre acted
Ġbry ant
Ġsuper b
Ġfrancisc an
Ġunanim ously
Ġmar qu
Ġendors ement
Ġnaz is
Ġ179 5
Ġpruss ian
Ġemp ires
Ġukrain ian
Ġpain ters
Ġlibr aries
Ġ... .
j m
Ġm ick
Ġant ic
ĠwÅĤ ad
ĠwÅĤad ysÅĤaw
Ġnob ility
s ka
Ġw elf
Ġwelf are
ol ine
Ġenroll ment
Ġhind ered
Ġe k
Ġball ads
Ġcar ic
m n
Ġv l
Ġsc utt
Ġmal aya
Ġham burg
Ġ29 0
Ġcanc el
Ġmaneu vers
um ann
Ġanti quar
Ġinflu x
Ġmegal ithic
Ġcarol ine
Ġdifferent iated
Ġpig g
Ġpigg ott
Ġwood ed
Ġtrunc ated
Ġskull s
Ġuncover ed
Ġcare ful
Ġfun nel
Ġgun fire
Ġover pass
Ġcur ves
le af
Ġgreen wich
chang ing
Ġ40 2
Ġr amps
Ġwet lands
Ġspar se
im ir
Ġer le
Ġerle wine
Ġcatch y
Ġform ats
Ġhel ena
Ġron nie
Ġd ys
em ani
Ġu pt
Ġappe aling
Ġfl oren
Ġdrown ed
end ra
Ġfavour able
Ġcy n
ir m
f ight
k ick
Ġacqu aint
Ġst y
Ġserg io
Ġdifferent iate
Ġmas cul
Ġro uss
Ġob ama
ie u
Ġn asty
Ġpract ically
writ ers
fle et
Ġappl ause
Ġtop s
Ġch ul
is an
Ġp ong
Ġp is
Ġenter pr
Ġspear head
Ġsurn ame
Ġclar ified
Ġdisc red
Ġr ama
Ġy uk
Ġst un
Ġpract ition
Ġp our
ig ma
Ġch uck
Ġf Ã©l
ĠfÃ©l ix
Ġinst ability
Ġspont aneous
Ġlist ened
Ġcomb ines
Ġsad ness
Ġm Ã¼
Ġ ^
Ġgoal keeper
Ġjar vis
Ġsoc ks
Ġpeter borough
cl osed
Ġshe ets
Ġmar vin
Ġm f
ly sis
Ġo res
Ġcondu ctor
Ġtreat ing
Ġincorrect ly
Ġsal a
Ġdep leted
rict ion
Ġinfra red
Ġinhal ation
Ġsol uble
Ġ <
Ġo sh
Ġju ice
d i
Ġfor ts
Ġte a
ast on
Ġcatal og
Ġly d
Ġk ath
Ġatt ested
Ġw av
Ġcompl aining
Ġsent iments
Ġgru ff
Ġk ash
Ġdev ote
Ġheart ed
Ġre writ
Ġsm ok
Ġmaster y
ass ic
Ġsyn onymous
olog ic
Ġresemb led
ome ter
Ġpu ff
Ġte ar
Ġcunning ham
Ġemb ed
Ġextr act
osy nt
Ġc ush
Ġdimin ished
og ie
Ġhol mes
Ġcan nes
Ġwh olly
el iness
Ġfore most
Ġbuck et
Ġfur ious
Ġassum ing
Ġproblem atic
Ġaa a
Ġbat ters
Ġdod gers
Ġguar ante
Ġguarante ed
Ġcent s
Ġman it
Ġenl ist
Ġreluct ant
Ġb oun
Ġrect ory
Ġpre acher
Ġcomm od
Ġhispan ic
Ġap se
Ġa is
Ġva ulted
Ġtab ern
Ġtabern acle
Ġmurder er
Ġst ub
Ġbizar re
Ġback st
Ġfe aring
Ġunexpected ly
Ġgrat itude
Ġrome o
Ġcompan ions
Ġ71 6
Ġne gr
Ġguatem ala
ol on
Ġhe ct
ograph ically
Ġwinter ing
Ġbel ly
Ġinf est
Ġpest s
Ġmyel oid
Ġsus cept
g ement
Ġas ym
Ġg um
Ġhered itary
Ġpm l
Ġmon oc
Ġmicros cope
Ġmot own
Ġhe ather
Ġchar ming
Ġfland ers
Ġsha og
Ġshaog uan
Ġguang dong
Ġuygh ur
Ġy uan
Ġshort ages
ve z
Ġ181 6
Ġor phan
op oly
ut ors
Ġfre ight
Ġgrav el
Ġmos qu
Ġunde veloped
Ġed win
ad ors
Ġ183 5
Ġ16 00
Ġrestruct uring
Ġcult ivation
Ġreal izing
enz ie
Ġastron aut
em aker
Ġexpos ing
Ġexplo itation
Ġrespond ing
Ġorigin als
b ling
Ġaggreg ator
le m
Ġg aza
l und
Ġcylind rical
iot ic
Ġh ale
Ġh ipp
e ys
Ġple a
Ġmir r
Ġstret ching
Ġdeb ates
Ġautom atically
Ġdecl ares
Ġineff ective
Ġoversh adow
Ġcontrace ption
Ġinherit ance
Ġb ri
Ġpur ity
Ġgif ts
Ġtre ble
Ġbal anced
h ore
Ġh ats
re a
Ġcar ne
Ġcarne gie
ucle ar
Ġhon olulu
ett i
Ġm elt
Ġsunsh ine
Ġsocial ist
oph on
Ġsh annon
Ġju xt
Ġjuxt ap
l as
iv ating
Ġc ries
Ġk ung
Ġsh and
Ġapp re
Ġch un
Ġsyll ables
Ġsight ed
Ġdisband ment
Ġinac cur
ov o
Ġraz or
ĠâĻ ¯
Ġtw ist
Ġrede veloped
Ġ06 00
Ġ30 5
Ġoutfl ow
Ġbar ge
Ġdistrib ute
Ġbour bon
te c
Ġgi ov
Ġgiov anni
Ġrel ics
Ġball ot
ar ms
Ġh id
Ġprop onents
Ġpr ints
Ġ46 0
3 2
Ġparad igm
Ġprem ature
in os
1 9
il ated
Ġhem lock
Ġintersect ing
Ġk ud
Ġhar b
Ø §
Ġhospitall er
Ġ117 0
Ġsy rian
er un
Ġbay s
Ġd ame
Ġfull er
Ġlibret to
Ġboard ing
or o
Ġcalib re
Ġju j
Ġsouth ward
Ġfa Ã§
Ġco il
Ġ112 7
Ġloun ge
Ġsl ots
Ġinter face
Ġt iber
Ġmiddle ton
Ġdismiss al
Ġund ef
Ġnotor iously
Ġbell er
Ġhast ily
Ġgener ators
Ġapprec iate
Ġptole my
Ġ184 1
Ġillumin ated
Ġbe ij
Ġbeij ing
Ġlaun ches
Ġbu chan
Ġprompt ly
Ġ26 2
Ġwa ited
Ġp enc
Ġv amp
Ġlif est
Ġtr aged
onsc ious
Ġsucceed s
Ġgr ims
Ġgrims by
Ġt ren
Ġtransl ate
Ġcontroll ers
Ġbid ding
Ġtransition ed
Ġt eng
Ġplent y
Ġk ara
Ġindem nity
Ġsav oy
Ġv ine
Ġmotor ists
Ġwest bound
Ġshock ing
Ġign or
Ġcas ino
Ġhead waters
att i
Ġse af
Ġcas a
Ġma ze
Ġp ia
Ġcorpor ations
agu a
Ġje ep
Ġme k
Ġty res
ys is
Ġthe e
Ġe ternal
Ġper cy
Ã± o
Ġrug ged
Ġper imeter
Ġjo anna
d ot
Ġcl aus
can ic
Ġdig est
Ġprob es
Ġh orm
Ġun n
ãĥ ¼
m ings
und ers
Ġpatt y
Ġwe nd
Ġmc master
Ġal ma
est own
Ġbay on
Ġpione ers
Ð ¾
Ġdoo ley
Ġf umble
Ġkick er
Ġdevot ional
Ġse er
y ster
Ġkr amer
Ġt ilt
get t
Ġin cend
Ġincend iary
Ġin verness
Ġchapter house
Ġcl ade
Ġic y
Ġherb iv
Ġsequ els
ãĤ Ĭ
Ġtsub ame
Ġinform er
Ġspe ckles
Ġibrah im
Ġy at
Ġkling ons
Ġnor bert
Ġw ab
Ġga it
Ġk ies
Ġkies wet
Ġkieswet ter
Ġb ung
Ġplum s
Ġk ed
Ġt jo
Ġj ava
b ul
Ġval entin
Ġdissent ing
Ġcham plain
Ġvab all
Ġvaball athus
es a
Ġtr udy
Ġgrace hope
Ġv all
Ġgran ada
Ġ164 8
Ġmarse ille
Ġdn l
Ġs ig
Ġruf us
Ġnost rov
Ġnostrov ite
Ġzee bru
Ġzeebru gge
Ġsugar c
Ġsugarc ane
Ġw agon
Ġsamp ras
ong a
Ġimpress ions
Ġpred ation
Ġmac far
Ġmacfar lane
Ġdal men
Ġdalmen y
Ġtuf aro
ill ion
Ġsoci ological
Ġâ ī
Ġpay ette
Ġpatt on
Ġbeach head
Ġlay ne
Ġmadh v
Ġmadhv acharya
Ġrag ale
anth an
Ġpat ches
Ġfrankf urt
kau hor
Ġsa qq
Ġsaqq ara
Ġmart el
Ġpursu ers
Ġdream ers
Ġro uge
fil m
Ġtreb inje
Ġloft y
á» ³
Ġher nan
Ġprem ax
Ġiguan odont
Ġseph iro
Ġsephiro th
Ġj itsu
Ġgrac ie
p au
Ġvul cans
Ġdil ke
Ġvis or
Ġla o
Ġment more
Ġkan ata
Ġtri atom
Ġdis ston
Ġnest lings
Ġsplic ing
ucle ated
Ġkem al
Ġgoal ball
Ġgros mont
Ġpuppet eer
Äģ v
Ġfford d
Ġnam eless
Ġh p
Ġexplo it
Ġpl ausible
Ġconfron ts
Ġsett ings
Ġuniform s
Ġattend ees
Ġrepet ition
Ġs ake
Ġdetail ing
Ġmos c
Ġh ik
ãģ Ħ
Ġok l
Ġokl ah
Ġoklah oma
Ġsple nd
Ġdon ation
Ġtrav eler
ast ically
Ġrailroad s
Ġlog an
occ up
Ġdeterior ation
Ġc ic
et ing
Ġrand olph
Ġv iolet
a is
Ġhol idays
mill an
Ġpray ers
Ġep iph
Ġepiph any
Ġconfeder ation
Ġmoroc co
Ġp ect
Ġpect oral
Ġwor ms
Ġb ony
Ġu ter
Ġmitochond rial
Ġline age
Ġshel f
Ġcons ume
Ġfree ze
Ġdef ens
Ġco ached
Ġcr amp
Ġcont ention
Ġmathem atic
id ian
Ġbasil ica
Ġz el
Ġeclip se
Ġfort ification
Ġrem ed
Ġfresco es
Ġasp ir
Ġaf anas
Ġafanas ieff
g au
it ution
Ġrer outed
Ġc ly
Ġcyl inder
Ġconce aled
Ġoak s
Ġtr ash
ad u
Ġv ai
Ġbach chan
Ġg areth
Ġhart ford
ot ive
Ġbo ards
Ġcard iac
Ġimm une
Ġmarry ing
Ġmaj esty
Ġanc ona
Ġbarr age
Ġphenom ena
Ġinter acted
Ġdisc ern
f ried
Ġc ults
ropol is
Ġa pe
Ġdiv in
Ġpr one
Ġdest ined
Ġ165 0
Ġpred atory
Ġmanifest ations
Ġcons ulted
Ġdomin ic
ic he
Ġresurre ction
Ġanthrop omorph
Ġh ark
Ġmor ality
f ere
Ġinnoc ence
Ġstel ae
opot am
ff en
Ġdrum ming
Ġh ann
Ġphot ographer
Ġrememb ers
ism o
Ġconf essed
Ġsurve ying
Ġempl oys
Ġregul atory
Ġflex ible
Ġcr an
Ġintend ing
Ġren ted
Ġmid lands
ame ters
Ġscar ce
pl an
Ġperm its
Ġbure auc
Ġbureauc r
Ġer oded
Ġref use
Ġfact o
Ġvi able
Ġdreadn ough
Ġdreadnough ts
in et
Ġtow ed
Ġven ice
Ġlov ing
Ġfruit bodies
Ġwhit ish
Ġco oke
or um
Ġtaxonom ic
Ġhymen ium
Ġst ipe
Ġed ibility
Ġem in
Ġsp encer
Ġcolomb ian
Ġpl ug
Ġbl oss
Ġ69 0
Ġeleg ant
Ġeag les
Ġpol ished
2 5
Ġchay kovsky
Ġo le
Ġen anti
Ġcalc ulations
Ġwe aker
Ġex otic
Ġcost ly
Ġadvance ment
j as
le z
Ġp anch
Ġmis le
Ġsucceed ing
Ã©t at
Ġimplement ation
Ġres ent
Ġremember ing
Ġcent red
Ġtur mo
Ġturmo il
umb ling
Ġcomp elled
Ġdisg ust
Ġspec ulates
Ġen act
Ġal varez
Ġinter rog
Ġav i
Ġshe pher
Ġcent enary
Ġcrew men
Ġn ess
Ġv ale
Ġn wa
Ġsupport ive
É ª
Ġschmid t
Ġpoe hler
Ġnet fl
Ġnetfl ix
Ġk ens
Ġev an
Ġy m
Ġfar ley
Ġprec isely
ni est
Ġhilar ious
Ġbern stein
Ġgar ner
an ne
Ġfre ak
Ġarg u
Ġargu ably
Ġmad ness
Ġsar c
Ġqu ir
Ġale c
Ġche ek
Ġe ul
iv ism
Ġk ail
Ġover view
Ġy og
ay ing
Ġattend ants
Ġkeep ers
Ġvigor ously
Ġwa ist
Ġinfer red
and i
rif ied
Ġnic he
Ġne ct
Ġnect ar
Ġv idy
Ġbudd ha
Ġpor ch
Ġdem os
Ġpres cribed
Ġshow c
Ġcontrast s
Ġadd icted
l ining
f in
Ġest e
Ġdisagre ements
Ġrabb i
Ġ181 1
Ġentrep rene
in ac
Ġdismant led
Ġsa ff
Ġsaff ir
Ġend ured
Ġin let
Ġeaster ly
Ġant ig
m ast
Ġalter ations
Ġbre w
Ġpan or
pl o
als h
Ġimpl ications
Ġexecut ing
Ġprim aries
Ġscr ut
Ġbab e
Ġl er
Ġmc donald
Ġbow ie
Ġbrad ley
Ġemotion ally
Ġclut ch
Ġtrail ing
Ġste al
Ġst rick
Ġfo resh
Ġfew est
Ġf ou
Ġab e
Ġmotor cy
Ġf ade
Ġwilling ness
Ġhon ored
Ġguid elines
Ġer ad
Ġintellect uals
Ġreg ist
so red
Ġreop en
Ġorient ation
Ġun pa
Ġmore over
Ġconvinc ing
iew icz
w i
u j
Ġgall eries
Ġgra ff
Ġatt achment
Ġsole mn
Ġb eng
Ġpled ge
Ġ47 0
Ġen ric
Ġur anium
Ġt ata
Ġdepth s
Ġwe iss
l ig
Ġj ell
Ġjell ico
Ġjellico e
Ġsh attered
Ġmin ed
Ġmes olithic
Ġre lying
Ġher ding
Ġsubsc rib
Ġemphas ised
Ġslab s
Ġthick er
Ġax e
Ġun he
Ġantiqu aries
Ġd ances
Ġantiquar ian
Ġsubter ranean
Ġ Ð
Ġhet man
Ġwar wick
Ġiv or
Ġsam pling
Ġsoc ially
Ġsing ular
Ġmir acle
Ġreson ance
Ġsh ane
Ġcin qu
Ġcinqu emani
Ġanaly sts
ib ars
Ġclass ify
c asters
Ġbar ges
Ġjeff erson
Ġremind s
Ġsh at
Ġsoci ologist
r ama
por a
Ġcontinu ity
Ġd ul
Ġf ury
Ġjour n
Ġjourn als
Ġcomm ended
Ġg op
Ġwor cestershire
Ġsp art
Ġsu v
ut a
Ġopt ical
Ġh inted
Ġmu ang
Ġurg ent
Ġterror ism
Ġd ots
Ġkil ograms
Ġreg urg
Ġmagic ian
Ġtal ents
Ġch ased
Ġm ice
are tt
Ġscar let
Ġbatter ed
ul ent
Ġpromisc uous
Ġj elly
Ġreg g
Ġregg ae
Ġson ic
th m
u il
Ġslee ves
ne ill
Ġconced ed
Ġj ake
Ġimm em
Ġimmem orial
e lect
Ġresist ant
Ġo re
Ġhydro x
Ġ ions
Ġlect ure
Ġchar iot
Ġ Ï
Ġabbre v
Ï Į
Ġad he
Ġpoison ous
Ġconsult ing
Ġem itted
te gr
Ġneut rons
Ġtr ac
Ġpro d
ir th
Ġtest imon
m oon
Ġl ag
Ġsho res
Ġbound s
Ġnap les
Ġwel com
Ġfin ances
Ġdisli ke
Ġzim b
Ġzimb ab
Ġzimbab we
Ġneighb ours
Ġkam al
Ġjur assic
ur u
Ġhumid ity
Ġw arts
Ġtr am
Ġcol lo
Ġp ore
ch y
Ġgl uc
am m
le x
Ġbur t
Ġpe cul
Ġpecul iar
Ġsubpl ot
Ġcomed ies
ft a
Ġchar ism
Ġre ese
Ġthem atic
Ġoptim ism
it as
Ġcler ical
op ic
in qu
ater al
r era
Ġpit ches
m ount
Ġmanit oba
raw l
Ġrequest ing
Ġz weig
Ġd und
Ġconst raints
Ġdioc es
Ġais les
b ase
Ġward ro
Ġwardro be
Ġwe aving
Ġangel o
Ġh ated
Ġscr anton
Ġkras inski
Ġinform s
Ġold s
Ġanat omy
cc o
Ġchap at
a ak
Ġpied ras
Ġnegr as
Ġ180 8
Ġtur tle
Ġcre x
Ġr all
Ġfl ick
iz able
Ġrest ed
Ġmon og
Ġg ull
Ġnoct urnal
Ġ181 3
Ġquot ation
ocy tic
Ġaccum ulate
Ġabnormal ities
Ġsuscept ible
Ġperipher al
Ġstraight forward
Ġro ds
ig en
Ġdu pl
Ġalgor ith
Ġalgorith ms
Ġge ographic
g el
Ġhom age
Ġc ors
it ory
Ġj ian
Ġtrig g
Ġtrigg ered
Ġraid ers
Ġchol era
Ġmon opoly
Ġseaw all
Ġexplo ited
Ġprev ailing
Ġrenov ations
Ġbal let
f ol
Ġknow les
Ġapp ar
Ġappar atus
Ġro sen
continent al
Ġnomine e
Ġpetro le
Ġpetrole um
Ġbl ows
Ġamal gam
Ġcar riers
Ġref in
Ġref inery
Ġc f
Ġrut gers
Ġdep aul
o ist
Ġform id
Ġansw ered
Ġobv iously
Ġc itation
r ators
Ġvinc ent
Ġam ster
Ġamster dam
× Ķ
Ġgold berg
it ism
Ġ177 6
Ġarch ive
Ġmut inus
Ġsp ind
Ġye ast
Ġmc le
Ġde uter
Ġconsc ience
Ġcomment aries
Ġv ain
l Ã©
Ġwar ns
Ġcombat ants
Ġrespect s
Ġsp ous
Ġprostit ute
Ġcompass ion
Ġcom pend
Ġcompend ium
w ill
Ġlisten er
Ġo ars
Ġins hore
Ġsu cc
Ġ182 6
Ġme v
Ġpoly nes
Ġr anch
Ġter ri
Ġsab ot
Ġcopper field
Ġcapit ol
r age
Ġphr ases
ump ing
Ġch ong
Ġ123 4
Ġunic orn
Ġar ched
Ġmon olog
Ġtrans cribed
est re
Ġmult in
Ġme ch
Ġtip ped
Ġnat o
Ġopt ional
Ġ00 00
Ġcro ix
ĠâĢ ĳ
ol o
Ġcall isto
Ġren Ã©
Ġprin ces
Ġswit ched
Ġfro zen
Ġconsum ing
Ġfree zing
Ġdram at
Ġtype writer
Ġmim ic
Ġproport ional
writ ing
Ġpros pective
Ġsnow y
Ġc aster
Ġcaster man
Ġesc aping
Ġt ens
Ġrepr int
Ġarch ives
Ã ®
Ġaccess ories
anc a
Ġq f
Ġkau f
Ġtheor ist
Ġcomp uting
Ġneutr inos
Ġmeasure ment
Ġstat istical
Ġsp ars
Ġobst acle
Ġcontam inated
Ġag nes
Ġbas ins
Ġkau ffman
Ġfor fe
ed ia
Ġcontin ually
ult ure
Ġblond e
Ġinst antly
Ù Ĩ
Ġhom s
Ġtempl ar
Ġs ain
Ġmon c
Ġchas uble
c roft
Ġass umes
Ġa esthetic
f ter
Ġfir th
Ġrev ue
Ġgem ma
Ġ31 0
Ġpar sons
Ġ27 1
Ġecosystem s
Ġd ong
Ġbudd h
Ġm uc
Ġq inz
Ġqinz ong
Ġincl ined
Ġd ucks
Ġeu ph
Ġrot ating
Ġdraf tees
Ġproduct ive
Ġpark way
Ġsy ph
Ġfl ats
Ġmay o
Ġiber ian
Ġiber ia
Ġmon astic
Ġnomin ate
Ġev id
Ġmig r
Ġplent iful
Ġantar ctic
Ġhe ine
Ġconsum ers
Ġin act
Ġover head
he ro
Ġinf in
Ġbabyl onian
Ġcov en
Ġbox er
Ġhud ders
Ġhudders field
Ġcat ast
Ġts un
Ġtsun ami
Ġen ri
Ã©d Ã©
Ġth urs
Ġdisp ro
Ġsched uling
Ġ35 2
Ġhay es
Ġmin ig
Ġanim ations
Ġarch ie
Ġmichel in
Ġmid day
Ġz oe
Ġpass er
Ġfresh men
Ġmusc ular
Ġsun set
Ġcarriage way
Ġamb itions
Ġwins low
Ġgr ab
Ġh ir
Ġcle m
Ġlaud ed
Ġsimpl icity
Ġver b
Ġaccompan iment
Ġfl ip
x x
Ġvol t
Ġhe id
Ġcounteratt acks
Ġnic ar
Ġnicar agua
Ġrail ways
Ġparatro opers
Ġcent iped
Ġcentiped e
Ġpilgrim age
Ġnaz areth
Ġnortheast ward
Ġfre ighter
Ġy uc
Ġyuc at
Ġsepar ates
er man
Ġgib bons
yl er
Ġa ki
Ġlo is
Ġmax well
Ġbo eing
Ġc il
Ġbas el
Ġred iscover
Ġbrand y
Ġequilib rium
Ġmod ification
Ġeukary otic
Ġtrans cript
tr ans
Ġantib odies
Ġlung s
Ġk ines
grad ation
Ġlov ely
ide a
Ġcum mings
Ġpetition ed
Ġp fa
Ġgor illas
Ġmil ky
Ġflood plain
ab outs
Ġmo e
Ġconvin ces
Ġot ter
Ġultr av
Ġultrav iolet
Ġtox icity
Ġp oured
Ġuh f
Ġdup ri
Ġdaniel s
Ġgor ge
Ġunf air
Ġc ricke
u ber
Ġf ult
Ġfult on
Ġstri pes
Ġrel iqu
Ġ182 8
Ġend urance
Ġzy go
Ġzygo ball
Ġzygoball us
Ġabdom en
Ġsubfam ily
Ġbul b
all ah
Ġback s
Ġrecapt ure
umber ing
Ġsir ius
Ġamb ush
Ġ162 5
op us
b ra
Ġmad ag
Ġmadag asc
Ġmadagasc ar
Ġidyll wild
Ġg any
Ġgany med
Ġganymed e
it ches
Ġr ml
ut ory
Ġsh ab
Ġd ell
Ġpale ont
Ġnas al
Ġsub order
Ġun lock
Ġfin ishes
Ġfield fare
Ġanat olia
Ġlo ops
Ġp asha
Ġcop enh
Ġcopenh agen
Ġsid d
Ġber man
Ġiv ory
Ġexception ally
Ġhans en
Ġr anc
iet ta
be ck
Ġk edar
o field
Ġby way
Ġmat ilda
um ont
Ġsubm ission
Ġber kshire
sc ape
Ġcul inary
Ġrod rÃŃ
ĠrodrÃŃ g
ĠrodrÃŃg uez
Ġ164 6
Ġsw az
Ġswaz iland
Ġst raw
Ġp fl
bor g
af ric
afric aine
Ġoper atic
Ġaugust an
ian us
Ġfol i
Ġfoli age
r ade
Ġair ways
cut ta
Ġmon sters
Ġlin eman
Ġab ram
Ġm ered
Ġmered ith
ne b
Ġsomal iland
Ġer yth
Ġ161 6
Ġcop ulation
Ġpar all
Ġparall ax
Ġfarming ton
Ġop us
Ġfut a
Ġag ass
Ġagass i
Ġindo ors
Ġber d
Ġberd ych
b ane
Ġsuper mar
Ġunderst ory
Ġhors emen
ru p
el ia
ol ith
Ġhe br
Ġ164 3
Ġfi ji
Ġcoss acks
Ġconform ity
Ġschm oke
Ġman a
Ġy ok
Ġplunk ett
lu or
Ġxe o
Ġcrist ina
Ġcrass well
Ġcrasswell er
Ġbend is
Ġb rienne
Ġpand u
ut i
Ġk oval
Ġs apt
Ġfrench men
Ġh ight
Ġmand ers
Ġspisevognselsk apet
Ġnar vesen
ĠÃ ¸
Ġpend ragon
Ġmarl ene
Ġr iker
Ġkin ney
Ġk ass
Ġbrah min
Ġhar ih
Ġphilosopher s
Ġkir y
Ġkiry at
n um
Ġmo ines
Ġun as
Ġabus ir
Ġdare us
Ġbar ron
Ġwrest led
Ġt uring
Ġund irected
Ġne ural
Ġprot otypes
Ġlam in
Ġka jal
Ġpr p
Ġprp iÄĩ
Ġgab a
Ġsubf oss
Ġk á»³
Ġs osa
Ġso y
Ġn ares
Ġj ig
Ġsov al
» æ
Ġmot oko
Ġar rom
Ġarrom anches
Ä Ĺ
Ġne osc
Ġneosc apteriscus
Ġhan over
Ġflag ler
Ġmul d
Ġmuld aur
Ġpalest ro
Ġnucle olus
Ġpia zzi
Ġus ace
Ġmacl agen
Ġparas au
Ġmah Äģv
ĠmahÄģv Ä«
ĠmahÄģvÄ« ra
Ġmac v
áĥ¡ áĥ
Ġl anthan
Ġg ys
Ġgys w
Ġgysw ll
Ġgyswll t
Ġc ogan
Ġanders ons
Ġdegener ate
Ġare ol
Ġareol atum
Ġla ev
Ġlaev ig
Ġlaevig atum
ª ãĤ
Ġnew com
Ġent ries
Ġinv inc
Ġoff end
Ġcro we
Ġman power
Ġdest ro
Ġneed ing
Ġcan vas
od ic
Ġsp ikes
ed d
sh i
Ġmosc ow
Ġident ities
Ġoverturn ed
k irts
Ġsuperv ised
Ġinaug urated
Ġinvent or
4 7
Ġsan ford
Ġpredomin ant
Ġcamp ed
Ġphil anthrop
Ġc ared
Ġd ion
Ġnost alg
Ġl ively
Ġfold s
Ġpossess es
ill ae
Ġtai wan
Ġtob ias
Ġfal c
Ġhitch cock
Ġcoy otes
Ġle ap
Ġmin us
Ġrem edy
Ġgreg orian
Ġgener ous
Ġalter ing
Ġfunction ing
Ġrich ly
Ġstar k
Ġwhist le
Ġpoor er
Ġfing al
Ġn ass
Ġsight ing
Ġvert ically
Ġpier cing
Ġint ol
Ġintol er
Ġblock ing
Ġweb b
Ġn ah
Ġstar board
Ġpar ro
Ġrecru its
Ġjac qu
Ġl anka
Ġaudition ed
ad in
Ġbreak through
Ġrecip ient
Ġc nn
Ġhead sh
Ġlon ely
ro b
ath ing
ib al
Ġshar ma
Ġreal ise
Ġim pend
Ġimpend ing
Ġman ila
ath am
Ġd ix
Ġcu is
Ġcuis ine
p erson
Ġdes irable
Ġstand out
Ġpress ured
Ġbr ace
Ġeng ag
Ġengag ements
Ġmut iny
Ġs z
Ġrepl ica
Ġ Å¡
Ġbreak out
Ġcro ats
Ġentr ances
Ġsou ls
Ġpanthe on
Ġinsp ire
Ġs ia
Ġdivin ities
Ġimag ined
Ġacc ession
Ġinconsist ent
Ġpl ots
Ġresurre cted
Ġpres ided
Ġexpress es
og ical
Ġacknowled ging
Ġcho oses
Ġequ ated
Ġinc ense
Ġthreat en
Ġhead d
Ġgenu inely
u aries
Ġres iding
Ġun just
Ġinterv als
v olent
Ġrenew al
Ġinv oked
Ġcur s
Ġinnov ations
Ġgre co
Ġswallow ed
Ġmes opotam
Ġmesopotam ia
Ġsim mons
Ġge ffen
Ġton ed
Ġhend erson
Ġble w
Ġghost s
Ġagg ression
Ġill usion
Ġc ess
Ġal igned
Ġcl ients
Ġout lo
Ġoutlo ok
Ġdiscip lines
Ġfr ing
Ġgrad ual
Ġass et
Ġunc ont
Ġund es
Ġ ips
af e
Ġperce ive
Ġalt itude
ig all
Ġseap ort
ent e
Ġdelay ing
Ġspru ce
Ġwall ed
anc hed
Ġmore ls
Ġmck ay
n otes
Ġund oub
Ġundoub ted
Ġengr aving
Ġmel ting
Ġuns atisf
Ġplum es
ard ing
Ġpost war
Ġanticip ation
Ġ23 2
ose lect
Ġderiv atives
ut ic
er g
Ġconform ation
Ġstip ulated
rang ed
Ġjor ge
te xt
Ġgest ure
Ġdict ators
Ġspir al
Ġfre eman
Ġmot ivation
h al
Ġfr aming
ress ive
Ġrein for
Ġme al
Ġapp lying
Ġinspe ction
Ġvenge ance
Ġa us
gr at
Ġhazard ous
Ġautobi ographical
Ġv as
Ġym ca
Ġs ully
Ġsun ny
Ġfun niest
Ġpair ing
Ġan a
Ġperf ection
Ġrick y
Ġinse c
Ġd illon
Ġfashion ed
Ġdem arc
Ġfasc inating
Ġtrou pe
Ġconst rained
Ġbright ness
Ġyield ed
Ġcor al
Ġplanet ary
Ġincl ination
Ġsha iva
Ġmar ath
Ġmond ay
Ġshore line
Ġa kin
ara ja
Ġcar v
Ġcarv ings
Ġlif ting
Ġm ou
Ġwr ist
Ġrest s
Ġbro w
Ġrib bon
Ġneckl ace
Ġv ag
Ġpath ways
Ġdiscour aged
Ġamb ient
it r
Ġscream ing
Ġro oted
Ġbe fri
Ġbefri ended
Ġpe pp
Ġmed ication
Ġhaun ted
Ġintend s
Ġa ro
Ġantisem itic
Ġsc roll
Ġfeas ible
Ġto pp
Ġwill ough
Ġwillough by
Ġlind a
Ġorgan ising
Ġcatal ogue
Ġ ip
Ġhein z
Ġnecess itated
Ġelect or
anc ies
Ġpreced ent
Ġexpl ode
Ġtime out
Ġpe nding
Ġk are
Ġencour agement
Ġbound ed
Ġlament ed
Ġpublic ized
Ġsp un
Ġtun es
Ġyear ly
Ġcl ient
pp en
Ġm und
Ġinf amous
ter min
Ġob ey
Ġdec im
Ġse jm
Ġpun ish
Ġempt ied
Ġdist ract
res y
Ġcooper ate
im ier
imier z
Ġta j
it ations
Ġtransm issions
Ġp iet
aw i
h d
Ġs op
Ġmiss iles
Ġdra ught
Ġbl ade
n agar
Ã¶n ig
gr ave
Ġgross er
Ġk ron
Ġre uter
Ġfun nels
Ġhug o
Ġun ev
Ġpenet rating
Ġbay ern
Ġrejo in
com be
cl iff
Ġabandon ing
Ġpot tery
Ġburial s
Ġisot ope
Ġsix teenth
Ġchief s
Ġenclos ure
Ġse p
Ġkras nyi
Ġre class
Ġ53 3
Ġquadru ple
Ġgen ev
Ġsight s
Ġphon ographic
Ġjer ome
Ġt ah
Ġshow case
r ano
Ġb ing
Ġmer ry
Ġem manuel
Ġsc arf
Ġauthentic ity
Ġn pr
Ġfo res
Ġutil ity
Ġnant uck
Ġnantuck et
Ġserv ant
Ġrom antically
Ġfilmm akers
el ic
Ġless on
Ġsha an
Ġph ones
Ġm ugh
Ġ. .
Ġswan sea
Ġchel tenham
Ġgoalsc orer
Ġket tering
Ġspot light
Ġenterpr ises
m ac
r ak
Ġunre al
Ġch av
Ġadvis or
Ġdep osed
pl er
Ġhop kins
Ġtr icks
Ġlow ell
Ġab l
Ġcornwall is
Ġstr ach
Ġstrach an
Ġpound ers
Ġsub du
Ġs ails
Ġsepar ating
Ġb ren
Ġprot Ã©
ĠprotÃ© gÃ©
Ġextrater restrial
Ġl il
Ġf ancy
Ġover d
Ġbow man
b rough
Ġcharl ton
Ġmcc oy
Ġsh rew
Ġsour ced
Ġall oy
Ġtri oxide
m ic
s b
Ġcond ens
Ġsod ium
Ġther m
Ġ300 0
Ġpl ated
Ġpur ported
Ø ¯
Ġ66 0
Ġcr ude
Ġant ip
Ġthe rape
Ġf riction
if ier
Ġur ine
Ġroman o
Ġadop ting
Ġlect ures
Ġbl o
Ġhow itz
Ġhowitz ers
Ġassist ants
Ġemploy er
Ġhoney moon
Ġpreserv ing
Ã¨ re
Ġinv ade
Ġwelcom ed
Ġsuper in
Ġsuperin tend
Ġsuperintend ent
Ġsh ir
Ġhuman ities
Ġsud an
Ġpic c
hn a
Ġpal ae
Ġfragment ary
Ġthe rop
Ġskelet al
Ġs ul
Ġectomyc orrhizal
st ars
Ġunivers ally
Ġbot an
Ġpal is
Ġ177 2
Ġ182 2
Ġf ang
ĠÎ¼ m
f oot
Ġbo ogie
old s
Ġba fta
ar h
Ġexpert ise
Ġoff season
Ġblow ing
Ġchar ities
Ġn ha
Ġroman esque
Ġant elope
Ġpast or
Ġ20 8
Ġsac rist
Ġsacrist y
Ġbub ble
Ġout ward
Ġconce al
re ls
Ġper pend
Ġperpend icular
Ġstyl ish
Ġbr anded
Ġcharacter isation
Ġd umb
Ġbackst ory
Ġincap able
Ġst ard
int a
ut o
Ġsc aff
Ġmetropol is
Ġunder parts
Ġ180 3
om ial
Ġm oul
Ġcount ing
Ġgrass lands
Ġbrood s
worm s
Ġwee v
Ġspar row
Ġdemonst rates
Ġrem ission
Ġcytogen etics
Ġa pl
ign ant
Ġprecurs or
og ene
Ġschem es
Ġar a
Ġar ising
Ġunf avor
Ġ182 7
Ġden oting
Ġd orm
Ġrec ounted
ar in
k ang
Ġopp ose
Ġmake up
Ġm Ã©
Ġdr illing
old ing
Ġ181 2
Ġmat ag
Ġmatag orda
Ġjama ica
Ġpatric ia
Ġi roqu
Ġclear water
Ġres isted
Ġtorn ado
Ġab original
Ġat he
Ġsch a
Ġscha fer
Ġr asc
Ġvolunt ary
Ġrecogn izing
Ġcup s
Ġmay ors
Ġmack enzie
Ġe tern
Ġyouth ful
Ġdet ract
Ġd aw
Ġformid able
Ġsem itic
j ud
Ġword ing
Ġemphas izes
Ġalumn i
Ġleban ese
Ġrot ten
Ġtom atoes
Ġconclud e
Ġaff inity
Ġjud a
Ġassist ing
Ġmont agne
Ġa ure
Ġmiddles ex
Ġbur d
Ġf ence
ae a
Ġman kind
iet al
Ġscript ure
Ġflu ct
o os
Ġstr ive
Ġchast ity
Ġf idelity
Ġfa ults
Ġbless ing
Ġrecogn izes
Ġ21 5
Ġmill imetres
Ġpartic le
ass es
nd e
Ġ14 6
Ġmed ioc
Ġmon roe
Ġmay s
Ġtable ts
Ġlyn ch
Ġal den
Ġst en
Ġcurt ain
Ġfolk t
Ġpractition ers
Ġ11 30
rid ged
Ġg rief
Ġz ong
Ġmess enger
Ġthan k
Ġx ion
Ġextravag ant
Ġnotice able
Ġp anned
Ġhold en
Ġlumin ous
Ġheart break
Ġacceler ate
Ġcost ing
Ġlat itude
Ġmar iners
Ġmon etary
Ġcon cl
Ġconcl ave
el i
and ro
Ġmar quis
Ġpav il
Ġpast e
Ġtur f
Ġve in
Ġscen ery
Ġmist akes
Ġapproxim ate
Ġtechn ological
Ġib m
Ġserial ised
m aine
Ġafric ans
Ã¨ s
Ġhard ware
em ate
Ġador j
Ġadorj Ã¡n
g ames
Ġkas par
Ġequ ality
Ġq x
Ġr b
at ial
t is
Ġr c
Ġm ath
Ġb ik
Ġleve e
Ġ177 5
Ġra ft
m ills
Ġjer emia
Ġjeremia h
Ġflo at
Ġsl oan
Ġann ie
Ġw b
Ġlam ar
Ġp orter
Ġel aine
Ġne uro
Ġyah oo
Ġgold man
Ġpilgr ims
Ġtru ce
Ġpeas ants
Ġeconom ically
Ġref ined
Ġbun bury
Ġr ans
w ic
Ġamus ement
Ġint ake
Ġmascul ine
Ġbl anche
Ġmust er
Ġpagod as
Ġpal aces
Ġb iting
Ġharmon ies
Ġstore y
Ġsp anned
Ġscript ed
Ġv ivid
Ġre bo
Ġbisc ay
Ġ179 3
Ġbre st
Ġsid ney
Ġse ab
Ġse izing
Ġex ert
Ġknock ing
ell es
Ġst uck
Ġsupp ose
Ġa ide
Ġh iber
ren n
os ome
Ġfo oth
Ġcrom well
Ġgrie v
ag han
Ġaqu atic
Ġmigr atory
Ġbir ch
oph y
Ġregen eration
Ġcont ex
Ġcontex ts
Ġdublin ers
Ġgill ian
t ail
Ġdeton ated
Ġdecor ations
Ġph ant
Ġas yl
Ġisab el
Ġtraged y
Ġunc onscious
erm o
Ã ¯
Ġcon gestion
iÃ¨ res
l ide
Ġtren ches
Ġcost a
Ġthurs day
Ġgr asp
Ġgall ons
Ġmud s
Ã« l
Ġgam ers
ãĥ ³
Ġw ily
Ġbrain w
Ġsh rop
w icks
Ġch oc
Ġshe er
enc ia
Ġste ffy
Ġment ally
Ġsh ula
Ġw aking
Ġn ed
Ġrivers ide
ert y
an us
Ġmal col
Ġmalcol m
Ġrepe ats
Ġf ades
pat rick
b ucks
Ġv iney
Ġviney ards
Ġhair s
Ġexpress ions
Ġy ours
Ġp onder
Ġgro oves
Ġcare g
Ġ121 9
Ġ115 0
Ġarch de
Ġarchde acon
Ġro ver
Ġbo ating
Ġyucat Ã¡n
Ġpsy che
Ġf anny
Ġhung ry
Ġecho es
Ġcar rington
Ġsu pers
ess es
7 6
Ġjan elle
Ġos ato
Ġhen ch
az aki
hel le
Ġenc ore
ound ing
Ġpass port
Ġc pr
Ġvol canic
Ġpo ols
Ġmar ion
Ġpoly pe
Ġn ails
Ġrecept ors
Ġbi ased
om ics
Ġcomp ut
Ġcomput ational
Ġfluores cence
Ġunn atural
Ġevolution ary
Ġde gradation
Ġho f
Ġp inn
Ġhots pur
Ġinter t
Ġdec id
Ġdecid uous
Ġsubgen us
Ġintrodu ct
Ġintroduct ory
Ġdisin tegr
v ig
Ġdis organ
Ġw ires
Ġkow ang
Ġlincoln shire
Ġk any
Ġf umbled
Ġmat s
j ah
m ah
ig y
Ġbowl s
r ap
Ġ181 0
ĠÃ ®
ĠÃ® le
Ġreef s
Ġ155 3
Ġcl eric
Ġpe ws
oph agus
Ġcam ou
Ġcamou fl
Ġho oked
Ġkel ley
Ġjov ian
Ġgalile o
Ġorb iter
Ġscratch ley
Ġlarg s
Ġblack stone
Ġnorth umbria
Ġtr iceratops
Ġhadrosaur ids
Ġtr ach
Ġne oceratops
at che
ick y
Ġfore limbs
Ġib ari
ar u
Ġax el
Ġtit us
Ġgra pe
on n
Ġaver y
Ġrod den
Ġrodden berry
Ġweb ber
Ġav on
Ġg ud
Ġ20 5
id ar
Ġ25 3
ar tha
Ġreinst ated
Ġis id
Ġk este
Ġkeste ven
Ġmar oon
Ġwid ened
Ġm Ã©t
Ġnam co
Ġpar ole
Ġcrab ble
Ġked ok
Ġket awa
Ġcount down
Ġedu ardo
Ġdore mus
Ġren umbering
g ion
Ġh ue
Ġr ied
Ġried es
Ġriedes el
Ġconv ince
Ġethiop ia
Ġn ors
Ġcal cutta
Ġextrater rest
Ġextraterrest ri
Ġextraterrestri als
Ġrich ter
Ġchange up
Ġno el
Ġzimmer man
Ġham mond
Ġg ins
Ġgins berg
Ġpet ty
Ġt uls
ib u
Ġshe ikh
Ġsus anna
opl an
Ġmay er
Ġsor i
Ġdoub les
Ġsaf in
Ġ ione
Ġfor bs
Ġar ish
Ġkress enstein
Ġtro ll
Ġpamph let
Ġhart man
Ġre claim
Ġhebr ides
Ġhall i
Ġhalli well
Ġfa ust
Ġir b
Ġmf ume
Ġpet ra
Ġpot ent
Ġf ain
Ġdi ab
Ġdam ietta
Ġtr appers
Ġrem ade
Ġheid feld
Ġkoval ain
Ġkovalain en
he llo
Ġ ick
Ġick es
Ġber io
ou w
Ġw d
Ġfin cher
Ġfac el
Ġb su
Ġhan uman
Ġv ish
Ġcast e
Ġme cca
Ġz art
Ġzart an
Ġpsych o
orn is
Ġf bi
Ġsteam boats
Ġafrican us
Ġlex ington
Ġs ogns
Ġsogns v
Ġsognsv ann
Ġbir kin
Ġwrest le
Ġpur itans
Ġdisqual ified
Ġdar pa
Ġmek ong
Ġstol ac
Ġcycl es
Ġv ance
Ġsteeple ch
Ġsteeplech ase
Ġhy ps
Ġmid land
Ġk Äģ
Ġho Ê»
ĠhoÊ» olulu
Ġkh mer
Ġâī ¤
Ġosh ii
Ġbess in
sc hel
Ġts ung
Ġk rit
Ġa q
Ġaq ha
Ġt aney
Ġtaney town
Ġyan jing
Ġste eltown
Ġtry pan
Ġhone ye
Ġmob bing
ist em
rom atin
Ġtrot tern
Ġtrottern ish
Ġmcc ay
kh urst
Ġab ing
Ġabing don
Ġsoy uz
Ġp encer
Ġpencer ah
Ġmantell isaurus
Ġam iga
Äģ ry
Äģry a
Ġarn hem
Ġban aras
wan ath
Ġg ilda
Ġcap el
Ġllan ill
Ġllanill tern
Ġculver house
Ġb Ã©d
ĠbÃ©d ard
Ġpal ac
Ġpalac ios
Ġlucas film
Ġlucas arts
Ġas cle
Ġascle p
Ġasclep ius
Ġplaty pus
Ġmor h
Ġmorh ange
Ġbl itz
Ġinvinc ible
il ia
Ġen r
Ġdef ect
Ġdesper ately
Ġwe ary
Ġmi y
Ġkim i
a un
Ġh int
Ġrecycl ed
t he
Ġm iz
Ġouts kirts
Ġfut ile
jo hn
Ġware house
b ore
Ġsur m
Ġproc ured
Ġlabor ers
Ġrepair ing
Ġob edience
Ġste ele
Ġcamp ing
Ġin k
Ġtw igs
Ġdev olved
Ġdick ens
Ġpar able
Ġsupp er
amb a
Ġfootball ers
Ġschol astic
Ġne ot
ril s
Ġpink ish
Ġunders ide
Ġinhab its
Ġ20 3
Ġlifes pan
Ġincident al
Ġed mon
Ġedmon ton
i ens
Ġsh ake
Ġfru ition
Ġpres idents
pl us
Ġastronom y
Ġbre tt
Ġjes uit
ig i
Ġp ius
Ġ27 2
Ġatl as
Ġchrist ina
Ġaddition s
rec ks
Ġsoc io
Ġinj ust
Ġle aning
Ġcasem ate
Ġreject ing
Ġwil ming
Ġwilming ton
Ġsp ray
Ġrep ly
Ġhospital ization
Ġamid ships
Ġneutral ity
Ġembro iled
Ġvan ished
Ġmalays ian
Ġball oon
j un
Ġso b
Ġdel ir
Ġr ides
Ġadvoc ating
Ġspokes person
Ġrev ive
Ġgre eted
iss a
Ġpol a
Ġb res
Ġinstall ations
Ġcomprom ised
Ġer as
Ġhier og
Ġhierog lyph
Ġmean ings
Ġdyn astic
Ġrever ed
Ġpharaoh s
Ġann ih
Ġcosm os
Ġdom ains
Ġw ad
Ġhier archy
Ġcreat ivity
Ġe man
iffer ent
Ġdissol ve
b es
Ġcoff in
Ġoverl apping
Ġsex es
Ġsync ret
x ist
Ġheadd ress
Ġinter fere
e ous
Ġemphas ize
Ġvot ive
or se
Ġund ist
Ġapoc alypse
w art
Ġat kinson
Ġintegr ity
Ġinver ted
Ġhold ers
Ġaddress ing
Ġshe p
Ġdepart ments
Ġrecruit ment
ke e
b ol
Ġcertain ty
ear s
pl ane
Ġjudg ement
Ġips wich
Ġproced ures
Ġshell ed
Ġwar ship
Ġed gar
Ġturb ine
Ġfled gling
Ġh ove
Ġge opy
Ġgeopy x
Ġgeopyx is
Ġac orn
Ġscientific ally
Ġtax on
Ġbrit tle
Ġeng ra
Ġrar ity
Ġann ular
Ġundoubted ly
Ġwre ath
Ġpot atoes
m arked
Ġem ble
Ġrec o
Ġble nding
Ġep ox
yl ene
Ġphosphor us
Ġyield s
Ġci ud
Ġciud ad
Ġoutr aged
Ġp ue
Ġrevolution aries
Ġbreak up
Ġcous ins
Ġassass ins
Ġmach ismo
Ġbrut ality
Ġutter ly
Ġgo ats
Ġpurs ues
pl ess
Ġsan ctions
Ġinf ested
Ġoverth row
Ġmanip ulation
ac c
Ġdun geon
Ġstephan ie
Ġze al
Ġundert ake
Ġrecommend ing
Ġord ination
Ġhand ing
Ġasc ot
Ġpeace keep
Ġdub ois
Ġm ama
Ġzen obia
Ġden ise
Ġte ens
Ġdelight ful
Ġanch ored
Ġd rey
Ġdrey f
Ġmead ows
l itz
ab e
Ġobl iv
Ġj oked
sh aw
Ġdisapp ro
mar ried
Ġall usion
Ġvan ity
Ġconst ellation
Ġorb iting
Ġgh ar
Ġkilomet re
u ky
Ġtrim urti
Ġbrah ma
Ġc ite
Ġlog ging
Ġmaster piece
Ġbe ams
Ġmonke ys
Ġbl essed
Ġbund le
Ġfore head
Ġvand al
Ġnymph s
Ġs ury
Ġthres hold
Ġfri eze
Ġtoile t
Ġno ises
Ġextre mes
Ġb unch
Ġmc far
Ġmcfar land
Ġz ilt
Ġzilt oid
ling ton
ack ing
Ġlay ered
Ġmaster ing
Ġtun ed
Ġfals etto
Ġleop old
Ġ180 6
Ġ180 9
Ġpar cel
Ġhe ating
Ġwho ever
Ġsouthwest ward
Ġup ro
Ġflank ing
Ġ180 4
Ġantig ua
Ġches ape
Ġchesape ake
1 1
Ġneighbour hood
Ġunre lated
Ġexhib itions
ul ary
Ġrest r
Ġret r
Ġlod ged
Ġtrin sey
Ġrepublic ans
Ġunc onst
itution al
Ġdeleg ated
Ġscrut iny
Ġcomp elling
Ġunanim ous
Ġle aping
Ġv ars
Ġvars ity
Ġchamber lain
Ġe h
Ġutil izing
Ġes qu
Ġje op
Ġjeop ard
Ġliv elihood
Ġst int
Ġmc gr
Ġamate urs
Ġmotorcy cle
Ġincom pet
Ġpenn y
Ġoak ley
Ġmut ually
Ġy s
ab el
Ġsho e
Ġg otta
Ġover run
Ġ ÅĤ
Ġer otic
Ġpopular ized
Ġspecial ists
Ġregist ration
Ġcen sored
Ġcomm itting
Ġlo oting
Ġunpa id
ac ious
Ġkrak Ã³w
Ġstan is
Ġg hett
Ġg ul
l uk
Ġale ks
Ġdisp osed
Ġkam il
Ġi w
en ia
Ġvib rant
Ġari hant
Ġprop ulsion
Ġk Ã¶nig
Ġsuper f
Ġcon ning
Ġsort ies
Ġunev ent
Ġunevent ful
Ġdu el
Ġneg lig
Ġup ward
Ġcorrect ly
Ġ25 4
Ġsu nder
Ġsunder land
ig er
Ġsch umann
Ġtotal ing
Ġs ars
Ġp ines
Ġvis ually
Ġash bee
ill ary
Ġnit rogen
Ġprec ision
Ġf ren
Ġoccup ational
Ġrob bery
Ġrever end
Ġlam bert
ind ers
Ġcomment ator
Ġan terior
Ġsev ast
Ġsevast opol
Ġreclass ified
Ġcat ap
Ġcaucas ian
Ġmiss es
Ġw iped
Ġinter changes
Ġex its
Ġsouth bound
Ġhyp n
Ġriff s
Ġpitch f
Ġpitchf ork
Ġapprent ice
Ġvig il
Ġrp m
Ġdebut ing
Ġfam ed
Ġshel ton
Ġum bre
Ġcros by
Ġrud olph
Ġqu oting
Ġgloss y
Ġspe nds
Ġze it
Ġsw ung
Ġfloren ce
Ġindirect ly
Ġthunderstorm s
Ġsh ing
Ġdharm endra
anag ara
Ġmand ated
Ġbond ing
Ġdial ogues
Ġpolic eman
Ġm aus
Ġscreen writer
Ġsty led
Ġak ira
Ġnag ar
Ġrog ue
Ġoutl aws
Ġspect acle
Ġglam our
il ations
Ġbar ack
Ġviewers hip
Ġcinemat ography
Ġob it
Ġvill ains
Ġspo of
Ġcorre cted
Ġpanor amic
qu ay
Ġt ib
Ġke e
à¸ £
Ġaristocr atic
Ġbah t
Ġc ns
Ġson thi
Ġin active
Ġtelecommun ications
Ġch ien
Ġcad et
Ġret itled
Ġham pton
Ġmoz art
Ġswallow ing
ch ief
Ġts ar
Ġbath ing
Ġadvert ised
Ġhu bert
Ġcur iosity
Ġp its
l ord
Ġresur f
Ġsear ched
Ġwr ang
Ġmanoeuv res
Ġprov oking
Ġmane ater
Ġdis se
Ġflow ed
Ġt lc
Ġb ds
Ġkeep s
Ġl ur
Ġd ose
Ġsign ings
Ġpl att
Ġequal iser
Ġund is
Ġall an
Ġre acts
Ġcool ed
on al
Ġcosm etic
Ġaust en
Ġchem ist
Ġ161 5
Î ¼
Ġjak ob
Ġhyp ot
ĠÎ ±
Ġboliv ia
Ġinter fer
Ġpig ment
Ġem it
Ġtherape utic
Ġre used
Ġin gestion
Ġwork place
ig raph
Ġshakespeare an
Ġex ac
Ġexac erb
k ley
Ġinterl ude
Ġanom aly
Ġbol ster
Ġcla ud
Ġnational ism
Ġundert aking
it he
Ġto e
av is
Ġemp ress
Ġd rif
t hel
Ġresign ing
Ġanthrop ology
Ġon ward
Ġover c
Ġpicc ad
Ġpiccad illy
Ġbra very
Ġdi aries
Ġpack age
cc an
Ġdes erves
Ġspur red
Ġass ort
Ġpat erson
ul ative
ocy st
Ġirregular ly
Ġbr anched
Ġillust rates
Ġrib osomal
Ġembed ded
Ġiod ine
Ġtransl uc
Ġtransluc ent
Ġpal er
Ġnutri ents
osynt hesis
Ġtet r
Ġern ie
n ings
Ġlon eliness
Ġdiscip le
Ġrel inqu
Ġrepl ies
Ġmed iate
Ġle nd
Ġg rit
Ġj umped
Ġfar ber
p en
n ar
Ġcort land
Ġsal em
urg ical
Ġjes se
Ġb rawl
8 7
au er
Ġgeor ges
Ġdescript ive
Ġmission aries
Ġpre clud
Ġclassroom s
Ġalt ars
Ġnic hes
Ġenth ron
l ass
Ġl att
Ġbric ks
Ġenj oys
ver ts
Ġrid den
Ġbo red
Ġrecip roc
Ġadd ict
Ġabort ion
Ġhost age
Ġforg ive
ry l
Ġangel a
Ġinstall ment
Ġse pin
Ġsepin wall
Ġo c
Ġascend ing
int o
Ġsever ed
Ġemb ank
ra il
Ġlay s
Ġeuras ia
Ġgreen land
Ġme adow
Ġfl ax
Ġt ire
Ġmonog amous
Ġfin er
Ġincub ation
Ġad verse
Ġrac co
f ax
Ġsubty pes
Ġc ured
om atic
oph yll
Ġleuk em
Ġdecre ases
Ġmut ations
Ġprom y
Ġpromy el
Ġprogn ostic
Ġrecept or
o ters
Ġn p
Ġmort on
Ġten or
Ġdownlo ads
Ġbi ke
is a
Ġepid emic
Ġst agn
Ġi ke
Ġinvest ments
Ġla wn
Ġden ver
Ġant ique
Ġun iqu
Ġmosqu ito
Ġreper tory
Ġpost al
Ġneb ula
Ġcomb ining
Ġiroqu ois
Ġw ards
Ġcomp ressed
on ing
Ġrenew able
Ġwinds or
Ġwork force
Ġfoot ing
Ġpresent er
Ġind och
Ġindoch ina
Ġ59 0
pt ions
Ġprov ing
Ġrefle ctions
Ġquestion able
Ġassert ing
Ġacc using
Ġoblig ed
Ġdem e
hn ess
Ġlevel ed
Ġinv aders
Ġcondem ning
Ġjuda ism
Ġst ink
Ġgreen ish
Ġos aka
Ġsacr ament
Ġadul tery
Ġpre cept
Ġhe resy
Ġdesp air
rol ogy
Ġx vi
Ġmor ally
Ġs inc
Ġrep el
urb ation
Ġinteg ral
Ġcondition al
th s
Ġtreat s
Ġnomin al
Ġgust av
Ġfire power
Ġstrength s
Ġmedioc re
Ġw ign
Ġwign er
ah i
Ġsyn ch
Ġreli ability
Ġtwent ies
Ġrep orters
Ġcouncill or
Ġell er
er ian
Ġincorpor ation
Ġgrad ed
Ġcl aw
Ġimmort als
Ġcalc ulation
Ġl ance
ä ¸
Ġx uan
Ġhands ome
Ġwand ering
Ġhe be
Ġhebe i
Ġx ia
Ġgl owing
Ġhutch inson
Ġover ha
ach ian
er i
Ġeye wall
Ġlands lides
Ġhard est
Ġexpans ions
yn es
Ġmar co
ch i
Ġav a
Ġreg roup
Ġthr iving
ag h
oc ative
if ully
Ġtyp ography
Ġadvoc ates
Ġunic ode
Ġclim bed
Ġon stage
Ġhand bag
Ġpric ed
abl anca
Ã¡ s
Ġpsych ology
Ġdisadvant age
2 6
3 7
ole v
Ġp ess
Ġpess im
Ġz a
Ġel astic
Ġ184 3
Ġc eded
Ġimp ose
c ond
Ġsim ulate
road s
Ġdeleg ate
Ġannoun cing
Ġsaw mills
ic ides
Ġcrest ed
Ġapp al
Ġhal en
Ġpedest rian
Ġhes it
Ġhu ff
Ġund en
Ġa ol
Ġz ur
Ġcement ed
Ġcur se
Ġ Ê
ac ar
Ġstrateg ically
erun ner
Ġlev ant
Ġh att
Ġstrong hold
Ġ127 0
Ġglac is
Ġproject iles
Ġcit adel
Ġveget ables
Ġrehears als
Ġzo Ã«
Ġins ists
Ġt ones
Ġpur itan
p ical
h art
c ely
Ġpam ela
Ġpurch asing
Ġloan ed
Ġmal ta
Ġrob ots
u er
Ġmanip ulating
Ġlik eness
Ġap ric
ĠfaÃ§ ade
Ġ122 1
Ġreprodu ce
l en
Ġcraf ted
Ġcand y
Ġma ui
Ġnot ified
Ġo kin
Ġokin awa
Ġmic key
Ġthreat ens
Ġ95 0
Ġqu asi
Ġmanoeuv re
Ġrod ney
Ġhope fully
att led
Ġha uled
ang led
Ġaim ing
Ġp umps
Ġconflict ing
Ġobject ors
Ġseed lings
Ġcamp grounds
Ġle an
Ġsyph ilis
Ġphys i
Ġmetal work
Ġfin ely
Ġga ul
Ġill um
Ġc ork
Ġlord ship
Ġbo oms
Ġgriev ances
Ġmon aghan
Ġtent ative
Ġh are
Ġrept ile
Ġlocal ities
Ġwal ton
Ġrede velop
ro ur
rour ke
Ġd aly
Ġdar ren
Ġclar ke
her s
Ġmg b
Ġp ens
Ġla ird
Ġocc ult
Ġa zz
Ġsuper hero
Ġsh ade
Ġmis d
Ġk ip
Ġbright est
Ġappropri ately
Ġmad ame
Ġvamp ire
Ġs orts
Ġalex andra
Ġgav in
Ġadm itting
Ġupd ates
Ġam or
Ġmuds lides
Ġmechan isms
Ġyard age
Ġard an
Ġoptim istic
ãĥ ĥ
Ġeng ages
Ġtax ation
Ġprotest ants
Ġchoc olate
Ġpower house
Ġcoordin ator
Ġ87 4
Ġche e
Ġinst al
Ġj ude
Ġreluct ance
Ġprivile ge
Ġtake over
Ġv h
Ġchore ography
Ġrobert o
Ġgl aston
Ġglaston bury
Ġstar bucks
Ġanton y
Ġrog atti
Ġencounter ing
Ġs ask
Ġade qu
Ġadequ ately
Ġber ardi
Ġrep elled
Ġmot ions
h ook
Ġimp lying
Ġcan e
Ġde graded
Ġm akers
Ġjer maine
Ġponder osa
Ġpri ory
Ġdies el
Ġemb al
Ġf ading
Ġfor l
Ġcompar ative
Ġconver gence
Ġfl ashes
Ġsor cer
ul se
v ik
Ġus eless
Ġref resh
Ġto g
Ġdon n
Ġsin atra
Ġpop mart
p ots
Ġloc om
Ġunp ro
c rest
Ġbi ochem
Ġglob ular
g i
Ġvocal ists
Ġcl aret
Ġsa unders
Ġhou ll
Ġhoull ier
Ġdav en
Ġinternation als
Ġtot tenham
Ġnomen cl
Ġsubdiv isions
Ġconve x
Ġmc don
Ġredes igned
Ġdat eline
ight on
Ġpock ets
Ġme and
Ġchlor ide
Ġfertil izers
sh ires
Ġsear ches
Ġcarly le
Ð ¸
Ġp ads
Ġlbw s
Ġcricke ters
Ġas le
Ġasle ep
Ġro an
Ġlineback er
Ġfull back
Ġd ov
Ġnether land
Ġs ass
Ġup st
Ġluc rative
Ġtrans verse
Ġsust aining
Ġmaur it
Ġ139 0
pro of
Ġhonor ius
b end
Ġcathed r
Ġcathedr als
Ġvic ars
be th
Ġste e
ces ter
Ġfisher man
Ġdescend ing
Ġmac pherson
Ġes a
Ġb ain
Ġwhe els
Ġsou ven
Ġarchb ishops
Ġceratops ia
Ġps itt
Ġpsitt ac
Ġceratops ids
ce phal
Ġclad ogram
Ġmak ov
Ġmakov icky
ol ian
Ġrept iles
ball s
Ġsh Åį
Ġkaw ai
ats u
ut su
c at
Ġvicar ious
Ġavat ars
n os
Ġr ump
Ġro osts
Ġdisass emb
Ġ76 7
Ġl und
ure n
Ġg ide
Ġsu f
Ġillino ise
Ġr age
Ġmara uders
Ġmechan ic
at ae
Ġq ad
Ġes arh
Ġesarh addon
Ġsent encing
Ġbat ch
Ġlang er
Ġnottingham shire
Ġkaw artha
Ġbord ered
Ġmar ches
Ġl acy
Ġle es
Ġholl in
Ġhollin wood
Ġsam my
Ġ163 2
Ġel rane
Ä ĵ
ac ab
c io
Ġdim ension
Ġvill iers
Ġsept im
v ius
Ġmac rian
Ġmacrian us
Ġcil icia
th ian
Ġmagist rates
Ġk und
Ã± a
Ġcast ile
Ġi bar
Ġgonz ale
Ġgonzale z
Ġbraat hen
Ġher ons
Ġf ars
Ġf ok
Ġsimul ator
Ġmy les
Ġm erv
Ġluc ie
Ġback yard
Ġrom mel
Ġ163 9
Ġgardner ian
Ġfree whe
Ġb ae
Ġhe yl
Ġheyl in
Ġr icks
ac ies
Ġs Ã¡
Ġc erv
Ġcom bs
Ġlion el
Ġdis k
kov iÄĩ
Ġam la
Ġamla ÃŃ
ĠamlaÃŃ b
Ġgruff udd
Ġacknowled ges
Ġhero ine
Ġpfl ue
Ġpflue ger
Ġj all
Ġjall on
Ġquarterf inals
Ġblack ley
Ġliber ator
Ġspars ely
Ġburrow ing
Ġmel an
Ġconif ers
Ġredoub ts
Ġdue idar
Ġg ann
Ġvar rick
Ġg aster
Ġgaster oid
Ġtu ber
Ġrut hen
Ġlu z
Ġshear er
in ks
Ġan est
Ġsur g
Ġg ly
Ġsant ander
Ġbung ie
Ġarmen ian
Ġ121 7
Ġcaes are
Ġcaesare a
mon a
Ġmu le
Ġp acks
Ġpas up
ara j
Ġbh ak
Ġandh ra
Ġros so
Ġlak sh
ish i
Ġspill way
Ġjul iet
Ġga unt
Ġv oren
Ġvoren us
Ġsab o
Ġhight ower
Ġrob ed
Ġenlight en
v ir
Ġd ove
Ġtrans por
Ġhar ford
Ġin ez
Ġgrun ge
Ġdu v
Ġduv all
Ġchamp u
Ġharih ara
ach andra
Ġchar it
apur ana
Ġbrid ging
Ġpsycho active
Ġhab ro
Ġhabro pt
Ġs ago
Ġdd os
Ġscient ologists
Ġ160 5
Ġwrest ler
Ġ47 3
Ġ51 91
Ġn ts
Ġfree ville
Ġpresbyter ians
Ġrouss illon
Ġuday gh
Ġmith ra
Ġpro h
Ġproh aska
Ġmusc arine
Ġweev il
Ġdod os
Ġher sey
Ġan thodon
ĠmÃ©t is
Ġav ian
Ġand orian
Ġmcman aman
Ġsl ipp
Ġmon sen
Ġout world
à ¨
Ġgab oon
Ġï ½
Ġï½ ŀ
Ġ112 6
opa o
Ġtrypan osom
Ġjet port
Ġwd tv
Ġcle land
Ġlam ina
Ġvest a
Ġsovets ky
Ġig uana
Ġbal estre
Ġhyp ac
Ġhypac rosaurus
Ġparasau rolophus
Ġlambe osaurus
Ġa hi
Ġahi á¹
Ġahiá¹ ĥ
Ġahiá¹ĥ s
Ġahiá¹ĥs Äģ
c Äģrya
Ġvish wanath
Ġdur ga
áĥł áĥĺ
Ġdhang ar
Ġhomar inus
Ġpent wyn
Ġher ries
Ġsupermar ion
Ġsupermarion ation
Ġsim Ã³n
Ġsuc re
Ġmanuel a
Ġcand ace
Ġst urn
Ġse ga
Ġpit ted
Ġcal am
Ġbub bles
Ġunl ocked
Ġdict ated
Ġjin x
Ġenr aged
act or
Ġinv ading
Ġdestro ys
Ġpoly gon
Ġtw e
Ġt su
Ġk ad
Ġmem ph
rid ges
Ġse iz
Ġ52 0
Ġcar b
Ġ26 7
Ġdisp osition
c ity
Ġcart ridge
Ġdun ning
Ġcler ks
Ġappe nd
Ġeduc ate
Ġserv ic
Ġservic emen
Ġillust rator
Ġam using
Ġel ves
th rop
Ġpill ars
Ġcompet ent
Ġanaly tical
Ġjenn y
ar th
Ġbapt ism
Ġle one
Ġret ention
Ġf ishes
Ġcrypt ic
Ġspl itting
Ġsn out
Ġwell es
Ġam p
Ġstreak s
Ġnegot iating
Ġaffil iate
Ġmil estones
Ġshoot out
Ġpost ing
Ġcl ause
Ġd ough
Ġinterview ing
o ine
f rog
haw ks
ĠâĢ ł
Ġle p
Ġle b
Ġapost olic
Ġb olog
Ġse ism
Ġequ atorial
Ġsemic ir
Ġgendar mes
Ġat hens
Ġactiv ism
or por
Ġa adt
Ġnav ies
Ġcly de
Ġboil er
Ġwater line
Ġelev ate
Ġp iv
Ġironcl ads
est on
Ġsort ie
Ġle ak
Ġch akr
Ġb aked
Ġdev a
Ġsal man
Ġs ne
Ġexhaust ing
Ġfilmm aker
Ġam it
Ġhass an
ity a
Ġfilm ography
Ġwh al
Ġhod g
Ġjenn ings
Ġquiet ly
Ġdreadn ought
Ġgo e
Ġc att
Ġcenter line
Ġmobil ized
Ġrepl icate
Ġpropos ing
Ġperson ified
Ġven eration
Ġnub ia
Ġcan a
Ġcana an
Ġomn isc
Ġunpredict able
Ġt aw
Ġbeh ave
Ġcorps es
t um
Ġhath or
Ġape x
Ġsymbol ize
Ġfert ile
Ġindic ator
Ġanthropomorph ic
Ġbe ard
Ġsign ifying
Ġforeign ers
Ġinsp iring
Ġc odes
Ġinterven e
Ġbene volent
Ġimp art
Ġk and
Ġo as
Ġoas is
Ġjud as
Ġlaugh s
Ġfront man
Ġs abb
Ġsabb ath
g us
Ġk orn
f est
Ġman iac
Ġaer ob
Ġcater ing
Ġlev elled
Ġsp it
Ġch il
Ġrepl aces
Ġprivile ges
Ġdiscr imination
Ġuns afe
Ġwor sen
Ġconsult ation
Ġdal mat
Ã¤ n
Ġel f
Ġabrupt ly
Ġdev oid
Ġvit ro
Ġpar aph
Ġmicroscop ically
Ġsubst rates
Ġneed le
Ġcort ex
Ġredu ctions
Ġmyc orrhizal
Ġengra ver
Ġmin ted
Ġauthor izing
Ġcongress ional
Ġvast ly
Ġco ining
Ġexec ute
Ġsc aled
Ġres um
yl s
oph il
v ation
Ġvol atile
it uted
Ġstabil ized
Ġwhere in
Ġefficient ly
Ã¡ rez
Ġag r
Ġagr arian
Ġappoint ments
Ġsid el
Ġi z
Ġlandown ers
Ġden ounced
Ġf iest
iv o
Ġlaure ate
Ġrec ount
os cop
oscop ic
Ġrec ounts
Ġlibert ies
Ġenv is
Ġflash backs
Ġdisgr ace
Ġbetray al
Ġcast ro
Ġfasc ination
Ġc ia
Ġcruel ty
Ġschool ing
Ġdisillusion ed
Ġtort ured
Ġencour ages
Ġsta unch
Ġa ides
Ġdiscour se
Ġintrig ue
Ġimpl ies
Ġdepend ed
Ġ20 6
Ġmemorial s
Ġinc ar
Ġhim al
ay as
Ġtrain er
Ġsk ies
est ine
Ġincur red
Ġprel ude
Ġcon grat
Ġapplic ant
Ġcease fire
Ġbe es
Ġgrand mother
r ina
en ance
ush i
Ġdreyf us
Ġtit ular
rog ate
Ġmelod ram
Ġover bear
Ġoverbear ing
Ġim itated
Ġvir al
Ġrepr ised
Ġdeprec ating
Ġug ly
Ġuncon v
Ġsoph ie
Ġwal ters
Ġsem ester
Ġspect ra
Ġmetall icity
3 9
Ġneg lect
Ġma ury
Ġchal uky
Ġkail ash
Ġdri pping
Ġsh aking
Ġhairst yles
Ġg own
Ġg anes
Ġannoy ed
Ġar rog
Ġstamp ed
Ġrest oring
Ġl ips
rif ying
o j
Ġdescend s
Ġsar as
ck ed
Ġorn aments
Ġornament ation
ad ra
oll en
Ġling a
Ġsh ining
Ġgar ments
Ġplant ain
d led
Ġros ary
Ġprotr uding
Ġtw isted
Ġtr ident
Ġall igators
Ġw ired
Ġrevol ver
Ġlar s
nd on
Ġhead lining
Ġt ess
Ġsatisf ying
Ġinde fin
ton es
st an
ins ky
Ġfran jo
Ġphot ographed
Ġpun ished
Ġkra us
Ġhost ility
Ġsplin ter
j en
Ġmarked ly
Ġwreck ed
ue ux
Ġgeor get
Ġgeorget own
Ġg able
Ġpolic ing
Ġfluores cent
Ġyouth s
Ġrel ent
v ier
Ġhar assed
Ġgather ings
Ġharass ment
Ġsuspect s
Ġintern ally
Ġunconst itutional
Ġinitial s
Ġhorn ets
Ġbobc ats
Ġx v
Ġrebound s
Ġkn icks
Ġhy pe
Ġboost ed
Ġimp rom
Ġimprom pt
Ġimprompt u
Ġcry ing
Ġguard ed
Ġforesh adow
Ġchant ing
Ġt is
Ġaf ore
Ġafore ment
Ġaforement ioned
Ġbetray ed
hold er
Ġfrust rating
Ġre claimed
Ġker r
Ġstri pe
Ġlo oted
Ġsalv age
Ġcinem as
Ġartic ulated
Ġar ithm
Ġarithm etic
child ren
Ġstanis ÅĤaw
Å ¼
zy ÅĦski
Ġprof its
Ġsl ogan
Ġboy cot
Ġmass ac
gl ers
Ġv il
Ġcl ashed
k owski
Ġaleks ander
nt z
Ġiniti atives
Ġd aring
Ġplay ground
Ġat v
Ġbeng al
Ġind ira
Ġ98 0
Ġaux il
Ġauxil iary
Ġar id
Ġkur f
Ġkurf Ã¼r
ĠkurfÃ¼r st
Ġscutt led
Ġin gen
Ġbombard ed
Ġval iant
Ġwies b
Ġwiesb aden
Ġstrick en
Ġexpl oded
Ġgun ners
Ġmol t
Ġmolt ke
are v
Ġcirc a
Ġe art
Ġeart hen
Ġo ste
Ġpath way
Ġhaz el
oc ene
Ġstyl istic
Ġg lyn
Ġbread th
Ġbreak age
7 0
Ġra ided
Ġwil ts
Ġwilts hire
Ġcol der
Ġmini ature
Ġspor ad
Ġsporad ically
Ġkav kaz
Ð ²
Ġ40 3
Ġund iv
Ġundiv ided
Ġwat kins
p op
Ġgang ster
Ġprostit utes
Ġsocial ism
Ġn ull
Ġwent worth
Ġpos es
Ġdu ets
Ġbo oth
Ġumbre lla
Ġf ian
Ġfian c
Ġtempl ate
f elt
Ġcontrast ing
Ġhang s
f ix
Ġretail ers
Ġre id
Ġcycl ogenesis
Ġrip ped
Ġdun es
Ġutil ities
Ġfilm fare
Ġalleg ory
Ġwid owed
Ġsubt ly
Ġim am
Ġmeh bo
Ġmehbo oba
Ġacquaint ance
Ġcens or
Ġdual ism
Ġsupre m
Ġcaric ature
Ġheter osexual
Ġrecre ated
ag her
Ġmugh al
Ġtor quay
Ġposthum ous
Ġr ak
k al
Ġanup ong
Ġre aff
Ġown s
Ġsupp lier
Ġconsort ium
Ġchar ters
chem ical
Ġch at
Ġmouth s
Ġlog istics
Ġadv iser
Ġrecip ients
Ġsp outing
Ġwh ale
Ġp int
Ġtell icherry
Ġnorth wards
Ġinsist ing
Ġ179 2
Ġn elly
Ġc uff
Ġrhythm ic
Ġsimpl ified
Ġlaugh ter
Ġsens ory
Ġspont ane
Ġchore ographed
Ġk ern
Ġstri kers
Ġfinal ists
Ġnorth ampton
Ġmiddles brough
Ġro ther
Ġrother ham
m ere
Ġbrack ets
sh an
Ġox ides
Ġsb f
r ide
Ġp i
Ġpot ass
Ġpotass ium
Ġ178 3
Ù Ĭ
Ġtr ag
Ġ á
Ġhypot het
Ġhypothet ical
Ġextr action
Ġpe w
ast ig
Ġstabil ize
Ġhypothes ized
ec d
Ġbott les
Ġaugust a
Ġveget able
Ġlect urer
Ġexacerb ated
Ġadvers ely
Ġcol chester
Ġeager ly
Ġglou cestershire
Ġcur ator
Ġvic er
Ġvicer oy
Ġreform ing
Ġign oring
Ġsect arian
Ġste pping
Ġfort night
Ġchrist ie
ator ium
Ġgreat ness
osaur ian
Ġmaxim us
Ġornith op
apt or
Ġd rier
Ġasi atic
Ġthread s
Ġcav ity
Ġbas idia
Ġfib rous
Ġen ables
Ġcre v
Ġst ain
Ġflav or
Ġmycel ium
Ġnutri ent
Ġac et
Ġast ra
et es
Ġd ye
Ġem erson
Ġwe instein
is en
Ġor son
Ġfro gs
Ġheight ened
Ġmoral itas
Ġcompl ains
Ġdisc rep
Ġun av
Ġn acht
Ġnacht igall
Ġencompass ing
Ġrem od
Ġcent ennial
Ġe aves
Ġcommun ion
Ġgu ad
Ġrel ic
Ġpulp it
Ġenthron ed
Ġsl oping
Ġul tra
Ġtre y
Ġun int
Ġeval uate
es ome
Ġnatal ie
Ġpol o
Ġliv in
Ġstard om
Ġb ids
Ġor th
at at
am ics
Ġge ographically
Ġsecret ive
n aeus
ĠÎ º
Ġon om
Ġpe e
ug s
Ġd ung
Ġha em
Ġeuras ian
Ġst anz
Ġstanz as
Ġfair fax
Ġinc idence
Ġenlar gement
Ġsw elling
Ġdis ord
Ġm ps
Ġleukem ias
ut able
Ġpromyel ocytic
Ġon c
p ic
Ġdiv ides
Ġprot oc
Ġdon or
Ġar ises
Ġph arm
Ġf ry
Ġinf at
Ġeru pted
Ġxin jiang
Ġfact ories
Ġstorm ed
Ġind isc
Ġq in
Ġclin ic
Ġcam pe
Ġcampe che
Ġmart yn
Ġp aced
Ġ85 0
Ġec st
Ġfort un
Ġnear ing
Ġash ton
Ġtro l
Ġref ining
Ġcult urally
Ġda isy
Ġsteam ship
Ġall uv
Ġindic ative
Ġtrav ellers
Ġpear son
Ġhealth care
Ġsymph onic
Ġcanc ellation
Ġwill s
Ġfri es
Ġcook book
Ġdavid son
Ġshut tle
Ġharm onica
Ġch oms
Ġchoms ky
Ġdetract ors
we ek
Ġperiod ical
Ġfavor ably
Ġpre jud
Ġfundament ally
Ġrel ies
Ġaccus ation
Ġk os
Ġaffir med
Ġbart lett
Ġage nda
ar ity
Ġhug ely
Ġca res
Ġplut o
Ġsl im
Ġpig ments
Ġ43 0
Ġvirt ues
Ġmonaster ies
Ġref rain
Ġinc arnation
Ġculmin ation
Ġo ught
Ġsp ouse
Ġexcommun ication
Ġrep ent
Ġpr ere
Ġser mon
Ġle thal
Ġcar ing
m ail
Ġintr ins
Ġcondem n
Ġw age
Ġinjust ice
Ġdet r
Ġdisc reet
Ġyam aha
Ġn ak
Ġfrequ encies
Ġex iting
Ġfred rik
Ġswed es
Ġpruss ia
Ġdi agonal
Ġpat ents
Ġflower ing
Ġal umin
Ġarg on
Ġreact ivity
Ġw n
Ġdand en
Ġdanden ong
Ġmic he
Ġman ic
Ġdevast ation
Ġwid ening
Ġweigh s
Ġsuff rage
Ġm are
Ġtac uma
so on
Ġinspir ational
Ġb its
Ġj ow
Ġshaan xi
Ġsw orn
Ġdrunk en
Ġab ridged
Ġbody guard
Ġy un
Ġess ence
Ġmillion aire
Ġsp urs
Ġmen g
Ġfaith fully
¤ §
Ġg ird
Ġmonolog ue
Ġset backs
Ġbu ch
Ġbuch arest
Ġret ake
Ġfl ores
Ġem il
Ġde act
u ates
Ġoz plo
Ġozplo itation
Ġtar ant
Ġthr illing
Ġwh itt
Ġed mond
Ġdegener ated
Ġwater ways
Ġimp ass
Ġ45 7
Ġd uch
ign on
Ġregular s
Ġpiet ro
Ġcorre ction
on o
Ġbern is
Ġdoubt ful
Ġremind ed
Ġspread s
Ġdepr ived
Ġfle eing
Ġreloc ate
Ġapprec iation
Ġincon clusive
Ġdesk top
u ously
Ġmanip ulate
Ġcartoon ist
Ġfranc ophone
Ġsail or
Ġver ge
Ġchamp agne
Ġfrag rance
Ġhat cher
Ġpack aging
Ġberlin er
2 4
Ġb g
Ġpessim istic
Ġvig orous
Ġl omon
Ġlomon os
Ġlomonos ov
Ġcow an
Ġpaul a
Ġbur sts
Ġbrad bury
Ġdetect or
Ġir v
Ġwilliams port
Ġdun bar
izz ard
att a
Ġhair cut
Ġbe friend
Ġvac ation
Ġbur rows
Ġpromot ions
Ġfam ously
Ġhuff ington
Ġcent ric
Ġstereoty pes
Ġem brace
Ġf aw
ia z
Ġ114 2
Ġba ibars
Ġfor erunner
atin ate
Ġchronic ler
Ġ12 30
Ġbl anc
he art
Ġcaut ious
Ġcouncill ors
Ġmonc rie
Ġmoncrie ff
Ġinde c
Ġal gy
Ġb rough
Ġmatt hews
Ġcaf Ã©
Ġpretend ing
Ġchar ms
Ġorigin ating
ur d
Ġso fter
Ġches hire
Ġad ject
ow ay
Ġcoler idge
Ġpl ow
Ġro land
Ġp emb
Ġmines we
Ġtemper ament
gr ade
Ġca ul
Ġ31 4
Ġcrafts men
Ġying za
Ġyingza o
Ġfash i
Ġapric ot
Ġd ing
Ġbuddh ism
Ġj aws
Ġlandsc apes
Ġdirector ate
ze e
Ġg pus
ĠâĤ ¬
Ġmother board
Ġg t
Ġsweep ing
Ġb p
Ġeval uated
Ġover r
te e
Ġdism asted
Ġdon nel
Ġres ume
Ġbenef ited
Ġcommend ation
Ġmack inaw
Ġgas oline
Ġskept ical
Ġm enn
Ġmenn on
Ġdeal ings
Ġsegreg ated
Ġhear ings
Ġy ale
É ĳ
Ġpop ulous
Ġl ush
Ġemerg ence
Ġnomin ally
Ġflour ished
Ġoverl ord
Ġauthor ised
Ġevid enced
Ġpe el
Ġpro claim
Ġb ally
Ġ40 6
orph ic
Ġsubdiv ided
Ġtheolog ian
Ġbar cel
Ġbarcel ona
Ġtir p
Ġtirp itz
Ġav ant
Ġsearch lights
Ġgren ades
Ġexpl odes
Ġmill igan
Ġazz are
Ġazzare llo
Ġdam n
Ġinvestig ates
Ġuncover ing
Ġsp ider
Ġnor wich
Ġundef e
Ġundefe ated
Ġab used
Ġcatast rophic
Ġafter sh
Ġresid ences
Ġhis pani
Ġhispani ola
Ġcollaps ing
Ġcrash ing
Ġpet rol
Ġmon s
Ġ37 5
Ġface book
Ġm apping
Ġped ro
Ġdeliver ies
os al
d og
Ġ23 1
man like
Ġtext ures
Ġminig ames
Ġselen ites
Ġalex is
Ġchristian a
Ġhand held
Ġsat urn
Ġconcept ual
Ġby r
Ġeast bound
Ġcov ington
ok a
Ġst are
Ġcg i
Ġcor i
ol ation
Ġk ary
Ġaw ful
Ġasc ap
Ġne al
Ġsed uct
Ġna ac
Ġnaac p
Ġhow itzer
Ġpare les
uc a
Ġbry an
Ġv okes
Ġlow lands
Ġseaf orth
Ġsn iper
Ġmay ne
Ġconstitu ents
Ġfish hook
Ġredu nd
Ġdund ee
Ġrefer encing
Ġcompart ment
ruct ural
Ġver de
Ġappal achian
Ġinev itable
Ġpo esy
Ġforl orn
Ġper me
Ġembr acing
Ġsymp athy
ill ation
Ġdry den
Ġenc oded
Ġvolt age
Ġ56 0
Ġwor s
Ġwors ened
Ġpolygam ist
Ġr ie
Ġout going
Ġrec ipe
Ġfundamental ist
Ġcon nery
Ġhench men
Ġconfir ming
ip ers
Ġros es
Ġrediscover ed
Ġrum ble
Ġge ologists
Ġnucle ot
Ġfold ing
Ġpe ptide
Ġeukary otes
Ġp d
Ġin ert
Ġmemb r
Ġmembr anes
Ġindu ce
Ġlig and
ac ellular
Ġmus cles
Ġam en
Ġpredict ing
Ġin gest
ãĤ ¤
id ered
Ġnational ity
Ġmcgr ath
Ġhack er
Ġblu ish
Ġmud dy
Ġcy stidia
Ġhouse w
Ġdan i
Ġs acks
Ġreun ite
Ġcre ighton
en berg
Ġevangel ical
Ġb outs
Ġunemploy ed
Ġhe ret
band s
Ġsol a
Ġdiv alent
Ġnit rate
Ġg lands
Ġ13 00
Ġne ur
Ġjam estown
Ġplat oons
Ġbel ts
Ġaccident al
raph s
Ġstory board
Ġ ÑģÐ
ston es
ok er
Ġweak ly
Ġmicro phone
Ġdr s
Ġspec ulate
Ġmerchand ising
Ġnot re
Ġbu il
Ġbuil du
Ġbuildu p
Ġrecept ions
Ġ26 3
if iable
Ġout line
Ġps al
Ġbea uc
Ġmc mah
Ġmcmah on
Ġany way
Ġdaven port
raw ling
ip es
Ġlong it
Ġlongit ud
Ġh over
Ġdav ie
Ġdespat ched
Ġv Ã©
Ġcleric s
Ġ112 3
Ġ120 6
Ġpre bend
Ġmac beth
Ġ14 4
Ġ14 7
Ġ162 8
Ġfer ru
Ġbl unt
Ġmack er
Ġkilome ter
ix ed
Ġpac er
Ġmagnet osphere
Ġgalile an
Ġste ered
mon ia
Ġovershadow ed
Ġj ervois
Ġmaid en
Ġweeke nds
Ġramp art
Ġsouven irs
Ġstat utory
Ġadv isers
Ġfin ch
Ġherb ivorous
Ġlept oceratops
an oceratops
Ġsask atche
Ġsaskatche wan
op ath
Ġwik im
Ġdial og
Ġc ade
ans on
Ġk ok
k awa
Ġm orn
Ġany more
Ġsynch ron
Ġdust y
ck led
Ġmant le
Ġal armed
Ġram allah
Ġgro ves
e on
Ġtal m
Ġtalm ud
ad ay
Ġbrent ford
Ġbook ed
Ġar ne
Ġau ber
Ġwest more
Ġsusp ense
Ġ Ì
Ġst owa
Ġstowa way
Ġm ug
Ġrhin oc
Ġrhinoc eros
off ensive
Ġg imm
Ġast oria
Ġast hm
Ġasthm atic
Ġg acy
Ġband ico
Ġbandico ot
Ġunit ary
Ġcourt room
Ġarg osy
Ġf ug
Ġhob son
Ġup n
Ġev ade
Ġa yr
Ġcam els
Ġ31 2
Ġ81 9
Ġsuspic ion
Ġinter st
Ġcompl ain
[...]
