{"!": 0, "\"": 1, "#": 2, "$": 3, "%": 4, "&": 5, "'": 6, "(": 7, ")": 8, "*": 9, "+": 10, ",": 11, "-": 12, ".": 13, "/": 14, "0": 15, "1": 16, "2": 17, "3": 18, "4": 19, "5": 20, "6": 21, "7": 22, "8": 23, "9": 24, ":": 25, ";": 26, "<": 27, "=": 28, ">": 29, "?": 30, "@": 31, "A": 32, "B": 33, "C": 34, "D": 35, "E": 36, "F": 37, "G": 38, "H": 39, "I": 40, "J": 41, "K": 42, "L": 43, "M": 44, "N": 45, "O": 46, "P": 47, "Q": 48, "R": 49, "S": 50, "T": 51, "U": 52, "V": 53, "W": 54, "X": 55, "Y": 56, "Z": 57, "[": 58, "\\": 59, "]": 60, "^": 61, "_": 62, "`": 63, "a": 64, "b": 65, "c": 66, "d": 67, "e": 68, "f": 69, "g": 70, "h": 71, "i": 72, "j": 73, "k": 74, "l": 75, "m": 76, "n": 77, "o": 78, "p": 79, "q": 80, "r": 81, "s": 82, "t": 83, "u": 84, "v": 85, "w": 86, "x": 87, "y": 88, "z": 89, "{": 90, "|": 91, "}": 92, "~": 93, "\u00a1": 94, "\u00a2": 95, "\u00a3": 96, "\u00a4": 97, "\u00a5": 98, "\u00a6": 99, "\u00a7": 100, "\u00a8": 101, "\u00a9": 102, "\u00aa": 103, "\u00ab": 104, "\u00ac": 105, "\u00ae": 106, "\u00af": 107, "\u00b0": 108, "\u00b1": 109, "\u00b2": 110, "\u00b3": 111, "\u00b4": 112, "\u00b5": 113, "\u00b6": 114, "\u00b7": 115, "\u00b8": 116, "\u00b9": 117, "\u00ba": 118, "\u00bb": 119, "\u00bc": 120, "\u00bd": 121, "\u00be": 122, "\u00bf": 123, "\u00c0": 124, "\u00c1": 125, "\u00c2": 126, "\u00c3": 127, "\u00c4": 128, "\u00c5": 129, "\u00c6": 130, "\u00c7": 131, "\u00c8": 132, "\u00c9": 133, "\u00ca": 134, "\u00cb": 135, "\u00cc": 136, "\u00cd": 137, "\u00ce": 138, "\u00cf": 139, "\u00d0": 140, "\u00d1": 141, "\u00d2": 142, "\u00d3": 143, "\u00d4": 144, "\u00d5": 145, "\u00d6": 146, "\u00d7": 147, "\u00d8": 148, "\u00d9": 149, "\u00da": 150, "\u00db": 151, "\u00dc": 152, "\u00dd": 153, "\u00de": 154, "\u00df": 155, "\u00e0": 156, "\u00e1": 157, "\u00e2": 158, "\u00e3": 159, "\u00e4": 160, "\u00e5": 161, "\u00e6": 162, "\u00e7": 163, "\u00e8": 164, "\u00e9": 165, "\u00ea": 166, "\u00eb": 167, "\u00ec": 168, "\u00ed": 169, "\u00ee": 170, "\u00ef": 171, "\u00f0": 172, "\u00f1": 173, "\u00f2": 174, "\u00f3": 175, "\u00f4": 176, "\u00f5": 177, "\u00f6": 178, "\u00f7": 179, "\u00f8": 180, "\u00f9": 181, "\u00fa": 182, "\u00fb": 183, "\u00fc": 184, "\u00fd": 185, "\u00fe": 186, "\u00ff": 187, "\u0100": 188, "\u0101": 189, "\u0102": 190, "\u0103": 191, "\u0104": 192, "\u0105": 193, "\u0106": 194, "\u0107": 195, "\u0108": 196, "\u0109": 197, "\u010a": 198, "\u010b": 199, "\u010c": 200, "\u010d": 201, "\u010e": 202, "\u010f": 203, "\u0110": 204, "\u0111": 205, "\u0112": 206, "\u0113": 207, "\u0114": 208, "\u0115": 209, "\u0116": 210, "\u0117": 211, "\u0118": 212, "\u0119": 213, "\u011a": 214, "\u011b": 215, "\u011c": 216, "\u011d": 217, "\u011e": 218, "\u011f": 219, "\u0120": 220, "\u0121": 221, "\u0122": 222, "\u0123": 223, "\u0124": 224, "\u0125": 225, "\u0126": 226, "\u0127": 227, "\u0128": 228, "\u0129": 229, "\u012a": 230, "\u012b": 231, "\u012c": 232, "\u012d": 233, "\u012e": 234, "\u012f": 235, "\u0130": 236, "\u0131": 237, "\u0132": 238, "\u0133": 239, "\u0134": 240, "\u0135": 241, "\u0136": 242, "\u0137": 243, "\u0138": 244, "\u0139": 245, "\u013a": 246, "\u013b": 247, "\u013c": 248, "\u013d": 249, "\u013e": 250, "\u013f": 251, "\u0140": 252, "\u0141": 253, "\u0142": 254, "\u0143": 255, "\u0120t": 256, "\u0120a": 257, "he": 258, "in": 259, "\u0120the": 260, "er": 261, "\u0120s": 262, "on": 263, "\u0120,": 264, "re": 265, "\u0120w": 266, "\u0120c": 267, "\u0120o": 268, "ed": 269, "\u0120b": 270, "nd": 271, "\u0120f": 272, "at": 273, "\u0120.": 274, "it": 275, "or": 276, "\u0120in": 277, "\u0120p": 278, "en": 279, "is": 280, "\u0120m": 281, "es": 282, "ar": 283, "\u0120of": 284, "an": 285, "al": 286, "\u0120d": 287, "ing": 288, "\u0120and": 289, "as": 290, "\u0120h": 291, "ro": 292, "\u0120to": 293, "ic": 294, "\u0120l": 295, "ion": 296, "ou": 297, "\u0120n": 298, "\u0120re": 299, "le": 300, "\u0120th": 301, "\u0120e": 302, "\u0120g": 303, "\u0120=": 304, "\u0120\"": 305, "ent": 306, "il": 307, "\u01201": 308, "st": 309, "am": 310, "\u0120\u010a": 311, "el": 312, "om": 313, "\u0120@": 314, "ad": 315, "ac": 316, "\u0120on": 317, "\u0120was": 318, "\u0120st": 319, "\u0120be": 320, "ur": 321, "ly": 322, "\u0120he": 323, "\u0120for": 324, "\u0120u": 325, "\u0120'": 326, "\u0120as": 327, "ol": 328, "id": 329, "im": 330, "iv": 331, "ir": 332, "ter": 333, "ig": 334, "\u0120@-": 335, "\u0120@-@": 336, "ct": 337, "th": 338, "ow": 339, "ith": 340, "ay": 341, "\u0120al": 342, "\u0120r": 343, "\u01202": 344, "ot": 345, "ut": 346, "et": 347, "ver": 348, "\u0120with": 349, "ation": 350, "\u0120that": 351, "ce": 352, "\u0120is": 353, "\u0120it": 354, "\u0120wh": 355, "\u0120con": 356, "\u0120j": 357, "ch": 358, "\u0120by": 359, "us": 360, "\u0120an": 361, "\u0120at": 362, "\u0120de": 363, "\u0120se": 364, "\u0120k": 365, "ul": 366, "\u0120)": 367, "\u0120(": 368, "\u0120v": 369, "\u0120ch": 370, "and": 371, "rom": 372, "em": 373, "ain": 374, "ag": 375, "\u012019": 376, "os": 377, "ers": 378, "um": 379, "\u0120his": 380, "\u0120com": 381, "her": 382, "av": 383, "est": 384, "00": 385, "od": 386, "ri": 387, "\u0120from": 388, "\u0120pro": 389, "\u0120su": 390, "pe": 391, "if": 392, "ist": 393, "res": 394, "ies": 395, "\u0120y": 396, "un": 397, "\u0120ne": 398, "ill": 399, "ap": 400, "se": 401, "ere": 402, "ld": 403, "ort": 404, "op": 405, "\u0120mo": 406, "\u0120or": 407, "\u0120sh": 408, "\u0120ro": 409, "\u0120were": 410, "\u0120pl": 411, "ab": 412, "ak": 413, "ate": 414, "igh": 415, "ard": 416, "all": 417, "art": 418, "ong": 419, "\u0120ex": 420, "ich": 421, "\u0120un": 422, "qu": 423, "\u0120le": 424, "ant": 425, "ud": 426, "ber": 427, "gh": 428, "ity": 429, "ated": 430, "ame": 431, "ess": 432, "oc": 433, "\u0120are": 434, "red": 435, "\u0120tr": 436, "\u0120ar": 437, "ive": 438, "\u0120\u00e2": 439, "ie": 440, "ack": 441, "\u0120had": 442, "\u0120\u00e2\u0122": 443, "rou": 444, "ip": 445, "\u0120which": 446, "ast": 447, "ian": 448, "\u0120not": 449, "pt": 450, "ment": 451, "rit": 452, "ine": 453, "ord": 454, "ge": 455, "ally": 456, "our": 457, "\u0120af": 458, "ell": 459, "ia": 460, "\u0120whe": 461, "ight": 462, "\u0120comp": 463, "ther": 464, "cl": 465, "ish": 466, "oun": 467, "ave": 468, "\u01203": 469, "pp": 470, "ary": 471, "\u0120cl": 472, "ust": 473, "\u0120this": 474, "cc": 475, "\u0120ad": 476, "\u0120fir": 477, "\u0120200": 478, "\u0120sc": 479, "\u0120bo": 480, "\u0120en": 481, "\u0120but": 482, "\u0120wor": 483, "\u0120her": 484, "\u0120tw": 485, "\u0120their": 486, "ous": 487, "\u0120first": 488, "\u0120cont": 489, "ore": 490, "\u0120;": 491, "ra": 492, "\u0120ab": 493, "so": 494, "\u0120int": 495, "ction": 496, "ide": 497, "\u0120its": 498, "og": 499, "ure": 500, "\u0120man": 501, "ical": 502, "ire": 503, "ial": 504, "\u0120after": 505, "ould": 506, "\u0120\u00e2\u0122\u0135": 507, "hed": 508, "\u0120one": 509, "\u0120all": 510, "\u0120they": 511, "\u0120am": 512, "\u0120sp": 513, "\u0120te": 514, "\u012020": 515, "\u0120per": 516, "\u0120also": 517, "ome": 518, "ub": 519, "\u0120rec": 520, "\u0120:": 521, "te": 522, "ition": 523, "ign": 524, "\u0120fe": 525, "per": 526, "ru": 527, "ok": 528, "ue": 529, "out": 530, "ov": 531, "ater": 532, "\u0120tim": 533, "ass": 534, "\u0120comm": 535, "\u0120us": 536, "\u0120new": 537, "age": 538, "\u0120two": 539, "\u0120mar": 540, "\u0120i": 541, "\u0120she": 542, "\u0120have": 543, "orm": 544, "\u0120res": 545, "ear": 546, "\u0120des": 547, "own": 548, "\u01204": 549, "ree": 550, "\u0120has": 551, "\u0120me": 552, "\u0120ser": 553, "ond": 554, "\u0120play": 555, "\u0120dis": 556, "ry": 557, "\u01205": 558, "\u0120po": 559, "\u0120ag": 560, "du": 561, "\u0120part": 562, "\u0120been": 563, "\u0120bec": 564, "\u0120who": 565, "land": 566, "\u0120co": 567, "\u0120go": 568, "ence": 569, "are": 570, "ans": 571, "\u012018": 572, "\u0120other": 573, "\u0120@.": 574, "\u0120@.@": 575, "ile": 576, "uring": 577, "ough": 578, "ted": 579, "\u0120year": 580, "pl": 581, "\u0120im": 582, "ance": 583, "ory": 584, "ect": 585, "ations": 586, "\u0120over": 587, "\u0120ev": 588, "ff": 589, "iz": 590, "ach": 591, "ade": 592, "ang": 593, "\u0120we": 594, "wn": 595, "\u0120off": 596, "\u0120fin": 597, "ely": 598, "clud": 599, "ric": 600, "\u0120201": 601, "ts": 602, "\u0120pre": 603, "ound": 604, "\u0120col": 605, "ib": 606, "\u0120up": 607, "\u0120out": 608, "ions": 609, "ke": 610, "\u0120fl": 611, "\u0120can": 612, "\u0120inter": 613, "ite": 614, "urn": 615, "\u0120@,": 616, "\u0120@,@": 617, "\u0120cent": 618, "\u0120during": 619, "ace": 620, "\u0120when": 621, "\u0120includ": 622, "ice": 623, "\u0120spe": 624, "ress": 625, "\u0120time": 626, "\u0120ap": 627, "act": 628, "\u0120ear": 629, "nder": 630, "\u0120ind": 631, "\u0120song": 632, "ved": 633, "ult": 634, "\u0120br": 635, "ks": 636, "we": 637, "ens": 638, "\u0120att": 639, "ced": 640, "\u0120more": 641, "\u0120into": 642, "ces": 643, "\u0120sec": 644, "ail": 645, "one": 646, "ount": 647, "\u0120bl": 648, "oll": 649, "ward": 650, "\u0120pr": 651, "\u0120form": 652, "\u0120gr": 653, "\u0120pe": 654, "amp": 655, "ren": 656, "\u0120would": 657, "ason": 658, "port": 659, "man": 660, "\u01206": 661, "able": 662, "ied": 663, "\u0120char": 664, "rough": 665, "ings": 666, "ited": 667, "\u0120him": 668, "\u0120jo": 669, "ve": 670, "\u0120most": 671, "les": 672, "rib": 673, "ents": 674, "ased": 675, "\u0120mus": 676, "\u0120no": 677, "\u0120bet": 678, "ase": 679, "ild": 680, "ix": 681, "\u0120kn": 682, "\u0120game": 683, "\u01207": 684, "ates": 685, "\u0120sou": 686, "ious": 687, "ath": 688, "\u0120some": 689, "als": 690, "\u0120qu": 691, "\u0120rem": 692, "way": 693, "\u0120ass": 694, "\u0120while": 695, "round": 696, "ors": 697, "\u0120them": 698, "\u0120acc": 699, "\u0120par": 700, "\u0120may": 701, "ose": 702, "ake": 703, "iss": 704, "\u0120reg": 705, "\u0120war": 706, "\u0120fil": 707, "\u0120only": 708, "vel": 709, "\u0120ver": 710, "\u0120there": 711, "form": 712, "\u0120eng": 713, "\u0120gen": 714, "\u0120how": 715, "fer": 716, "\u0120record": 717, "ubl": 718, "gan": 719, "\u0120under": 720, "\u0120car": 721, "aw": 722, "aus": 723, "\u0120fr": 724, "\u0120cons": 725, "\u0120nor": 726, "\u0120three": 727, "old": 728, "\u0120rel": 729, "ered": 730, "\u0120later": 731, "\u0120min": 732, "\u0120so": 733, "\u01209": 734, "\u01208": 735, "ood": 736, "ters": 737, "\u0120about": 738, "att": 739, "\u0120film": 740, "\u0120ac": 741, "ember": 742, "ug": 743, "\u0120em": 744, "reat": 745, "\u0120through": 746, "\u0120act": 747, "ollow": 748, "\u0120season": 749, "\u0120work": 750, "ween": 751, "\u0120between": 752, "\u0120199": 753, "\u0120li": 754, "\u0120again": 755, "ick": 756, "\u0120mon": 757, "\u0120follow": 758, "\u0120app": 759, "\u0120than": 760, "\u0120sy": 761, "\u0120end": 762, "\u0120ma": 763, "\u0120produ": 764, "\u0120bu": 765, "\u0120writ": 766, "ational": 767, "ular": 768, "ral": 769, "\u0120day": 770, "\u0120win": 771, "ck": 772, "ict": 773, "\u0120num": 774, "\u0120high": 775, "ft": 776, "\u0120spec": 777, "\u0120rele": 778, "\u0120sub": 779, "\u0120lar": 780, "\u0120lo": 781, "hip": 782, "iew": 783, "\u0120ret": 784, "eric": 785, "\u0120do": 786, "fore": 787, "ision": 788, "\u0120pos": 789, "\u0120def": 790, "\u0120second": 791, "ames": 792, "\u012000": 793, "cted": 794, "ons": 795, "\u0120north": 796, "olog": 797, "\u0120bro": 798, "\u0120gu": 799, "\u0120alb": 800, "ning": 801, "ph": 802, "ished": 803, "\u0120where": 804, "\u0120four": 805, "\u0120pres": 806, "\u0120made": 807, "\u0120inc": 808, "ury": 809, "\u0120publ": 810, "ss": 811, "\u0120city": 812, "\u0120sa": 813, "\u0120ent": 814, "\u0120loc": 815, "\u0120world": 816, "\u0120americ": 817, "\u0120ph": 818, "ating": 819, "\u0120such": 820, "end": 821, "\u0120ele": 822, "\u0120album": 823, "\u0120south": 824, "ne": 825, "\u0120before": 826, "\u0120sur": 827, "\u0120cap": 828, "ived": 829, "ific": 830, "\u0120z": 831, "ual": 832, "\u0120ep": 833, "\u0120call": 834, "\u0120used": 835, "ll": 836, "\u0120series": 837, "tern": 838, "hes": 839, "iel": 840, "\u0120appe": 841, "ane": 842, "ics": 843, "ily": 844, "\u0120sever": 845, "\u01200": 846, "\u0120supp": 847, "\u0120sing": 848, "\u0120gener": 849, "\u0120op": 850, "rop": 851, "\u0120howe": 852, "\u0120pol": 853, "\u0120being": 854, "\u0120000": 855, "\u0120years": 856, "\u0120both": 857, "\u0120many": 858, "\u0120found": 859, "\u0120sm": 860, "\u0120these": 861, "\u0120set": 862, "\u0120hist": 863, "\u0120stud": 864, "\u0120sim": 865, "\u012010": 866, "\u0120air": 867, "\u0120rev": 868, "\u0120back": 869, "\u0120ed": 870, "\u0120trans": 871, "\u0120dec": 872, "ars": 873, "io": 874, "\u0120however": 875, "\u0120count": 876, "\u0120rep": 877, "ife": 878, "\u0120add": 879, "ale": 880, "ird": 881, "iver": 882, "int": 883, "\u0120dire": 884, "\u0120will": 885, "\u0120long": 886, "\u0120well": 887, "\u0120sch": 888, "\u0120rece": 889, "ute": 890, "other": 891, "ained": 892, "\u0120pop": 893, "ten": 894, "\u0120number": 895, "\u012012": 896, "ised": 897, "\u0120dep": 898, "ities": 899, "igin": 900, "ert": 901, "\u0120bel": 902, "\u0120dr": 903, "\u0120then": 904, "ause": 905, "ode": 906, "ys": 907, "\u0120arm": 908, "\u0120batt": 909, "\u0120div": 910, "\u0120origin": 911, "\u0120art": 912, "velop": 913, "\u0120desc": 914, "\u0120ter": 915, "ines": 916, "li": 917, "\u0120early": 918, "\u0120cre": 919, "ise": 920, "\u0120music": 921, "ton": 922, "\u0120mill": 923, "\u0120inv": 924, "its": 925, "\u0120state": 926, "\u0120epis": 927, "ince": 928, "\u0120charac": 929, "\u0120brit": 930, "hn": 931, "\u0120several": 932, "ject": 933, "ank": 934, "\u0120perform": 935, "\u0120main": 936, "orn": 937, "\u0120including": 938, "\u0120against": 939, "\u012016": 940, "\u0120inst": 941, "\u0120ste": 942, "\u0120develop": 943, "\u0120/": 944, "\u0120ob": 945, "\u0120known": 946, "\u0120port": 947, "row": 948, "\u0120became": 949, "\u0120team": 950, "\u0120sl": 951, "air": 952, "\u0120inf": 953, "\u0120\u00e2\u0122\u0136": 954, "ident": 955, "urch": 956, "ield": 957, "ins": 958, "\u0120nov": 959, "\u0120crit": 960, "ures": 961, "\u0120198": 962, "ann": 963, "\u0120mil": 964, "ather": 965, "\u0120show": 966, "\u0120est": 967, "\u0120united": 968, "iet": 969, "ful": 970, "ower": 971, "\u0120oper": 972, "ern": 973, "\u0120const": 974, "though": 975, "\u0120although": 976, "\u0120str": 977, "ement": 978, "\u012015": 979, "\u0120century": 980, "\u0120john": 981, "\u0120old": 982, "\u012011": 983, "\u0120dist": 984, "\u0120lead": 985, "led": 986, "\u0120land": 987, "ool": 988, "\u0120chr": 989, "any": 990, "\u012017": 991, "uc": 992, "und": 993, "\u0120imp": 994, "\u0120met": 995, "\u0120following": 996, "ork": 997, "\u0120sign": 998, "der": 999, "ative": 1000, "vern": 1001, "up": 1002, "til": 1003, "\u0120down": 1004, "\u0120though": 1005, "\u0120contin": 1006, "\u0120run": 1007, "\u0120care": 1008, "ared": 1009, "\u0120194": 1010, "yl": 1011, "\u0120ship": 1012, "\u0120like": 1013, "\u0120comple": 1014, "\u0120exp": 1015, "\u0120dif": 1016, "elf": 1017, "\u0120ke": 1018, "ley": 1019, "\u0120open": 1020, "ost": 1021, "\u0120mat": 1022, "ually": 1023, "\u0120var": 1024, "\u0120near": 1025, "\u0120began": 1026, "\u0120196": 1027, "\u0120along": 1028, "ired": 1029, "az": 1030, "\u0120disc": 1031, "\u0120govern": 1032, "\u0120bar": 1033, "ments": 1034, "ized": 1035, "els": 1036, "\u0120fam": 1037, "\u0120197": 1038, "\u0120because": 1039, "ains": 1040, "\u0120prov": 1041, "ross": 1042, "\u0120could": 1043, "emb": 1044, "uch": 1045, "\u0120describ": 1046, "\u0120did": 1047, "\u0120ever": 1048, "une": 1049, "\u0120six": 1050, "\u0120called": 1051, "\u0120peop": 1052, "\u0120episode": 1053, "\u0120pers": 1054, "ont": 1055, "oy": 1056, "\u0120king": 1057, "ued": 1058, "\u0120ins": 1059, "au": 1060, "\u0120dam": 1061, "son": 1062, "\u0120feat": 1063, "aking": 1064, "\u0120until": 1065, "ined": 1066, "\u0120said": 1067, "gr": 1068, "\u00c3\u00a9": 1069, "roup": 1070, "ivers": 1071, "\u0120area": 1072, "ty": 1073, "ccess": 1074, "\u0120ger": 1075, "\u0120american": 1076, "\u0120states": 1077, "\u0120design": 1078, "ah": 1079, "\u0120church": 1080, "\u0120west": 1081, "\u0120prev": 1082, "\u0120people": 1083, "\u0120group": 1084, "ove": 1085, "\u0120start": 1086, "\u0120aust": 1087, "gest": 1088, "cept": 1089, "\u0120cr": 1090, "\u0120you": 1091, "\u0120return": 1092, "\u0120maj": 1093, "ock": 1094, "ured": 1095, "\u0120since": 1096, "\u0120head": 1097, "amed": 1098, "\u0120mod": 1099, "\u0120any": 1100, "ull": 1101, "\u0120british": 1102, "ind": 1103, "\u0120pass": 1104, "\u0120adv": 1105, "\u0120ann": 1106, "\u0120each": 1107, "\u0120fo": 1108, "ange": 1109, "\u0120national": 1110, "itt": 1111, "\u0120same": 1112, "aph": 1113, "\u0120released": 1114, "\u0120offic": 1115, "ided": 1116, "\u0120hel": 1117, "\u0120eu": 1118, "\u0120own": 1119, "ists": 1120, "ially": 1121, "\u0120around": 1122, "\u0120occ": 1123, "ier": 1124, "ism": 1125, "\u0120book": 1126, "\u0120wee": 1127, "\u0120ju": 1128, "\u0120star": 1129, "ium": 1130, "\u0120aug": 1131, "\u0120km": 1132, "\u0120million": 1133, "\u0120med": 1134, "\u0120life": 1135, "\u0120use": 1136, "ible": 1137, "\u0120major": 1138, "osed": 1139, "ony": 1140, "\u0120five": 1141, "\u0120el": 1142, "\u0120success": 1143, "\u0120mag": 1144, "\u012013": 1145, "\u0120eff": 1146, "anc": 1147, "\u0120august": 1148, "\u0120road": 1149, "ouse": 1150, "\u0120miss": 1151, "\u0120best": 1152, "enn": 1153, "\u0120camp": 1154, "\u0120small": 1155, "\u0120support": 1156, "\u0120command": 1157, "\u0120conc": 1158, "\u0120town": 1159, "\u0120school": 1160, "\u0120serv": 1161, "stem": 1162, "\u0120ty": 1163, "\u0120line": 1164, "\u0120gre": 1165, "\u0120company": 1166, "\u0120character": 1167, "xt": 1168, "ues": 1169, "\u0120final": 1170, "\u0120another": 1171, "\u0120che": 1172, "\u0120195": 1173, "\u0120contro": 1174, "\u0120award": 1175, "\u0120bre": 1176, "\u0120if": 1177, "\u0120direct": 1178, "\u0120sept": 1179, "\u0120river": 1180, "\u0120public": 1181, "\u0120attack": 1182, "\u0120just": 1183, "ets": 1184, "\u0120%": 1185, "\u0120consid": 1186, "\u0120colle": 1187, "\u0120ra": 1188, "ales": 1189, "ient": 1190, "\u0120ge": 1191, "\u0120system": 1192, "\u0120great": 1193, "\u0120september": 1194, "\u0120fur": 1195, "\u0120class": 1196, "\u0120conf": 1197, "\u0120mid": 1198, "\u0120storm": 1199, "ution": 1200, "\u0120tit": 1201, "aining": 1202, "\u0120report": 1203, "\u0120hum": 1204, "uth": 1205, "\u0120prom": 1206, "\u0120ext": 1207, "\u0120large": 1208, "\u0120austral": 1209, "\u0120games": 1210, "\u0120what": 1211, "\u0120my": 1212, "ms": 1213, "\u0120ant": 1214, "ural": 1215, "\u0120gl": 1216, "\u0120cor": 1217, "\u0120black": 1218, "ven": 1219, "\u0120193": 1220, "\u0120tri": 1221, "\u0120child": 1222, "\u0120short": 1223, "\u0120water": 1224, "be": 1225, "ble": 1226, "\u0120191": 1227, "over": 1228, "\u0120la": 1229, "\u0120rest": 1230, "\u0120due": 1231, "ina": 1232, "dom": 1233, "ague": 1234, "lish": 1235, "\u0120ii": 1236, "\u0120ir": 1237, "\u0120last": 1238, "\u0120rom": 1239, "aving": 1240, "\u0120now": 1241, "aced": 1242, "\u0120june": 1243, "\u0120history": 1244, "\u0120east": 1245, "ped": 1246, "\u0120mark": 1247, "\u0120vide": 1248, "ark": 1249, "ives": 1250, "\u0120oct": 1251, "\u0120even": 1252, "\u0120late": 1253, "\u0120jan": 1254, "ash": 1255, "\u012014": 1256, "\u0120home": 1257, "\u0120name": 1258, "\u0120way": 1259, "\u0120review": 1260, "ilt": 1261, "ately": 1262, "\u0120government": 1263, "\u0120german": 1264, "\u0120build": 1265, "\u0120mov": 1266, "\u0120turn": 1267, "\u0120partic": 1268, "ats": 1269, "\u0120es": 1270, "ger": 1271, "\u0120dem": 1272, "\u0120island": 1273, "\u0120received": 1274, "ink": 1275, "\u0120christ": 1276, "ology": 1277, "\u0120accord": 1278, "ogr": 1279, "\u0120univers": 1280, "pect": 1281, "\u0120men": 1282, "ron": 1283, "ages": 1284, "\u0120described": 1285, "get": 1286, "\u0120vis": 1287, "\u0120much": 1288, "\u0120hur": 1289, "\u0120gun": 1290, "\u0120within": 1291, "\u0120track": 1292, "\u0120club": 1293, "\u0120cour": 1294, "\u0120species": 1295, "ting": 1296, "\u0120hal": 1297, "\u0120appear": 1298, "\u0120incre": 1299, "ober": 1300, "ody": 1301, "\u0120death": 1302, "hen": 1303, "uary": 1304, "by": 1305, "\u0120god": 1306, "\u0120top": 1307, "\u0120general": 1308, "ional": 1309, "rote": 1310, "\u0120intern": 1311, "cess": 1312, "\u0120family": 1313, "ility": 1314, "\u0120october": 1315, "aged": 1316, "\u0120stru": 1317, "\u0120played": 1318, "\u0120$": 1319, "gin": 1320, "ae": 1321, "\u0120arch": 1322, "ep": 1323, "\u0120x": 1324, "ner": 1325, "\u0120sw": 1326, "\u0120according": 1327, "\u0120times": 1328, "\u0120tech": 1329, "\u0120league": 1330, "sion": 1331, "\u0120took": 1332, "\u0120capt": 1333, "empt": 1334, "ropical": 1335, "ified": 1336, "aim": 1337, "ball": 1338, "\u0120third": 1339, "ants": 1340, "\u0120ref": 1341, "\u0120del": 1342, "ored": 1343, "ively": 1344, "\u0120[": 1345, "\u0120]": 1346, "\u0120power": 1347, "\u0120single": 1348, "\u0120list": 1349, "..": 1350, "\u0120july": 1351, "\u0120leg": 1352, "\u012025": 1353, "\u0120soc": 1354, "\u0120wrote": 1355, "\u0120won": 1356, "ril": 1357, "\u0120mor": 1358, "iving": 1359, "\u0120organ": 1360, "\u0120video": 1361, "ption": 1362, "\u0120prote": 1363, "\u0120constru": 1364, "\u0120differ": 1365, "ians": 1366, "\u0120arr": 1367, "\u0120white": 1368, "\u0120...": 1369, "\u0120march": 1370, "\u0120event": 1371, "\u0120appro": 1372, "\u0120allow": 1373, "\u0120stre": 1374, "\u0120based": 1375, "\u0120dest": 1376, "ides": 1377, "\u0120av": 1378, "\u0120april": 1379, "\u0120poss": 1380, "ai": 1381, "erv": 1382, "\u0120story": 1383, "\u0120tem": 1384, "\u0120nort": 1385, "iam": 1386, "ling": 1387, "\u0120euro": 1388, "\u0120fore": 1389, "oss": 1390, "iod": 1391, "ital": 1392, "\u0120included": 1393, "\u0120bas": 1394, "\u0120val": 1395, "\u0120common": 1396, "\u0120red": 1397, "ctions": 1398, "\u0120person": 1399, "\u0120addition": 1400, "\u0120sk": 1401, "hel": 1402, "ime": 1403, "omin": 1404, "\u0120left": 1405, "\u0120belie": 1406, "\u0120york": 1407, "\u0120estab": 1408, "\u0120january": 1409, "\u0120har": 1410, "ham": 1411, "\u0120those": 1412, "ances": 1413, "tend": 1414, "\u0120named": 1415, "\u012030": 1416, "ically": 1417, "\u0120division": 1418, "akes": 1419, "\u0120very": 1420, "ament": 1421, "\u0120expl": 1422, "\u0120attempt": 1423, "\u0120england": 1424, "\u0120position": 1425, "\u0120period": 1426, "\u0120foot": 1427, "\u0120house": 1428, "\u0120resp": 1429, "\u0120pat": 1430, "\u0120hand": 1431, "\u0120previous": 1432, "\u0120vill": 1433, "\u0120dece": 1434, "ops": 1435, "let": 1436, "\u0120bus": 1437, "ster": 1438, "ilar": 1439, "\u0120sol": 1440, "ched": 1441, "\u0120eas": 1442, "\u0120original": 1443, "aur": 1444, "\u0120som": 1445, "ently": 1446, "ps": 1447, "\u0120vict": 1448, "bo": 1449, "\u0120auth": 1450, "\u0120heav": 1451, "\u0120november": 1452, "ulation": 1453, "pend": 1454, "\u0120month": 1455, "\u0120commun": 1456, "\u0120place": 1457, "\u0120kill": 1458, "raft": 1459, "que": 1460, "\u0120europe": 1461, "\u0120light": 1462, "med": 1463, "\u0120champ": 1464, "\u0120field": 1465, "\u0120tropical": 1466, "\u0120cal": 1467, "\u0120stand": 1468, "mber": 1469, "mer": 1470, "ience": 1471, "ards": 1472, "\u0120192": 1473, "\u0120december": 1474, "\u0120similar": 1475, "ds": 1476, "\u0120built": 1477, "ness": 1478, "\u0120sug": 1479, "\u0120opp": 1480, "\u0120sent": 1481, "\u0120real": 1482, "\u0120tele": 1483, "ple": 1484, "\u0120milit": 1485, "\u0120among": 1486, "\u0120songs": 1487, "ached": 1488, "\u0120hurric": 1489, "\u0120make": 1490, "\u0120led": 1491, "\u0120wom": 1492, "\u0120present": 1493, "\u0120init": 1494, "ature": 1495, "\u0120further": 1496, "ense": 1497, "arch": 1498, "\u0120local": 1499, "\u0120player": 1500, "ences": 1501, "\u0120cur": 1502, "iven": 1503, "\u0120law": 1504, "\u0120requ": 1505, "na": 1506, "\u0120100": 1507, "\u0120still": 1508, "eder": 1509, "\u0120tour": 1510, "min": 1511, "ged": 1512, "\u0120er": 1513, "iation": 1514, "ene": 1515, "\u0120far": 1516, "por": 1517, "\u0120next": 1518, "\u0120\u00c2": 1519, "\u0120squ": 1520, "\u0120je": 1521, "ention": 1522, "\u01202009": 1523, "gy": 1524, "\u01202010": 1525, "bs": 1526, "\u0120cle": 1527, "aster": 1528, "\u0120youn": 1529, "\u0120fri": 1530, "\u0120view": 1531, "\u0120trad": 1532, "\u0120bill": 1533, "\u01202008": 1534, "\u0120super": 1535, "\u0120tot": 1536, "ison": 1537, "\u0120post": 1538, "\u0120pri": 1539, "\u0120exper": 1540, "\u0120rock": 1541, "\u0120iss": 1542, "br": 1543, "\u0120brig": 1544, "\u0120role": 1545, "\u0120repl": 1546, "ik": 1547, "\u0120plan": 1548, "\u0120histor": 1549, "\u0120import": 1550, "\u0120coun": 1551, "\u0120came": 1552, "rench": 1553, "\u0120side": 1554, "\u0120every": 1555, "\u0120low": 1556, "\u0120fre": 1557, "\u0120love": 1558, "ograph": 1559, "\u0120right": 1560, "\u0120band": 1561, "\u0120say": 1562, "\u0120moved": 1563, "\u0120career": 1564, "\u0120cast": 1565, "\u0120university": 1566, "\u0120without": 1567, "ival": 1568, "\u0120effect": 1569, "\u0120polit": 1570, "app": 1571, "ott": 1572, "\u0120ho": 1573, "\u0120often": 1574, "aken": 1575, "\u0120park": 1576, "\u0120recorded": 1577, "\u0120few": 1578, "\u0120tre": 1579, "\u0120obs": 1580, "aff": 1581, "\u0120rad": 1582, "\u0120hurricane": 1583, "ories": 1584, "\u0120contr": 1585, "\u0120military": 1586, "\u0120chart": 1587, "yle": 1588, "eng": 1589, "vers": 1590, "\u0120caus": 1591, "bert": 1592, "\u0120suggest": 1593, "\u0120memb": 1594, "\u0120order": 1595, "\u0120considered": 1596, "\u0120battal": 1597, "\u0120prof": 1598, "\u0120less": 1599, "\u0120army": 1600, "\u0120see": 1601, "\u0120production": 1602, "\u0120project": 1603, "\u0120release": 1604, "ady": 1605, "ery": 1606, "atter": 1607, "ister": 1608, "\u0120assoc": 1609, "\u01202007": 1610, "\u0120former": 1611, "elt": 1612, "\u0120infl": 1613, "\u0120level": 1614, "\u0120deb": 1615, "\u0120result": 1616, "\u0120cy": 1617, "ior": 1618, "\u0120sold": 1619, "\u0120english": 1620, "\u0120beh": 1621, "\u0120week": 1622, "uted": 1623, "\u0120fire": 1624, "ots": 1625, "\u0120french": 1626, "ico": 1627, "\u0120prop": 1628, "\u0120never": 1629, "\u0120wal": 1630, "\u0120fun": 1631, "\u0120claim": 1632, "\u0120battle": 1633, "thing": 1634, "\u0120point": 1635, "\u0120refer": 1636, "\u0120take": 1637, "\u0120det": 1638, "\u0120repres": 1639, "\u0120published": 1640, "wards": 1641, "\u0120written": 1642, "\u0120different": 1643, "\u0120half": 1644, "self": 1645, "\u0120continued": 1646, "\u0120ha": 1647, "inc": 1648, "\u0120ang": 1649, "\u0120roy": 1650, "gram": 1651, "\u0120days": 1652, "ves": 1653, "\u0120prot": 1654, "\u0120feder": 1655, "uss": 1656, "\u0120forces": 1657, "\u0120held": 1658, "\u0120author": 1659, "\u0120international": 1660, "\u0120manag": 1661, "side": 1662, "\u0120cro": 1663, "\u0120defe": 1664, "\u0120night": 1665, "\u0120route": 1666, "\u0120strong": 1667, "\u0120desp": 1668, "ler": 1669, "\u0120pit": 1670, "\u012021": 1671, "\u0120cat": 1672, "\u0120nav": 1673, "\u0120force": 1674, "\u0120good": 1675, "\u0120press": 1676, "ret": 1677, "par": 1678, "ission": 1679, "\u0120friend": 1680, "iment": 1681, "ches": 1682, "\u0120sound": 1683, "\u0120cult": 1684, "\u0120stat": 1685, "\u0120cross": 1686, "iter": 1687, "\u0120jack": 1688, "\u0120hy": 1689, "vision": 1690, "idge": 1691, "\u0120county": 1692, "\u0120gold": 1693, "\u0120having": 1694, "\u0120chang": 1695, "\u0120compet": 1696, "estern": 1697, "\u0120wat": 1698, "\u012023": 1699, "erc": 1700, "\u0120control": 1701, "\u0120throughout": 1702, "\u0120members": 1703, "\u0120champions": 1704, "\u01202011": 1705, "itar": 1706, "\u0120become": 1707, "\u0120popular": 1708, "\u0120particular": 1709, "\u0120sum": 1710, "ensive": 1711, "raw": 1712, "\u0120children": 1713, "\u01202006": 1714, "rodu": 1715, "line": 1716, "\u0120grand": 1717, "\u0120comb": 1718, "\u0120total": 1719, "\u0120canad": 1720, "\u0120version": 1721, "\u0120development": 1722, "arn": 1723, "\u0120ec": 1724, "ring": 1725, "\u0120title": 1726, "\u0120pa": 1727, "bru": 1728, "ising": 1729, "\u0120lost": 1730, "ices": 1731, "ize": 1732, "me": 1733, "\u0120&": 1734, "\u0120country": 1735, "augh": 1736, "\u0120net": 1737, "enc": 1738, "\u012024": 1739, "ford": 1740, "\u0120highway": 1741, "\u0120fle": 1742, "\u0120roman": 1743, "\u0120ham": 1744, "\u0120cover": 1745, "\u0120pal": 1746, "\u0120inde": 1747, "\u0120despite": 1748, "\u0120pur": 1749, "\u0120litt": 1750, "ering": 1751, "\u0120program": 1752, "\u0120fem": 1753, "roy": 1754, "\u0120live": 1755, "\u012026": 1756, "\u012022": 1757, "\u0120fac": 1758, "\u0120decl": 1759, "\u0120souther": 1760, "\u0120eight": 1761, "\u0120little": 1762, "\u0120sit": 1763, "day": 1764, "\u0120southern": 1765, "ob": 1766, "\u0120fort": 1767, "ston": 1768, "\u0120want": 1769, "\u0120febru": 1770, "\u0120february": 1771, "\u0120critic": 1772, "\u0120rich": 1773, "itions": 1774, "\u0120represent": 1775, "\u0120central": 1776, "\u0120reported": 1777, "\u0120mount": 1778, "\u0120activ": 1779, "\u0120don": 1780, "\u0120gave": 1781, "\u0120produced": 1782, "\u0120geor": 1783, "ylan": 1784, "\u0120tro": 1785, "sh": 1786, "\u0120human": 1787, "\u0120!": 1788, "\u0120dylan": 1789, "co": 1790, "\u0120site": 1791, "\u0120influ": 1792, "osp": 1793, "\u0120ord": 1794, "\u0120free": 1795, "ailed": 1796, "\u0120once": 1797, "ara": 1798, "\u01202012": 1799, "\u0120television": 1800, "\u0120writing": 1801, "\u0120given": 1802, "\u0120norther": 1803, "iety": 1804, "\u0120hor": 1805, "\u0120hero": 1806, "ried": 1807, "\u0120modern": 1808, "\u0120lab": 1809, "apan": 1810, "\u0120president": 1811, "\u0120service": 1812, "\u0120coast": 1813, "ertain": 1814, "\u0120ground": 1815, "\u0120young": 1816, "che": 1817, "ama": 1818, "\u012028": 1819, "\u0120northern": 1820, "\u0120sun": 1821, "ression": 1822, "\u0120age": 1823, "ney": 1824, "\u0120match": 1825, "\u0120vi": 1826, "\u0120equ": 1827, "\u0120signific": 1828, "\u0120japan": 1829, "fect": 1830, "\u0120invol": 1831, "\u0120include": 1832, "ead": 1833, "\u0120mass": 1834, "\u0120ce": 1835, "\u0120arg": 1836, "\u0120western": 1837, "ably": 1838, "\u0120lim": 1839, "xim": 1840, "\u0120ve": 1841, "\u0120ill": 1842, "\u0120ball": 1843, "\u0120royal": 1844, "\u0120ly": 1845, "\u0120mi": 1846, "\u0120battalion": 1847, "\u0120burn": 1848, "ours": 1849, "\u0120afric": 1850, "rent": 1851, "\u0120seven": 1852, "\u0120making": 1853, "\u0120should": 1854, "\u0120cou": 1855, "\u0120body": 1856, "\u0120away": 1857, "atic": 1858, "\u0120eastern": 1859, "\u0120struct": 1860, "\u0120dou": 1861, "\u0120rac": 1862, "\u0120wood": 1863, "\u0120dav": 1864, "\u00c3\u00a1": 1865, "\u0120occur": 1866, "\u0120establ": 1867, "\u0120techn": 1868, "\u01202013": 1869, "\u0120too": 1870, "\u0120tor": 1871, "\u0120look": 1872, "\u0120seen": 1873, "\u00c4\u0123": 1874, "ades": 1875, "craft": 1876, "\u0120pra": 1877, "\u0120stated": 1878, "\u0120fif": 1879, "play": 1880, "ither": 1881, "\u0120ft": 1882, "\u0120ten": 1883, "\u0120returned": 1884, "\u0120father": 1885, "amb": 1886, "\u0120across": 1887, "sequ": 1888, "\u0120instead": 1889, "ax": 1890, "\u0120dev": 1891, "\u012050": 1892, "\u0120ships": 1893, "\u0120destroy": 1894, "\u0120guitar": 1895, "\u0120established": 1896, "ator": 1897, "\u0120earli": 1898, "\u0120prim": 1899, "ones": 1900, "ological": 1901, "\u0120ire": 1902, "\u0120using": 1903, "\u0120news": 1904, "ape": 1905, "\u0120cas": 1906, "\u0120bur": 1907, "\u0120typ": 1908, "\u0120conv": 1909, "ploy": 1910, "fic": 1911, "\u0120fact": 1912, "\u0120190": 1913, "com": 1914, "\u0120construction": 1915, "inted": 1916, "\u0120population": 1917, "\u0120full": 1918, "\u0120son": 1919, "\u0120america": 1920, "\u0120noted": 1921, "\u0120announ": 1922, "\u0120championship": 1923, "\u0120hig": 1924, "\u0120broad": 1925, "ese": 1926, "\u0120reached": 1927, "\u0120introdu": 1928, "\u0120developed": 1929, "\u012027": 1930, "\u0120building": 1931, "\u0120bi": 1932, "\u0120football": 1933, "ground": 1934, "\u0120thought": 1935, "nt": 1936, "\u0120civ": 1937, "aint": 1938, "\u0120mix": 1939, "\u0120players": 1940, "\u0120ireland": 1941, "used": 1942, "ument": 1943, "\u0120brigade": 1944, "\u0120mean": 1945, "\u0120various": 1946, "\u0120mich": 1947, "\u0120works": 1948, "\u0120significant": 1949, "\u0120lond": 1950, "\u0120engine": 1951, "ille": 1952, "\u0120important": 1953, "\u0120vir": 1954, "most": 1955, "\u0120trav": 1956, "\u0120read": 1957, "\u0120performance": 1958, "\u0120miles": 1959, "rew": 1960, "\u0120william": 1961, "\u0120london": 1962, "utes": 1963, "\u0120find": 1964, "\u0120indust": 1965, "\u0120himself": 1966, "\u0120discover": 1967, "\u0120kingdom": 1968, "\u0120ide": 1969, "\u0120style": 1970, "\u0120need": 1971, "\u00c3\u0143": 1972, "iness": 1973, "work": 1974, "\u0120fig": 1975, "\u0120bird": 1976, "ened": 1977, "\u0120front": 1978, "\u0120performed": 1979, "idence": 1980, "\u0120felt": 1981, "\u0120elect": 1982, "\u0120australia": 1983, "ked": 1984, "ended": 1985, "\u0120fall": 1986, "\u0120atl": 1987, "\u0120official": 1988, "\u0120brown": 1989, "\u0120cir": 1990, "\u0120tur": 1991, "lo": 1992, "\u0120interest": 1993, "\u0120put": 1994, "\u0120feet": 1995, "\u0120cup": 1996, "\u0120areas": 1997, "\u0120events": 1998, "\u0120suff": 1999, "\u0120went": 2000, "mp": 2001, "itive": 2002, "\u0120does": 2003, "\u0120civil": 2004, "\u0120phil": 2005, "\u0120od": 2006, "\u0120begin": 2007, "\u0120vol": 2008, "ald": 2009, "\u0120mm": 2010, "\u0120bow": 2011, "\u0120relations": 2012, "\u0120poem": 2013, "\u0120sett": 2014, "\u0120mot": 2015, "\u0120let": 2016, "\u0120mer": 2017, "\u0120died": 2018, "\u0120mother": 2019, "ucle": 2020, "\u0120court": 2021, "ges": 2022, "\u0120relig": 2023, "\u0120range": 2024, "\u0120lang": 2025, "\u0120ol": 2026, "osaur": 2027, "ief": 2028, "\u0120di": 2029, "\u0120cer": 2030, "\u0120vo": 2031, "\u0120successful": 2032, "\u0120surv": 2033, "\u0120earth": 2034, "\u0120others": 2035, "ogn": 2036, "\u0120originally": 2037, "\u0120wall": 2038, "\u0120hen": 2039, "aign": 2040, "antic": 2041, "\u0120campaign": 2042, "reek": 2043, "field": 2044, "ript": 2045, "\u0120upon": 2046, "\u0120test": 2047, "\u0120get": 2048, "ration": 2049, "ung": 2050, "\u0120stars": 2051, "ael": 2052, "\u0120base": 2053, "\u0120novel": 2054, "\u0120started": 2055, "ization": 2056, "\u0120james": 2057, "\u0120know": 2058, "\u0120formed": 2059, "\u0120characters": 2060, "ush": 2061, "\u0120sn": 2062, "\u0120political": 2063, "gress": 2064, "\u0120profess": 2065, "\u0120hom": 2066, "\u0120sal": 2067, "ints": 2068, "\u0120non": 2069, "iting": 2070, "\u0120women": 2071, "omb": 2072, "\u0120pred": 2073, "\u0120special": 2074, "ination": 2075, "onom": 2076, "\u0120gal": 2077, "\u0120promot": 2078, "ship": 2079, "ying": 2080, "\u0120scient": 2081, "af": 2082, "\u0120tradition": 2083, "cil": 2084, "\u0120pen": 2085, "ana": 2086, "\u0120caused": 2087, "\u0120eventually": 2088, "rie": 2089, "\u0120located": 2090, "\u0120hold": 2091, "rick": 2092, "\u0120word": 2093, "\u0120rh": 2094, "\u0120director": 2095, "\u0120rese": 2096, "\u0120hill": 2097, "alth": 2098, "\u0120created": 2099, "ze": 2100, "\u0120center": 2101, "aves": 2102, "ino": 2103, "\u0120street": 2104, "\u0120critics": 2105, "\u0120able": 2106, "\u0120hot": 2107, "\u0120entire": 2108, "\u0120189": 2109, "\u0120region": 2110, "fall": 2111, "cher": 2112, "\u01202004": 2113, "iers": 2114, "isted": 2115, "\u01202005": 2116, "\u0120produc": 2117, "\u0120hol": 2118, "\u0120magaz": 2119, "\u0120aud": 2120, "\u0120anim": 2121, "less": 2122, "\u0120fight": 2123, "\u0120born": 2124, "\u0120ber": 2125, "\u0120independ": 2126, "\u0120tom": 2127, "yn": 2128, "ality": 2129, "cut": 2130, "\u0120cop": 2131, "acy": 2132, "\u0120colon": 2133, "\u0120fav": 2134, "\u0120nucle": 2135, "\u0120toget": 2136, "\u0120together": 2137, "\u0120grow": 2138, "\u0120becom": 2139, "\u0120bir": 2140, "\u0120meet": 2141, "\u0120inn": 2142, "\u0120heavy": 2143, "\u0120stri": 2144, "\u0120chap": 2145, "\u0120circ": 2146, "\u0120bay": 2147, "asing": 2148, "\u0120san": 2149, "mar": 2150, "\u0120\u00e2\u0122\u013b": 2151, "ries": 2152, "\u0120help": 2153, "aly": 2154, "\u0120redu": 2155, "ample": 2156, "\u0120diffic": 2157, "\u0120difficult": 2158, "\u0120guns": 2159, "\u0120sex": 2160, "\u0120remained": 2161, "\u0120hon": 2162, "\u0120depart": 2163, "\u0120cond": 2164, "\u0120du": 2165, "\u0120completed": 2166, "\u0120agre": 2167, "\u0120goal": 2168, "\u0120den": 2169, "\u0120nat": 2170, "\u0120nar": 2171, "\u0120scored": 2172, "\u012031": 2173, "orts": 2174, "\u0120voc": 2175, "ivid": 2176, "\u0120loss": 2177, "\u0120announced": 2178, "\u0120australian": 2179, "iated": 2180, "\u0120forest": 2181, "\u0120process": 2182, "\u0120fa": 2183, "\u0120fourth": 2184, "\u0120almost": 2185, "\u0120sil": 2186, "\u0120mem": 2187, "\u0120mad": 2188, "\u0120comment": 2189, "\u0120damage": 2190, "\u0120peak": 2191, "itted": 2192, "enth": 2193, "\u0120aver": 2194, "\u0120jour": 2195, "\u0120behind": 2196, "\u0120least": 2197, "\u0120enc": 2198, "ids": 2199, "\u0120condom": 2200, "enced": 2201, "rought": 2202, "\u0120sea": 2203, "\u0120party": 2204, "\u0120cell": 2205, "\u0120added": 2206, "\u0120rail": 2207, "\u0120territ": 2208, "\u012029": 2209, "\u0120accom": 2210, "\u0120mac": 2211, "\u0120coll": 2212, "ray": 2213, "ota": 2214, "ream": 2215, "\u0120killed": 2216, "\u0120months": 2217, "\u0120wife": 2218, "\u0120followed": 2219, "ki": 2220, "\u0120appeared": 2221, "bor": 2222, "\u0120squad": 2223, "\u0120ident": 2224, "\u0120quar": 2225, "\u0120relationship": 2226, "onic": 2227, "\u0120playing": 2228, "\u0120individ": 2229, "ique": 2230, "\u0120inform": 2231, "aper": 2232, "\u0120hall": 2233, "\u0120round": 2234, "\u0120sele": 2235, "\u0120sat": 2236, "\u0120david": 2237, "\u0120awards": 2238, "den": 2239, "\u0120station": 2240, "een": 2241, "\u0120recogn": 2242, "\u0120sour": 2243, "\u012040": 2244, "\u0120features": 2245, "\u0120mc": 2246, "\u0120jew": 2247, "aces": 2248, "\u0120trib": 2249, "antry": 2250, "ressed": 2251, "\u0120hard": 2252, "\u0120aircraft": 2253, "\u0120flight": 2254, "tim": 2255, "wh": 2256, "\u0120mach": 2257, "dle": 2258, "\u0120estim": 2259, "\u0120der": 2260, "ius": 2261, "\u0120ru": 2262, "\u0120bra": 2263, "\u0120card": 2264, "\u0120ach": 2265, "\u0120wind": 2266, "\u01202003": 2267, "\u0120appo": 2268, "\u0120taken": 2269, "ming": 2270, "\u0120treat": 2271, "\u0120185": 2272, "ways": 2273, "\u0120reb": 2274, "\u0120fleet": 2275, "olution": 2276, "\u0120exc": 2277, "elling": 2278, "ole": 2279, "\u0120lack": 2280, "\u01202015": 2281, "pec": 2282, "\u0120saw": 2283, "\u0120creat": 2284, "ements": 2285, "\u0120leading": 2286, "\u0120rank": 2287, "\u0120fund": 2288, "\u0120langu": 2289, "\u0120subsequ": 2290, "ully": 2291, "\u0120france": 2292, "\u0120action": 2293, "\u0120impro": 2294, "\u0120tal": 2295, "emy": 2296, "\u0120either": 2297, "\u0120separ": 2298, "\u0120mater": 2299, "\u0120proble": 2300, "\u0120served": 2301, "\u0120recording": 2302, "\u0120towards": 2303, "istic": 2304, "\u0120ul": 2305, "ida": 2306, "\u0120parli": 2307, "\u0120operations": 2308, "ography": 2309, "\u0120case": 2310, "\u0120archae": 2311, "\u0120decided": 2312, "\u0120los": 2313, "\u0120transport": 2314, "\u0120flor": 2315, "go": 2316, "\u0120elements": 2317, "ata": 2318, "\u0120clos": 2319, "\u0120wid": 2320, "\u0120rul": 2321, "\u0120interv": 2322, "\u0120soon": 2323, "\u0120draw": 2324, "\u0120past": 2325, "\u0120close": 2326, "\u0120host": 2327, "\u0120records": 2328, "\u0120robert": 2329, "\u0120prem": 2330, "my": 2331, "\u0120generally": 2332, "\u0120magazine": 2333, "cent": 2334, "\u0120commerc": 2335, "\u0120believed": 2336, "\u0120accept": 2337, "igned": 2338, "\u0120move": 2339, "ctor": 2340, "ency": 2341, "\u0120current": 2342, "\u0120flood": 2343, "\u0120parliament": 2344, "\u0120compos": 2345, "\u0120tow": 2346, "\u0120cost": 2347, "iction": 2348, "\u0120council": 2349, "\u0120female": 2350, "rest": 2351, "\u0120saf": 2352, "rict": 2353, "\u0120meas": 2354, "\u0120carey": 2355, "\u0120rose": 2356, "ought": 2357, "aching": 2358, "\u0120laun": 2359, "ned": 2360, "\u0120kh": 2361, "\u0120example": 2362, "ude": 2363, "\u0120regular": 2364, "\u0120respect": 2365, "\u0120infantry": 2366, "\u0120gir": 2367, "\u0120manager": 2368, "\u0120conn": 2369, "\u0120commission": 2370, "\u0120mex": 2371, "\u0120points": 2372, "\u0120domin": 2373, "\u0120business": 2374, "\u0120q": 2375, "\u0120cru": 2376, "\u0120188": 2377, "\u0120fly": 2378, "\u0120weeks": 2379, "\u0120rather": 2380, "\u0120bal": 2381, "su": 2382, "\u0120study": 2383, "\u0120stop": 2384, "nes": 2385, "\u0120european": 2386, "\u0120outside": 2387, "\u0120exe": 2388, "\u0120federer": 2389, "odes": 2390, "\u0120opened": 2391, "\u0120educ": 2392, "ye": 2393, "ators": 2394, "\u0120beg": 2395, "\u0120finished": 2396, "\u0120cut": 2397, "tended": 2398, "\u0120directed": 2399, "\u0120foc": 2400, "\u012035": 2401, "\u0120brought": 2402, "\u0120adm": 2403, "tt": 2404, "\u0120regard": 2405, "\u0120blue": 2406, "oph": 2407, "uck": 2408, "\u0120wales": 2409, "ceed": 2410, "\u0120viet": 2411, "\u0120esc": 2412, "umb": 2413, "uter": 2414, "\u0120earlier": 2415, "\u0120yard": 2416, "cast": 2417, "\u0120type": 2418, "\u0120achie": 2419, "\u0120featured": 2420, "\u0120invest": 2421, "\u0120bey": 2422, "\u0120secret": 2423, "aps": 2424, "\u0120victory": 2425, "read": 2426, "\u0120union": 2427, "lic": 2428, "\u0120stage": 2429, "ma": 2430, "\u0120ze": 2431, "\u0120member": 2432, "king": 2433, "\u0120sequ": 2434, "\u0120mos": 2435, "\u0120anti": 2436, "\u0120big": 2437, "imes": 2438, "\u0120sym": 2439, "\u0120rain": 2440, "\u0120priv": 2441, "urb": 2442, "board": 2443, "ordan": 2444, "\u0120hit": 2445, "anch": 2446, "\u0120anc": 2447, "\u0120insp": 2448, "\u0120cam": 2449, "\u0120prob": 2450, "\u0120condu": 2451, "here": 2452, "\u0120mcc": 2453, "wood": 2454, "\u0120ven": 2455, "\u0120radio": 2456, "\u0120race": 2457, "\u0120ath": 2458, "\u0120provided": 2459, "\u0120-": 2460, "\u0120association": 2461, "\u0120wil": 2462, "action": 2463, "\u0120opening": 2464, "\u0120troops": 2465, "\u0120working": 2466, "\u0120appearance": 2467, "\u0120stay": 2468, "\u0120indic": 2469, "\u0120village": 2470, "\u0120wanted": 2471, "\u0120muse": 2472, "eler": 2473, "\u0120room": 2474, "\u0120deal": 2475, "\u0120jordan": 2476, "\u0120mult": 2477, "ential": 2478, "\u0120winds": 2479, "ellow": 2480, "\u0120neg": 2481, "\u0120reason": 2482, "\u0120particularly": 2483, "\u0120186": 2484, "\u0120thom": 2485, "\u0120pract": 2486, "\u0120girl": 2487, "\u0120atlantic": 2488, "\u01202014": 2489, "\u0120minor": 2490, "\u0120pot": 2491, "\u0120initially": 2492, "\u0120reve": 2493, "\u0120summer": 2494, "\u0120rap": 2495, "\u0120depression": 2496, "\u0120norm": 2497, "\u0120crew": 2498, "ania": 2499, "\u0120evidence": 2500, "\u0120christian": 2501, "\u0120middle": 2502, "\u0120instit": 2503, "\u0120social": 2504, "medi": 2505, "ishing": 2506, "iding": 2507, "\u0120leng": 2508, "\u0120gar": 2509, "hest": 2510, "\u0120office": 2511, "\u0120largest": 2512, "\u0120mary": 2513, "\u0120clear": 2514, "sel": 2515, "\u0120come": 2516, "\u0120museum": 2517, "\u0120mur": 2518, "\u0120george": 2519, "\u0120sho": 2520, "\u0120kil": 2521, "erous": 2522, "\u0120exist": 2523, "\u0120possible": 2524, "\u0120deter": 2525, "ington": 2526, "\u0120sus": 2527, "\u0120above": 2528, "west": 2529, "ago": 2530, "\u0120cho": 2531, "\u0120commercial": 2532, "oring": 2533, "thod": 2534, "\u0120500": 2535, "atin": 2536, "ky": 2537, "\u0120material": 2538, "gg": 2539, "\u0120stren": 2540, "\u0120key": 2541, "onst": 2542, "\u0120yards": 2543, "\u0120space": 2544, "\u0120feel": 2545, "\u0120must": 2546, "ounted": 2547, "ugh": 2548, "ett": 2549, "val": 2550, "iff": 2551, "\u0120florida": 2552, "\u00e1\u0125": 2553, "\u0120allowed": 2554, "\u0120prior": 2555, "\u0120wild": 2556, "\u0120ban": 2557, "\u0120resul": 2558, "head": 2559, "\u0120saying": 2560, "\u0120employ": 2561, "ita": 2562, "\u0120nine": 2563, "\u0120respons": 2564, "ha": 2565, "\u0120acad": 2566, "\u0120somet": 2567, "\u0120hours": 2568, "\u0120jud": 2569, "\u0120paul": 2570, "\u0120critical": 2571, "\u0120brother": 2572, "\u0120viol": 2573, "\u0120horse": 2574, "\u0120quarter": 2575, "\u0120oliv": 2576, "ouri": 2577, "\u0120fut": 2578, "\u0120regiment": 2579, "\u0120aut": 2580, "\u0120creek": 2581, "\u0120operation": 2582, "\u0120lower": 2583, "\u0120length": 2584, "\u0120econom": 2585, "\u0120streng": 2586, "\u0120whom": 2587, "\u0120specific": 2588, "off": 2589, "\u0120reception": 2590, "\u0120research": 2591, "\u0120quick": 2592, "\u0120pain": 2593, "\u0120liter": 2594, "\u0120lik": 2595, "men": 2596, "\u0120cycl": 2597, "\u0120missouri": 2598, "\u0120seem": 2599, "\u0120worked": 2600, "\u01202001": 2601, "\u0120police": 2602, "\u0120society": 2603, "\u0120food": 2604, "\u0120designed": 2605, "\u0120poor": 2606, "oon": 2607, "ville": 2608, "\u0120community": 2609, "\u0120nomin": 2610, "aries": 2611, "\u0120pac": 2612, "\u0120previously": 2613, "\u0120sam": 2614, "sc": 2615, "\u0120doc": 2616, "\u0120break": 2617, "\u0120goals": 2618, "\u0120forced": 2619, "\u0120republ": 2620, "\u0120praised": 2621, "nal": 2622, "vert": 2623, "\u0120heart": 2624, "\u0120remains": 2625, "\u0120era": 2626, "\u0120capital": 2627, "for": 2628, "uel": 2629, "\u0120dom": 2630, "\u0120shot": 2631, "\u0120increased": 2632, "\u0120indian": 2633, "\u0120threat": 2634, "\u0120mont": 2635, "\u0120mart": 2636, "\u0120phys": 2637, "reg": 2638, "aland": 2639, "\u0120avail": 2640, "ores": 2641, "\u0120media": 2642, "\u0120interview": 2643, "rated": 2644, "\u0120stone": 2645, "\u0120187": 2646, "\u01201970": 2647, "\u0120michael": 2648, "\u0120diss": 2649, "\u0120scre": 2650, "\u0120ny": 2651, "\u0120uk": 2652, "\u0120hous": 2653, "uation": 2654, "pr": 2655, "\u0120hosp": 2656, "\u0120background": 2657, "\u0120surf": 2658, "gypt": 2659, "\u0120units": 2660, "itz": 2661, "\u0120commander": 2662, "ession": 2663, "\u0120studio": 2664, "heast": 2665, "oid": 2666, "clus": 2667, "\u0120writer": 2668, "\u0120proper": 2669, "\u0120\u00c2\u00a3": 2670, "\u0120taking": 2671, "\u0120replaced": 2672, "ula": 2673, "\u0120theat": 2674, "\u0120egypt": 2675, "\u0120face": 2676, "\u0120parts": 2677, "\u0120maint": 2678, "\u0120richard": 2679, "oney": 2680, "hens": 2681, "ributed": 2682, "ari": 2683, "\u0120navy": 2684, "lement": 2685, "\u0120industry": 2686, "je": 2687, "asion": 2688, "xas": 2689, "ving": 2690, "\u0120approxim": 2691, "\u0120subst": 2692, "\u0120assist": 2693, "erved": 2694, "anned": 2695, "\u0120religious": 2696, "abit": 2697, "\u0120dead": 2698, "olic": 2699, "\u0120commit": 2700, "\u0120section": 2701, "band": 2702, "\u0120henry": 2703, "\u0120bod": 2704, "\u0120highest": 2705, "\u0120college": 2706, "\u0120reviews": 2707, "\u0120happ": 2708, "\u0120beginning": 2709, "\u0120claimed": 2710, "\u0120estimated": 2711, "\u0120object": 2712, "\u0120\u00c2\u00b0": 2713, "\u01202000": 2714, "\u00c3\u00b3": 2715, "ste": 2716, "\u0120certain": 2717, "\u0120pie": 2718, "\u0120except": 2719, "atory": 2720, "\u0120pay": 2721, "\u0120rang": 2722, "\u0120mph": 2723, "\u0120carol": 2724, "\u0120canada": 2725, "\u0120imm": 2726, "ih": 2727, "\u0120republic": 2728, "ibility": 2729, "\u0120observ": 2730, "ites": 2731, "ulf": 2732, "\u01201990": 2733, "\u0120connect": 2734, "\u0120joined": 2735, "\u0120travel": 2736, "\u0120ox": 2737, "\u0120oldham": 2738, "\u0120japanese": 2739, "\u0120grad": 2740, "ump": 2741, "\u0120lines": 2742, "\u0120assemb": 2743, "\u012036": 2744, "\u0120placed": 2745, "\u0120green": 2746, "\u0120average": 2747, "yer": 2748, "\u0120stories": 2749, "\u0120involved": 2750, "cutive": 2751, "\u0120signed": 2752, "\u0120change": 2753, "stand": 2754, "ription": 2755, "\u0120dig": 2756, "\u0120training": 2757, "\u0120suggested": 2758, "ulated": 2759, "unk": 2760, "\u0120ren": 2761, "\u0120intens": 2762, "\u0120introduced": 2763, "\u0120increasing": 2764, "\u0120ca": 2765, "\u0120scen": 2766, "\u0120transfer": 2767, "\u0120unc": 2768, "\u0120poet": 2769, "ties": 2770, "\u0120sometimes": 2771, "elled": 2772, "\u012045": 2773, "\u0120immedi": 2774, "\u0120itself": 2775, "\u0120183": 2776, "\u0120vietn": 2777, "\u0120structure": 2778, "\u0120today": 2779, "\u0120chic": 2780, "\u0120our": 2781, "\u0120term": 2782, "\u0120inj": 2783, "\u0120occup": 2784, "\u0120arab": 2785, "\u0120olivier": 2786, "imin": 2787, "\u0120scene": 2788, "rison": 2789, "\u0120going": 2790, "\u0120protest": 2791, "\u0120complete": 2792, "aker": 2793, "\u0120athlet": 2794, "gen": 2795, "\u0120pu": 2796, "\u0120names": 2797, "\u0120bab": 2798, "\u0120give": 2799, "\u0120male": 2800, "\u0120hun": 2801, "of": 2802, "\u0120mexico": 2803, "\u0120irish": 2804, "anna": 2805, "\u0120additional": 2806, "ask": 2807, "\u0120available": 2808, "ready": 2809, "\u0120thus": 2810, "\u0120sem": 2811, "\u0120wr": 2812, "ica": 2813, "\u0120india": 2814, "\u0120amb": 2815, "back": 2816, "\u0120abs": 2817, "\u0120airport": 2818, "\u0120ran": 2819, "\u0120staff": 2820, "ining": 2821, "\u0120language": 2822, "\u0120date": 2823, "\u0120plot": 2824, "\u0120whose": 2825, "\u0120remov": 2826, "\u0120nearly": 2827, "\u0120fifth": 2828, "\u0120mal": 2829, "down": 2830, "\u0120told": 2831, "porary": 2832, "pected": 2833, "\u0120thomas": 2834, "ases": 2835, "aled": 2836, "\u0120woman": 2837, "\u0120approximately": 2838, "\u0120subject": 2839, "\u0120shows": 2840, "\u0120friends": 2841, "arily": 2842, "\u0120ast": 2843, "\u0120contem": 2844, "\u0120think": 2845, "\u012060": 2846, "\u0120emp": 2847, "\u0120dark": 2848, "\u0120dut": 2849, "\u0120damaged": 2850, "ume": 2851, "gl": 2852, "\u0120already": 2853, "\u0120establish": 2854, "\u0120surround": 2855, "\u0120appointed": 2856, "to": 2857, "\u0120rob": 2858, "\u0120native": 2859, "\u0120compan": 2860, "\u01201960": 2861, "\u0120emb": 2862, "\u0120size": 2863, "erson": 2864, "\u0120britain": 2865, "rian": 2866, "\u0120issue": 2867, "\u0120disp": 2868, "\u0120probably": 2869, "\u0120turned": 2870, "\u0120particip": 2871, "\u0120winning": 2872, "\u0120quest": 2873, "\u0120contract": 2874, "aring": 2875, "\u0120cathed": 2876, "\u0120lay": 2877, "\u0120lyric": 2878, "apt": 2879, "\u0120students": 2880, "\u0120boy": 2881, "\u0120might": 2882, "\u0120jin": 2883, "hib": 2884, "quar": 2885, "\u0120pacific": 2886, "\u0120hop": 2887, "\u0120score": 2888, "\u0120debut": 2889, "\u0120passed": 2890, "\u0120espec": 2891, "enon": 2892, "\u0120complet": 2893, "ii": 2894, "\u0120captain": 2895, "\u0120board": 2896, "\u0120admin": 2897, "\u0120lord": 2898, "\u0120better": 2899, "\u0120cad": 2900, "\u0120twent": 2901, "\u0120penn": 2902, "\u0120zealand": 2903, "\u0120upp": 2904, "\u0120network": 2905, "\u0120184": 2906, "\u0120withd": 2907, "\u0120display": 2908, "\u0120angel": 2909, "\u0120lou": 2910, "\u0120cred": 2911, "ateg": 2912, "\u0120cath": 2913, "vest": 2914, "\u0120?": 2915, "\u0120sen": 2916, "\u0120link": 2917, "\u0120overall": 2918, "\u0120visit": 2919, "\u0120mel": 2920, "\u0120deep": 2921, "inese": 2922, "\u0120forward": 2923, "\u0120especially": 2924, "osaurus": 2925, "ability": 2926, "ails": 2927, "oration": 2928, "\u0120enough": 2929, "\u0120notes": 2930, "tr": 2931, "\u0120doll": 2932, "\u0120tar": 2933, "\u0120daugh": 2934, "\u0120chinese": 2935, "\u0120failed": 2936, "zz": 2937, "\u0120dro": 2938, "\u0120bridge": 2939, "\u0120running": 2940, "\u0120mixed": 2941, "\u0120ben": 2942, "\u0120touch": 2943, "\u0120pan": 2944, "\u0120musical": 2945, "uk": 2946, "ises": 2947, "\u0120exam": 2948, "\u0120jer": 2949, "bc": 2950, "\u0120limited": 2951, "bers": 2952, "onse": 2953, "\u0120natural": 2954, "\u0120span": 2955, "\u01202002": 2956, "oke": 2957, "\u0120pet": 2958, "ires": 2959, "gar": 2960, "\u0120iii": 2961, "\u0120ordered": 2962, "rd": 2963, "nel": 2964, "\u0120slow": 2965, "\u0120future": 2966, "\u0120mic": 2967, "\u0120lake": 2968, "\u0120wheeler": 2969, "\u0120nin": 2970, "\u0120remaining": 2971, "\u0120department": 2972, "\u0120education": 2973, "\u0120spent": 2974, "\u0120peter": 2975, "\u0120changes": 2976, "\u0120moving": 2977, "\u0120arrived": 2978, "\u0120includes": 2979, "\u0120virgin": 2980, "\u0120larger": 2981, "\u0120usually": 2982, "\u0120canadian": 2983, "stein": 2984, "\u0120cathedral": 2985, "\u0120breed": 2986, "\u0120grant": 2987, "\u0120concept": 2988, "\u0120birth": 2989, "\u0120pare": 2990, "\u0120roll": 2991, "\u0120broadcast": 2992, "\u0120birds": 2993, "\u0120upper": 2994, "\u0120required": 2995, "\u0120plat": 2996, "\u0120latter": 2997, "\u0120mountain": 2998, "\u0120aff": 2999, "\u0120ali": 3000, "\u0120saint": 3001, "ilities": 3002, "orial": 3003, "lor": 3004, "\u0120decision": 3005, "onc": 3006, "\u0120voice": 3007, "\u0120fer": 3008, "\u0120remain": 3009, "\u0120affect": 3010, "\u0120response": 3011, "\u0120mr": 3012, "\u0120africa": 3013, "\u0120nature": 3014, "ference": 3015, "\u0120traff": 3016, "riage": 3017, "\u0120oly": 3018, "\u0120olymp": 3019, "agon": 3020, "\u0120prevent": 3021, "wor": 3022, "\u0120schol": 3023, "\u0120wide": 3024, "\u0120centre": 3025, "ows": 3026, "\u0120pun": 3027, "ga": 3028, "\u0120related": 3029, "\u0120feature": 3030, "ipp": 3031, "\u0120money": 3032, "ification": 3033, "\u0120comed": 3034, "\u0120mention": 3035, "ners": 3036, "\u0120self": 3037, "\u0120mounted": 3038, "\u0120professional": 3039, "\u0120corn": 3040, "\u0120cm": 3041, "\u012038": 3042, "\u0120bad": 3043, "\u0120groups": 3044, "\u0120wit": 3045, "\u0120territory": 3046, "\u0120ga": 3047, "\u0120got": 3048, "\u0120films": 3049, "\u0120supported": 3050, "isc": 3051, "\u0120blood": 3052, "\u0120rachel": 3053, "\u0120positive": 3054, "\u0120box": 3055, "\u0120larg": 3056, "\u0120science": 3057, "\u0120books": 3058, "pan": 3059, "\u0120scott": 3060, "\u0120billboard": 3061, "\u0120pressure": 3062, "\u0120ended": 3063, "\u0120living": 3064, "\u0120frequ": 3065, "\u0120dan": 3066, "\u0120oce": 3067, "\u0120health": 3068, "oo": 3069, "\u0120finally": 3070, "ching": 3071, "\u012080": 3072, "\u0120squadron": 3073, "\u0120tv": 3074, "\u0120culture": 3075, "\u0120mort": 3076, "uals": 3077, "ker": 3078, "\u0120becoming": 3079, "\u0120mom": 3080, "\u0120charles": 3081, "ifa": 3082, "\u0120temper": 3083, "zy": 3084, "under": 3085, "\u0120always": 3086, "\u0120headquar": 3087, "\u0120smaller": 3088, "\u0120provide": 3089, "\u0120shown": 3090, "\u0120haw": 3091, "\u0120gro": 3092, "sen": 3093, "kn": 3094, "onym": 3095, "inct": 3096, "\u0120log": 3097, "\u0120private": 3098, "\u0120trade": 3099, "lect": 3100, "\u01201995": 3101, "\u0120temple": 3102, "\u0120discovered": 3103, "\u0120fox": 3104, "\u0120shortly": 3105, "uments": 3106, "\u0120batter": 3107, "\u012075": 3108, "rief": 3109, "\u0120fru": 3110, "\u0120minutes": 3111, "ios": 3112, "\u0120gods": 3113, "\u0120experience": 3114, "\u0120nations": 3115, "\u0120discuss": 3116, "\u0120defeated": 3117, "\u0120bord": 3118, "\u0120jam": 3119, "\u01201980": 3120, "\u0120frank": 3121, "\u0120hair": 3122, "hou": 3123, "selves": 3124, "aut": 3125, "\u0120tax": 3126, "\u0120surface": 3127, "\u0120subsequently": 3128, "\u0120deg": 3129, "\u0120pian": 3130, "\u0120bowl": 3131, "\u0120dj": 3132, "hem": 3133, "aded": 3134, "\u0120rare": 3135, "\u0120effects": 3136, "uan": 3137, "\u0120personal": 3138, "urg": 3139, "\u0120inh": 3140, "\u0120concert": 3141, "\u0120cele": 3142, "lim": 3143, "ishop": 3144, "\u0120unit": 3145, "\u0120tell": 3146, "\u0120makes": 3147, "\u0120greater": 3148, "well": 3149, "\u0120counter": 3150, "\u0120calif": 3151, "rael": 3152, "\u0120jun": 3153, "\u0120mostly": 3154, "\u0120idea": 3155, "\u0120problems": 3156, "\u0120princ": 3157, "\u0120intended": 3158, "light": 3159, "\u0120favor": 3160, "\u0120teams": 3161, "\u0120percent": 3162, "iva": 3163, "\u0120scientology": 3164, "\u0120learn": 3165, "\u0120numbers": 3166, "\u0120keep": 3167, "\u0120vers": 3168, "\u0120collection": 3169, "\u0120captured": 3170, "\u0120largely": 3171, "\u0120und": 3172, "idents": 3173, "\u0120pil": 3174, "\u0120master": 3175, "\u0120conclud": 3176, "\u0120fest": 3177, "\u0120square": 3178, "\u0120referred": 3179, "\u0120themselves": 3180, "\u0120arrang": 3181, "pped": 3182, "\u0120queen": 3183, "\u0120likely": 3184, "kan": 3185, "\u0120metres": 3186, "\u0120primary": 3187, "acted": 3188, "\u0120wing": 3189, "ples": 3190, "\u0120constant": 3191, "\u0120californ": 3192, "\u0120hus": 3193, "\u0120machine": 3194, "\u0120haifa": 3195, "\u0120method": 3196, "\u0120iron": 3197, "\u0120market": 3198, "\u0120russ": 3199, "\u0120sha": 3200, "\u01202016": 3201, "\u0120croat": 3202, "\u0120whole": 3203, "\u0120tenn": 3204, "\u0120gall": 3205, "\u0120consist": 3206, "\u0120sev": 3207, "key": 3208, "\u0120yet": 3209, "\u0120guard": 3210, "\u0120ded": 3211, "\u0120traffic": 3212, "\u0120oppos": 3213, "\u0120sov": 3214, "\u0120xenon": 3215, "\u0120location": 3216, "\u0120cause": 3217, "ror": 3218, "\u0120tower": 3219, "\u0120entered": 3220, "\u0120pow": 3221, "\u0120om": 3222, "ams": 3223, "\u0120dyn": 3224, "\u0120portug": 3225, "\u0120constructed": 3226, "\u0120emer": 3227, "\u0120pair": 3228, "iser": 3229, "\u0120sand": 3230, "\u0120contains": 3231, "\u0120ott": 3232, "\u0120magn": 3233, "\u0120ale": 3234, "\u0120bomb": 3235, "\u0120israel": 3236, "\u0120script": 3237, "\u0120majority": 3238, "\u0120lyrics": 3239, "\u0120listed": 3240, "\u0120headquarters": 3241, "\u0120\u00c3": 3242, "\u0120morning": 3243, "oor": 3244, "\u0120greatest": 3245, "\u0120fail": 3246, "\u0120ranked": 3247, "\u0120adop": 3248, "\u0120aer": 3249, "\u0120ocean": 3250, "\u0120starting": 3251, "\u0120leaving": 3252, "\u0120cann": 3253, "\u0120chief": 3254, "\u0120row": 3255, "\u0120ray": 3256, "\u0120anal": 3257, "era": 3258, "\u0120controll": 3259, "\u01201999": 3260, "oman": 3261, "\u0120dum": 3262, "gian": 3263, "atively": 3264, "\u0120officers": 3265, "\u0120equip": 3266, "\u0120os": 3267, "\u0120whether": 3268, "\u0120information": 3269, "\u0120ross": 3270, "\u0120election": 3271, "\u0120studies": 3272, "\u0120galvest": 3273, "\u0120galveston": 3274, "ria": 3275, "\u0120ultim": 3276, "\u0120companies": 3277, "\u0120van": 3278, "\u0120brief": 3279, "\u0120competition": 3280, "\u01201950": 3281, "\u0120tourn": 3282, "ba": 3283, "\u0120fans": 3284, "ergy": 3285, "\u0120jewish": 3286, "\u0120create": 3287, "\u0120journal": 3288, "ken": 3289, "ander": 3290, "\u0120fighting": 3291, "\u0120poly": 3292, "mon": 3293, "\u0120changed": 3294, "\u0120kr": 3295, "\u0120newsp": 3296, "\u0120celebr": 3297, "\u012070": 3298, "\u0120brad": 3299, "\u0120runs": 3300, "\u0120standard": 3301, "\u0120theme": 3302, "\u0120episodes": 3303, "\u0120soldiers": 3304, "\u0120proposed": 3305, "\u0120graph": 3306, "\u0120forms": 3307, "\u0120administ": 3308, "ously": 3309, "\u012033": 3310, "\u0120concern": 3311, "\u0120liver": 3312, "atops": 3313, "\u0120takes": 3314, "\u0120lived": 3315, "\u0120color": 3316, "\u0120plans": 3317, "\u0120ple": 3318, "omm": 3319, "\u0120attr": 3320, "\u0120agreed": 3321, "\u0120shell": 3322, "\u0120artist": 3323, "\u0120influence": 3324, "mas": 3325, "\u0120launched": 3326, "\u0120committe": 3327, "\u0120lady": 3328, "\u0120independent": 3329, "pool": 3330, "\u0120movement": 3331, "\u0120meaning": 3332, "\u0120singles": 3333, "\u0120bud": 3334, "urity": 3335, "\u0120your": 3336, "\u0120access": 3337, "etic": 3338, "change": 3339, "\u0120bring": 3340, "cing": 3341, "teen": 3342, "\u0120screen": 3343, "\u0120bound": 3344, "\u0120california": 3345, "\u0120increase": 3346, "\u0120constit": 3347, "\u0120rat": 3348, "\u0120gi": 3349, "\u0120assigned": 3350, "\u0120lif": 3351, "illery": 3352, "\u0120quickly": 3353, "isions": 3354, "\u0120mole": 3355, "\u0120compared": 3356, "\u0120reach": 3357, "\u0120minute": 3358, "\u0120catholic": 3359, "aches": 3360, "\u0120traditional": 3361, "lands": 3362, "\u0120cra": 3363, "\u0120true": 3364, "\u0120artillery": 3365, "\u0120determ": 3366, "\u0120rein": 3367, "\u0120spir": 3368, "\u0120sixth": 3369, "andon": 3370, "\u0120chicago": 3371, "\u0120trees": 3372, "\u0120occurred": 3373, "outh": 3374, "\u0120double": 3375, "\u0120vot": 3376, "\u0120villa": 3377, "\u0120syn": 3378, "\u0120meant": 3379, "\u0120here": 3380, "eth": 3381, "\u0120valley": 3382, "\u0120crick": 3383, "acing": 3384, "\u0120inside": 3385, "\u0120focus": 3386, "\u0120hospital": 3387, "\u0120things": 3388, "\u0120leave": 3389, "icated": 3390, "\u0120ital": 3391, "\u0120400": 3392, "\u0120ens": 3393, "icted": 3394, "\u0120env": 3395, "\u0120corps": 3396, "\u0120revolution": 3397, "\u0120destroyed": 3398, "\u0120defeat": 3399, "\u0120serious": 3400, "\u0120request": 3401, "umn": 3402, "\u0120victor": 3403, "\u0120services": 3404, "\u0120phot": 3405, "\u0120latin": 3406, "ging": 3407, "\u0120investig": 3408, "\u0120appears": 3409, "\u012032": 3410, "\u0120speed": 3411, "\u0120fol": 3412, "\u0120nix": 3413, "\u0120condoms": 3414, "\u0120done": 3415, "\u0120ign": 3416, "\u0120consider": 3417, "\u0120longer": 3418, "\u0120schools": 3419, "\u0120sched": 3420, "\u0120archit": 3421, "\u0120tons": 3422, "\u0120kick": 3423, "\u0120contemporary": 3424, "\u0120acqu": 3425, "\u0120awarded": 3426, "\u0120asked": 3427, "\u0120enter": 3428, "\u01201940": 3429, "\u0120alice": 3430, "ortun": 3431, "\u0120complex": 3432, "\u0120architect": 3433, "\u0120source": 3434, "\u0120scot": 3435, "bar": 3436, "\u0120hund": 3437, "\u0120hundred": 3438, "\u00c3\u00b3n": 3439, "\u0120carried": 3440, "\u0120something": 3441, "ca": 3442, "\u0120aw": 3443, "\u0120purch": 3444, "pre": 3445, "\u0120rapid": 3446, "\u0120daughter": 3447, "\u0120initial": 3448, "\u0120beat": 3449, "\u0120horn": 3450, "ny": 3451, "\u0120cand": 3452, "\u0120cyclone": 3453, "\u0120proteins": 3454, "\u0120fow": 3455, "\u0120writers": 3456, "\u0120progress": 3457, "\u0120ending": 3458, "\u0120buildings": 3459, "\u0120bul": 3460, "\u0120conducted": 3461, "\u01201998": 3462, "\u0120300": 3463, "\u0120dism": 3464, "\u0120marriage": 3465, "\u0120mas": 3466, "\u0120ancient": 3467, "\u0120thick": 3468, "\u0120simp": 3469, "\u0120district": 3470, "\u0120twenty": 3471, "\u0120annual": 3472, "\u0120status": 3473, "\u0120polish": 3474, "\u0120associated": 3475, "\u0120path": 3476, "\u012090": 3477, "\u0120burns": 3478, "\u0120empire": 3479, "\u0120ess": 3480, "\u0120fant": 3481, "\u0120account": 3482, "\u01201930": 3483, "\u0120chall": 3484, "\u0120african": 3485, "\u0120sav": 3486, "\u0120step": 3487, "\u0120image": 3488, "\u0120throw": 3489, "\u0120minister": 3490, "\u0120alkan": 3491, "\u0120ram": 3492, "ocks": 3493, "\u0120married": 3494, "\u0120unable": 3495, "\u0120conserv": 3496, "\u0120conference": 3497, "\u0120commented": 3498, "lin": 3499, "itation": 3500, "\u01201993": 3501, "itude": 3502, "\u0120albums": 3503, "\u0120husband": 3504, "\u0120individual": 3505, "\u0120flow": 3506, "het": 3507, "\u0120spring": 3508, "\u0120dra": 3509, "\u0120numerous": 3510, "\u0120tay": 3511, "\u0120+": 3512, "\u0120bank": 3513, "\u0120bol": 3514, "\u0120imag": 3515, "\u0120scenes": 3516, "\u0120nixon": 3517, "\u0120castle": 3518, "room": 3519, "\u0120liverpool": 3520, "itor": 3521, "uf": 3522, "\u0120habit": 3523, "anas": 3524, "\u0120chann": 3525, "\u0120positions": 3526, "\u0120crown": 3527, "tar": 3528, "\u0120anth": 3529, "\u0120producer": 3530, "\u0120somers": 3531, "\u0120ow": 3532, "\u0120inspired": 3533, "ee": 3534, "\u0120chem": 3535, "itting": 3536, "\u0120management": 3537, "cts": 3538, "istics": 3539, "ologist": 3540, "anced": 3541, "\u012047": 3542, "\u0120texas": 3543, "\u0120attacks": 3544, "chan": 3545, "\u0120tracks": 3546, "\u0120safe": 3547, "\u0120issued": 3548, "vey": 3549, "\u012039": 3550, "\u0120terms": 3551, "aily": 3552, "ounts": 3553, "\u0120pul": 3554, "\u0120recover": 3555, "\u0120polic": 3556, "\u0120somerset": 3557, "\u0120unli": 3558, "\u0120earned": 3559, "\u0120begins": 3560, "\u0120defense": 3561, "\u0120waters": 3562, "ding": 3563, "\u0120slight": 3564, "ros": 3565, "\u0120piano": 3566, "\u0120mosley": 3567, "\u0120depend": 3568, "\u0120directly": 3569, "\u0120planned": 3570, "\u0120giving": 3571, "\u0120conver": 3572, "\u0120marked": 3573, "\u0120variety": 3574, "\u0120franc": 3575, "\u0120daily": 3576, "\u0120defend": 3577, "\u0120advance": 3578, "\u0120portray": 3579, "\u01201996": 3580, "\u0120figure": 3581, "ey": 3582, "\u0120document": 3583, "\u0120baby": 3584, "\u0120edge": 3585, "\u0120bid": 3586, "\u0120busch": 3587, "\u0120bon": 3588, "\u0120pict": 3589, "alled": 3590, "rat": 3591, "urs": 3592, "aught": 3593, "\u0120christmas": 3594, "\u0120via": 3595, "\u0120nuclear": 3596, "\u0120pick": 3597, "\u0120immediately": 3598, "\u0120committee": 3599, "ada": 3600, "\u0120historical": 3601, "ylv": 3602, "ands": 3603, "\u0120perfect": 3604, "\u0120yellow": 3605, "\u0120performances": 3606, "\u0120experi": 3607, "\u0120actor": 3608, "\u0120advent": 3609, "\u0120thunder": 3610, "umed": 3611, "\u0120coach": 3612, "\u0120taylor": 3613, "\u0120organization": 3614, "ado": 3615, "\u0120spanish": 3616, "\u0120metal": 3617, "\u0120drum": 3618, "\u0120cold": 3619, "athan": 3620, "\u0120swe": 3621, "\u0120nest": 3622, "\u0120transl": 3623, "\u0120confl": 3624, "house": 3625, "\u0120fell": 3626, "\u0120bor": 3627, "\u0120abandon": 3628, "ruction": 3629, "\u0120helped": 3630, "\u0120paris": 3631, "\u0120combat": 3632, "\u0120kind": 3633, "pa": 3634, "\u0120soviet": 3635, "bery": 3636, "\u0120fowler": 3637, "\u0120multip": 3638, "\u0120wound": 3639, "\u0120thir": 3640, "\u0120rear": 3641, "\u0120suffered": 3642, "\u0120financ": 3643, "\u0120closed": 3644, "\u0120rhy": 3645, "rical": 3646, "\u0120crow": 3647, "\u0120leaders": 3648, "\u0120sout": 3649, "\u0120casual": 3650, "\u0120nation": 3651, "\u0120presence": 3652, "\u0120uses": 3653, "bury": 3654, "\u0120controvers": 3655, "\u0120ut": 3656, "\u0120nearby": 3657, "\u0120mission": 3658, "cend": 3659, "ify": 3660, "\u0120bass": 3661, "\u0120federal": 3662, "\u0120raised": 3663, "\u0120gard": 3664, "ls": 3665, "ibly": 3666, "\u0120gh": 3667, "\u0120bond": 3668, "\u0120id": 3669, "\u0120presented": 3670, "\u0120really": 3671, "omet": 3672, "\u0120cultural": 3673, "\u0120jane": 3674, "\u0120beach": 3675, "\u0120stad": 3676, "anded": 3677, "\u0120weap": 3678, "\u0120maxim": 3679, "\u0120peace": 3680, "\u0120prec": 3681, "\u0120mun": 3682, "\u0120rif": 3683, "\u0120paper": 3684, "\u0120continue": 3685, "\u0120vocals": 3686, "\u00c3\u00a1n": 3687, "\u0120covered": 3688, "ault": 3689, "\u0120rule": 3690, "\u012042": 3691, "\u0120composed": 3692, "\u0120princip": 3693, "\u0120hands": 3694, "erve": 3695, "\u0120sport": 3696, "inent": 3697, "\u0120attempts": 3698, "\u0120carolina": 3699, "\u0120penns": 3700, "\u0120pennsylv": 3701, "\u0120symb": 3702, "\u0120figures": 3703, "\u0120fruit": 3704, "\u0120virginia": 3705, "\u0120incor": 3706, "\u0120enj": 3707, "\u0120extended": 3708, "\u0120prep": 3709, "ening": 3710, "\u0120sir": 3711, "\u0120course": 3712, "\u0120below": 3713, "\u0120shoot": 3714, "da": 3715, "\u0120thr": 3716, "chester": 3717, "iami": 3718, "\u0120selected": 3719, "\u0120officer": 3720, "\u0120attend": 3721, "\u0120aspect": 3722, "\u0120purp": 3723, "\u0120bed": 3724, "\u0120plant": 3725, "\u0120sac": 3726, "standing": 3727, "imony": 3728, "\u0120vocal": 3729, "\u0120block": 3730, "yr": 3731, "\u0120fiction": 3732, "\u0120dise": 3733, "\u0120canc": 3734, "\u0120bodies": 3735, "\u0120relief": 3736, "\u0120assembly": 3737, "\u0120meyer": 3738, "essa": 3739, "\u0120higher": 3740, "\u0120ps": 3741, "\u0120appearances": 3742, "\u01201997": 3743, "\u0120sports": 3744, "\u0120mile": 3745, "\u0120fill": 3746, "\u0120hyd": 3747, "\u0120beyonc": 3748, "\u0120beyonc\u00c3\u00a9": 3749, "\u0120text": 3750, "\u0120needed": 3751, "\u0120necess": 3752, "pted": 3753, "\u0120jose": 3754, "\u0120eye": 3755, "\u0120countries": 3756, "\u0120sexual": 3757, "\u0120hour": 3758, "uing": 3759, "uries": 3760, "\u0120da": 3761, "ani": 3762, "anta": 3763, "\u0120search": 3764, "\u0120offensive": 3765, "\u0120rough": 3766, "\u0120ris": 3767, "\u0120germany": 3768, "\u0120miami": 3769, "\u0120protein": 3770, "\u0120reject": 3771, "\u0120highly": 3772, "\u0120situation": 3773, "\u0120arts": 3774, "\u0120places": 3775, "\u0120paren": 3776, "\u0120altern": 3777, "\u0120analys": 3778, "\u012044": 3779, "iny": 3780, "\u0120powerful": 3781, "\u0120extre": 3782, "\u0120compl": 3783, "olf": 3784, "\u0120cadm": 3785, "\u0120distance": 3786, "\u0120mis": 3787, "\u0120fair": 3788, "\u0120allowing": 3789, "\u0120hu": 3790, "\u0120silver": 3791, "\u0120strength": 3792, "\u0120bob": 3793, "\u0120comedy": 3794, "\u0120entertain": 3795, "\u0120clim": 3796, "\u0120festival": 3797, "\u0120emper": 3798, "\u0120recent": 3799, "gal": 3800, "\u0120attacked": 3801, "\u0120cab": 3802, "aging": 3803, "apo": 3804, "\u0120nico": 3805, "\u0120somal": 3806, "\u0120singer": 3807, "\u0120governor": 3808, "\u0120wa": 3809, "\u0120labor": 3810, "\u0120ton": 3811, "\u0120shr": 3812, "ribution": 3813, "\u0120rate": 3814, "iate": 3815, "\u0120confir": 3816, "\u0120pennsylvania": 3817, "\u0120ka": 3818, "\u0120bell": 3819, "pole": 3820, "vement": 3821, "kel": 3822, "\u0120cadmium": 3823, "\u0120edition": 3824, "\u0120foreign": 3825, "\u0120advant": 3826, "\u0120removed": 3827, "\u0120widely": 3828, "\u0120jackson": 3829, "\u0120northwest": 3830, "hold": 3831, "isher": 3832, "\u0120resc": 3833, "aped": 3834, "isation": 3835, "\u0120academy": 3836, "\u0120interse": 3837, "ruct": 3838, "\u0120model": 3839, "\u0120movie": 3840, "track": 3841, "\u0120energy": 3842, "\u0120offered": 3843, "\u0120bene": 3844, "leg": 3845, "\u0120active": 3846, "\u0120levels": 3847, "\u0120genus": 3848, "rate": 3849, "\u0120lot": 3850, "\u012051": 3851, "ication": 3852, "\u0120remix": 3853, "\u0120scotland": 3854, "\u0120means": 3855, "\u0120prince": 3856, "\u0120theatre": 3857, "\u0120peaked": 3858, "\u0120soundtrack": 3859, "\u0120jim": 3860, "\u0120copies": 3861, "aven": 3862, "\u0120combined": 3863, "\u0120mess": 3864, "\u0120attempted": 3865, "\u0120respectively": 3866, "\u0120thous": 3867, "\u0120opportun": 3868, "\u0120scoring": 3869, "\u0120question": 3870, "\u0120182": 3871, "izing": 3872, "\u01201991": 3873, "\u0120typically": 3874, "\u0120meeting": 3875, "\u0120chris": 3876, "\u00e3\u0125": 3877, "tered": 3878, "\u0120themes": 3879, "\u0120express": 3880, "icient": 3881, "hood": 3882, "\u0120sister": 3883, "abor": 3884, "\u0120reform": 3885, "\u0120responsible": 3886, "\u0120envir": 3887, "\u0120cert": 3888, "\u0120china": 3889, "\u0120fish": 3890, "\u0120stadium": 3891, "\u0120touchdown": 3892, "\u0120kak": 3893, "hic": 3894, "force": 3895, "\u0120activities": 3896, "ope": 3897, "\u0120famil": 3898, "\u0120islands": 3899, "\u0120anderson": 3900, "\u0120alex": 3901, "\u0120sets": 3902, "\u0120describes": 3903, "\u0120dress": 3904, "\u0120observed": 3905, "\u0120fast": 3906, "\u0120candid": 3907, "send": 3908, "\u0120sales": 3909, "\u0120instr": 3910, "\u0120enjoy": 3911, "\u0120vehic": 3912, "\u0120winter": 3913, "\u0120matches": 3914, "\u0120impact": 3915, "\u01201992": 3916, "\u0120formation": 3917, "\u0120reign": 3918, "\u0120heavily": 3919, "\u0120houses": 3920, "\u0120audience": 3921, "\u0120braat": 3922, "\u0120looking": 3923, "\u0120activity": 3924, "\u0120entr": 3925, "\u01201994": 3926, "\u0120parents": 3927, "\u0120rights": 3928, "hl": 3929, "\u0120stra": 3930, "\u0120reduced": 3931, "\u0120suc": 3932, "\u0120dream": 3933, "anes": 3934, "ellig": 3935, "\u0120defence": 3936, "\u0120chronic": 3937, "\u00c5\u012f": 3938, "\u0120carry": 3939, "\u0120armed": 3940, "\u0120quality": 3941, "\u0120respond": 3942, "\u0120lie": 3943, "\u0120resulted": 3944, "\u0120minnes": 3945, "\u0120minnesota": 3946, "\u012076": 3947, "\u012048": 3948, "\u0120northeast": 3949, "\u0120domest": 3950, "\u012037": 3951, "\u0120concluded": 3952, "ulations": 3953, "\u0120wave": 3954, "\u0120cricket": 3955, "\u0120smith": 3956, "\u0120completely": 3957, "\u0120spirit": 3958, "\u0120honor": 3959, "ils": 3960, "\u0120prepar": 3961, "ura": 3962, "\u0120reports": 3963, "\u0120stating": 3964, "\u0120calling": 3965, "\u0120italian": 3966, "\u0120contrast": 3967, "\u0120channel": 3968, "uated": 3969, "\u0120environ": 3970, "use": 3971, "\u0120residents": 3972, "\u0120conditions": 3973, "ican": 3974, "\u0120townsend": 3975, "\u0120lis": 3976, "\u0120hawai": 3977, "\u0120kakapo": 3978, "\u0120europ": 3979, "\u0120separate": 3980, "\u0120revealed": 3981, "\u0120featuring": 3982, "isl": 3983, "\u0120efforts": 3984, "rial": 3985, "\u0120managed": 3986, "\u0120jul": 3987, "bre": 3988, "bed": 3989, "\u0120folk": 3990, "\u0120intellig": 3991, "\u0120meyerbe": 3992, "athus": 3993, "\u0120rosebery": 3994, "\u00e3\u0123": 3995, "ift": 3996, "\u0120artists": 3997, "\u0120specim": 3998, "\u0120wash": 3999, "\u0120description": 4000, "\u0120fat": 4001, "\u0120plays": 4002, "ka": 4003, "ocr": 4004, "stone": 4005, "\u0120refused": 4006, "\u0120liber": 4007, "\u0120declared": 4008, "\u0120shiva": 4009, "\u0120finals": 4010, "\u0120meyerbeer": 4011, "\u0120approach": 4012, "aha": 4013, "\u0120independence": 4014, "\u0120amount": 4015, "\u0120webs": 4016, "\u0120issues": 4017, "\u0120therefore": 4018, "\u0120lib": 4019, "ays": 4020, "\u0120tun": 4021, "\u0120sle": 4022, "\u0120strugg": 4023, "\u0120emot": 4024, "acher": 4025, "\u0120walpole": 4026, "\u0120nes": 4027, "bird": 4028, "\u0120finkel": 4029, "\u0120finkelstein": 4030, "\u0120expected": 4031, "\u0120coming": 4032, "\u0120legisl": 4033, "\u0120security": 4034, "\u0120naval": 4035, "\u0120seasons": 4036, "\u0120elev": 4037, "\u0120sust": 4038, "ping": 4039, "writ": 4040, "\u0120150": 4041, "\u0120offer": 4042, "ingu": 4043, "\u0120categ": 4044, "\u0120titles": 4045, "anz": 4046, "\u0120emperor": 4047, "\u0120casualties": 4048, "fa": 4049, "\u0120tessa": 4050, "\u0120yue": 4051, "\u0120types": 4052, "\u0120sense": 4053, "iro": 4054, "\u012052": 4055, "road": 4056, "\u0120wear": 4057, "\u0120words": 4058, "\u0120mainly": 4059, "\u0120conse": 4060, "inal": 4061, "\u0120border": 4062, "\u0120charl": 4063, "\u0120actions": 4064, "\u0120sr": 4065, "\u0120grass": 4066, "\u0120weather": 4067, "\u0120weaken": 4068, "\u0120branch": 4069, "fl": 4070, "ek": 4071, "\u0120illino": 4072, "\u0120nicole": 4073, "\u0120ottoman": 4074, "usion": 4075, "\u0120becomes": 4076, "\u0120illust": 4077, "\u0120scale": 4078, "\u0120attention": 4079, "bl": 4080, "\u0120actually": 4081, "\u0120demonst": 4082, "hm": 4083, "\u0120behav": 4084, "\u0120practice": 4085, "apped": 4086, "\u0120job": 4087, "\u0120excav": 4088, "\u0120hors": 4089, "\u0120recomm": 4090, "\u0120tournament": 4091, "urban": 4092, "\u0120struck": 4093, "icip": 4094, "\u0120core": 4095, "\u0120neigh": 4096, "\u0120subs": 4097, "\u0120spect": 4098, "\u0120scul": 4099, "\u012034": 4100, "\u0120rug": 4101, "\u0120braathens": 4102, "\u0120dang": 4103, "asy": 4104, "\u0120ultimately": 4105, "\u0120letters": 4106, "\u0120manuf": 4107, "\u0120manufact": 4108, "iber": 4109, "cript": 4110, "\u0120columb": 4111, "\u0120advert": 4112, "utions": 4113, "\u0120write": 4114, "\u0120legal": 4115, "\u0120hait": 4116, "gu": 4117, "arent": 4118, "\u0120actress": 4119, "\u0120roles": 4120, "\u0120entertainment": 4121, "\u0120lin": 4122, "\u0120dog": 4123, "\u0120primarily": 4124, "essions": 4125, "\u0120viewers": 4126, "\u0120lb": 4127, "\u0120jur": 4128, "\u0120vietnam": 4129, "\u0120sor": 4130, "onents": 4131, "atives": 4132, "\u0120johnson": 4133, "\u0120termin": 4134, "\u0120accepted": 4135, "\u0120bh": 4136, "\u0120priest": 4137, "\u0120cannot": 4138, "cle": 4139, "\u0120alone": 4140, "emic": 4141, "\u0120portugues": 4142, "\u0120hotel": 4143, "\u0120achieved": 4144, "\u0120cong": 4145, "\u0120sequence": 4146, "\u0120mog": 4147, "\u0120bishop": 4148, "\u0120authority": 4149, "rid": 4150, "rain": 4151, "\u0120elected": 4152, "\u0120qual": 4153, "\u0120bott": 4154, "met": 4155, "alty": 4156, "\u0120fres": 4157, "\u0120farm": 4158, "\u0120guest": 4159, "\u0120fully": 4160, "\u0120tree": 4161, "\u0120newspaper": 4162, "\u0120portuguese": 4163, "\u0120planet": 4164, "\u0120rainfall": 4165, "ension": 4166, "\u0120foundation": 4167, "\u0120colony": 4168, "\u0120alongside": 4169, "\u0120incorpor": 4170, "\u0120exped": 4171, "\u0120spread": 4172, "\u0120authorities": 4173, "\u0120dun": 4174, "ental": 4175, "\u0120measure": 4176, "\u0120moment": 4177, "\u0120apart": 4178, "mond": 4179, "\u0120bat": 4180, "\u0120slightly": 4181, "ems": 4182, "\u0120nick": 4183, "\u0120prison": 4184, "\u0120spain": 4185, "\u0120181": 4186, "\u0120workers": 4187, "\u0120flooding": 4188, "\u0120antimony": 4189, "\u0120tint": 4190, "ano": 4191, "\u0120owned": 4192, "\u0120battery": 4193, "\u0120pound": 4194, "\u0120broken": 4195, "\u01201986": 4196, "\u0120occasion": 4197, "berg": 4198, "\u0120tru": 4199, "\u0120ridge": 4200, "\u0120opera": 4201, "onymous": 4202, "\u0120mechan": 4203, "oper": 4204, "\u0120data": 4205, "\u0120artic": 4206, "\u0120standing": 4207, "\u0120affected": 4208, "\u0120perman": 4209, "\u0120conflict": 4210, "\u0120surre": 4211, "ledge": 4212, "\u0120louis": 4213, "\u0120skin": 4214, "\u0120males": 4215, "ceeded": 4216, "\u0120twice": 4217, "ograp": 4218, "\u0120expressed": 4219, "\u0120inches": 4220, "\u0120murder": 4221, "ya": 4222, "\u0120domestic": 4223, "ogue": 4224, "ox": 4225, "\u0120concent": 4226, "\u0120ur": 4227, "\u0120fey": 4228, "\u0120orb": 4229, "\u0120defensive": 4230, "\u0120computer": 4231, "\u0120campus": 4232, "\u0120wels": 4233, "\u0120sarn": 4234, "\u0120tintin": 4235, "\u0120titled": 4236, "\u0120officials": 4237, "\u0120aid": 4238, "\u0120historic": 4239, "\u0120height": 4240, "\u0120180": 4241, "ented": 4242, "\u0120lands": 4243, "hew": 4244, "\u0120flying": 4245, "\u0120disease": 4246, "\u0120battles": 4247, "\u0120physical": 4248, "bon": 4249, "\u0120showed": 4250, "gn": 4251, "\u0120apple": 4252, "\u0120welsh": 4253, "\u0120oda": 4254, "\u0120nesb": 4255, "\u0120adj": 4256, "\u0120distinct": 4257, "\u0120direction": 4258, "\u0120note": 4259, "\u0120lock": 4260, "de": 4261, "\u0120andrew": 4262, "\u0120doub": 4263, "astic": 4264, "nds": 4265, "igan": 4266, "\u0120toward": 4267, "\u0120bull": 4268, "\u0120spot": 4269, "ushed": 4270, "\u0120neut": 4271, "\u0120wed": 4272, "\u0120cerem": 4273, "\u0120ability": 4274, "\u0120environment": 4275, "uled": 4276, "\u0120rid": 4277, "\u0120ta": 4278, "\u0120barrow": 4279, "\u0120zhou": 4280, "\u0120ceres": 4281, "\u0120varanas": 4282, "\u0120varanasi": 4283, "\u00e3\u0124": 4284, "\u0120dv": 4285, "\u0120fred": 4286, "\u0120cook": 4287, "\u0120influenced": 4288, "\u0120says": 4289, "\u0120apparent": 4290, "\u0120mentioned": 4291, "\u0120dur": 4292, "\u0120snow": 4293, "\u0120electron": 4294, "\u0120nesbitt": 4295, "\u0120odaen": 4296, "\u0120advantage": 4297, "\u0120continues": 4298, "\u0120lives": 4299, "ux": 4300, "ols": 4301, "\u0120financial": 4302, "\u0120sites": 4303, "\u0120earliest": 4304, "\u0120narrow": 4305, "\u012049": 4306, "\u0120individuals": 4307, "\u0120angeles": 4308, "\u0120propos": 4309, "\u0120composition": 4310, "\u0120clar": 4311, "\u0120mob": 4312, "\u0120acting": 4313, "\u0120sides": 4314, "\u0120ash": 4315, "\u0120repe": 4316, "\u0120encour": 4317, "while": 4318, "\u0120produce": 4319, "\u0120ig": 4320, "\u0120illinois": 4321, "\u0120eva": 4322, "\u0120odaenathus": 4323, "\u0120dumont": 4324, "\u0120oil": 4325, "\u0120else": 4326, "enant": 4327, "acts": 4328, "\u0120exhib": 4329, "don": 4330, "\u01201920": 4331, "\u0120founded": 4332, "\u0120scr": 4333, "\u0120try": 4334, "\u0120dub": 4335, "\u0120torped": 4336, "\u0120torpedo": 4337, "\u0120jos": 4338, "\u0120admir": 4339, "illa": 4340, "\u0120adopted": 4341, "\u0120journey": 4342, "\u0120cities": 4343, "\u0120singing": 4344, "\u0120resulting": 4345, "\u0120alab": 4346, "ancy": 4347, "\u0120olympic": 4348, "\u0120jump": 4349, "\u0120engineer": 4350, "\u0120digital": 4351, "ovic": 4352, "\u0120din": 4353, "\u0120sarnia": 4354, "\u0120mogad": 4355, "\u0120potential": 4356, "\u0120officially": 4357, "\u0120hope": 4358, "ta": 4359, "\u0120executive": 4360, "\u0120withdraw": 4361, "\u0120dedicated": 4362, "\u0120basis": 4363, "\u0120analysis": 4364, "\u012065": 4365, "\u0120represented": 4366, "\u0120studios": 4367, "onna": 4368, "\u0120chair": 4369, "etts": 4370, "\u0120sources": 4371, "\u0120per\u00c3\u00b3n": 4372, "\u0120piece": 4373, "\u0120cit": 4374, "\u0120react": 4375, "\u0120surrounding": 4376, "\u0120doing": 4377, "\u0120chapel": 4378, "\u0120shel": 4379, "\u0120capture": 4380, "\u0120losing": 4381, "uous": 4382, "tv": 4383, "\u0120ib": 4384, "\u0120scholars": 4385, "\u0120assault": 4386, "\u0120contain": 4387, "\u0120agric": 4388, "\u0120manchester": 4389, "\u0120wilhel": 4390, "\u00c3\u00a8": 4391, "cul": 4392, "\u0120thunderbird": 4393, "ills": 4394, "\u0120effort": 4395, "\u0120faced": 4396, "gs": 4397, "\u0120extra": 4398, "aming": 4399, "\u0120transferred": 4400, "\u0120vic": 4401, "\u0120washington": 4402, "\u0120letter": 4403, "\u0120ey": 4404, "oty": 4405, "\u0120spl": 4406, "\u0120relatively": 4407, "\u0120maximum": 4408, "ella": 4409, "\u0120dance": 4410, "\u0120require": 4411, "\u0120cin": 4412, "\u0120student": 4413, "\u0120boat": 4414, "\u0120emph": 4415, "\u0120vess": 4416, "\u0120medical": 4417, "\u0120drive": 4418, "\u0120unlike": 4419, "\u0120attended": 4420, "arked": 4421, "\u0120tried": 4422, "\u01201988": 4423, "\u0120feed": 4424, "\u0120organized": 4425, "\u0120pattern": 4426, "\u0120females": 4427, "\u0120function": 4428, "iana": 4429, "\u0120chor": 4430, "\u0120frag": 4431, "\u0120clean": 4432, "rane": 4433, "\u0120trou": 4434, "\u0120older": 4435, "\u0120agricult": 4436, "\u0120compound": 4437, "bour": 4438, "\u0120ros": 4439, "\u0120kore": 4440, "\u0120freeway": 4441, "lings": 4442, "odon": 4443, "\u0120imper": 4444, "\u0120target": 4445, "\u0120proved": 4446, "adel": 4447, "\u0120joseph": 4448, "\u0120eat": 4449, "lers": 4450, "\u0120gang": 4451, "\u0120kg": 4452, "oms": 4453, "\u0120element": 4454, "ults": 4455, "\u0120beyond": 4456, "\u0120meanwhile": 4457, "\u0120opin": 4458, "\u0120sculpt": 4459, "\u0120alabama": 4460, "\u0120notable": 4461, "\u0120omaha": 4462, "\u0120helms": 4463, "\u0120mogadish": 4464, "\u0120\u00e1\u0125": 4465, "station": 4466, "ech": 4467, "\u0120divided": 4468, "\u0120determined": 4469, "\u0120charge": 4470, "\u0120designated": 4471, "\u0120literature": 4472, "\u0120edward": 4473, "wide": 4474, "ogen": 4475, "\u0120shape": 4476, "\u012064": 4477, "\u0120mu": 4478, "umber": 4479, "\u0120flag": 4480, "\u0120possibly": 4481, "claim": 4482, "\u0120baseball": 4483, "\u0120animal": 4484, "\u0120images": 4485, "\u0120die": 4486, "\u0120believe": 4487, "po": 4488, "\u0120prime": 4489, "\u0120archaeological": 4490, "\u0120intensity": 4491, "\u0120kent": 4492, "\u0120follows": 4493, "\u0120cust": 4494, "\u0120protect": 4495, "\u0120charts": 4496, "ket": 4497, "\u0120paid": 4498, "\u012046": 4499, "iations": 4500, "\u0120draft": 4501, "\u0120weight": 4502, "\u0120results": 4503, "\u0120collect": 4504, "\u0120ic": 4505, "\u0120ll": 4506, "\u0120cub": 4507, "\u0120plum": 4508, "\u0120institute": 4509, "\u0120golden": 4510, "izes": 4511, "\u0120dissip": 4512, "\u0120lane": 4513, "\u0120trip": 4514, "\u0120innis": 4515, "\u0120mogadishu": 4516, "\u0120content": 4517, "\u0120unkn": 4518, "\u0120visual": 4519, "\u0120returning": 4520, "\u0120arms": 4521, "\u0120simply": 4522, "\u0120homes": 4523, "mes": 4524, "\u0120fix": 4525, "\u0120supporting": 4526, "aling": 4527, "\u0120eth": 4528, "ims": 4529, "\u0120restaur": 4530, "\u01201964": 4531, "\u0120rit": 4532, "\u0120creation": 4533, "\u0120emphas": 4534, "ex": 4535, "roll": 4536, "\u0120argent": 4537, "\u0120micro": 4538, "\u0120sens": 4539, "\u0120treaty": 4540, "\u0120historian": 4541, "\u0120solo": 4542, "\u0120structures": 4543, "\u0120wilhelm": 4544, "\u0120mccall": 4545, "kare": 4546, "\u0120portion": 4547, "\u0120kept": 4548, "\u0120equipment": 4549, "\u0120knowledge": 4550, "\u0120entrance": 4551, "\u0120paint": 4552, "\u0120technology": 4553, "\u0120economic": 4554, "more": 4555, "\u0120mouth": 4556, "\u0120jup": 4557, "\u0120secretary": 4558, "\u0120pine": 4559, "\u0120onto": 4560, "\u0120kar": 4561, "\u0120projects": 4562, "\u0120sis": 4563, "lied": 4564, "\u0120growing": 4565, "\u0120congress": 4566, "\u0120reaction": 4567, "\u0120couple": 4568, "uff": 4569, "\u0120underground": 4570, "agan": 4571, "\u0120horses": 4572, "\u0120rugby": 4573, "\u0120playstation": 4574, "wise": 4575, "\u0120leader": 4576, "\u0120perm": 4577, "\u0120depth": 4578, "ips": 4579, "\u0120railway": 4580, "\u0120filming": 4581, "\u0120mind": 4582, "\u0120argued": 4583, "\u0120grew": 4584, "\u0120importance": 4585, "\u0120weekly": 4586, "ero": 4587, "\u0120promotion": 4588, "\u0120lam": 4589, "\u0120les": 4590, "\u0120kit": 4591, "where": 4592, "edar": 4593, "\u0120md": 4594, "\u0120dar": 4595, "\u0120website": 4596, "\u0120chos": 4597, "\u0120criticism": 4598, "\u012053": 4599, "\u0120publication": 4600, "\u0120suggests": 4601, "lies": 4602, "\u0120currently": 4603, "\u0120share": 4604, "asty": 4605, "\u0120rise": 4606, "\u0120buried": 4607, "\u0120lege": 4608, "\u0120landing": 4609, "ety": 4610, "istry": 4611, "\u0120miner": 4612, "\u0120eag": 4613, "\u0120indu": 4614, "\u012055": 4615, "\u0120weak": 4616, "\u0120baltim": 4617, "\u0120baltimore": 4618, "\u0120rih": 4619, "\u0120rihanna": 4620, "\u0120hamels": 4621, "\u0120tact": 4622, "\u0120gained": 4623, "\u0120orders": 4624, "\u0120tra": 4625, "\u0120criticized": 4626, "\u0120volume": 4627, "\u0120belong": 4628, "nding": 4629, "\u0120jupiter": 4630, "\u0120escape": 4631, "\u0120advanced": 4632, "pass": 4633, "\u0120label": 4634, "\u0120causing": 4635, "\u0120lew": 4636, "acement": 4637, "\u0120reference": 4638, "\u0120palest": 4639, "\u0120breeding": 4640, "\u0120musc": 4641, "eratops": 4642, "\u0120djed": 4643, "\u0120multiple": 4644, "\u0120newly": 4645, "\u0120property": 4646, "prise": 4647, "\u0120obt": 4648, "\u0120abandoned": 4649, "\u0120reaching": 4650, "irt": 4651, "\u0120prominent": 4652, "\u0120inch": 4653, "\u0120religion": 4654, "\u0120dismiss": 4655, "\u0120teacher": 4656, "\u0120hell": 4657, "\u0120claims": 4658, "rative": 4659, "\u0120containing": 4660, "\u0120stock": 4661, "\u0120debuted": 4662, "\u0120djedkare": 4663, "\u0120enemy": 4664, "\u0120chosen": 4665, "oted": 4666, "\u0120administration": 4667, "thy": 4668, "\u0120glass": 4669, "\u0120aven": 4670, "\u0120beaut": 4671, "\u0120outer": 4672, "orter": 4673, "\u0120encoun": 4674, "\u0120personnel": 4675, "\u012056": 4676, "azz": 4677, "\u0120defin": 4678, "\u0120faith": 4679, "\u0120bit": 4680, "\u0120theory": 4681, "\u01201947": 4682, "\u0120column": 4683, "\u0120volun": 4684, "\u0120hib": 4685, "\u0120torres": 4686, "\u0120granted": 4687, "\u0120rejected": 4688, "jo": 4689, "\u0120deploy": 4690, "\u012043": 4691, "\u0120youth": 4692, "\u0120kings": 4693, "\u0120consecutive": 4694, "\u0120cases": 4695, "\u0120jon": 4696, "\u0120shar": 4697, "\u0120mut": 4698, "\u0120cells": 4699, "\u0120unknown": 4700, "\u0120towns": 4701, "\u0120strike": 4702, "\u0120120": 4703, "\u0120seems": 4704, "\u0120ahead": 4705, "\u0120commonly": 4706, "ette": 4707, "\u0120conne": 4708, "\u0120cart": 4709, "\u0120fit": 4710, "\u0120chapter": 4711, "\u0120condition": 4712, "\u0120atm": 4713, "\u0120visited": 4714, "\u01201941": 4715, "\u0120straight": 4716, "\u0120corre": 4717, "\u0120ell": 4718, "ographer": 4719, "\u0120scottish": 4720, "ez": 4721, "\u0120coal": 4722, "ulate": 4723, "\u0120secondary": 4724, "\u0120deities": 4725, "\u0120dram": 4726, "\u0120increasingly": 4727, "\u0120settlement": 4728, "\u00c3\u00bc": 4729, "\u0120crazy": 4730, "\u0120compar": 4731, "vin": 4732, "\u0120applewh": 4733, "\u0120applewhite": 4734, "\u0120growth": 4735, "\u0120arrest": 4736, "\u0120anonymous": 4737, "\u0120systems": 4738, "\u0120problem": 4739, "ees": 4740, "\u0120versions": 4741, "\u0120dvd": 4742, "\u0120passing": 4743, "adelph": 4744, "adelphia": 4745, "\u0120iv": 4746, "\u0120et": 4747, "\u0120atmosp": 4748, "appe": 4749, "\u01201987": 4750, "mal": 4751, "\u0120seconds": 4752, "\u0120senior": 4753, "\u0120bc": 4754, "\u0120lu": 4755, "\u0120tel": 4756, "\u0120identified": 4757, "\u0120broke": 4758, "\u0120wounded": 4759, "\u0120francis": 4760, "\u0120train": 4761, "\u0120max": 4762, "\u0120regions": 4763, "\u0120truth": 4764, "\u0120survey": 4765, "\u0120risk": 4766, "\u0120ye": 4767, "\u0120nominated": 4768, "\u0120temperature": 4769, "\u0120bbc": 4770, "\u0120haven": 4771, "\u0120unique": 4772, "sey": 4773, "\u0120fantasy": 4774, "itable": 4775, "\u0120save": 4776, "\u0120operated": 4777, "\u0120thing": 4778, "ads": 4779, "\u0120unf": 4780, "\u0120hart": 4781, "\u0120egyptian": 4782, "\u0120greek": 4783, "\u0120promoted": 4784, "\u0120philos": 4785, "\u0120ring": 4786, "\u0120killing": 4787, "\u0120trust": 4788, "\u0120kir": 4789, "ushing": 4790, "ike": 4791, "\u0120crus": 4792, "\u0120agreement": 4793, "\u0120nothing": 4794, "\u01201989": 4795, "\u0120cry": 4796, "\u0120fired": 4797, "\u0120mike": 4798, "\u0120rod": 4799, "\u0120famous": 4800, "\u0120urban": 4801, "\u0120roads": 4802, "\u012041": 4803, "\u0120fash": 4804, "\u01201984": 4805, "\u0120croatia": 4806, "\u0120stations": 4807, "\u0120rub": 4808, "\u0120avoid": 4809, "lines": 4810, "\u01201972": 4811, "\u0120selling": 4812, "\u0120motor": 4813, "\u0120accompan": 4814, "\u0120opposed": 4815, "\u0120applic": 4816, "iant": 4817, "oured": 4818, "\u0120aired": 4819, "\u0120carl": 4820, "\u0120fame": 4821, "\u0120detect": 4822, "\u0120slam": 4823, "\u0120premier": 4824, "\u0120arc": 4825, "\u0120ode": 4826, "\u0120serve": 4827, "\u012054": 4828, "\u01201985": 4829, "\u0120choice": 4830, "\u0120memorial": 4831, "\u0120swed": 4832, "\u0120controlled": 4833, "\u0120virt": 4834, "\u0120barb": 4835, "\u0120animals": 4836, "\u0120raid": 4837, "ordin": 4838, "\u0120ba": 4839, "amic": 4840, "\u0120cool": 4841, "\u0120matt": 4842, "abb": 4843, "\u0120strengt": 4844, "aine": 4845, "asc": 4846, "\u0120mig": 4847, "ati": 4848, "\u0120luc": 4849, "\u0120camb": 4850, "\u0120compr": 4851, "\u0120bern": 4852, "\u0120poetry": 4853, "\u0120semi": 4854, "\u0120chur": 4855, "ighth": 4856, "\u0120fal": 4857, "\u0120stan": 4858, "\u0120subsequent": 4859, "\u0120crowd": 4860, "\u0120vert": 4861, "\u0120drama": 4862, "\u0120sin": 4863, "\u0120boats": 4864, "\u0120worship": 4865, "\u0120myth": 4866, "\u0120ideas": 4867, "\u0120interchange": 4868, "\u0120adult": 4869, "\u0120hms": 4870, "\u0120dw": 4871, "ris": 4872, "\u0120writes": 4873, "\u0120speak": 4874, "\u0120filmed": 4875, "\u0120gram": 4876, "\u0120explained": 4877, "stream": 4878, "\u0120confirmed": 4879, "\u0120cardiff": 4880, "\u0120reserv": 4881, "\u0120cougar": 4882, "\u0120weapons": 4883, "\u0120trial": 4884, "\u0120consisted": 4885, "\u0120rapidly": 4886, "\u0120families": 4887, "\u0120register": 4888, "\u0120herself": 4889, "\u01201944": 4890, "\u0120philadelphia": 4891, "\u0120bru": 4892, "\u0120michigan": 4893, "\u0120sund": 4894, "\u0120gives": 4895, "\u0120regarded": 4896, "\u0120vul": 4897, "\u0120mand": 4898, "\u0120joint": 4899, "\u0120pieces": 4900, "\u0120bright": 4901, "\u0120invasion": 4902, "\u0120landfall": 4903, "\u0120pitched": 4904, "\u0120keats": 4905, "\u0120chains": 4906, "awa": 4907, "\u0120aspects": 4908, "\u0120ai": 4909, "\u0120ry": 4910, "umes": 4911, "\u0120deliver": 4912, "\u0120130": 4913, "ych": 4914, "\u0120tail": 4915, "\u0120value": 4916, "\u0120extend": 4917, "\u0120injury": 4918, "\u0120dropped": 4919, "\u0120transit": 4920, "\u0120highlight": 4921, "\u0120failure": 4922, "\u0120seventh": 4923, "\u0120minim": 4924, "\u0120humans": 4925, "\u0120maintained": 4926, "\u0120resemb": 4927, "\u0120sud": 4928, "\u0120dry": 4929, "rol": 4930, "illo": 4931, "\u0120mir": 4932, "rey": 4933, "\u0120kilomet": 4934, "\u0120actors": 4935, "\u0120premi": 4936, "iqu": 4937, "\u0120williams": 4938, "\u0120gord": 4939, "\u0120mush": 4940, "\u0120battalions": 4941, "\u0120bats": 4942, "ishes": 4943, "enge": 4944, "\u0120oh": 4945, "\u0120extensive": 4946, "inity": 4947, "\u0120prepared": 4948, "\u0120retired": 4949, "\u0120gulf": 4950, "\u0120phase": 4951, "\u0120rot": 4952, "fully": 4953, "\u012057": 4954, "\u0120steam": 4955, "hu": 4956, "\u0120belief": 4957, "\u0120province": 4958, "\u0120fung": 4959, "\u0120fict": 4960, "\u0120dutch": 4961, "\u0120why": 4962, "\u0120penins": 4963, "\u0120southeast": 4964, "\u0120creating": 4965, "\u0120bes": 4966, "\u0120matter": 4967, "ote": 4968, "\u0120sustained": 4969, "\u0120jeff": 4970, "\u0120steve": 4971, "iring": 4972, "\u0120ice": 4973, "\u0120flank": 4974, "\u0120connected": 4975, "\u0120significantly": 4976, "ja": 4977, "\u0120dial": 4978, "\u0120protection": 4979, "\u0120flu": 4980, "\u0120600": 4981, "\u0120italy": 4982, "\u0120mist": 4983, "\u0120sky": 4984, "\u0120gain": 4985, "\u0120laid": 4986, "\u0120ari": 4987, "\u0120drop": 4988, "\u0120lov": 4989, "\u0120concer": 4990, "la": 4991, "\u0120hat": 4992, "\u0120medie": 4993, "\u0120medieval": 4994, "\u00c3\u00b6": 4995, "\u0120southwest": 4996, "\u0120andy": 4997, "\u0120abu": 4998, "\u0120nathan": 4999, "\u0120adapt": 5000, "\u0120americans": 5001, "\u0120budget": 5002, "\u0120walls": 5003, "\u0120perh": 5004, "\u0120supply": 5005, "\u0120lieut": 5006, "clusion": 5007, "\u0120recognized": 5008, "\u0120scheduled": 5009, "\u0120facilities": 5010, "heas": 5011, "\u0120rival": 5012, "\u0120finds": 5013, "\u0120finding": 5014, "\u0120producers": 5015, "\u0120wolf": 5016, "\u0120basket": 5017, "\u0120trail": 5018, "\u0120passes": 5019, "\u0120champion": 5020, "\u0120mushroom": 5021, "\u0120iguan": 5022, "iced": 5023, "\u0120cooper": 5024, "\u0120necessary": 5025, "\u0120surrender": 5026, "\u0120perhaps": 5027, "airs": 5028, "\u0120popularity": 5029, "\u0120delay": 5030, "\u0120conservation": 5031, "\u0120thin": 5032, "aria": 5033, "\u0120starts": 5034, "\u0120reflect": 5035, "\u0120chose": 5036, "\u0120sought": 5037, "\u0120fresh": 5038, "\u0120distingu": 5039, "\u0120powers": 5040, "\u0120gas": 5041, "\u0120wars": 5042, "\u00c4\u0129": 5043, "\u0120intelligence": 5044, "\u0120monument": 5045, "\u0120reconst": 5046, "\u0120surviv": 5047, "\u0120stones": 5048, "rete": 5049, "\u0120gab": 5050, "\u0120nucleus": 5051, "chers": 5052, "amese": 5053, "hi": 5054, "\u0120comic": 5055, "heless": 5056, "\u0120losses": 5057, "\u0120fought": 5058, "\u0120consequ": 5059, "\u0120recently": 5060, "\u012096": 5061, "mark": 5062, "\u0120household": 5063, "hire": 5064, "olved": 5065, "\u0120soft": 5066, "\u0120pho": 5067, "kin": 5068, "\u01201981": 5069, "fort": 5070, "\u0120treatment": 5071, "\u00c5\u00a1": 5072, "apping": 5073, "\u0120frequently": 5074, "\u0120unus": 5075, "\u0120cited": 5076, "eller": 5077, "\u0120policy": 5078, "ato": 5079, "\u0120exec": 5080, "\u0120generation": 5081, "\u0120clou": 5082, "ni": 5083, "\u0120altar": 5084, "\u0120rating": 5085, "isy": 5086, "\u0120wrest": 5087, "\u0120vietnamese": 5088, "\u0120gradually": 5089, "\u0120kur": 5090, "\u0120seg": 5091, "\u0120libr": 5092, "\u0120employed": 5093, "\u0120dated": 5094, "ifying": 5095, "\u0120bottom": 5096, "\u0120jes": 5097, "\u0120ends": 5098, "\u0120degree": 5099, "ala": 5100, "\u0120regarding": 5101, "\u0120sap": 5102, "\u0120motion": 5103, "\u0120cole": 5104, "apes": 5105, "eter": 5106, "\u0120naz": 5107, "\u0120constitution": 5108, "\u0120thunderbirds": 5109, "\u0120cambod": 5110, "\u00c4\u0123da": 5111, "alle": 5112, "\u0120fellow": 5113, "anks": 5114, "\u0120attor": 5115, "\u0120tend": 5116, "\u0120comes": 5117, "\u0120shaped": 5118, "\u0120gray": 5119, "\u0120distribution": 5120, "\u0120industrial": 5121, "\u0120179": 5122, "\u0120700": 5123, "\u0120contained": 5124, "han": 5125, "\u0120prefer": 5126, "ologists": 5127, "onent": 5128, "\u0120collected": 5129, "\u0120pilot": 5130, "\u0120safety": 5131, "\u01201939": 5132, "\u0120oxford": 5133, "heastern": 5134, "\u0120extr": 5135, "\u0120peninsula": 5136, "\u0120chel": 5137, "\u00e0\u00b8": 5138, "eda": 5139, "\u0120gameplay": 5140, "\u0120serving": 5141, "\u0120improved": 5142, "thur": 5143, "\u01201942": 5144, "\u0120store": 5145, "\u0120simple": 5146, "iments": 5147, "resp": 5148, "\u0120eld": 5149, "\u0120worldwide": 5150, "\u0120mit": 5151, "\u0120habitat": 5152, "\u0120que": 5153, "\u0120ken": 5154, "\u0120wins": 5155, "\u0120vice": 5156, "\u0120opt": 5157, "\u0120astron": 5158, "\u0120plate": 5159, "\u0120join": 5160, "\u0120negative": 5161, "\u0120fashion": 5162, "\u0120gra": 5163, "\u0120egg": 5164, "\u0120allows": 5165, "\u0120severe": 5166, "\u0120democr": 5167, "\u0120unsu": 5168, "sea": 5169, "\u0120contributed": 5170, "\u0120athletes": 5171, "borough": 5172, "\u0120macle": 5173, "\u0120gordon": 5174, "\u0120sweet": 5175, "\u0120kang": 5176, "\u0120fan": 5177, "\u0120portra": 5178, "\u0120synt": 5179, "ansas": 5180, "\u0120neither": 5181, "\u0120lieutenant": 5182, "ancing": 5183, "acks": 5184, "\u0120electric": 5185, "\u01201918": 5186, "\u0120incident": 5187, "\u0120uns": 5188, "\u0120frame": 5189, "\u0120earn": 5190, "\u0120commissioned": 5191, "\u012073": 5192, "oys": 5193, "\u0120economy": 5194, "\u0120solid": 5195, "\u0120cinem": 5196, "\u0120ing": 5197, "\u0120sie": 5198, "\u0120kne": 5199, "kins": 5200, "ivity": 5201, "\u0120dynasty": 5202, "\u00c3\u00a4": 5203, "\u0120lev": 5204, "\u0120championships": 5205, "\u0120effective": 5206, "\u0120entirely": 5207, "\u0120fictional": 5208, "\u0120witness": 5209, "win": 5210, "\u0120martin": 5211, "\u012095": 5212, "\u0120programs": 5213, "\u0120turner": 5214, "\u0120nba": 5215, "\u012061": 5216, "\u0120hip": 5217, "\u0120concrete": 5218, "\u0120volunte": 5219, "\u0120aston": 5220, "\u0120lisa": 5221, "\u0120imperial": 5222, "\u0120expanded": 5223, "\u0120exclus": 5224, "\u0120hind": 5225, "\u012062": 5226, "\u0120cav": 5227, "burg": 5228, "\u0120floor": 5229, "\u01201968": 5230, "\u0120resear": 5231, "och": 5232, "\u0120pap": 5233, "\u0120negot": 5234, "\u0120boston": 5235, "icks": 5236, "\u0120stages": 5237, "\u0120centuries": 5238, "\u0120normal": 5239, "ena": 5240, "\u0120slowly": 5241, "\u0120800": 5242, "iled": 5243, "\u0120fear": 5244, "\u0120drawn": 5245, "\u0120mario": 5246, "\u012097": 5247, "\u0120reasons": 5248, "\u0120setting": 5249, "\u0120transm": 5250, "\u0120muslim": 5251, "\u0120lewis": 5252, "\u0120items": 5253, "\u0120dates": 5254, "\u0120turk": 5255, "\u0120kilometres": 5256, "\u0120cham": 5257, "\u0120earthqu": 5258, "\u01201969": 5259, "\u0120canal": 5260, "\u0120sentence": 5261, "\u0120boise": 5262, "\u0120jain": 5263, "\u0120europium": 5264, "\u0120occas": 5265, "\u0120expedition": 5266, "\u0120chemical": 5267, "\u0120decades": 5268, "\u0120sole": 5269, "aret": 5270, "\u0120planning": 5271, "\u0120bart": 5272, "ule": 5273, "\u0120chorus": 5274, "\u0120jac": 5275, "lywood": 5276, "\u0120municip": 5277, "\u0120deaths": 5278, "ayer": 5279, "\u0120fel": 5280, "\u0120decade": 5281, "rum": 5282, "\u0120experienced": 5283, "\u0120roughly": 5284, "\u0120poll": 5285, "rang": 5286, "\u0120daniel": 5287, "\u0120nc": 5288, "\u0120upd": 5289, "\u0120glob": 5290, "\u0120tall": 5291, "\u0120contest": 5292, "\u01201975": 5293, "\u0120juan": 5294, "\u0120russian": 5295, "rence": 5296, "\u0120gully": 5297, "\u0120dota": 5298, "\u00c3\u00a1nh": 5299, "outs": 5300, "\u0120benef": 5301, "\u0120appeal": 5302, "\u0120organiz": 5303, "\u0120evening": 5304, "\u0120avenue": 5305, "\u0120girls": 5306, "\u0120eyes": 5307, "\u0120greg": 5308, "\u0120pope": 5309, "\u0120gil": 5310, "cription": 5311, "ographic": 5312, "\u0120cd": 5313, "\u0120occupied": 5314, "\u0120gross": 5315, "ev": 5316, "ini": 5317, "\u0120pleas": 5318, "\u0120allied": 5319, "\u0120firm": 5320, "oked": 5321, "\u0120occasionally": 5322, "\u0120didn": 5323, "\u0120engaged": 5324, "\u012085": 5325, "\u0120transportation": 5326, "\u0120hin": 5327, "\u012072": 5328, "chen": 5329, "\u0120massive": 5330, "\u0120terror": 5331, "\u0120authors": 5332, "\u01201974": 5333, "\u0120ts": 5334, "\u01201965": 5335, "\u0120evita": 5336, "bridge": 5337, "iences": 5338, "\u0120kits": 5339, "yson": 5340, "\u0120quite": 5341, "\u0120adap": 5342, "\u0120speaking": 5343, "ading": 5344, "\u0120platform": 5345, "\u0120successfully": 5346, "\u0120purchased": 5347, "\u0120summ": 5348, "\u0120loy": 5349, "anny": 5350, "mans": 5351, "\u0120churches": 5352, "\u0120disappe": 5353, "zer": 5354, "\u0120additionally": 5355, "ola": 5356, "cy": 5357, "\u0120holy": 5358, "\u0120au": 5359, "\u0120contact": 5360, "\u0120isol": 5361, "\u0120sector": 5362, "\u0120recre": 5363, "ider": 5364, "shire": 5365, "can": 5366, "\u0120dollar": 5367, "\u0120violence": 5368, "\u0120isab": 5369, "\u012081": 5370, "\u0120editor": 5371, "\u0120hug": 5372, "ublin": 5373, "uate": 5374, "active": 5375, "\u0120kh\u00c3\u00a1nh": 5376, "ingly": 5377, "town": 5378, "\u0120brook": 5379, "\u0120neck": 5380, "oir": 5381, "\u0120merc": 5382, "\u012071": 5383, "istan": 5384, "har": 5385, "\u0120wedding": 5386, "\u0120brid": 5387, "\u012094": 5388, "\u0120declined": 5389, "\u0120ron": 5390, "\u0120wides": 5391, "\u0120han": 5392, "\u0120rivers": 5393, "anda": 5394, "\u00c5\u0124": 5395, "opes": 5396, "amy": 5397, "\u0120wick": 5398, "\u0120jamal": 5399, "\u0120rome": 5400, "\u0120164": 5401, "\u0120liu": 5402, "\u0120map": 5403, "\u0120details": 5404, "\u0120purpose": 5405, "\u0120protagon": 5406, "\u0120arsen": 5407, "\u0120permanent": 5408, "\u0120attorney": 5409, "\u0120briefly": 5410, "\u0120subm": 5411, "\u0120paintings": 5412, "\u01201946": 5413, "\u0120cul": 5414, "\u0120stret": 5415, "\u0120drew": 5416, "\u0120elimin": 5417, "arian": 5418, "\u0120owners": 5419, "\u0120brian": 5420, "sw": 5421, "\u0120accompl": 5422, "\u0120ble": 5423, "\u0120experiment": 5424, "\u0120corpor": 5425, "\u0120160": 5426, "\u0120assass": 5427, "\u0120hem": 5428, "\u0120pupp": 5429, "\u0120dip": 5430, "\u0120longest": 5431, "\u0120category": 5432, "ava": 5433, "\u0120begun": 5434, "\u0120learned": 5435, "\u0120sail": 5436, "\u0120arrival": 5437, "\u0120politics": 5438, "\u0120remn": 5439, "\u0120marl": 5440, "\u0120dublin": 5441, "lyss": 5442, "\u0120macleod": 5443, "\u0120tennyson": 5444, "\u0120paralle": 5445, "\u0120moves": 5446, "\u0120zone": 5447, "\u0120thirty": 5448, "ocated": 5449, "\u0120interior": 5450, "\u0120publisher": 5451, "\u0120technical": 5452, "ias": 5453, "\u0120adding": 5454, "\u0120instrument": 5455, "\u0120cos": 5456, "\u0120performing": 5457, "\u0120aim": 5458, "\u0120hang": 5459, "\u0120billion": 5460, "\u0120crime": 5461, "\u0120applied": 5462, "uli": 5463, "rien": 5464, "\u0120braz": 5465, "\u0120lic": 5466, "\u0120guide": 5467, "yc": 5468, "\u0120hydro": 5469, "\u0120possibility": 5470, "\u00c3\u00a9t": 5471, "\u0120marine": 5472, "\u0120literary": 5473, "\u0120leon": 5474, "obe": 5475, "ela": 5476, "\u0120basin": 5477, "\u0120settlers": 5478, "\u0120accident": 5479, "\u0120grav": 5480, "\u0120simone": 5481, "\u0120alle": 5482, "\u0120pric": 5483, "\u0120enjoyed": 5484, "\u0120acres": 5485, "\u0120responded": 5486, "\u0120door": 5487, "\u01201936": 5488, "\u0120discovery": 5489, "\u0120corresp": 5490, "\u0120correspond": 5491, "ns": 5492, "\u0120hired": 5493, "\u01201919": 5494, "\u0120freed": 5495, "\u0120participated": 5496, "\u01201952": 5497, "\u0120developing": 5498, "\u0120roof": 5499, "\u0120maria": 5500, "\u0120aware": 5501, "\u0120contrib": 5502, "\u0120sar": 5503, "utation": 5504, "\u0120happy": 5505, "\u0120#": 5506, "\u0120symbol": 5507, "esh": 5508, "\u0120heads": 5509, "\u0120formula": 5510, "\u0120accompanied": 5511, "\u0120calls": 5512, "ection": 5513, "\u0120fields": 5514, "\u0120earthquake": 5515, "\u01201966": 5516, "\u0120kat": 5517, "\u0120routes": 5518, "\u0120phill": 5519, "\u0120guy": 5520, "ffman": 5521, "\u0120justice": 5522, "\u0120lit": 5523, "uting": 5524, "\u0120heard": 5525, "aser": 5526, "hetic": 5527, "\u0120oldest": 5528, "mun": 5529, "\u0120reinforce": 5530, "\u0120fuel": 5531, "phy": 5532, "\u0120ones": 5533, "oses": 5534, "isers": 5535, "\u0120painting": 5536, "rons": 5537, "\u0120hung": 5538, "\u0120charter": 5539, "\u0120clubs": 5540, "\u0120combination": 5541, "\u0120existence": 5542, "\u0120engineering": 5543, "\u0120brothers": 5544, "\u0120110": 5545, "okes": 5546, "\u0120initi": 5547, "ona": 5548, "\u0120characteristics": 5549, "\u0120marsh": 5550, "\u0120existing": 5551, "\u0120competitions": 5552, "30": 5553, "\u0120albert": 5554, "rupt": 5555, "\u00c3\u0143a": 5556, "\u0120stew": 5557, "bled": 5558, "\u0120anthony": 5559, "\u0120decre": 5560, "\u0120moon": 5561, "rier": 5562, "\u0120belt": 5563, "\u0120nom": 5564, "\u0120populations": 5565, "\u0120177": 5566, "\u0120ulyss": 5567, "\u0120ulysses": 5568, "vo": 5569, "\u0120marc": 5570, "\u0120goes": 5571, "chest": 5572, "\u012077": 5573, "ycl": 5574, "\u0120dougl": 5575, "\u0120kel": 5576, "\u01201973": 5577, "\u0120biography": 5578, "\u0120funding": 5579, "\u0120opportunity": 5580, "\u0120consists": 5581, "\u0120pros": 5582, "\u0120cardinal": 5583, "pty": 5584, "\u0120reserve": 5585, "aked": 5586, "\u0120magic": 5587, "\u0120sid": 5588, "\u0120thousands": 5589, "\u0120lear": 5590, "\u0120widesp": 5591, "\u0120widespread": 5592, "\u0120submar": 5593, "\u0120dock": 5594, "\u0120dru": 5595, "\u0120typical": 5596, "\u0120reviewers": 5597, "\u0120carib": 5598, "\u0120coastal": 5599, "\u0120grey": 5600, "\u0120lasted": 5601, "ications": 5602, "\u0120younger": 5603, "\u0120dominated": 5604, "ichol": 5605, "\u0120fount": 5606, "\u0120turkish": 5607, "\u0120greatly": 5608, "\u0120task": 5609, "\u0120chance": 5610, "ji": 5611, "\u0120reality": 5612, "\u0120watch": 5613, "\u0120vehicles": 5614, "\u0120supre": 5615, "\u0120rum": 5616, "\u0120substant": 5617, "\u0120depict": 5618, "works": 5619, "\u0120receiving": 5620, "iday": 5621, "\u0120caught": 5622, "atus": 5623, "\u0120closely": 5624, "essed": 5625, "\u0120stopped": 5626, "come": 5627, "\u0120expans": 5628, "\u0120convers": 5629, "\u0120missing": 5630, "\u0120seat": 5631, "\u0120georg": 5632, "water": 5633, "\u012059": 5634, "\u0120bath": 5635, "\u0120turning": 5636, "\u0120capable": 5637, "\u0120everything": 5638, "\u0120hornung": 5639, "\u0120overse": 5640, "usal": 5641, "\u0120classic": 5642, "iston": 5643, "\u0120cruiser": 5644, "\u0120mountains": 5645, "\u0120technique": 5646, "\u0120anything": 5647, "\u0120weakened": 5648, "\u0120unsuccess": 5649, "\u0120ceremony": 5650, "jam": 5651, "\u0120usa": 5652, "\u0120holding": 5653, "\u0120jazz": 5654, "\u0120mine": 5655, "\u0120resident": 5656, "\u01201967": 5657, "mel": 5658, "\u0120table": 5659, "\u0120descend": 5660, "\u0120legacy": 5661, "\u0120evac": 5662, "\u0120railroad": 5663, "\u012066": 5664, "\u0120tells": 5665, "\u0120assistant": 5666, "\u0120astronom": 5667, "rig": 5668, "\u0120inspir": 5669, "\u0120joy": 5670, "itors": 5671, "isf": 5672, "\u0120restaurant": 5673, "\u012098": 5674, "\u01201914": 5675, "\u0120creator": 5676, "\u0120headed": 5677, "\u0120similarly": 5678, "\u0120rules": 5679, "\u0120decline": 5680, "\u0120myc": 5681, "ione": 5682, "\u0120banks": 5683, "\u0120serves": 5684, "iles": 5685, "\u0120provides": 5686, "\u0120derived": 5687, "\u0120courts": 5688, "agre": 5689, "\u0120caribbe": 5690, "\u0120storyline": 5691, "\u0120jers": 5692, "\u0120175": 5693, "aire": 5694, "inn": 5695, "\u0120aml": 5696, "\u0120monarch": 5697, "\u0120acid": 5698, "\u0120colonial": 5699, "\u0120mul": 5700, "\u0120noisy": 5701, "\u0120iguanodon": 5702, "\u0120downlo": 5703, "pective": 5704, "entially": 5705, "\u0120orchest": 5706, "\u0120douglas": 5707, "\u0120supposed": 5708, "\u0120classified": 5709, "\u0120sort": 5710, "\u0120sufficient": 5711, "\u0120invited": 5712, "\u0120bought": 5713, "vens": 5714, "\u0120diam": 5715, "\u0120sed": 5716, "set": 5717, "\u0120palace": 5718, "\u0120locations": 5719, "ifications": 5720, "\u0120hills": 5721, "\u0120inner": 5722, "\u0120prin": 5723, "agn": 5724, "\u0120battleship": 5725, "\u0120divers": 5726, "\u0120hyp": 5727, "\u0120filled": 5728, "\u0120philosoph": 5729, "\u0120rolling": 5730, "body": 5731, "\u0120flights": 5732, "\u0120survived": 5733, "\u0120grade": 5734, "\u0120caribbean": 5735, "\u0120falls": 5736, "\u0120resour": 5737, "\u0120pitch": 5738, "\u0120reading": 5739, "\u0120pup": 5740, "\u0120viewed": 5741, "\u0120colour": 5742, "\u0120innings": 5743, "\u0120dissipated": 5744, "\u0120chelsea": 5745, "\u0120custom": 5746, "\u0120shared": 5747, "\u0120ways": 5748, "\u0120vision": 5749, "\u0120establishment": 5750, "\u0120colonel": 5751, "\u0120atmosphere": 5752, "\u0120acquired": 5753, "\u0120shore": 5754, "\u0120receive": 5755, "\u0120rebu": 5756, "\u0120trying": 5757, "\u0120rhyth": 5758, "\u0120wy": 5759, "\u0120rural": 5760, "\u0120roc": 5761, "\u0120ori": 5762, "\u0120doct": 5763, "\u0120dim": 5764, "\u01201971": 5765, "\u0120evil": 5766, "\u0120crop": 5767, "\u0120describing": 5768, "\u0120sche": 5769, "\u0120opinion": 5770, "abil": 5771, "\u0120eagle": 5772, "\u0120repeated": 5773, "\u0120novels": 5774, "\u01201945": 5775, "\u0120ratings": 5776, "\u0120watched": 5777, "\u0120gate": 5778, "\u0120sang": 5779, "\u0120alien": 5780, "\u0120sara": 5781, "\u0120exact": 5782, "\u0120jay": 5783, "\u0120electronic": 5784, "\u0120asia": 5785, "\u0120puzz": 5786, "\u0120constantine": 5787, "\u0120destiny": 5788, "\u0120georgian": 5789, "\u0120perry": 5790, "var": 5791, "\u0120hibari": 5792, "zac": 5793, "\u0120maeda": 5794, "\u0120turns": 5795, "\u0120crimin": 5796, "\u0120myster": 5797, "\u0120entry": 5798, "acity": 5799, "\u0120pack": 5800, "\u0120lee": 5801, "\u0120demand": 5802, "\u0120250": 5803, "\u0120converted": 5804, "aments": 5805, "\u0120library": 5806, "\u0120fine": 5807, "\u0120amate": 5808, "\u0120moder": 5809, "\u0120teaching": 5810, "\u0120prize": 5811, "\u0120jones": 5812, "\u0120simon": 5813, "\u0120regional": 5814, "\u0120eighth": 5815, "\u0120r\u00c3\u00a9": 5816, "\u0120phoen": 5817, "\u0120penalty": 5818, "\u0120steel": 5819, "\u0120resist": 5820, "\u0120psych": 5821, "ighter": 5822, "\u0120whereas": 5823, "\u0120legend": 5824, "\u0120von": 5825, "\u0120opposition": 5826, "\u0120sad": 5827, "aka": 5828, "\u0120pav": 5829, "\u01201982": 5830, "\u0120boys": 5831, "\u0120mortal": 5832, "\u0120mtv": 5833, "\u0120exerc": 5834, "\u0120176": 5835, "\u0120oslo": 5836, "\u0120spacing": 5837, "\u0120qedar": 5838, "\u0120rio": 5839, "\u0120romani": 5840, "\u0120evergl": 5841, "\u0120everglades": 5842, "ruli": 5843, "\u0120franch": 5844, "\u0120engineers": 5845, "\u0120tas": 5846, "\u0120arranged": 5847, "\u0120recru": 5848, "\u0120focused": 5849, "iful": 5850, "\u0120enl": 5851, "\u0120renamed": 5852, "\u0120expos": 5853, "book": 5854, "\u01201916": 5855, "\u0120assistance": 5856, "\u0120finish": 5857, "\u0120entering": 5858, "\u0120haiti": 5859, "\u0120explos": 5860, "ivered": 5861, "\u0120venus": 5862, "\u0120dating": 5863, "ador": 5864, "\u0120lad": 5865, "itan": 5866, "\u0120dod": 5867, "\u0120succeeded": 5868, "\u0120depicted": 5869, "\u0120knew": 5870, "ception": 5871, "\u0120rescue": 5872, "\u0120brazil": 5873, "\u01201956": 5874, "estone": 5875, "\u0120providing": 5876, "\u01201913": 5877, "\u0120uncle": 5878, "issance": 5879, "vis": 5880, "\u0120pregn": 5881, "iot": 5882, "\u0120lover": 5883, "pton": 5884, "\u01201976": 5885, "\u0120moz": 5886, "\u0120poems": 5887, "\u0120unre": 5888, "\u0120consisting": 5889, "\u0120attached": 5890, "\u0120article": 5891, "\u0120citiz": 5892, "\u0120conqu": 5893, "erick": 5894, "\u01201943": 5895, "\u0120discip": 5896, "\u0120orn": 5897, "\u0120agent": 5898, "\u0120tied": 5899, "\u0120credited": 5900, "\u0120strateg": 5901, "\u0120address": 5902, "\u0120supplies": 5903, "\u0120delivered": 5904, "\u0120romantic": 5905, "\u0120separated": 5906, "\u0120partners": 5907, "mat": 5908, "ardo": 5909, "\u0120certified": 5910, "\u0120disturb": 5911, "\u0120ghost": 5912, "iance": 5913, "\u0120defined": 5914, "sp": 5915, "\u0120siege": 5916, "ilton": 5917, "\u0120methods": 5918, "\u0120regime": 5919, "\u0120refle": 5920, "\u0120holds": 5921, "\u0120township": 5922, "\u0120immig": 5923, "\u0120112": 5924, "\u0120credits": 5925, "\u0120camps": 5926, "\u0120communist": 5927, "\u0120basketball": 5928, "\u0120tomb": 5929, "ares": 5930, "\u0120lenn": 5931, "\u0120adapted": 5932, "bles": 5933, "usted": 5934, "ropri": 5935, "\u0120depos": 5936, "\u0120civilian": 5937, "\u0120print": 5938, "\u0120stevens": 5939, "bur": 5940, "nell": 5941, "\u0120secure": 5942, "\u0120pole": 5943, "\u0120athletic": 5944, "\u0120outstanding": 5945, "\u0120rarely": 5946, "\u0120sudden": 5947, "\u0120examples": 5948, "\u0120desire": 5949, "\u0120hear": 5950, "uma": 5951, "\u0120conduct": 5952, "\u0120commanded": 5953, "\u0120hindu": 5954, "iece": 5955, "\u0120jersey": 5956, "ube": 5957, "\u01201963": 5958, "\u0120controversy": 5959, "\u012087": 5960, "\u0120morrison": 5961, "\u0120hits": 5962, "\u0120conve": 5963, "\u0120rangers": 5964, "\u0120patt": 5965, "\u0120dinosaur": 5966, "\u0120professor": 5967, "\u0120colonies": 5968, "eds": 5969, "\u0120select": 5970, "\u0120classes": 5971, "\u0120mississ": 5972, "\u0120mississipp": 5973, "\u0120remainder": 5974, "\u0120arthur": 5975, "\u0120window": 5976, "\u0120walter": 5977, "pany": 5978, "\u0120leaves": 5979, "\u0120plain": 5980, "\u0120prey": 5981, "\u0120finishing": 5982, "\u0120columbia": 5983, "\u0120voy": 5984, "\u0120sight": 5985, "\u0120protected": 5986, "\u0120hollywood": 5987, "\u0120reputation": 5988, "\u0120shooting": 5989, "\u0120alexander": 5990, "\u0120references": 5991, "\u0120ritual": 5992, "ront": 5993, "attle": 5994, "\u0120transform": 5995, "\u0120rene": 5996, "\u0120circum": 5997, "\u0120soil": 5998, "\u0120util": 5999, "\u0120accounts": 6000, "iar": 6001, "\u0120nic": 6002, "\u0120indicate": 6003, "\u0120truj": 6004, "\u0120spin": 6005, "no": 6006, "\u0120australians": 6007, "g\u00c3\u00a9": 6008, "\u0120eliz": 6009, "\u0120portrayed": 6010, "oba": 6011, "\u0120fountain": 6012, "\u0120sunday": 6013, "\u0120archaeology": 6014, "\u0120bradford": 6015, "\u0120montana": 6016, "\u0120nas": 6017, "\u0120utc": 6018, "\u0120chess": 6019, "\u0120missions": 6020, "\u0120occurs": 6021, "\u0120memory": 6022, "\u0120synthes": 6023, "\u0120denied": 6024, "\u0120undert": 6025, "\u0120purs": 6026, "\u01201953": 6027, "\u0120producing": 6028, "\u0120threatened": 6029, "\u0120vent": 6030, "\u0120worst": 6031, "eman": 6032, "\u0120warm": 6033, "ameter": 6034, "\u0120online": 6035, "\u0120tests": 6036, "\u0120divine": 6037, "con": 6038, "mann": 6039, "\u0120soul": 6040, "\u0120lat": 6041, "ture": 6042, "\u0120introduction": 6043, "\u0120specifically": 6044, "\u0120croatian": 6045, "\u0120strengthen": 6046, "opher": 6047, "\u0120chairman": 6048, "\u0120facing": 6049, "\u0120agricultural": 6050, "\u0120appoint": 6051, "\u0120trujillo": 6052, "ora": 6053, "mod": 6054, "\u01201978": 6055, "\u0120feelings": 6056, "\u0120maryland": 6057, "\u0120hearts": 6058, "\u0120anzac": 6059, "\u0120prede": 6060, "\u0120getting": 6061, "\u0120masters": 6062, "\u0120rand": 6063, "\u0120none": 6064, "\u0120noting": 6065, "\u0120feeling": 6066, "\u0120connection": 6067, "\u0120passage": 6068, "\u0120mississippi": 6069, "\u0120favorite": 6070, "\u0120studied": 6071, "\u0120sword": 6072, "\u0120scientific": 6073, "\u0120expect": 6074, "\u0120samuel": 6075, "\u0120divisions": 6076, "\u0120anton": 6077, "\u0120replace": 6078, "\u0120wooden": 6079, "\u0120alternative": 6080, "\u0120stephen": 6081, "kh": 6082, "\u0120appearing": 6083, "\u0120interested": 6084, "\u0120recognition": 6085, "othes": 6086, "\u0120communities": 6087, "\u0120views": 6088, "inary": 6089, "\u0120acts": 6090, "ients": 6091, "elli": 6092, "agues": 6093, "\u0120successor": 6094, "\u0120substit": 6095, "\u0120ax": 6096, "\u0120strand": 6097, "\u0120leads": 6098, "entions": 6099, "\u0120statement": 6100, "\u0120offense": 6101, "\u0120stef": 6102, "\u0120indig": 6103, "\u0120exit": 6104, "\u0120charlie": 6105, "oe": 6106, "\u0120alan": 6107, "\u0120\u00e2\u012a": 6108, "\u0120\u00e2\u012a\u0134": 6109, "\u0120bos": 6110, "\u0120labour": 6111, "\u0120homer": 6112, "dal": 6113, "\u0120roxas": 6114, "\u0120speech": 6115, "rant": 6116, "\u0120unp": 6117, "\u0120arsenal": 6118, "\u0120supreme": 6119, "\u0120message": 6120, "\u0120rifles": 6121, "rations": 6122, "\u0120principal": 6123, "erted": 6124, "\u0120marg": 6125, "\u01201915": 6126, "\u0120picture": 6127, "\u0120wrong": 6128, "\u0120gallery": 6129, "\u0120seeing": 6130, "uri": 6131, "break": 6132, "\u0120maintain": 6133, "\u0120dismissed": 6134, "\u0120basic": 6135, "\u0120reviewer": 6136, "\u0120howard": 6137, "\u0120nether": 6138, "ructure": 6139, "pping": 6140, "\u0120dollars": 6141, "\u012069": 6142, "\u0120cens": 6143, "ef": 6144, "\u0120knight": 6145, "\u0120nbc": 6146, "\u0120global": 6147, "\u0120duke": 6148, "\u0120warri": 6149, "\u0120brand": 6150, "\u0120biographer": 6151, "\u0120ern": 6152, "\u0120lords": 6153, "gie": 6154, "\u00c3\u00b8": 6155, "\u0120activision": 6156, "\u0120plunk": 6157, "\u0120changing": 6158, "\u0120capacity": 6159, "\u0120enterprise": 6160, "\u0120plants": 6161, "\u0120specimens": 6162, "onder": 6163, "\u0120continuing": 6164, "\u0120attributed": 6165, "\u0120ninth": 6166, "\u0120si": 6167, "\u0120knots": 6168, "\u0120sell": 6169, "\u0120veget": 6170, "\u0120retire": 6171, "\u0120twel": 6172, "\u0120twelve": 6173, "\u0120discussed": 6174, "worth": 6175, "\u0120charges": 6176, "acent": 6177, "\u0120academic": 6178, "orters": 6179, "\u0120opponents": 6180, "\u0120isabella": 6181, "\u0120involvement": 6182, "\u0120considerable": 6183, "\u0120drawing": 6184, "\u0120pursu": 6185, "oz": 6186, "aws": 6187, "\u0120extrem": 6188, "\u0120tribes": 6189, "\u0120tie": 6190, "\u0120calvert": 6191, "\u0120predecess": 6192, "\u0120difficulty": 6193, "\u0120dangerous": 6194, "\u0120flash": 6195, "aga": 6196, "\u0120someone": 6197, "\u012091": 6198, "\u0120marks": 6199, "\u01201890": 6200, "\u01201917": 6201, "\u0120sevent": 6202, "\u0120taught": 6203, "\u01201948": 6204, "\u0120challenge": 6205, "\u0120dna": 6206, "\u0120exchange": 6207, "otes": 6208, "\u0120shut": 6209, "\u0120offers": 6210, "\u0120towers": 6211, "\u0120session": 6212, "\u0120settle": 6213, "nic": 6214, "\u0120tig": 6215, "orer": 6216, "\u012079": 6217, "\u0120worth": 6218, "osis": 6219, "\u012074": 6220, "arts": 6221, "eenth": 6222, "\u0120ruled": 6223, "tic": 6224, "\u0120standards": 6225, "\u0120pale": 6226, "\u0120forests": 6227, "\u0120hud": 6228, "\u0120scholar": 6229, "\u0120crash": 6230, "\u0120prose": 6231, "\u0120theater": 6232, "\u0120leuk": 6233, "\u0120vary": 6234, "\u0120adventure": 6235, "\u0120saraje": 6236, "\u0120sarajevo": 6237, "\u0120wealth": 6238, "\u0120clarks": 6239, "\u0120danny": 6240, "\u0120releg": 6241, "\u0120yank": 6242, "\u0120inland": 6243, "uct": 6244, "pus": 6245, "\u0120kitsune": 6246, "\u0120subt": 6247, "\u0120fab": 6248, "\u0120frederick": 6249, "\u0120demol": 6250, "oul": 6251, "\u0120guardian": 6252, "\u0120faces": 6253, "\u0120victoria": 6254, "\u0120signing": 6255, "\u0120campb": 6256, "uit": 6257, "\u012088": 6258, "engers": 6259, "\u0120manner": 6260, "\u0120superior": 6261, "\u0120absor": 6262, "idden": 6263, "\u0120product": 6264, "\u0120exception": 6265, "\u0120split": 6266, "\u0120emotional": 6267, "\u01201979": 6268, "\u01201951": 6269, "\u0120talk": 6270, "ram": 6271, "fri": 6272, "\u0120anne": 6273, "\u0120launch": 6274, "\u0120rocky": 6275, "\u0120yankovic": 6276, "\u0120sher": 6277, "\u0120ther": 6278, "\u0120alg": 6279, "\u0120cory": 6280, "\u0120jif": 6281, "\u0120nap": 6282, "union": 6283, "\u0120gather": 6284, "\u01201954": 6285, "\u01201961": 6286, "\u0120alph": 6287, "\u0120ancest": 6288, "\u0120breaking": 6289, "\u0120shop": 6290, "\u0120observations": 6291, "graded": 6292, "\u0120ere": 6293, "\u0120decor": 6294, "rec": 6295, "\u0120joe": 6296, "oth": 6297, "\u0120page": 6298, "\u0120landed": 6299, "\u0120nomination": 6300, "iously": 6301, "\u0120cu": 6302, "\u0120leadership": 6303, "\u0120relationships": 6304, "\u0120neighbor": 6305, "\u0120lap": 6306, "berts": 6307, "anger": 6308, "\u0120races": 6309, "avia": 6310, "\u0120simult": 6311, "\u0120simultane": 6312, "\u0120proceed": 6313, "\u0120replacement": 6314, "\u0120candidate": 6315, "\u0120consum": 6316, "\u0120coup": 6317, "rell": 6318, "\u0120historians": 6319, "\u0120cloud": 6320, "abeth": 6321, "\u0120herit": 6322, "\u0120heritage": 6323, "\u0120chamber": 6324, "\u0120ske": 6325, "itled": 6326, "\u0120archb": 6327, "\u0120ech": 6328, "20": 6329, "\u0120bert": 6330, "\u0120brigades": 6331, "\u0120crossing": 6332, "\u0120clarkson": 6333, "\u0120wim": 6334, "\u0120dag": 6335, "named": 6336, "\u0120121": 6337, "\u0120mam": 6338, "\u0120yan": 6339, "\u00c3\u00a7": 6340, "\u0120mode": 6341, "\u0120nighting": 6342, "\u0120mozamb": 6343, "\u0120somali": 6344, "\u00c4\u0123nt": 6345, "eless": 6346, "\u0120distributed": 6347, "ivals": 6348, "\u0120tank": 6349, "ceived": 6350, "\u0120organizations": 6351, "\u0120amateur": 6352, "eper": 6353, "\u0120recommended": 6354, "\u0120agency": 6355, "\u01201937": 6356, "\u0120diet": 6357, "\u0120paras": 6358, "\u0120picked": 6359, "\u0120fro": 6360, "\u0120bringing": 6361, "\u0120heli": 6362, "\u0120rooms": 6363, "aska": 6364, "\u0120intersection": 6365, "\u012099": 6366, "\u0120cot": 6367, "orous": 6368, "illing": 6369, "ranean": 6370, "iary": 6371, "\u0120rever": 6372, "ropol": 6373, "agu": 6374, "\u0120roberts": 6375, "\u0120parties": 6376, "\u0120accur": 6377, "\u0120bure": 6378, "istol": 6379, "\u0120destroyers": 6380, "i\u00c4\u0129": 6381, "\u0120carbon": 6382, "\u0120fungus": 6383, "\u0120francisco": 6384, "\u0120secured": 6385, "\u0120classical": 6386, "gas": 6387, "osa": 6388, "\u0120documentary": 6389, "onica": 6390, "\u0120behavi": 6391, "\u0120marines": 6392, "\u0120bush": 6393, "\u0120believes": 6394, "\u0120walk": 6395, "\u0120legs": 6396, "\u0120teeth": 6397, "\u0120estate": 6398, "\u0120blocks": 6399, "\u00c5\u013d": 6400, "\u0120adults": 6401, "\u0120partial": 6402, "\u0120santa": 6403, "\u0120extremely": 6404, "\u0120watershed": 6405, "\u0120jerusal": 6406, "\u0120jerusalem": 6407, "\u0120gle": 6408, "\u0120simps": 6409, "\u0120simpsons": 6410, "\u0120wilde": 6411, "brien": 6412, "\u0120bono": 6413, "\u0120nightingale": 6414, "\u0120jifna": 6415, "\u0120skye": 6416, "\u0120nevert": 6417, "\u0120nevertheless": 6418, "\u0120multi": 6419, "actions": 6420, "\u0120listen": 6421, "ussion": 6422, "\u0120rifle": 6423, "\u0120gone": 6424, "\u0120clay": 6425, "\u01201955": 6426, "\u0120missed": 6427, "\u0120carter": 6428, "\u0120disapp": 6429, "\u0120expansion": 6430, "\u0120diameter": 6431, "\u0120streets": 6432, "ivalent": 6433, "iveness": 6434, "\u0120web": 6435, "\u0120languages": 6436, "\u0120municipal": 6437, "\u0120annivers": 6438, "\u0120concerns": 6439, "\u0120immediate": 6440, "\u0120surrounded": 6441, "\u0120godd": 6442, "\u0120learning": 6443, "crib": 6444, "ti": 6445, "yles": 6446, "\u0120isolated": 6447, "ext": 6448, "\u0120hamilton": 6449, "\u0120surviving": 6450, "umps": 6451, "\u0120sections": 6452, "\u0120construct": 6453, "\u0120pir": 6454, "\u0120adam": 6455, "\u0120mah": 6456, "\u0120showing": 6457, "\u0120olympics": 6458, "\u0120territories": 6459, "\u0120genre": 6460, "\u0120ml": 6461, "\u0120adams": 6462, "\u0120\u00c3\u0139": 6463, "\u0120windows": 6464, "\u0120tunnel": 6465, "\u0120chen": 6466, "\u0120argentina": 6467, "\u0120wic": 6468, "\u00e1\u00bb": 6469, "\u0120lanc": 6470, "adow": 6471, "\u0120detail": 6472, "\u0120sons": 6473, "\u01201958": 6474, "\u0120flat": 6475, "\u0120institutions": 6476, "\u0120commonwe": 6477, "\u0120commonwealth": 6478, "iable": 6479, "\u0120hoc": 6480, "\u0120intention": 6481, "\u0120vac": 6482, "\u0120inspiration": 6483, "\u0120armor": 6484, "\u0120retreat": 6485, "\u0120admiral": 6486, "\u0120gam": 6487, "\u0120emerged": 6488, "\u0120anniversary": 6489, "\u012089": 6490, "rets": 6491, "\u0120ruler": 6492, "\u0120existed": 6493, "\u0120inhabit": 6494, "\u0120extreme": 6495, "\u0120encouraged": 6496, "\u0120heaven": 6497, "aya": 6498, "\u0120wants": 6499, "\u0120firing": 6500, "ipe": 6501, "\u0120detailed": 6502, "\u0120portrait": 6503, "\u0120dipl": 6504, "\u0120approached": 6505, "\u0120arrangement": 6506, "\u01201900": 6507, "\u0120protests": 6508, "inals": 6509, "\u0120tick": 6510, "uge": 6511, "\u0120isl": 6512, "\u0120compounds": 6513, "bie": 6514, "\u0120tries": 6515, "\u0120banai": 6516, "ocked": 6517, "\u0120sequel": 6518, "\u0120hi": 6519, "\u0120ryan": 6520, "\u0120cris": 6521, "\u0120bron": 6522, "\u0120flo": 6523, "using": 6524, "\u0120freedom": 6525, "\u0120admitted": 6526, "\u0120pointed": 6527, "\u0120suffering": 6528, "\u0120correct": 6529, "\u0120infr": 6530, "\u0120implement": 6531, "eor": 6532, "\u0120autom": 6533, "\u0120bear": 6534, "iling": 6535, "\u0120songwrit": 6536, "\u0120choir": 6537, "\u0120fern": 6538, "\u0120pin": 6539, "\u0120triple": 6540, "\u0120attempting": 6541, "\u0120cob": 6542, "\u0120crossed": 6543, "\u0120renew": 6544, "\u0120treated": 6545, "\u0120unusual": 6546, "\u0120hoped": 6547, "mus": 6548, "\u0120institution": 6549, "\u0120crest": 6550, "sch": 6551, "\u0120internal": 6552, "\u0120regularly": 6553, "\u01201949": 6554, "\u0120giant": 6555, "itals": 6556, "\u01201977": 6557, "\u0120tu": 6558, "\u0120climate": 6559, "\u0120norman": 6560, "raf": 6561, "\u0120designation": 6562, "esi": 6563, "\u0120counties": 6564, "\u0120videos": 6565, "\u0120roger": 6566, "\u0120cov": 6567, "\u0120eggs": 6568, "\u0120stem": 6569, "\u0120mega": 6570, "\u0120lbw": 6571, "\u0120ceratops": 6572, "\u0120lennon": 6573, "av\u00c4\u0123da": 6574, "\u0120franchise": 6575, "\u0120improve": 6576, "\u0120na": 6577, "\u0120flower": 6578, "\u0120serial": 6579, "\u0120possession": 6580, "\u0120assumed": 6581, "\u0120caval": 6582, "\u0120duties": 6583, "\u0120aged": 6584, "\u0120verse": 6585, "antly": 6586, "\u0120owner": 6587, "\u0120statistics": 6588, "\u0120meteor": 6589, "\u0120visible": 6590, "uda": 6591, "\u0120imposs": 6592, "\u0120laws": 6593, "inking": 6594, "\u0120medium": 6595, "\u0120initiative": 6596, "icts": 6597, "\u0120strongly": 6598, "\u0120ackn": 6599, "\u0120acknow": 6600, "imate": 6601, "\u0120identity": 6602, "rif": 6603, "\u0120kid": 6604, "\u0120transition": 6605, "\u0120airline": 6606, "\u0120prohib": 6607, "\u0120hundreds": 6608, "wich": 6609, "\u0120fled": 6610, "arf": 6611, "\u0120approved": 6612, "\u0120sulf": 6613, "\u0120pione": 6614, "otic": 6615, "ois": 6616, "unt": 6617, "\u0120protagonist": 6618, "\u0120sessions": 6619, "\u0120desert": 6620, "\u0120wearing": 6621, "\u0120resources": 6622, "\u0120jean": 6623, "emia": 6624, "\u0120indeed": 6625, "\u0120musicians": 6626, "inger": 6627, "coming": 6628, "\u0120footage": 6629, "\u0120reconstruction": 6630, "oca": 6631, "\u0120relative": 6632, "\u0120convoy": 6633, "\u0120tales": 6634, "\u0120saprang": 6635, "ien": 6636, "\u012007": 6637, "\u0120rhodes": 6638, "aurus": 6639, "\u0120herg\u00c3\u00a9": 6640, "\u0120crusad": 6641, "\u0120kilmer": 6642, "\u0120janeiro": 6643, "\u0120goffman": 6644, "\u00e0\u00a4": 6645, "\u0120anek": 6646, "\u0120bol\u00c3\u0143": 6647, "\u0120bol\u00c3\u0143var": 6648, "\u0120completion": 6649, "\u0120accused": 6650, "\u0120partly": 6651, "\u0120ak": 6652, "oom": 6653, "\u0120specimen": 6654, "\u0120interp": 6655, "\u0120ina": 6656, "\u0120equal": 6657, "\u0120kin": 6658, "\u0120wings": 6659, "\u0120doubt": 6660, "\u0120collabor": 6661, "\u01201983": 6662, "\u0120indicated": 6663, "\u0120shakes": 6664, "uses": 6665, "\u0120molec": 6666, "\u0120winner": 6667, "\u0120dean": 6668, "\u0120camera": 6669, "\u0120shif": 6670, "\u0120fixed": 6671, "\u0120terminus": 6672, "\u0120georgia": 6673, "\u0120trials": 6674, "\u0120heat": 6675, "\u0120easily": 6676, "\u0120pleasure": 6677, "\u0120attracted": 6678, "\u0120preced": 6679, "\u0120concerned": 6680, "\u012093": 6681, "\u0120looked": 6682, "\u01201910": 6683, "odies": 6684, "\u0120cycle": 6685, "\u0120circumst": 6686, "\u0120inte": 6687, "\u0120debate": 6688, "lying": 6689, "udes": 6690, "\u0120pure": 6691, "\u0120harm": 6692, "\u0120practices": 6693, "\u0120craft": 6694, "\u0120cater": 6695, "ym": 6696, "rates": 6697, "\u0120proport": 6698, "\u0120adjacent": 6699, "\u0120cabin": 6700, "encies": 6701, "\u0120behaviour": 6702, "\u0120spr": 6703, "\u0120medal": 6704, "\u0120reconna": 6705, "\u0120reconnaissance": 6706, "\u012006": 6707, "\u012063": 6708, "\u0120hunting": 6709, "ables": 6710, "\u0120catch": 6711, "\u0120concerts": 6712, "\u0120meets": 6713, "\u0120bce": 6714, "whel": 6715, "\u0120dramatic": 6716, "\u0120thro": 6717, "wen": 6718, "\u0120wimbled": 6719, "\u0120wimbledon": 6720, "\u0120richardson": 6721, "\u0120wel": 6722, "\u0120owen": 6723, "\u0120gerard": 6724, "\u0120prer": 6725, "\u0120prerog": 6726, "\u0120lawton": 6727, "\u0120starling": 6728, "\u0120anek\u00c4\u0123nt": 6729, "\u0120composer": 6730, "\u0120download": 6731, "\u0120incorporated": 6732, "\u0120moral": 6733, "\u0120purchase": 6734, "\u0120emerg": 6735, "\u0120exha": 6736, "umin": 6737, "\u0120influences": 6738, "\u0120challeng": 6739, "\u0120pool": 6740, "allow": 6741, "\u0120diamond": 6742, "\u0120pink": 6743, "\u0120queens": 6744, "ahl": 6745, "\u0120shots": 6746, "\u0120falling": 6747, "oking": 6748, "\u0120rhythm": 6749, "\u0120aggress": 6750, "\u0120ward": 6751, "\u0120traveled": 6752, "\u0120settled": 6753, "\u0120understand": 6754, "\u0120recordings": 6755, "\u0120ministry": 6756, "\u0120effectively": 6757, "\u0120rated": 6758, "\u0120destruction": 6759, "\u0120reduce": 6760, "lets": 6761, "\u0120sculpture": 6762, "\u0120feather": 6763, "\u0120boss": 6764, "\u0120metall": 6765, "\u0120artific": 6766, "\u0120prol": 6767, "\u0120publishing": 6768, "\u0120congreg": 6769, "\u0120doctor": 6770, "\u0120remnants": 6771, "how": 6772, "\u0120cambridge": 6773, "eton": 6774, "organ": 6775, "\u0120verte": 6776, "tw": 6777, "\u0120korean": 6778, "\u0120gor": 6779, "\u0120parks": 6780, "\u0120spaces": 6781, "\u0120mant": 6782, "\u0120somalia": 6783, "\u0120parallel": 6784, "\u0120ace": 6785, "\u0120essential": 6786, "\u0120seemed": 6787, "\u0120convention": 6788, "\u0120recalled": 6789, "\u0120somewh": 6790, "\u0120somewhat": 6791, "\u0120obtained": 6792, "\u0120painted": 6793, "\u01201880": 6794, "\u0120meetings": 6795, "attered": 6796, "yard": 6797, "\u0120holiday": 6798, "\u0120selection": 6799, "\u0120controversial": 6800, "itated": 6801, "heim": 6802, "\u0120jesus": 6803, "\u0120ages": 6804, "\u0120merch": 6805, "\u0120displ": 6806, "\u0120attacking": 6807, "aware": 6808, "\u0120funds": 6809, "\u0120victims": 6810, "\u0120restoration": 6811, "\u0120solar": 6812, "str": 6813, "\u0120behavior": 6814, "\u0120ker": 6815, "\u0120aviation": 6816, "\u0120operating": 6817, "opl": 6818, "\u01201909": 6819, "rus": 6820, "\u0120context": 6821, "\u0120stands": 6822, "going": 6823, "\u0120absol": 6824, "\u0120puppet": 6825, "\u0120garc": 6826, "\u0120impl": 6827, "\u0120afterwards": 6828, "\u0120accommod": 6829, "\u0120boom": 6830, "ifer": 6831, "right": 6832, "\u0120measures": 6833, "\u0120driving": 6834, "\u0120cant": 6835, "\u0120recovered": 6836, "\u0120pupils": 6837, "\u012005": 6838, "tz": 6839, "\u0120eleven": 6840, "\u0120wet": 6841, "\u0120advis": 6842, "\u0120overwhel": 6843, "\u0120lob": 6844, "\u0120furt": 6845, "\u0120sb": 6846, "yon": 6847, "\u0120bridges": 6848, "\u0120pitcher": 6849, "\u0120122": 6850, "\u0120hob": 6851, "atech": 6852, "\u0120storms": 6853, "\u0120aniston": 6854, "\u00ca\u00bb": 6855, "\u0120keamy": 6856, "\u0120komb": 6857, "\u0120kombat": 6858, "\u0120escort": 6859, "\u0120tone": 6860, "\u0120divor": 6861, "\u0120representing": 6862, "\u0120crisis": 6863, "\u0120buck": 6864, "\u01201912": 6865, "onso": 6866, "\u0120shakespe": 6867, "\u0120consc": 6868, "\u0120repr": 6869, "\u0120panel": 6870, "idae": 6871, "icate": 6872, "\u0120lowest": 6873, "\u0120manus": 6874, "\u0120preserved": 6875, "za": 6876, "annah": 6877, "\u0120bah": 6878, "\u0120passengers": 6879, "\u0120oak": 6880, "\u0120pier": 6881, "\u0120circulation": 6882, "gers": 6883, "\u0120hosted": 6884, "\u0120arabic": 6885, "\u0120opposite": 6886, "\u0120cancer": 6887, "\u0120convin": 6888, "\u0120goddess": 6889, "\u0120distinguished": 6890, "\u0120origins": 6891, "\u0120underst": 6892, "\u0120linked": 6893, "\u0120interaction": 6894, "\u0120architecture": 6895, "\u0120cem": 6896, "\u0120normally": 6897, "\u0120incom": 6898, "\u0120destroyer": 6899, "achus": 6900, "\u0120rebels": 6901, "\u0120generals": 6902, "ected": 6903, "\u0120grace": 6904, "\u0120throwing": 6905, "\u01201931": 6906, "\u0120elizabeth": 6907, "\u0120praise": 6908, "\u0120cave": 6909, "\u012008": 6910, "\u0120mayor": 6911, "\u0120poland": 6912, "\u0120germans": 6913, "\u0120teach": 6914, "\u0120directors": 6915, "ras": 6916, "\u01201935": 6917, "\u012058": 6918, "\u0120researchers": 6919, "\u0120johnston": 6920, "\u0120fraser": 6921, "\u0120cake": 6922, "\u0120witch": 6923, "\u0120plunketts": 6924, "\u0120coryth": 6925, "\u0120corythosaurus": 6926, "\u0120carrying": 6927, "\u0120alt": 6928, "\u0120responsibility": 6929, "\u0120limit": 6930, "aku": 6931, "\u0120nintend": 6932, "\u0120nintendo": 6933, "\u0120fate": 6934, "\u0120inaug": 6935, "\u0120stayed": 6936, "\u012086": 6937, "\u0120returns": 6938, "\u0120covers": 6939, "\u0120shakespeare": 6940, "\u0120propag": 6941, "\u0120bapt": 6942, "\u01201932": 6943, "\u0120gib": 6944, "\u0120fold": 6945, "ensis": 6946, "\u0120hockey": 6947, "\u0120trading": 6948, "\u0120willing": 6949, "\u0120stanley": 6950, "\u0120programme": 6951, "\u0120crosses": 6952, "\u0120calc": 6953, "\u0120equipped": 6954, "\u0120pad": 6955, "\u0120satur": 6956, "\u0120income": 6957, "\u0120sab": 6958, "\u0120bone": 6959, "\u0120sisters": 6960, "hist": 6961, "\u0120recur": 6962, "\u0120vessel": 6963, "\u0120monuments": 6964, "\u0120answ": 6965, "\u0120interpret": 6966, "\u0120infrast": 6967, "\u012068": 6968, "\u0120expensive": 6969, "\u0120forming": 6970, "\u0120difficulties": 6971, "\u0120dc": 6972, "\u0120sees": 6973, "\u0120disaster": 6974, "\u0120judge": 6975, "\u0120inse": 6976, "\u0120defended": 6977, "\u0120covering": 6978, "\u0120artificial": 6979, "\u0120cemeter": 6980, "\u0120ust": 6981, "\u0120archbishop": 6982, "\u0120audio": 6983, "atures": 6984, "\u0120junior": 6985, "\u0120wi": 6986, "\u0120alf": 6987, "\u0120elsewhere": 6988, "\u0120eccl": 6989, "olay": 6990, "\u0120mobile": 6991, "\u0120va": 6992, "\u0120allah": 6993, "\u0120ira": 6994, "\u0120toll": 6995, "\u0120rag": 6996, "\u0120gri": 6997, "esse": 6998, "\u0120wine": 6999, "\u0120defences": 7000, "\u0120marlborough": 7001, "\u0120tailed": 7002, "\u0120prerogative": 7003, "\u0120waterfall": 7004, "\u0120helmet": 7005, "\u0120palmy": 7006, "\u0120fia": 7007, "\u0120az": 7008, "\u0120otherwise": 7009, "\u0120swit": 7010, "\u0120promote": 7011, "\u0120horiz": 7012, "\u0120citizens": 7013, "\u0120confeder": 7014, "\u0120earl": 7015, "rating": 7016, "\u0120carp": 7017, "\u0120barr": 7018, "\u01201911": 7019, "\u0120elder": 7020, "\u0120glad": 7021, "\u01201929": 7022, "\u0120thousand": 7023, "\u01201921": 7024, "\u0120beautiful": 7025, "\u0120tip": 7026, "\u0120manuscript": 7027, "\u0120alter": 7028, "\u0120pant": 7029, "\u0120nd": 7030, "\u012082": 7031, "\u0120impossible": 7032, "\u0120pushed": 7033, "\u0120princess": 7034, "\u0120bang": 7035, "\u0120ambass": 7036, "\u0120stead": 7037, "\u0120cull": 7038, "\u0120bombard": 7039, "\u0120tex": 7040, "\u0120villages": 7041, "\u0120universal": 7042, "\u0120elabor": 7043, "ishment": 7044, "icide": 7045, "oles": 7046, "\u0120tribut": 7047, "\u0120netherlands": 7048, "\u0120environmental": 7049, "\u0120satisf": 7050, "\u0120legislation": 7051, "scop": 7052, "\u0120burning": 7053, "\u0120voted": 7054, "\u0120lith": 7055, "\u0120spur": 7056, "\u0120occasions": 7057, "\u0120supporters": 7058, "\u0120agree": 7059, "\u0120eric": 7060, "\u0120comments": 7061, "\u0120obser": 7062, "\u0120diplom": 7063, "\u0120arrested": 7064, "\u0120wag": 7065, "\u0120bac": 7066, "va": 7067, "\u0120ped": 7068, "\u0120tong": 7069, "ware": 7070, "\u0120survivors": 7071, "\u0120patrick": 7072, "\u0120hou": 7073, "\u0120defeating": 7074, "\u0120internet": 7075, "cki": 7076, "\u0120patri": 7077, "amps": 7078, "ithic": 7079, "\u0120hay": 7080, "put": 7081, "\u0120bou": 7082, "\u0120geoff": 7083, "burn": 7084, "\u0120lawrence": 7085, "\u0120fei": 7086, "hews": 7087, "\u0120canter": 7088, "owie": 7089, "\u0120retained": 7090, "\u0120voiced": 7091, "\u0120citing": 7092, "\u0120instru": 7093, "lete": 7094, "\u0120accompany": 7095, "\u0120garden": 7096, "\u0120parish": 7097, "\u01201938": 7098, "\u0120tale": 7099, "\u01201962": 7100, "\u0120treas": 7101, "\u01201959": 7102, "fare": 7103, "\u0120streak": 7104, "\u0120understanding": 7105, "\u0120disappo": 7106, "\u0120involving": 7107, "\u0120observatory": 7108, "\u0120patron": 7109, "\u0120chron": 7110, "\u0120atlanta": 7111, "\u0120equivalent": 7112, "\u0120nad": 7113, "\u0120raise": 7114, "\u0120objects": 7115, "\u0120periods": 7116, "acle": 7117, "\u0120tight": 7118, "\u0120abund": 7119, "\u0120tribute": 7120, "\u0120dens": 7121, "etime": 7122, "\u0120closer": 7123, "\u0120products": 7124, "\u0120preferred": 7125, "quez": 7126, "\u0120las": 7127, "\u0120m\u00c3\u00a1": 7128, "\u0120garc\u00c3\u0143a": 7129, "\u0120sleep": 7130, "\u0120unsuccessful": 7131, "\u0120surpr": 7132, "\u0120politic": 7133, "elin": 7134, "\u0120vessels": 7135, "\u0120acclaim": 7136, "\u0120charity": 7137, "\u0120rib": 7138, "arm": 7139, "ifies": 7140, "\u0120cemetery": 7141, "\u0120criminal": 7142, "\u0120gates": 7143, "\u0120doctr": 7144, "\u0120pig": 7145, "\u0120margin": 7146, "cru": 7147, "\u0120intensified": 7148, "\u0120161": 7149, "weight": 7150, "\u0120stefani": 7151, "\u0120cryst": 7152, "utz": 7153, "\u0120catech": 7154, "\u0120amino": 7155, "\u0120batsman": 7156, "oceratops": 7157, "\u0120raff": 7158, "\u0120pitman": 7159, "\u0120cambodia": 7160, "\u0120formal": 7161, "iform": 7162, "\u0120antiqu": 7163, "\u0120appropri": 7164, "\u0120sic": 7165, "\u0120laboratory": 7166, "\u0120visitors": 7167, "rator": 7168, "\u0120collab": 7169, "\u0120collaboration": 7170, "\u0120nurs": 7171, "pes": 7172, "\u0120clock": 7173, "\u0120committed": 7174, "\u0120deployed": 7175, "\u0120bore": 7176, "\u0120deck": 7177, "\u0120rect": 7178, "\u0120resistance": 7179, "\u0120apparently": 7180, "\u0120dialogue": 7181, "\u0120causes": 7182, "\u0120housing": 7183, "\u0120needs": 7184, "\u0120mediter": 7185, "\u0120mediterranean": 7186, "\u0120twin": 7187, "\u0120temples": 7188, "\u0120reveals": 7189, "\u0120agg": 7190, "\u0120helic": 7191, "\u0120notably": 7192, "\u0120absence": 7193, "\u0120criticised": 7194, "\u0120collaps": 7195, "\u0120asc": 7196, "\u0120proposal": 7197, "\u0120sharp": 7198, "kes": 7199, "\u0120democratic": 7200, "\u0120narrative": 7201, "\u0120overseas": 7202, "\u0120moments": 7203, "\u0120spiritual": 7204, "ook": 7205, "\u0120doesn": 7206, "iques": 7207, "\u0120saved": 7208, "\u012067": 7209, "\u0120cbs": 7210, "\u0120abd": 7211, "\u0120nur": 7212, "\u0120fallen": 7213, "\u0120stable": 7214, "\u0120gent": 7215, "\u0120convection": 7216, "\u0120palestine": 7217, "\u0120caes": 7218, "\u0120subspec": 7219, "\u0120subspecies": 7220, "\u0120162": 7221, "\u0120latex": 7222, "\u0120catechism": 7223, "\u0120slide": 7224, "\u0120canterbury": 7225, "\u0120phillies": 7226, "\u0120aerith": 7227, "\u0120manga": 7228, "\u0120ready": 7229, "\u0120improv": 7230, "oh": 7231, "eline": 7232, "\u0120deem": 7233, "\u0120stationed": 7234, "\u0120represents": 7235, "onomy": 7236, "\u0120refers": 7237, "otype": 7238, "\u0120suggesting": 7239, "\u0120representative": 7240, "\u0120colorado": 7241, "\u0120posted": 7242, "\u0120saves": 7243, "esco": 7244, "\u0120modified": 7245, "elle": 7246, "illy": 7247, "apers": 7248, "\u0120hull": 7249, "\u0120intense": 7250, "\u0120dawn": 7251, "\u0120fernand": 7252, "\u0120musician": 7253, "\u0120productions": 7254, "iest": 7255, "\u0120forb": 7256, "\u0120expand": 7257, "\u0120drums": 7258, "\u0120helicop": 7259, "\u0120restrict": 7260, "igation": 7261, "\u0120enth": 7262, "\u0120formally": 7263, "\u0120submarine": 7264, "\u012009": 7265, "\u0120bureau": 7266, "\u0120trouble": 7267, "illed": 7268, "math": 7269, "\u0120loan": 7270, "\u0120followers": 7271, "\u0120exposure": 7272, "\u0120shipping": 7273, "\u0120republican": 7274, "\u0120grammy": 7275, "\u0120krak": 7276, "mate": 7277, "\u0120skull": 7278, "\u0120considers": 7279, "\u0120trick": 7280, "after": 7281, "\u0120corner": 7282, "vn": 7283, "\u0120journalist": 7284, "\u0120sale": 7285, "\u0120markg": 7286, "\u0120markgraf": 7287, "chang": 7288, "iped": 7289, "\u0120extension": 7290, "dy": 7291, "\u0120warning": 7292, "\u0120platoon": 7293, "boy": 7294, "\u0120furtado": 7295, "osom": 7296, "\u0120phr": 7297, "\u0120canyon": 7298, "\u0120imagine": 7299, "\u0120kann": 7300, "\u0120jackr": 7301, "\u0120jackrabb": 7302, "\u0120raffles": 7303, "inje": 7304, "\u0120valky": 7305, "\u0120depending": 7306, "\u0120option": 7307, "\u0120lose": 7308, "\u0120happened": 7309, "\u0120deleg": 7310, "\u0120informed": 7311, "hered": 7312, "\u0120purposes": 7313, "\u0120barker": 7314, "ses": 7315, "\u0120sacred": 7316, "\u0120extent": 7317, "\u0120seas": 7318, "\u0120reprodu": 7319, "\u0120nhl": 7320, "\u0120predators": 7321, "\u0120engines": 7322, "\u0120cotton": 7323, "\u0120obst": 7324, "abled": 7325, "\u0120cape": 7326, "\u0120tam": 7327, "\u0120saturday": 7328, "\u0120recovery": 7329, "\u0120devot": 7330, "\u0120poorly": 7331, "\u0120materials": 7332, "\u0120innov": 7333, "\u0120annually": 7334, "\u0120favour": 7335, "\u0120displays": 7336, "\u0120actual": 7337, "\u0120persu": 7338, "\u0120grounds": 7339, "\u0120ensure": 7340, "\u0120ille": 7341, "\u0120resign": 7342, "\u0120aftermath": 7343, "\u0120dominican": 7344, "\u0120remember": 7345, "rants": 7346, "\u0120orbit": 7347, "\u0120mud": 7348, "\u0120166": 7349, "\u0120ranges": 7350, "\u0120avo": 7351, "\u0120thereafter": 7352, "\u0120usta": 7353, "\u0120usta\u00c5\u00a1": 7354, "\u0120sugar": 7355, "\u0120140": 7356, "\u0120vehicle": 7357, "\u0120sholay": 7358, "\u0120networks": 7359, "\u0120hok": 7360, "\u0120baker": 7361, "hol": 7362, "\u0120communications": 7363, "\u0120reservoir": 7364, "\u0120muscaria": 7365, "\u0120models": 7366, "\u0120kim": 7367, "ooth": 7368, "\u0120childhood": 7369, "\u0120jenn": 7370, "\u0120fifa": 7371, "\u0120withdrew": 7372, "\u0120factors": 7373, "\u0120talking": 7374, "ricted": 7375, "\u0120richmond": 7376, "\u0120layer": 7377, "\u0120pull": 7378, "\u0120easy": 7379, "\u0120representatives": 7380, "\u0120injuries": 7381, "\u0120check": 7382, "apy": 7383, "\u0120vel": 7384, "\u0120writings": 7385, "\u0120supern": 7386, "\u0120gust": 7387, "\u0120throne": 7388, "\u0120useful": 7389, "life": 7390, "\u0120opportunities": 7391, "\u0120infrastructure": 7392, "\u0120driven": 7393, "\u0120lists": 7394, "osl": 7395, "\u0120simultaneously": 7396, "\u0120coins": 7397, "\u0120recommend": 7398, "zen": 7399, "\u0120rates": 7400, "\u0120mexican": 7401, "\u0120readers": 7402, "\u0120thor": 7403, "\u0120plane": 7404, "\u0120watching": 7405, "\u0120blow": 7406, "\u0120teen": 7407, "\u0120obl": 7408, "entional": 7409, "\u0120influential": 7410, "\u0120excavation": 7411, "ishn": 7412, "\u0120parv": 7413, "una": 7414, "ng": 7415, "acked": 7416, "\u0120entitled": 7417, "ogy": 7418, "friend": 7419, "\u0120camer": 7420, "zi": 7421, "\u0120advertising": 7422, "mont": 7423, "\u0120nichol": 7424, "\u0120situated": 7425, "\u0120yo": 7426, "ocy": 7427, "\u0120radiation": 7428, "agas": 7429, "\u0120blacks": 7430, "\u0120ago": 7431, "\u0120maggie": 7432, "\u0120wi\u00c5\u013d": 7433, "niowie": 7434, "\u0120starlings": 7435, "\u0120partially": 7436, "\u0120interests": 7437, "\u0120anime": 7438, "\u0120instruments": 7439, "\u0120ark": 7440, "\u0120ammun": 7441, "\u0120ammunition": 7442, "\u0120substantial": 7443, "\u0120900": 7444, "\u0120commem": 7445, "\u0120funer": 7446, "\u0120properties": 7447, "\u0120analy": 7448, "\u01201928": 7449, "\u0120rush": 7450, "\u0120installed": 7451, "\u0120historically": 7452, "\u0120moore": 7453, "\u0120struggle": 7454, "\u0120passion": 7455, "\u0120victories": 7456, "inian": 7457, "\u0120sequences": 7458, "\u0120generated": 7459, "\u0120spons": 7460, "ilst": 7461, "teenth": 7462, "\u0120sel": 7463, "oven": 7464, "\u0120fundament": 7465, "\u0120155": 7466, "uls": 7467, "\u0120circumstances": 7468, "rous": 7469, "\u0120intel": 7470, "\u0120originated": 7471, "\u0120movements": 7472, "inson": 7473, "\u0120operate": 7474, "\u0120severely": 7475, "\u0120turb": 7476, "\u0120excess": 7477, "ugosl": 7478, "\u0120burned": 7479, "\u0120norway": 7480, "\u0120spoke": 7481, "\u0120massachus": 7482, "\u0120massachusetts": 7483, "uv": 7484, "\u0120shark": 7485, "\u0120param": 7486, "\u0120personality": 7487, "chell": 7488, "\u0120portugal": 7489, "\u0120parvati": 7490, "ager": 7491, "\u0120plateau": 7492, "\u0120bulls": 7493, "\u0120liv": 7494, "\u0120cass": 7495, "\u0120tag": 7496, "\u0120benn": 7497, "lie": 7498, "\u0120driver": 7499, "itzer": 7500, "\u012078": 7501, "iang": 7502, "\u0120peters": 7503, "\u0120israeli": 7504, "\u0120athletics": 7505, "\u0120101": 7506, "\u0120adventures": 7507, "\u0120pagan": 7508, "\u0120r\u00c3\u00a9union": 7509, "\u0120wi\u00c5\u013dniowie": 7510, "tav": 7511, "\u0120wrestling": 7512, "\u0120ot": 7513, "\u0120garrison": 7514, "\u0120emergency": 7515, "\u0120scar": 7516, "\u0120predomin": 7517, "\u0120remark": 7518, "\u0120tast": 7519, "\u0120\u00e2\u0124": 7520, "\u01201927": 7521, "\u0120amongst": 7522, "\u0120survive": 7523, "wan": 7524, "\u0120frust": 7525, "\u0120listing": 7526, "\u0120agents": 7527, "\u0120everyone": 7528, "western": 7529, "\u0120anyone": 7530, "\u0120shells": 7531, "forced": 7532, "ilation": 7533, "\u0120tide": 7534, "\u0120rising": 7535, "\u0120relie": 7536, "\u0120whilst": 7537, "\u0120looks": 7538, "\u0120reven": 7539, "\u0120departure": 7540, "\u012084": 7541, "\u0120gary": 7542, "\u0120twins": 7543, "\u0120fert": 7544, "\u0120gene": 7545, "\u0120acknowled": 7546, "\u0120thinking": 7547, "\u0120hamp": 7548, "\u0120consult": 7549, "\u0120yugosl": 7550, "\u0120spores": 7551, "\u0120brick": 7552, "fe": 7553, "\u0120\u00ce": 7554, "\u0120guer": 7555, "\u0120affairs": 7556, "ashed": 7557, "\u0120miller": 7558, "\u0120eaton": 7559, "\u0120raaf": 7560, "cer": 7561, "\u0120poison": 7562, "\u0120bald": 7563, "\u0120rav": 7564, "\u0120carved": 7565, "\u0120lud": 7566, "rene": 7567, "\u0120metropol": 7568, "\u0120establishing": 7569, "\u0120niel": 7570, "owa": 7571, "\u0120hars": 7572, "\u0120sans": 7573, "\u0120mixture": 7574, "\u0120wright": 7575, "\u0120wilson": 7576, "\u0120biggest": 7577, "\u0120casting": 7578, "\u0120roth": 7579, "\u0120frig": 7580, "\u0120gwen": 7581, "\u0120swedish": 7582, "nh": 7583, "\u0120osc": 7584, "\u0120prefect": 7585, "aver": 7586, "\u0120hurricanes": 7587, "ryce": 7588, "heera": 7589, "\u0120kannada": 7590, "\u0120khand": 7591, "\u0120usta\u00c5\u00a1e": 7592, "\u0120anek\u00c4\u0123ntav\u00c4\u0123da": 7593, "\u0120sung": 7594, "\u0120armored": 7595, "\u0120price": 7596, "\u0120impress": 7597, "\u0120pictures": 7598, "\u0120tanks": 7599, "\u0120downtown": 7600, "\u01201860": 7601, "\u0120reinforcements": 7602, "inery": 7603, "\u0120documents": 7604, "\u0120wasn": 7605, "\u0120restored": 7606, "\u0120residence": 7607, "\u0120interesting": 7608, "\u01201933": 7609, "\u0120photograph": 7610, "\u0120delayed": 7611, "\u0120blues": 7612, "\u0120gill": 7613, "\u0120playoff": 7614, "\u0120phoenix": 7615, "\u0120compete": 7616, "state": 7617, "onto": 7618, "anti": 7619, "\u0120178": 7620, "\u0120raf": 7621, "\u0120ports": 7622, "\u0120occupation": 7623, "encing": 7624, "\u0120vast": 7625, "ugu": 7626, "\u0120pret": 7627, "\u0120mys": 7628, "\u0120zoo": 7629, "\u0120spend": 7630, "\u0120marry": 7631, "\u0120jr": 7632, "agement": 7633, "\u0120loose": 7634, "\u0120instance": 7635, "\u0120overl": 7636, "cribed": 7637, "ulted": 7638, "\u0120mail": 7639, "\u0120classification": 7640, "\u0120formerly": 7641, "rich": 7642, "\u0120bearing": 7643, "oren": 7644, "\u0120resigned": 7645, "\u0120offices": 7646, "\u0120veronica": 7647, "\u0120salv": 7648, "\u0120wives": 7649, "\u0120burial": 7650, "\u0120experiences": 7651, "\u0120premiered": 7652, "\u0120caves": 7653, "\u0120honour": 7654, "piece": 7655, "\u0120creative": 7656, "\u0120terrorist": 7657, "\u0120mental": 7658, "\u0120techniques": 7659, "ko": 7660, "\u0120simpson": 7661, "\u0120usd": 7662, "\u0120celt": 7663, "\u0120forty": 7664, "\u0120kam": 7665, "\u0120tiss": 7666, "\u0120gilbert": 7667, "\u0120corporation": 7668, "\u0120cars": 7669, "\u0120fifteen": 7670, "\u0120ky": 7671, "\u0120westward": 7672, "oli": 7673, "oot": 7674, "\u0120yanke": 7675, "\u0120herald": 7676, "\u0120stewart": 7677, "\u0120113": 7678, "\u0120trek": 7679, "\u0120boxing": 7680, "\u0120mack": 7681, "\u0120paraly": 7682, "ori": 7683, "\u0120shear": 7684, "\u0120pag": 7685, "cules": 7686, "\u0120wicca": 7687, "\u0120khandoba": 7688, "\u0120m\u00c3\u00a1r": 7689, "\u0120m\u00c3\u00a1rquez": 7690, "\u0120midge": 7691, "\u0120forg": 7692, "\u0120skills": 7693, "\u0120weapon": 7694, "\u0120attrib": 7695, "\u0120prove": 7696, "\u0120achieve": 7697, "\u0120designs": 7698, "\u0120illustrated": 7699, "\u0120valu": 7700, "\u01201957": 7701, "\u0120recognised": 7702, "\u0120continental": 7703, "real": 7704, "\u0120detro": 7705, "\u0120detroit": 7706, "\u0120toronto": 7707, "\u0120differences": 7708, "\u0120mall": 7709, "\u0120universe": 7710, "\u0120supplement": 7711, "\u0120minimum": 7712, "\u0120retirement": 7713, "ologies": 7714, "\u0120165": 7715, "\u0120cow": 7716, "\u0120complic": 7717, "\u0120stal": 7718, "\u0120sounds": 7719, "\u0120trained": 7720, "\u0120costs": 7721, "inge": 7722, "\u0120moderate": 7723, "\u0120hudson": 7724, "\u0120preparation": 7725, "\u0120suspend": 7726, "hy": 7727, "\u0120application": 7728, "\u0120format": 7729, "\u0120imprison": 7730, "isters": 7731, "\u0120consp": 7732, "\u0120rig": 7733, "\u0120weeke": 7734, "\u0120wasp": 7735, "\u0120scientists": 7736, "\u0120measured": 7737, "\u0120founder": 7738, "apse": 7739, "\u0120surge": 7740, "\u0120clearly": 7741, "\u0120123": 7742, "\u0120inhg": 7743, "\u0120audiences": 7744, "\u0120drain": 7745, "\u0120forcing": 7746, "\u0120mcl": 7747, "\u0120dak": 7748, "\u0120philip": 7749, "bey": 7750, "\u0120martial": 7751, "\u0120jurchen": 7752, "gov": 7753, "\u0120code": 7754, "yline": 7755, "\u0120resolution": 7756, "\u0120ride": 7757, "\u0120mulder": 7758, "\u0120mozambique": 7759, "\u0120frelim": 7760, "\u0120frelimo": 7761, "\u0120grown": 7762, "\u0120temporary": 7763, "\u0120revolutionary": 7764, "\u0120engage": 7765, "vere": 7766, "\u0120remarked": 7767, "\u0120victorian": 7768, "\u0120wonder": 7769, "\u0120gamb": 7770, "\u0120huge": 7771, "\u0120plus": 7772, "edy": 7773, "\u0120expert": 7774, "\u0120enh": 7775, "\u0120mes": 7776, "vant": 7777, "\u0120voyage": 7778, "\u0120badly": 7779, "\u0120ethnic": 7780, "\u0120barry": 7781, "\u0120ranging": 7782, "\u0120starred": 7783, "\u0120convinced": 7784, "\u0120chest": 7785, "imet": 7786, "\u0120depicts": 7787, "\u0120artwork": 7788, "\u0120cha": 7789, "\u0120coff": 7790, "\u0120integr": 7791, "\u0120bones": 7792, "\u0120presentation": 7793, "\u0120crops": 7794, "\u0120philosophy": 7795, "\u0120intr": 7796, "\u0120objective": 7797, "\u0120scheme": 7798, "\u0120ww": 7799, "\u0120usage": 7800, "\u0120fatal": 7801, "\u0120err": 7802, "\u01201850": 7803, "\u0120elections": 7804, "\u0120promised": 7805, "\u0120fasc": 7806, "\u0120defending": 7807, "atherine": 7808, "ili": 7809, "onia": 7810, "criptions": 7811, "\u0120excavations": 7812, "\u0120tactics": 7813, "\u0120kevin": 7814, "\u0120draf": 7815, "olen": 7816, "rees": 7817, "\u0120cleared": 7818, "\u0120symp": 7819, "\u0120jobs": 7820, "\u0120russia": 7821, "\u0120battlecru": 7822, "\u0120variation": 7823, "\u0120archaeologist": 7824, "gery": 7825, "\u0120giants": 7826, "\u0120characterized": 7827, "inus": 7828, "\u0120mechanical": 7829, "\u0120condem": 7830, "\u0120foss": 7831, "\u0120cyt": 7832, "bn": 7833, "\u0120cubs": 7834, "\u0120sas": 7835, "tles": 7836, "\u0120crake": 7837, "\u0120ns": 7838, "\u0120coleman": 7839, "\u0120mbar": 7840, "\u0120zomb": 7841, "xe": 7842, "\u0120warren": 7843, "\u0120tack": 7844, "\u0120kansas": 7845, "\u0120commons": 7846, "\u0120scully": 7847, "\u0120magdal": 7848, "\u0120wi\u00c5\u013dniowiecki": 7849, "\u0120designer": 7850, "ira": 7851, "\u0120explo": 7852, "emies": 7853, "\u0120decides": 7854, "\u0120predecessor": 7855, "\u0120graphics": 7856, "\u0120duty": 7857, "\u0120arriving": 7858, "\u0120\u00e5": 7859, "\u0120install": 7860, "\u0120determine": 7861, "rel": 7862, "\u0120interpre": 7863, "\u0120smooth": 7864, "\u0120regiments": 7865, "\u0120cavalry": 7866, "\u0120valuable": 7867, "\u0120impressed": 7868, "\u0120displayed": 7869, "\u0120partner": 7870, "\u01201926": 7871, "\u0120feeding": 7872, "\u0120possess": 7873, "\u0120fisher": 7874, "\u0120vote": 7875, "unction": 7876, "\u0120clin": 7877, "\u0120schedule": 7878, "\u0120inscription": 7879, "\u0120magnetic": 7880, "\u0120revival": 7881, "\u0120nebr": 7882, "\u0120cargo": 7883, "\u012002": 7884, "\u0120163": 7885, "\u0120neutral": 7886, "\u0120communication": 7887, "asm": 7888, "\u0120eleph": 7889, "\u0120ambassador": 7890, "\u0120ranking": 7891, "\u0120diagn": 7892, "\u0120texts": 7893, "rupted": 7894, "\u0120false": 7895, "\u0120describe": 7896, "\u0120restricted": 7897, "\u0120styles": 7898, "\u0120intellect": 7899, "\u0120benefit": 7900, "\u0120dave": 7901, "night": 7902, "\u0120factory": 7903, "\u0120claiming": 7904, "aints": 7905, "\u0120alleged": 7906, "\u0120strate": 7907, "\u0120strategy": 7908, "\u0120dwarf": 7909, "\u0120hub": 7910, "\u0120striking": 7911, "\u0120feathers": 7912, "\u0120publications": 7913, "\u0120drug": 7914, "\u00c3\u00b1": 7915, "\u0120opponent": 7916, "\u0120inhabitants": 7917, "\u0120frequent": 7918, "\u0120bom": 7919, "\u0120denn": 7920, "\u0120relation": 7921, "\u0120magnitude": 7922, "\u012003": 7923, "\u0120closest": 7924, "olid": 7925, "\u0120fran": 7926, "\u0120peach": 7927, "\u0120davis": 7928, "\u0120boundary": 7929, "\u0120isot": 7930, "\u0120render": 7931, "\u0120cinema": 7932, "ante": 7933, "\u0120kong": 7934, "\u0120fee": 7935, "\u0120lia": 7936, "\u0120chanc": 7937, "\u0120bind": 7938, "\u0120persian": 7939, "\u0120oscar": 7940, "\u0120corb": 7941, "hang": 7942, "ucky": 7943, "\u0120mrs": 7944, "\u0120residential": 7945, "\u0120protestant": 7946, "\u0120archer": 7947, "\u0120crab": 7948, "\u0120hamlet": 7949, "\u0120quarterback": 7950, "efa": 7951, "\u0120hokies": 7952, "\u0120aster": 7953, "akum": 7954, "\u0120valkyria": 7955, "\u0120perspective": 7956, "\u0120uniform": 7957, "gam": 7958, "\u0120adaptation": 7959, "\u0120deemed": 7960, "\u0120prompted": 7961, "\u0120kelly": 7962, "\u0120exclusively": 7963, "\u0120roots": 7964, "\u0120releases": 7965, "wa": 7966, "oral": 7967, "\u0120bands": 7968, "acles": 7969, "\u0120allen": 7970, "\u0120satell": 7971, "\u01201905": 7972, "\u0120erected": 7973, "\u0120machines": 7974, "\u0120newspapers": 7975, "\u0120highways": 7976, "ignment": 7977, "char": 7978, "\u0120waiting": 7979, "eu": 7980, "father": 7981, "\u0120dual": 7982, "bing": 7983, "\u0120definition": 7984, "\u0120kenn": 7985, "\u0120armament": 7986, "\u0120outbreak": 7987, "\u0120batteries": 7988, "\u0120argues": 7989, "\u0120dies": 7990, "\u0120centers": 7991, "\u0120ruling": 7992, "\u0120dominant": 7993, "\u0120jet": 7994, "iders": 7995, "\u0120jar": 7996, "\u0120cruise": 7997, "\u0120aside": 7998, "\u0120eg": 7999, "\u0120coin": 8000, "\u0120difference": 8001, "\u0120alleg": 8002, "\u0120revers": 8003, "\u0120charged": 8004, "\u0120revol": 8005, "\u0120tut": 8006, "\u0120arrive": 8007, "\u0120jonathan": 8008, "\u0120considering": 8009, "\u0120brill": 8010, "\u0120budd": 8011, "\u0120clust": 8012, "\u0120steep": 8013, "\u0120explains": 8014, "\u0120millenn": 8015, "\u0120swim": 8016, "\u0120announce": 8017, "\u0120tenth": 8018, "icit": 8019, "\u0120attained": 8020, "\u0120strengthened": 8021, "ellar": 8022, "\u0120degrees": 8023, "\u0120hans": 8024, "\u012001": 8025, "\u0120refuge": 8026, "\u0120bulk": 8027, "\u0120belg": 8028, "\u0120leslie": 8029, "\u0120mk": 8030, "\u0120soci": 8031, "\u0120updated": 8032, "\u0120anthem": 8033, "\u0120deput": 8034, "\u0120pc": 8035, "\u0120decay": 8036, "\u0120settlements": 8037, "\u0120pic": 8038, "neth": 8039, "\u0120isbn": 8040, "\u0120liberal": 8041, "\u0120commandment": 8042, "\u0120paralymp": 8043, "icia": 8044, "\u0120wagner": 8045, "\u0120mathews": 8046, "\u0120turks": 8047, "malley": 8048, "\u0120abby": 8049, "\u0120chagas": 8050, "\u0120chronicles": 8051, "\u0120handled": 8052, "itively": 8053, "graph": 8054, "lock": 8055, "\u0120brooks": 8056, "\u0120fifty": 8057, "\u0120exists": 8058, "anth": 8059, "\u0120commemor": 8060, "\u0120artistic": 8061, "\u0120scattered": 8062, "\u0120jackets": 8063, "\u0120disappeared": 8064, "\u0120shield": 8065, "\u0120seek": 8066, "\u0120furthermore": 8067, "rows": 8068, "arte": 8069, "\u0120nash": 8070, "\u0120curt": 8071, "\u0120injured": 8072, "burgh": 8073, "\u0120upset": 8074, "\u0120amaz": 8075, "\u0120coinc": 8076, "\u0120deliber": 8077, "\u0120investigation": 8078, "\u0120manufactur": 8079, "stic": 8080, "\u0120mathem": 8081, "\u0120assisted": 8082, "\u0120talent": 8083, "\u0120nebraska": 8084, "\u0120rend": 8085, "\u0120infer": 8086, "\u0120crews": 8087, "\u0120amid": 8088, "\u0120\u00e2\u0122\u013e": 8089, "\u0120deity": 8090, "\u0120nut": 8091, "\u0120guil": 8092, "\u0120celebrated": 8093, "\u0120export": 8094, "\u0120suicide": 8095, "\u0120landings": 8096, "ec": 8097, "\u0120distinctive": 8098, "\u0120amounts": 8099, "\u0120testing": 8100, "\u0120profile": 8101, "\u0120ah": 8102, "\u0120cel": 8103, "\u0120brain": 8104, "\u0120clark": 8105, "\u0120impression": 8106, "\u0120globe": 8107, "\u0120exposed": 8108, "\u0120premiere": 8109, "\u0120chrom": 8110, "\u0120inscriptions": 8111, "\u0120heroes": 8112, "borne": 8113, "\u0120tourist": 8114, "\u0120assess": 8115, "\u0120structural": 8116, "\u0120obv": 8117, "\u0120northward": 8118, "\u0120banned": 8119, "\u0120fib": 8120, "\u0120stu": 8121, "\u0120resumed": 8122, "\u0120defenders": 8123, "eries": 8124, "\u0120metre": 8125, "\u00c3\u00b6n": 8126, "olithic": 8127, "\u0120celtic": 8128, "\u0120attract": 8129, "\u0120jacob": 8130, "mouth": 8131, "\u0120northeastern": 8132, "wer": 8133, "\u0120carn": 8134, "\u0120iraq": 8135, "\u0120charm": 8136, "\u00c3\u00a3": 8137, "\u0120bertin": 8138, "\u0120nurse": 8139, "box": 8140, "\u0120herze": 8141, "\u0120herzegov": 8142, "\u0120comics": 8143, "\u0120cheval": 8144, "\u0120paran": 8145, "\u0120uefa": 8146, "\u0120magad": 8147, "\u0120magadheera": 8148, "\u0120dict": 8149, "\u0120kurt": 8150, "\u0120send": 8151, "icial": 8152, "aki": 8153, "\u0120ric": 8154, "\u0120stores": 8155, "\u0120delivery": 8156, "\u0120quant": 8157, "\u0120117": 8158, "\u0120basement": 8159, "\u01201925": 8160, "\u01201924": 8161, "\u0120pursue": 8162, "urally": 8163, "\u0120outl": 8164, "\u0120tournaments": 8165, "\u0120organisation": 8166, "\u0120trophy": 8167, "ucks": 8168, "\u0120tempor": 8169, "endar": 8170, "\u0120approval": 8171, "\u0120meteorological": 8172, "\u0120soph": 8173, "\u0120forth": 8174, "\u012092": 8175, "\u0120enters": 8176, "\u0120anch": 8177, "\u0120prevented": 8178, "\u0120demonstrated": 8179, "aren": 8180, "\u0120violent": 8181, "\u0120chan": 8182, "\u0120magazines": 8183, "\u0120loud": 8184, "\u0120sunk": 8185, "\u0120turrets": 8186, "ulating": 8187, "atically": 8188, "unch": 8189, "\u0120guilty": 8190, "\u0120rebell": 8191, "\u0120lies": 8192, "\u0120cous": 8193, "\u0120circuit": 8194, "\u0120referring": 8195, "\u0120assassination": 8196, "\u0120southeastern": 8197, "\u0120haz": 8198, "\u0120circle": 8199, "iri": 8200, "\u0120executed": 8201, "\u0120demands": 8202, "\u0120coordin": 8203, "\u0120emmy": 8204, "inton": 8205, "\u0120sure": 8206, "\u0120disband": 8207, "\u0120peaking": 8208, "\u0120cod": 8209, "\u0120uncertain": 8210, "\u0120houston": 8211, "\u0120nielsen": 8212, "\u0120mars": 8213, "\u0120alfred": 8214, "\u0120keys": 8215, "\u0120dd": 8216, "\u0120wander": 8217, "\u0120substitute": 8218, "\u0120sheff": 8219, "\u0120runners": 8220, "\u0120zinc": 8221, "\u0120hyg": 8222, "adier": 8223, "\u0120prompt": 8224, "\u0120chain": 8225, "olia": 8226, "\u0120yankees": 8227, "\u0120triang": 8228, "\u0120madrid": 8229, "oux": 8230, "\u0120murray": 8231, "reet": 8232, "\u0120harold": 8233, "\u0120herzegovina": 8234, "nc": 8235, "\u0120pryce": 8236, "\u0120djok": 8237, "\u0120djokovic": 8238, "\u0120asom": 8239, "\u0120asomtav": 8240, "\u0120asomtavruli": 8241, "went": 8242, "\u0120translation": 8243, "\u0120ideal": 8244, "oma": 8245, "\u0120aftern": 8246, "\u0120afternoon": 8247, "\u0120sket": 8248, "ivated": 8249, "\u0120carpent": 8250, "\u0120indicating": 8251, "\u0120altered": 8252, "\u0120por": 8253, "ieties": 8254, "\u0120conclusion": 8255, "\u0120dor": 8256, "\u0120canon": 8257, "sex": 8258, "\u0120subjects": 8259, "\u01201934": 8260, "\u0120bible": 8261, "\u0120sting": 8262, "\u0120diver": 8263, "\u0120string": 8264, "\u0120initiated": 8265, "\u0120cosm": 8266, "\u0120memor": 8267, "\u0120sixteen": 8268, "\u0120pounds": 8269, "\u0120gets": 8270, "\u0120stood": 8271, "inations": 8272, "ban": 8273, "\u0120hostile": 8274, "\u0120ninet": 8275, "\u0120adopt": 8276, "\u0120innoc": 8277, "\u0120feels": 8278, "\u0120surve": 8279, "\u0120advertis": 8280, "\u0120170": 8281, "\u0120employees": 8282, "\u0120noble": 8283, "\u0120gran": 8284, "\u0120abol": 8285, "\u0120tox": 8286, "\u0120succeed": 8287, "\u0120disagre": 8288, "\u0120fulf": 8289, "\u0120mol": 8290, "\u0120abb": 8291, "\u0120expression": 8292, "\u0120liked": 8293, "\u0120buy": 8294, "\u0120evolution": 8295, "\u0120jews": 8296, "\u0120dat": 8297, "\u0120madison": 8298, "\u0120territorial": 8299, "\u0120berlin": 8300, "\u0120conflic": 8301, "\u0120warrior": 8302, "\u0120scand": 8303, "\u0120anglo": 8304, "\u0120melody": 8305, "\u0120edges": 8306, "esis": 8307, "osex": 8308, "adi": 8309, "\u0120suspended": 8310, "\u0120brack": 8311, "\u0120acute": 8312, "\u0120ump": 8313, "\u0120tennesse": 8314, "\u0120tennessee": 8315, "gars": 8316, "\u0120congo": 8317, "\u0120genetic": 8318, "\u0120acre": 8319, "\u0120runway": 8320, "\u0120weir": 8321, "\u0120typh": 8322, "\u0120hawaii": 8323, "\u0120helium": 8324, "\u0120jen": 8325, "\u0120commandos": 8326, "\u0120valve": 8327, "oko": 8328, "\u0120carre": 8329, "\u0120eshm": 8330, "\u0120eshmun": 8331, "\u0120certainly": 8332, "\u0120components": 8333, "\u0120orchestra": 8334, "\u0120reveal": 8335, "\u0120putting": 8336, "estyle": 8337, "\u0120respective": 8338, "\u0120receives": 8339, "\u0120sentiment": 8340, "\u0120ordering": 8341, "\u0120\u00ef": 8342, "\u0120repair": 8343, "\u0120renov": 8344, "oster": 8345, "\u01201908": 8346, "\u0120birthday": 8347, "\u0120gosp": 8348, "oming": 8349, "\u0120requested": 8350, "\u0120culmin": 8351, "\u0120eliminated": 8352, "wick": 8353, "odore": 8354, "\u0120gift": 8355, "\u0120gap": 8356, "\u0120uss": 8357, "\u0120recip": 8358, "itarian": 8359, "\u0120ontar": 8360, "\u0120ontario": 8361, "osing": 8362, "iac": 8363, "\u0120lumber": 8364, "\u0120realized": 8365, "\u0120phen": 8366, "\u0120signs": 8367, "\u0120confront": 8368, "\u0120withdrawal": 8369, "\u0120keeping": 8370, "\u0120reader": 8371, "\u0120strict": 8372, "\u0120pip": 8373, "\u0120valid": 8374, "\u0120ion": 8375, "\u0120enzy": 8376, "\u0120colleagues": 8377, "\u01201000": 8378, "\u0120reducing": 8379, "\u01201870": 8380, "\u0120cash": 8381, "\u0120seeking": 8382, "\u0120yield": 8383, "\u0120presidential": 8384, "\u0120susp": 8385, "\u0120theatrical": 8386, "ieth": 8387, "\u0120scout": 8388, "\u0120abc": 8389, "\u0120paramount": 8390, "\u0120measurements": 8391, "\u0120harbour": 8392, "\u0120sult": 8393, "\u0120architectural": 8394, "leton": 8395, "\u0120toured": 8396, "eland": 8397, "\u0120ost": 8398, "\u0120114": 8399, "shore": 8400, "\u0120catal": 8401, "\u0120programming": 8402, "\u0120bib": 8403, "\u0120venues": 8404, "\u0120amph": 8405, "\u0120potentially": 8406, "\u0120evans": 8407, "\u0120tooth": 8408, "\u0120rebuilt": 8409, "\u0120romanian": 8410, "\u0120underne": 8411, "\u0120underneath": 8412, "\u0120peck": 8413, "isms": 8414, "\u0120kirk": 8415, "sis": 8416, "\u0120swiss": 8417, "\u0120liqu": 8418, "\u0120pretty": 8419, "\u0120walking": 8420, "\u0120dud": 8421, "\u0120sheffield": 8422, "enden": 8423, "agen": 8424, "\u0120biological": 8425, "\u0120federation": 8426, "\u0120conservative": 8427, "\u0120ri": 8428, "inth": 8429, "ulu": 8430, "\u0120wu": 8431, "\u0120michel": 8432, "\u0120stav": 8433, "nda": 8434, "\u0120oreg": 8435, "\u0120oregon": 8436, "\u0120xe": 8437, "\u0120boot": 8438, "\u0120omar": 8439, "\u0120chevaliers": 8440, "iney": 8441, "\u0120bidd": 8442, "\u0120sorra": 8443, "\u0120ndh": 8444, "\u0120mariana": 8445, "\u0120nam": 8446, "\u0120animation": 8447, "\u0120removal": 8448, "\u0120linc": 8449, "\u0120lincol": 8450, "\u0120125": 8451, "\u0120rounds": 8452, "\u0120veter": 8453, "\u01201923": 8454, "\u0120autumn": 8455, "\u0120sovere": 8456, "\u0120sovereign": 8457, "rose": 8458, "\u0120organised": 8459, "\u0120pel": 8460, "\u0120queensland": 8461, "\u0120operates": 8462, "pled": 8463, "\u0120coaching": 8464, "\u0120rook": 8465, "\u0120personally": 8466, "\u0120observation": 8467, "\u0120vertical": 8468, "\u0120pulas": 8469, "\u0120pulaski": 8470, "enses": 8471, "ships": 8472, "\u0120upr": 8473, "orship": 8474, "\u0120hast": 8475, "\u0120asian": 8476, "\u0120sympt": 8477, "\u0120fundamental": 8478, "\u0120determin": 8479, "\u0120elaborate": 8480, "\u0120wrapped": 8481, "\u0120peoples": 8482, "\u0120partnership": 8483, "\u0120laugh": 8484, "music": 8485, "\u0120wider": 8486, "\u0120strip": 8487, "\u0120collapsed": 8488, "\u0120favorable": 8489, "\u0120stere": 8490, "\u0120bases": 8491, "\u0120brut": 8492, "\u0120earning": 8493, "\u0120satellite": 8494, "\u0120benjam": 8495, "\u0120benjamin": 8496, "\u0120sentences": 8497, "\u0120liz": 8498, "\u0120parody": 8499, "\u0120sculptures": 8500, "\u0120riding": 8501, "\u0120vig": 8502, "\u0120shoulder": 8503, "minster": 8504, "eled": 8505, "\u0120stream": 8506, "\u0120tracy": 8507, "\u0120logic": 8508, "\u0120propaganda": 8509, "\u0120parliamentary": 8510, "\u0120semif": 8511, "\u0120comparison": 8512, "\u0120harrison": 8513, "\u0120barbar": 8514, "\u0120dams": 8515, "\u0120kills": 8516, "star": 8517, "\u0120surgery": 8518, "\u0120aggreg": 8519, "\u0120cress": 8520, "\u0120mg": 8521, "\u0120fishing": 8522, "\u0120visiting": 8523, "\u0120lamb": 8524, "rae": 8525, "\u0120dakota": 8526, "\u0120asks": 8527, "\u0120cougars": 8528, "\u0120presby": 8529, "\u0120presbyter": 8530, "rad": 8531, "\u0120chicks": 8532, "\u0120nettles": 8533, "\u0120leigh": 8534, "\u0120lakes": 8535, "\u0120christine": 8536, "\u0120ernest": 8537, "\u0120hawaiian": 8538, "\u0120rhyme": 8539, "\u0120spacecraft": 8540, "\u0120molecules": 8541, "\u0120wik": 8542, "\u0120kilome": 8543, "\u0120carmel": 8544, "\u0120rhys": 8545, "ardine": 8546, "\u0120asking": 8547, "\u0120translated": 8548, "\u0120completing": 8549, "\u0120nob": 8550, "ami": 8551, "\u0120dispat": 8552, "\u0120believing": 8553, "\u0120lincoln": 8554, "\u0120mines": 8555, "\u0120suitable": 8556, "\u0120pace": 8557, "\u0120advancing": 8558, "\u0120youngest": 8559, "wall": 8560, "kshire": 8561, "oly": 8562, "\u0120dust": 8563, "\u0120representation": 8564, "roph": 8565, "\u0120molecular": 8566, "\u0120shorter": 8567, "\u0120inhab": 8568, "\u0120rick": 8569, "\u0120jason": 8570, "\u0120campbell": 8571, "\u0120drove": 8572, "\u0120overlo": 8573, "\u0120toler": 8574, "\u0120ade": 8575, "\u0120pyr": 8576, "\u0120starring": 8577, "\u0120kw": 8578, "imetres": 8579, "\u0120signal": 8580, "atural": 8581, "\u0120boundaries": 8582, "\u0120guid": 8583, "\u0120questions": 8584, "\u0120contribution": 8585, "\u0120prix": 8586, "\u0120enthus": 8587, "\u0120profit": 8588, "\u0120negotiations": 8589, "\u0120stim": 8590, "\u01201830": 8591, "\u0120christopher": 8592, "\u0120conj": 8593, "\u0120remove": 8594, "\u0120recon": 8595, "\u0120goat": 8596, "etown": 8597, "anita": 8598, "\u0120compliment": 8599, "\u0120provinc": 8600, "\u0120weekend": 8601, "\u0120brilliant": 8602, "\u0120voices": 8603, "\u0120columns": 8604, "\u0120vand": 8605, "\u0120pse": 8606, "\u0120pseud": 8607, "\u0120synag": 8608, "\u0120collapse": 8609, "cour": 8610, "bound": 8611, "\u0120dispute": 8612, "\u0120doctrine": 8613, "ws": 8614, "\u0120sansk": 8615, "\u0120sanskrit": 8616, "\u0120atom": 8617, "\u0120lig": 8618, "low": 8619, "\u0120lanes": 8620, "\u0120chase": 8621, "\u0120platin": 8622, "\u0120platinum": 8623, "\u0120sony": 8624, "\u0120extrat": 8625, "\u0120extratropical": 8626, "\u0120sib": 8627, "\u0120borough": 8628, "\u0120parade": 8629, "\u0120acids": 8630, "\u0120trig": 8631, "\u0120korea": 8632, "osy": 8633, "\u0120phrase": 8634, "\u0120documented": 8635, "zhou": 8636, "\u0120wildlife": 8637, "chens": 8638, "\u0120singap": 8639, "\u0120singapore": 8640, "\u0120pagod": 8641, "\u0120gardner": 8642, "\u0120woodhouse": 8643, "\u0120766": 8644, "\u0120islamic": 8645, "\u0120bodyline": 8646, "\u0120sorraia": 8647, "\u0120sisler": 8648, "\u0120wish": 8649, "\u0120topped": 8650, "\u0120volumes": 8651, "\u0120walker": 8652, "\u0120ultimate": 8653, "\u0120traded": 8654, "\u0120prepare": 8655, "\u0120submitted": 8656, "\u0120friendly": 8657, "\u0120preserv": 8658, "olis": 8659, "\u0120bears": 8660, "\u0120bare": 8661, "ua": 8662, "\u0120tape": 8663, "\u0120temporarily": 8664, "\u0120joining": 8665, "\u0120xii": 8666, "\u0120reforms": 8667, "\u0120strategic": 8668, "ij": 8669, "\u0120couldn": 8670, "\u0120steps": 8671, "\u0120tub": 8672, "dney": 8673, "osh": 8674, "\u0120telugu": 8675, "\u0120bin": 8676, "\u0120cullen": 8677, "\u0120universities": 8678, "\u0120illness": 8679, "\u0120spending": 8680, "\u0120daughters": 8681, "\u0120battleships": 8682, "\u00e1\u00b9": 8683, "\u0120suddenly": 8684, "\u0120contrad": 8685, "\u0120naming": 8686, "\u0120produces": 8687, "\u0120hidden": 8688, "\u0120shrine": 8689, "\u0120grave": 8690, "fire": 8691, "\u0120racing": 8692, "odrom": 8693, "\u0120agriculture": 8694, "\u0120airlines": 8695, "\u0120profession": 8696, "\u0120reduction": 8697, "\u0120powered": 8698, "\u0120sect": 8699, "\u0120segment": 8700, "\u0120controller": 8701, "\u0120factor": 8702, "ensions": 8703, "opp": 8704, "gets": 8705, "isp": 8706, "rot": 8707, "rh": 8708, "\u0120discussion": 8709, "\u0120inclusion": 8710, "\u0120beauty": 8711, "\u0120facility": 8712, "\u0120rotation": 8713, "\u0120guerr": 8714, "\u0120encountered": 8715, "\u0120reflected": 8716, "\u0120maur": 8717, "\u00c3\u00a9e": 8718, "\u0120snake": 8719, "\u0120millennium": 8720, "\u0120exploration": 8721, "\u0120tet": 8722, "rep": 8723, "eld": 8724, "\u0120revised": 8725, "\u0120industries": 8726, "\u0120protes": 8727, "akers": 8728, "\u0120pp": 8729, "\u0120pages": 8730, "\u0120louisiana": 8731, "\u0120explain": 8732, "\u0120emphasis": 8733, "inated": 8734, "ci": 8735, "\u0120vib": 8736, "nels": 8737, "\u0120megal": 8738, "\u0120gentle": 8739, "\u0120bennett": 8740, "\u0120belgium": 8741, "nie": 8742, "\u0120veer": 8743, "\u0120notice": 8744, "\u0120cresswell": 8745, "dles": 8746, "\u0120sample": 8747, "\u0120radical": 8748, "\u0120honorary": 8749, "\u01201907": 8750, "\u0120objectives": 8751, "\u0120mainland": 8752, "\u0120nl": 8753, "\u0120corpus": 8754, "\u00cb\u012a": 8755, "\u0120verac": 8756, "\u0120veracru": 8757, "\u0120veracruz": 8758, "\u0120gravity": 8759, "\u0120usher": 8760, "\u0120retrie": 8761, "\u0120canning": 8762, "\u0120abbey": 8763, "\u0120amanita": 8764, "\u0120degrom": 8765, "\u0120briggs": 8766, "\u0120ingres": 8767, "\u0120neves": 8768, "\u0120jardine": 8769, "\u0120biddenden": 8770, "\u0120underwent": 8771, "oto": 8772, "\u0120abilities": 8773, "\u0120wishes": 8774, "\u0120enemies": 8775, "uki": 8776, "\u0120reass": 8777, "\u0120closure": 8778, "\u0120mason": 8779, "\u0120telling": 8780, "\u0120assembled": 8781, "\u0120excell": 8782, "\u0120gat": 8783, "ulk": 8784, "\u0120demolished": 8785, "\u0120juven": 8786, "\u0120clo": 8787, "\u0120cher": 8788, "\u01201922": 8789, "\u0120lesser": 8790, "\u0120unlik": 8791, "\u0120consequently": 8792, "\u0120stap": 8793, "\u0120struggled": 8794, "\u0120percentage": 8795, "\u0120facil": 8796, "\u0120upgraded": 8797, "\u0120encl": 8798, "\u0120hut": 8799, "\u0120stern": 8800, "\u0120pulled": 8801, "\u0120dispers": 8802, "\u0120sailed": 8803, "\u0120shares": 8804, "\u0120advoc": 8805, "\u0120ceremon": 8806, "\u0120tony": 8807, "\u0120evident": 8808, "ever": 8809, "\u0120\u00e2\u0122\u013f": 8810, "\u0120fitted": 8811, "\u0120beliefs": 8812, "\u0120advice": 8813, "\u0120likewise": 8814, "\u0120icon": 8815, "eration": 8816, "inction": 8817, "\u0120landsc": 8818, "\u0120demon": 8819, "\u0120approaches": 8820, "\u0120fis": 8821, "\u0120decisions": 8822, "\u0120accomplish": 8823, "\u0120lind": 8824, "\u0120chord": 8825, "\u0120commenting": 8826, "\u0120aerodrom": 8827, "\u0120patrol": 8828, "\u0120vii": 8829, "aceae": 8830, "\u0120genera": 8831, "erm": 8832, "\u0120senator": 8833, "yclic": 8834, "\u0120cabinet": 8835, "point": 8836, "\u0120memories": 8837, "\u0120choose": 8838, "yers": 8839, "\u0120administrative": 8840, "\u0120provincial": 8841, "\u0120eventual": 8842, "\u0120neighborhood": 8843, "\u0120pregnancy": 8844, "\u0120nominations": 8845, "\u0120clinton": 8846, "\u0120consolid": 8847, "\u0120westminster": 8848, "\u0120vs": 8849, "\u0120synagogue": 8850, "\u0120nave": 8851, "\u0120devast": 8852, "\u0120echo": 8853, "\u0120prisoners": 8854, "rawn": 8855, "\u0120conflicts": 8856, "\u0120105": 8857, "\u0120illegal": 8858, "\u0120junction": 8859, "\u0120meters": 8860, "\u0120bread": 8861, "\u0120sax": 8862, "\u0120aa": 8863, "\u0120switzer": 8864, "\u0120ballad": 8865, "\u0120charted": 8866, "\u0120laud": 8867, "osexual": 8868, "\u0120unnamed": 8869, "\u0120finale": 8870, "\u0120jury": 8871, "\u0120threw": 8872, "\u0120armies": 8873, "\u0120sings": 8874, "grad": 8875, "\u0120caesar": 8876, "\u0120apprec": 8877, "atum": 8878, "\u0120dad": 8879, "\u0120kiss": 8880, "\u0120flies": 8881, "\u0120sioux": 8882, "\u0120ders": 8883, "\u0120dershow": 8884, "\u0120dershowitz": 8885, "ishops": 8886, "aho": 8887, "\u0120conversation": 8888, "brace": 8889, "\u0120zanz": 8890, "\u0120zanzib": 8891, "\u0120punt": 8892, "\u0120panzer": 8893, "\u0120pattyc": 8894, "\u0120pattycake": 8895, "\u0120typhoon": 8896, "\u0120arvn": 8897, "\u0120nevesinje": 8898, "\u0120chrono": 8899, "\u0120fusion": 8900, "\u0120shift": 8901, "\u0120rede": 8902, "\u0120allies": 8903, "power": 8904, "\u0120overt": 8905, "\u01201861": 8906, "\u0120refere": 8907, "riages": 8908, "hum": 8909, "\u0120accompanying": 8910, "\u0120pill": 8911, "\u0120whit": 8912, "\u0120yor": 8913, "\u0120pref": 8914, "arded": 8915, "\u0120unlikely": 8916, "\u0120columbus": 8917, "\u0120tod": 8918, "\u0120permission": 8919, "\u0120sweden": 8920, "\u0120rocks": 8921, "\u0120connecting": 8922, "\u0120fing": 8923, "\u0120mast": 8924, "\u0120dahl": 8925, "\u0120pilots": 8926, "\u0120grandfather": 8927, "\u0120ment": 8928, "\u0120\u00e2\u0124\u00b9": 8929, "\u0120buff": 8930, "cles": 8931, "\u0120idol": 8932, "\u0120harmon": 8933, "\u0120eve": 8934, "\u0120beings": 8935, "\u0120aggressive": 8936, "\u0120immort": 8937, "\u0120accum": 8938, "\u0120clothes": 8939, "\u0120credit": 8940, "\u0120suit": 8941, "\u0120lion": 8942, "\u0120commands": 8943, "\u0120punishment": 8944, "\u0120argentine": 8945, "\u0120alliance": 8946, "\u0120recreation": 8947, "\u0120significance": 8948, "\u0120isle": 8949, "\u0120reviewed": 8950, "\u0120andre": 8951, "ternal": 8952, "\u0120rud": 8953, "acre": 8954, "\u0120charlot": 8955, "\u0120charlotte": 8956, "\u0120anticip": 8957, "\u0120proportion": 8958, "\u0120reactions": 8959, "\u0120oxy": 8960, "\u0120ongoing": 8961, "\u0120merely": 8962, "\u0120recall": 8963, "\u0120nu": 8964, "\u0120indones": 8965, "enger": 8966, "\u0120keith": 8967, "\u0120controls": 8968, "\u0120appointment": 8969, "\u0120mitchell": 8970, "\u0120strange": 8971, "\u0120chronicle": 8972, "\u0120bag": 8973, "\u0120leukemia": 8974, "\u0120epic": 8975, "\u0120feud": 8976, "\u0120subsid": 8977, "\u0120carries": 8978, "bow": 8979, "\u0120mainstream": 8980, "\u0120parent": 8981, "\u0120physic": 8982, "\u0120blu": 8983, "\u0120harbor": 8984, "\u0120metropolitan": 8985, "\u0120achievement": 8986, "\u0120ruth": 8987, "dale": 8988, "\u0120stellar": 8989, "\u0120cooperation": 8990, "\u0120hence": 8991, "\u0120intercept": 8992, "\u0120jaw": 8993, "\u0120pohl": 8994, "\u0120retal": 8995, "linger": 8996, "\u0120styl": 8997, "\u0120360": 8998, "\u0120gael": 8999, "\u0120drivers": 9000, "\u0120beats": 9001, "\u0120speaker": 9002, "\u0120switzerland": 9003, "\u0120execution": 9004, "anag": 9005, "ulous": 9006, "azer": 9007, "asha": 9008, "\u0120wanderers": 9009, "\u0120offering": 9010, "\u0120smoke": 9011, "\u0120preston": 9012, "imon": 9013, "\u0120ian": 9014, "aceous": 9015, "\u0120tigers": 9016, "\u0120danger": 9017, "\u0120temperatures": 9018, "\u0120127": 9019, "\u00c3\u00a9d": 9020, "\u0120idaho": 9021, "\u00c4\u0123d": 9022, "\u0120gay": 9023, "\u0120herd": 9024, "\u0120115": 9025, "\u0120developers": 9026, "\u0120shim": 9027, "\u0120k\u00c5\u012f": 9028, "\u0120hoover": 9029, "\u0120mccart": 9030, "\u0120wwf": 9031, "\u0120ibis": 9032, "\u0120animated": 9033, "ila": 9034, "\u0120soldier": 9035, "\u0120distrib": 9036, "\u0120ranks": 9037, "\u0120nag": 9038, "aks": 9039, "\u00c5\u00ab": 9040, "\u0120arkansas": 9041, "\u0120ok": 9042, "terior": 9043, "\u0120bronze": 9044, "\u0120machinery": 9045, "\u0120carpenter": 9046, "\u0120depicting": 9047, "\u0120themed": 9048, "\u0120taste": 9049, "\u0120gardens": 9050, "\u0120gospel": 9051, "\u0120preparing": 9052, "\u0120mask": 9053, "\u0120taxonomy": 9054, "\u0120precip": 9055, "\u0120measuring": 9056, "\u0120pairs": 9057, "\u0120helping": 9058, "\u0120joh": 9059, "rog": 9060, "mates": 9061, "\u0120conform": 9062, "\u012083": 9063, "\u0120printed": 9064, "\u0120concur": 9065, "\u0120traveling": 9066, "\u0120slip": 9067, "\u0120conversion": 9068, "\u0120backed": 9069, "\u0120pyram": 9070, "\u0120350": 9071, "\u0120elevation": 9072, "\u0120delaware": 9073, "\u0120trium": 9074, "\u0120duo": 9075, "\u0120outf": 9076, "aza": 9077, "\u0120bour": 9078, "\u0120hab": 9079, "imeter": 9080, "\u0120phenom": 9081, "\u0120promin": 9082, "\u0120draws": 9083, "\u0120exclud": 9084, "\u0120flesh": 9085, "\u0120shirt": 9086, "\u0120christians": 9087, "\u0120aerial": 9088, "\u0120parach": 9089, "\u0120airports": 9090, "\u0120reper": 9091, "\u0120spots": 9092, "\u0120stabil": 9093, "\u0120duration": 9094, "\u0120174": 9095, "\u0120lifetime": 9096, "\u0120patterns": 9097, "icity": 9098, "wal": 9099, "\u0120madero": 9100, "\u0120uprising": 9101, "\u0120onwards": 9102, "\u0120policies": 9103, "\u0120manip": 9104, "\u0120compre": 9105, "\u0120ferry": 9106, "obi": 9107, "ige": 9108, "\u0120sq": 9109, "\u0120sultan": 9110, "\u0120dri": 9111, "isle": 9112, "\u0120phone": 9113, "\u0120dense": 9114, "\u0120nazi": 9115, "itic": 9116, "\u0120investment": 9117, "\u0120offshore": 9118, "\u0120hunt": 9119, "\u0120exactly": 9120, "\u0120yout": 9121, "\u0120youtube": 9122, "\u0120tenure": 9123, "\u0120168": 9124, "\u0120teachers": 9125, "\u0120jag": 9126, "\u0120farming": 9127, "\u0120timber": 9128, "\u0120stuart": 9129, "rite": 9130, "oken": 9131, "\u0120internation": 9132, "\u0120retail": 9133, "\u0120restore": 9134, "awn": 9135, "\u0120sporting": 9136, "\u0120deputy": 9137, "\u0120travelled": 9138, "\u0120leonard": 9139, "\u0120rushing": 9140, "\u0120rus": 9141, "\u0120eval": 9142, "\u0120trapped": 9143, "\u0120tonin": 9144, "\u0120tonin\u00c3\u00a1": 9145, "\u0120cock": 9146, "\u0120resid": 9147, "\u0120census": 9148, "\u0120alberta": 9149, "\u0120compens": 9150, "\u0120inher": 9151, "\u0120armoured": 9152, "soft": 9153, "\u0120belgian": 9154, "\u0120knights": 9155, "\u0120trails": 9156, "\u0120earnest": 9157, "berry": 9158, "\u0120dover": 9159, "\u0120gaelic": 9160, "\u0120everton": 9161, "aley": 9162, "\u0120mccartney": 9163, "\u0120nadal": 9164, "\u0120isesi": 9165, "\u0120acyclic": 9166, "\u0120lessing": 9167, "\u0120ko": 9168, "\u0120maintaining": 9169, "ashi": 9170, "\u0120positively": 9171, "\u01201840": 9172, "\u0120wait": 9173, "\u0120nit": 9174, "\u0120functions": 9175, "\u0120cruc": 9176, "\u0120closing": 9177, "\u01201895": 9178, "\u0120cards": 9179, "\u0120donated": 9180, "\u0120kate": 9181, "\u0120trunk": 9182, "\u0120alphab": 9183, "\u0120interactions": 9184, "\u0120indicates": 9185, "\u0120decorated": 9186, "\u0120garn": 9187, "emble": 9188, "\u0120embarked": 9189, "leys": 9190, "\u0120resol": 9191, "\u0120penet": 9192, "\u0120backing": 9193, "\u0120sydney": 9194, "\u0120chop": 9195, "\u0120khan": 9196, "\u0120revenue": 9197, "\u0120sanct": 9198, "\u0120trio": 9199, "\u01201902": 9200, "\u0120aimed": 9201, "\u0120heavier": 9202, "\u0120handed": 9203, "order": 9204, "\u0120succession": 9205, "\u0120recurring": 9206, "\u0120spell": 9207, "\u0120manor": 9208, "60": 9209, "\u0120requires": 9210, "\u0120operational": 9211, "\u0120concentrated": 9212, "gro": 9213, "\u0120declar": 9214, "tle": 9215, "\u0120irreg": 9216, "\u0120irregular": 9217, "\u0120characteristic": 9218, "verse": 9219, "\u0120dubbed": 9220, "unc": 9221, "\u0120reop": 9222, "sky": 9223, "osph": 9224, "\u0120oxygen": 9225, "\u0120hydrogen": 9226, "\u0120unst": 9227, "\u0120pest": 9228, "\u0120raising": 9229, "\u0120failing": 9230, "\u0120commanders": 9231, "uration": 9232, "\u0120laure": 9233, "\u0120twentieth": 9234, "zo": 9235, "\u0120encounter": 9236, "\u0120terrain": 9237, "\u0120searching": 9238, "\u0120pak": 9239, "\u0120accurate": 9240, "andra": 9241, "\u0120matters": 9242, "\u0120candidates": 9243, "\u0120balls": 9244, "\u0120seattle": 9245, "\u0120utah": 9246, "\u0120survival": 9247, "\u0120manuscripts": 9248, "\u0120symph": 9249, "\u0120operas": 9250, "\u0120derff": 9251, "\u0120values": 9252, "\u0120farmers": 9253, "\u0120118": 9254, "\u0120wells": 9255, "\u0120watson": 9256, "\u0120madonna": 9257, "\u0120strongest": 9258, "\u0120imb": 9259, "owed": 9260, "\u0120pursuit": 9261, "\u0120lect": 9262, "\u0120disli": 9263, "\u0120allosaurus": 9264, "\u0120tissue": 9265, "\u0120pod": 9266, "\u0120pitching": 9267, "\u0120thirteen": 9268, "\u0120mold": 9269, "\u0120vegetation": 9270, "vard": 9271, "\u0120cancelled": 9272, "\u0120stavanger": 9273, "sters": 9274, "olence": 9275, "\u0120transmission": 9276, "athy": 9277, "\u0120bulgar": 9278, "\u0120kau": 9279, "\u0120neutr": 9280, "\u0120crusaders": 9281, "street": 9282, "\u0120joyful": 9283, "\u0120bowling": 9284, "\u0120adela": 9285, "\u0120adelaide": 9286, "\u0120shrub": 9287, "\u00ca\u00bbi": 9288, "\u0120alive": 9289, "\u0120shadow": 9290, "\u0120fu": 9291, "\u0120toky": 9292, "\u0120copy": 9293, "\u0120balance": 9294, "\u0120flowers": 9295, "\u0120guar": 9296, "\u0120stor": 9297, "\u0120borrow": 9298, "issioned": 9299, "emen": 9300, "\u0120solely": 9301, "\u0120salmon": 9302, "iph": 9303, "\u0120qualified": 9304, "\u0120morph": 9305, "\u0120wis": 9306, "\u0120sitting": 9307, "ilding": 9308, "\u0120xiii": 9309, "\u0120terr": 9310, "\u0120wyoming": 9311, "\u0120sank": 9312, "\u0120comfort": 9313, "oard": 9314, "\u012004": 9315, "\u0120fernandez": 9316, "\u0120fourteen": 9317, "vi": 9318, "\u0120tan": 9319, "war": 9320, "\u0120horror": 9321, "\u0120myself": 9322, "\u0120wore": 9323, "\u0120tours": 9324, "\u0120hungarian": 9325, "\u0120engagement": 9326, "\u0120surprise": 9327, "\u0120serbs": 9328, "\u0120remin": 9329, "\u0120consistent": 9330, "\u0120overs": 9331, "\u0120evolved": 9332, "\u0120dynamic": 9333, "\u0120descript": 9334, "\u0120gaining": 9335, "\u0120whate": 9336, "\u0120whatever": 9337, "\u0120fried": 9338, "raid": 9339, "\u0120gig": 9340, "\u0120mong": 9341, "\u0120toy": 9342, "\u0120seriously": 9343, "\u0120cousin": 9344, "\u0120airfield": 9345, "\u0120touring": 9346, "\u0120hunter": 9347, "\u0120increases": 9348, "\u0120lacking": 9349, "\u0120abroad": 9350, "\u0120civilians": 9351, "\u0120donald": 9352, "\u0120mint": 9353, "\u0120acceler": 9354, "\u0120stronger": 9355, "\u0120fewer": 9356, "\u0120occurring": 9357, "\u0120tort": 9358, "ighters": 9359, "\u0120broadway": 9360, "ographical": 9361, "\u0120movies": 9362, "\u0120monkey": 9363, "\u0120mothers": 9364, "\u0120unex": 9365, "\u0120detected": 9366, "\u0120goods": 9367, "\u0120numbered": 9368, "\u0120compilation": 9369, "\u0120morgan": 9370, "\u0120seats": 9371, "\u0120photographs": 9372, "\u0120solution": 9373, "\u0120fragment": 9374, "\u0120ashore": 9375, "bro": 9376, "\u0120beating": 9377, "\u0120waves": 9378, "\u0120ownership": 9379, "\u0120divorce": 9380, "\u0120wealthy": 9381, "\u0120withdrawn": 9382, "\u0120attitude": 9383, "\u0120poets": 9384, "\u0120unclear": 9385, "\u0120derfflinger": 9386, "\u0120coldrum": 9387, "\u0120archaeologists": 9388, "\u0120graves": 9389, "aman": 9390, "\u0120redes": 9391, "\u0120harry": 9392, "\u0120hugh": 9393, "blazer": 9394, "\u0120concession": 9395, "phone": 9396, "oyd": 9397, "\u0120acou": 9398, "\u0120singers": 9399, "\u0120successive": 9400, "\u0120craf": 9401, "\u0120il": 9402, "\u0120grammar": 9403, "ilda": 9404, "\u0120volunteers": 9405, "\u0120dinosaurs": 9406, "\u0120inning": 9407, "hua": 9408, "\u0120169": 9409, "\u0120reaches": 9410, "ova": 9411, "\u0120dudley": 9412, "\u0120halo": 9413, "\u0120constitu": 9414, "\u0120compositions": 9415, "\u0120hpa": 9416, "\u0120wickets": 9417, "\u0120files": 9418, "\u0120downstream": 9419, "\u0120jeremy": 9420, "\u0120monster": 9421, "\u0120krist": 9422, "\u0120membrane": 9423, "\u0120leeds": 9424, "\u0120dayd": 9425, "\u0120daydream": 9426, "alsa": 9427, "\u0120witchcraft": 9428, "\u0120hawai\u00ca\u00bbi": 9429, "\u0120christi": 9430, "\u0120vertex": 9431, "\u0120angelou": 9432, "schild": 9433, "\u0120hnc": 9434, "thodon": 9435, "\u0120linear": 9436, "\u0120shock": 9437, "\u0120identify": 9438, "\u0120permitted": 9439, "\u0120telegraph": 9440, "\u0120interpreted": 9441, "\u0120caps": 9442, "\u0120revived": 9443, "mith": 9444, "\u0120pounder": 9445, "\u0120forever": 9446, "\u0120106": 9447, "\u0120capturing": 9448, "\u0120dick": 9449, "\u0120stingray": 9450, "\u0120habitats": 9451, "unes": 9452, "\u0120arena": 9453, "\u0120starter": 9454, "\u0120physics": 9455, "\u0120continuous": 9456, "\u0120pm": 9457, "\u01201889": 9458, "ract": 9459, "\u0120stro": 9460, "\u0120endors": 9461, "elson": 9462, "\u0120pyramid": 9463, "\u0120reinforced": 9464, "\u0120virtually": 9465, "anya": 9466, "\u0120coverage": 9467, "\u0120lem": 9468, "\u0120participate": 9469, "\u0120esp": 9470, "ito": 9471, "\u0120symptoms": 9472, "\u0120wheel": 9473, "\u0120examination": 9474, "\u01201903": 9475, "\u0120cruisers": 9476, "\u0120simpl": 9477, "\u0120acted": 9478, "ficial": 9479, "\u0120depiction": 9480, "\u0120trend": 9481, "orph": 9482, "\u0120mystery": 9483, "\u0120allmusic": 9484, "\u0120rar": 9485, "cop": 9486, "\u0120hampshire": 9487, "\u0120mainten": 9488, "\u0120maintenance": 9489, "\u0120guides": 9490, "\u0120appropriate": 9491, "\u0120obtain": 9492, "\u0120targets": 9493, "\u0120microscop": 9494, "\u0120commer": 9495, "\u0120commerce": 9496, "anches": 9497, "\u0120gender": 9498, "\u0120loved": 9499, "ulates": 9500, "\u0120victim": 9501, "\u0120abuse": 9502, "\u0120aub": 9503, "urst": 9504, "\u0120beau": 9505, "\u0120tang": 9506, "\u0120guild": 9507, "\u0120humor": 9508, "\u0120pregnant": 9509, "\u0120opinions": 9510, "\u0120geography": 9511, "\u0120presents": 9512, "\u0120obvious": 9513, "uther": 9514, "\u0120protesters": 9515, "\u0120cutting": 9516, "aping": 9517, "\u0120marketing": 9518, "\u0120ss": 9519, "\u0120zo": 9520, "ricts": 9521, "\u0120stakes": 9522, "\u0120mini": 9523, "\u0120prost": 9524, "\u0120neil": 9525, "\u0120arrangements": 9526, "\u0120honours": 9527, "\u0120maya": 9528, "\u0120relegated": 9529, "eness": 9530, "\u0120electrical": 9531, "\u0120wellington": 9532, "\u0120extinct": 9533, "romet": 9534, "\u0120votes": 9535, "\u0120metro": 9536, "\u0120heir": 9537, "uras": 9538, "ormal": 9539, "\u0120butter": 9540, "\u0120hospitals": 9541, "\u0120167": 9542, "\u0120cott": 9543, "\u0120governments": 9544, "\u0120mathemat": 9545, "\u0120trains": 9546, "\u0120hook": 9547, "\u0120romania": 9548, "\u0120ia": 9549, "\u0120patriarch": 9550, "zzi": 9551, "uters": 9552, "\u0120dot": 9553, "\u0120arabs": 9554, "\u0120deer": 9555, "eltown": 9556, "\u0120bradstreet": 9557, "\u0120puzzle": 9558, "\u0120puzzles": 9559, "iscus": 9560, "\u0120bedell": 9561, "\u0120kody": 9562, "\u0120roller": 9563, "\u0120cyrus": 9564, "\u0120pirates": 9565, "\u0120pistol": 9566, "\u0120trond": 9567, "\u0120rothschild": 9568, "\u0120sora": 9569, "\u00c3\u00ac": 9570, "\u0120jurchens": 9571, "\u0120mantell": 9572, "\u0120tasked": 9573, "\u0120desper": 9574, "\u0120wre": 9575, "\u0120yam": 9576, "\u0120exclusive": 9577, "\u0120rivals": 9578, "\u0120housed": 9579, "\u0120perceived": 9580, "\u0120legislature": 9581, "\u0120authorized": 9582, "\u0120vicinity": 9583, "\u0120seized": 9584, "\u0120sending": 9585, "\u0120margaret": 9586, "\u0120clothing": 9587, "\u0120exhibition": 9588, "\u0120guine": 9589, "\u0120rays": 9590, "\u0120mature": 9591, "\u0120prospect": 9592, "\u0120tob": 9593, "\u0120questioned": 9594, "urance": 9595, "\u0120worn": 9596, "\u0120departed": 9597, "\u0120240": 9598, "\u0120heb": 9599, "\u0120pom": 9600, "\u0120highland": 9601, "\u0120displaced": 9602, "\u0120conce": 9603, "anka": 9604, "\u0120audition": 9605, "fast": 9606, "\u0120helps": 9607, "\u0120sized": 9608, "lyn": 9609, "\u0120unw": 9610, "\u0120resemble": 9611, "\u0120understood": 9612, "\u0120statements": 9613, "\u0120sick": 9614, "aic": 9615, "osity": 9616, "\u0120promotional": 9617, "\u0120registered": 9618, "\u0120restrictions": 9619, "\u0120collections": 9620, "\u0120vulcan": 9621, "\u01201849": 9622, "\u0120denomin": 9623, "\u0120renewed": 9624, "\u0120blocked": 9625, "\u0120mate": 9626, "\u0120bruce": 9627, "\u0120bombing": 9628, "\u0120autobi": 9629, "\u0120tennis": 9630, "\u0120aqu": 9631, "\u0120mccar": 9632, "\u0120manual": 9633, "\u0120kon": 9634, "\u0120dil": 9635, "\u0120varied": 9636, "\u0120announcement": 9637, "itter": 9638, "\u0120kle": 9639, "\u0120immigration": 9640, "\u0120holoca": 9641, "\u0120holocaust": 9642, "\u0120barrier": 9643, "\u0120easter": 9644, "\u0120opposing": 9645, "\u0120explicit": 9646, "\u0120defender": 9647, "\u0120lumin": 9648, "\u0120christianity": 9649, "\u0120pas": 9650, "\u0120pron": 9651, "\u0120indigen": 9652, "\u0120indigenous": 9653, "\u0120l\u00c3\u00bc": 9654, "\u0120interstate": 9655, "\u0120stall": 9656, "\u0120flooded": 9657, "ikk": 9658, "\u0120breaks": 9659, "\u0120insurg": 9660, "\u0120bills": 9661, "\u0120sciences": 9662, "\u0120consent": 9663, "\u0120crystal": 9664, "\u0120rains": 9665, "atha": 9666, "\u0120amyl": 9667, "\u0120ster": 9668, "\u0120experimental": 9669, "\u0120mlb": 9670, "\u0120tommy": 9671, "\u0120230": 9672, "\u0120drainage": 9673, "\u0120infection": 9674, "\u0120recept": 9675, "\u0120fortune": 9676, "\u0120palestinian": 9677, "arya": 9678, "olin": 9679, "\u0120theore": 9680, "\u0120hamper": 9681, "\u0120prest": 9682, "\u0120humph": 9683, "\u0120sheep": 9684, "\u0120zanzibar": 9685, "\u0120ohio": 9686, "\u0120savage": 9687, "\u0120swamp": 9688, "\u0120touchdowns": 9689, "\u0120holl": 9690, "\u0120manuel": 9691, "\u0120kickoff": 9692, "inae": 9693, "\u0120kilometers": 9694, "\u0120labyr": 9695, "\u0120labyrinth": 9696, "\u0120ioc": 9697, "\u0120puma": 9698, "\u0120tristan": 9699, "\u0120r\u00c3\u00a4": 9700, "\u0120rhodesian": 9701, "\u0120etty": 9702, "\u00c6\u00b0": 9703, "\u0120battlefield": 9704, "\u0120incur": 9705, "\u0120tokyo": 9706, "\u0120spo": 9707, "\u0120gaming": 9708, "\u0120decomm": 9709, "irts": 9710, "uations": 9711, "\u0120persons": 9712, "\u0120cler": 9713, "\u0120loyal": 9714, "\u0120preserve": 9715, "\u0120funeral": 9716, "tical": 9717, "jan": 9718, "born": 9719, "\u0120arn": 9720, "ski": 9721, "\u0120disappoint": 9722, "\u0120nca": 9723, "\u0120ncaa": 9724, "\u0120gregory": 9725, "\u0120clocks": 9726, "\u0120151": 9727, "\u0120extending": 9728, "\u0120spar": 9729, "\u0120chand": 9730, "ran": 9731, "alf": 9732, "\u0120philipp": 9733, "apur": 9734, "\u0120scorer": 9735, "\u0120quiet": 9736, "\u0120wol": 9737, "\u0120yd": 9738, "\u0120comprom": 9739, "\u0120femin": 9740, "\u0120reflecting": 9741, "\u0120coron": 9742, "\u0120anat": 9743, "\u0120absorbed": 9744, "arest": 9745, "\u0120component": 9746, "\u0120rebellion": 9747, "\u0120dependent": 9748, "\u0120slayer": 9749, "pse": 9750, "\u0120hardc": 9751, "\u0120kids": 9752, "\u0120replied": 9753, "\u0120vital": 9754, "\u0120faster": 9755, "\u0120requirements": 9756, "\u0120comprised": 9757, "\u0120administer": 9758, "\u0120users": 9759, "\u0120complement": 9760, "ilis": 9761, "\u0120\u00c2\u00b5": 9762, "\u0120orange": 9763, "\u0120fires": 9764, "\u0120minimal": 9765, "\u0120locally": 9766, "\u0120enlar": 9767, "zed": 9768, "\u0120phosph": 9769, "ensively": 9770, "\u0120ministers": 9771, "\u0120graphic": 9772, "itary": 9773, "\u0120plag": 9774, "\u0120flew": 9775, "\u0120rescued": 9776, "\u0120dennis": 9777, "\u0120sag": 9778, "\u0120funny": 9779, "\u0120mcn": 9780, "\u0120directing": 9781, "\u0120une": 9782, "\u0120tourism": 9783, "oping": 9784, "itely": 9785, "\u0120undertaken": 9786, "\u0120pushing": 9787, "\u0120confusion": 9788, "\u0120reun": 9789, "\u0120drinking": 9790, "\u0120zagre": 9791, "\u0120disturbance": 9792, "\u0120persist": 9793, "\u0120neighbour": 9794, "\u0120stick": 9795, "\u0120birming": 9796, "\u0120birmingham": 9797, "\u0120familiar": 9798, "\u0120intellectual": 9799, "\u0120edited": 9800, "\u0120districts": 9801, "\u0120edit": 9802, "mi": 9803, "bu": 9804, "\u0120hollow": 9805, "\u0120waste": 9806, "\u0120zero": 9807, "\u0120vegas": 9808, "\u0120trough": 9809, "\u0120reportedly": 9810, "\u0120dynam": 9811, "\u0120jav": 9812, "\u0120hong": 9813, "\u0120warn": 9814, "\u0120liquid": 9815, "\u0120isotopes": 9816, "\u0120tickets": 9817, "\u0120rubber": 9818, "\u0120dioc": 9819, "\u0120iowa": 9820, "\u0120ascend": 9821, "\u0120pam": 9822, "\u0120cliff": 9823, "\u0120indigo": 9824, "\u0120beeton": 9825, "\u0120mild": 9826, "\u0120nice": 9827, "\u0120nev": 9828, "\u0120subtropical": 9829, "\u0120volunteer": 9830, "\u0120essay": 9831, "\u0120fastest": 9832, "cs": 9833, "\u0120108": 9834, "\u0120creutz": 9835, "guard": 9836, "\u0120barbarian": 9837, "\u0120bosn": 9838, "rah": 9839, "\u0120breth": 9840, "\u0120brethren": 9841, "wegian": 9842, "\u0120hellblazer": 9843, "\u0120kyle": 9844, "\u0120haitian": 9845, "\u0120distances": 9846, "\u0120duet": 9847, "\u0120miners": 9848, "\u0120asteroid": 9849, "\u00c4\u00ab": 9850, "\u0120palmyrene": 9851, "\u0120banksia": 9852, "\u0120trondheim": 9853, "\u0120hannah": 9854, "\u0120skinner": 9855, "brush": 9856, "\u0120r\u00c3\u00a4ikk": 9857, "\u0120r\u00c3\u00a4ikk\u00c3\u00b6n": 9858, "\u0120r\u00c3\u00a4ikk\u00c3\u00b6nen": 9859, "\u0120staley": 9860, "\u0120loverboy": 9861, "\u0120ecclestone": 9862, "ario": 9863, "\u0120essentially": 9864, "\u0120praising": 9865, "quate": 9866, "\u0120exhausted": 9867, "\u0120manufacturing": 9868, "zes": 9869, "\u0120barracks": 9870, "\u0120relatives": 9871, "onsored": 9872, "\u0120baptist": 9873, "\u0120angle": 9874, "\u0120speculation": 9875, "\u0120consistently": 9876, "\u0120discont": 9877, "\u0120ensemble": 9878, "\u0120beam": 9879, "\u0120lights": 9880, "nall": 9881, "\u0120aboard": 9882, "\u0120glam": 9883, "uating": 9884, "\u0120lon": 9885, "\u0120singh": 9886, "\u0120behalf": 9887, "asa": 9888, "\u0120scholarship": 9889, "\u0120clevel": 9890, "\u0120cleveland": 9891, "\u0120kennedy": 9892, "esty": 9893, "\u0120tubes": 9894, "\u0120polyt": 9895, "\u0120ety": 9896, "\u0120etym": 9897, "\u0120obsc": 9898, "\u0120cobra": 9899, "\u0120concepts": 9900, "\u0120priests": 9901, "\u0120resur": 9902, "\u0120genu": 9903, "\u0120ariz": 9904, "\u0120arizona": 9905, "\u0120hitting": 9906, "\u0120hearing": 9907, "\u0120meg": 9908, "\u0120businesses": 9909, "\u0120parachute": 9910, "\u0120provision": 9911, "nyi": 9912, "\u0120serb": 9913, "\u0120pf": 9914, "\u0120lod": 9915, "\u0120minority": 9916, "\u0120bun": 9917, "\u0120device": 9918, "\u0120alde": 9919, "\u0120reag": 9920, "\u0120extensively": 9921, "\u0120variations": 9922, "\u0120escaped": 9923, "\u0120navar": 9924, "\u0120dancing": 9925, "\u0120chapters": 9926, "\u0120enorm": 9927, "\u0120conjunction": 9928, "\u0120conquest": 9929, "\u0120lambe": 9930, "lane": 9931, "\u0120raw": 9932, "\u0120squadrons": 9933, "\u0120complimented": 9934, "\u0120assum": 9935, "\u0120mond": 9936, "\u0120rice": 9937, "\u0120curved": 9938, "jection": 9939, "\u0120software": 9940, "\u0120pled": 9941, "\u0120zagreb": 9942, "\u0120convict": 9943, "\u0120beaten": 9944, "\u0120hughes": 9945, "\u0120111": 9946, "\u0120brun": 9947, "\u0120pok": 9948, "\u0120tombs": 9949, "\u0120atop": 9950, "\u0120beds": 9951, "\u0120bypass": 9952, "\u0120marking": 9953, "\u0120usual": 9954, "\u0120liner": 9955, "\u0120tributaries": 9956, "\u0120mock": 9957, "\u0120marie": 9958, "inaw": 9959, "\u0120reagan": 9960, "\u0120assert": 9961, "\u0120preparations": 9962, "\u0120vik": 9963, "\u0120radar": 9964, "\u0120lucas": 9965, "\u0120nep": 9966, "\u0120herb": 9967, "\u01201906": 9968, "\u01201901": 9969, "\u01201897": 9970, "\u0120fed": 9971, "\u0120grain": 9972, "\u0120tawn": 9973, "\u0120nasa": 9974, "\u0120arguing": 9975, "\u0120matthew": 9976, "\u0120confession": 9977, "pani": 9978, "\u0120hobbs": 9979, "\u0120panther": 9980, "\u0120220": 9981, "inness": 9982, "\u0120norwegian": 9983, "\u01201819": 9984, "\u0120ds": 9985, "\u0120orib": 9986, "\u0120derby": 9987, "fly": 9988, "\u0120batsmen": 9989, "\u0120corbet": 9990, "\u0120ful": 9991, "\u0120261": 9992, "\u0120quiney": 9993, "\u0120freakum": 9994, "\u00c3\u00acnh": 9995, "\u0120crickets": 9996, "\u0120sy\u00c4\u0123d": 9997, "\u0120cambodian": 9998, "\u0120\u00e6": 9999, "\u0120militia": 10000, "\u0120apply": 10001, "\u0120allocated": 10002, "\u0120repairs": 10003, "\u0120scrat": 10004, "\u0120tools": 10005, "\u0120commenced": 10006, "boat": 10007, "\u0120posts": 10008, "\u0120courses": 10009, "\u0120doyle": 10010, "\u0120sponsored": 10011, "\u0120pray": 10012, "\u0120affil": 10013, "\u0120exceed": 10014, "\u0120tai": 10015, "\u0120approaching": 10016, "\u0120dedication": 10017, "\u0120bold": 10018, "\u0120unrest": 10019, "\u0120load": 10020, "\u0120wake": 10021, "\u0120vin": 10022, "\u0120travels": 10023, "\u0120afford": 10024, "\u0120rectang": 10025, "\u0120triumph": 10026, "\u0120thrill": 10027, "\u0120challenging": 10028, "\u0120commissioner": 10029, "\u0120carriage": 10030, "\u0120steadily": 10031, "\u0120veloc": 10032, "\u0120centimetres": 10033, "\u0120egyptians": 10034, "parts": 10035, "\u0120traditions": 10036, "\u0120connections": 10037, "\u0120manif": 10038, "\u0120conception": 10039, "\u0120intermedi": 10040, "\u0120venue": 10041, "ested": 10042, "\u0120tempo": 10043, "\u0120johnny": 10044, "\u0120licens": 10045, "\u0120argument": 10046, "\u0120europa": 10047, "\u0120competitive": 10048, "\u0120mixing": 10049, "\u0120borders": 10050, "\u0120dal": 10051, "\u0120spore": 10052, "\u0120pioneer": 10053, "\u0120concerning": 10054, "\u01201878": 10055, "ometric": 10056, "\u0120jos\u00c3\u00a9": 10057, "\u0120storylines": 10058, "\u0120urania": 10059, "\u0120absolute": 10060, "\u0120sexuality": 10061, "\u0120deals": 10062, "\u0120sant": 10063, "\u0120portions": 10064, "\u0120tested": 10065, "\u0120gut": 10066,
[...]
